#version: 0.2
a n
Ġ b
r i
Ġ k
m u
y a
â Ģ
Ġ n
Ġ i
r a
âĢ Ļ
g a
w a
Ġ a
Ġ mu
b a
Ġ u
Ġk u
r e
s h
m a
y e
g i
k o
k a
i n
g u
z a
w e
Ġb a
y o
r u
Ġ ya
g e
an d
t e
z i
b i
y i
h a
b u
t a
Ġb i
z e
b o
g o
k i
t u
r o
h o
and a
Ġ R
s e
Ġ c
m i
Ġ gu
s i
Ġk o
m e
Ġ y
w i
k u
h u
t i
b an
w anda
v u
Ġ wa
Ġn a
w o
b e
Ġ r
y u
n d
h e
m o
an ga
Ġ M
an a
ĠR wanda
l i
Ġ ha
Ġ m
Ġ K
s a
Ġb u
j e
Ġmu ri
r wa
Ġi n
sh a
Ġ 2
Ġ gi
Ġ A
y an
Ġa ri
k e
f a
Ġu mu
Ġ B
Ġu bu
sh i
z o
Ġ 1
Ġi bi
r an
Ġ I
m we
t se
Ġa ma
Ġ w
Ġa ba
hu gu
Ġ2 0
and i
Ġn i
Ġ N
be re
m ba
d e
k in
n a
Ġc ya
t an
Ġ ru
Ġk i
Ġ zi
Ġb ya
f u
f i
Ġ C
Ġ U
d a
gi ra
s o
t o
z we
Ġ âĢ
b wo
g an
a ma
h i
Ġku ri
n ge
" "
u bu
a ba
d i
Ġ G
Ġi m
Ġ za
sh in
e n
Ġ S
Ġi gi
ra ga
Ġ mi
ri ka
sh o
Ġ yo
Ġb y
h an
k an
t wa
Ġ P
Ġn o
vu ga
M u
gi ye
n e
Ġ F
Ġ ma
ko re
ĠâĢ ľ
Ġn go
ko me
ĠK a
fi te
ri mo
Ġc yan
n gu
n ga
s u
ĠM u
d u
g wa
ri ki
nd a
z u
sh yi
Ġk wi
c i
c u
Ġi b
ku ru
r yo
b wa
yu ma
n i
c yo
v i
Ġa ban
Ġ20 1
i bi
Ġb w
s an
Ġ z
t anga
u mu
nd o
ĠB u
h anga
Ġc y
Ġgi he
Ġi mi
Ġb wa
U mu
ko rwa
Ġku ba
in i
ya ka
Ġk a
te ge
j ya
l e
Ġn ta
Ġi ki
m bi
t s
ĠM a
Ġari ko
z wa
yo bo
A ba
m wa
Ġ (
in di
Ġ L
n go
Ġa ho
Ġ yi
Ġ tu
vu ze
ĠK i
p a
Ġ ri
Ġ ga
j we
Ġk andi
sho bo
ci ro
ga raga
Ġr wa
g anda
p o
t si
re re
Ġm bere
i m
p i
c e
Ġr y
ĠC o
Ġn yuma
b wi
nd i
Ġ -
v a
Ġmi li
Ġn k
Ġku ko
ban ya
r w
Ġa ka
ge ndo
r wanda
ge ra
Ġcyan e
Ġb yo
Ġ T
Ġya ri
Ġ1 9
ko ra
Ġr ya
0 0
K u
n ya
Ġn de
yan go
an ya
Ġ J
i b
m bo
p e
l a
Ġ H
Ġu ru
Ġha ri
gi hugu
U bu
e re
r yango
Ġnde tse
ma ze
be ra
kan ye
Ġ we
ri ye
kin o
Ġaban tu
ra ge
re zo
Ġba ri
n ye
ĠR u
Ġku gira
sha ka
fu rika
Ġbu ryo
h in
u ko
r anga
v e
ru gendo
m ana
Ġ wo
ke ra
i ra
and u
ini si
Ġu ko
sh u
b ye
Y a
n yi
Ġu bwo
in a
ĠU ganda
d o
Ġi cyo
bi ri
k wi
sh ya
ki ra
Ġm wa
Ġ20 2
za mu
zi da
ba ye
"" ""
yobo zi
kera rugendo
Ġ """"
Ġu yu
Ġr w
shobo ra
i mi
Ġya vuze
ere zida
n ze
Ġ D
ru ka
ti ri
Ġgi hugu
Ġb wo
bo na
Ġk wa
kome ye
Ġha ga
ĠA furika
g ana
r we
t andu
ge za
Ġmwa ka
r ana
Ġ E
Ġb o
fa sha
Ġi c
Ġba ka
fa ranga
i c
ya ri
yo ni
te ra
te ke
n tu
ri za
gu ra
Ġcyan gwa
ĠâĢ ĺ
tege ko
ha ga
A ti
ta bo
N i
gi ze
te ka
ta riki
ĠI n
shyi ra
Ġ202 0
b andi
c a
Ġ 3
Ġ zo
nge ra
Ġmili yoni
tandu kanye
p u
Ġ ye
tu rage
inisi tiri
I n
re za
ĠG a
Ġhaga ti
Ġ tariki
ga bo
Ġa ga
sh e
k ana
m bu
ru s
ĠP erezida
A ma
e za
Ġa ti
Ġib yo
ĠL e
f o
Ġb yi
in shi
ro na
ĠF rw
vi rus
rona virus
Ġ Y
en shi
b we
Ã ©
ba zo
gan i
ra si
ge ze
garaga za
n o
n zi
t we
Ġ ho
Ġb an
ku riki
ĠN ya
Ġim bere
Ġ201 9
l o
z an
ta ra
ban yi
Ġr wo
san zwe
Ġ 5
mwa mi
m be
Ġi za
Ġgu sa
kin nyi
shin zwe
m w
Ġ W
ri ra
Ġi yi
za ma
ta tu
me rika
ĠCo ronavirus
e l
j i
ĠP a
i gihugu
m bere
Ġin ga
Ġ t
vu ye
Ġwa ri
su bi
Ġi yo
shin ga
I ki
s in
Ġb enshi
Ġn ka
ba ga
ban u
m ye
Ġn eza
Ġku bera
ku ngu
shi ze
ĠG i
c o
ya ma
ko mo
ka ba
Ġigi hugu
banya rwanda
j yan
ĠU mu
n si
u bwo
ga li
ru ro
Ġbu ri
kome je
cu ru
Ġ 4
gu ru
te l
go re
sa ruro
ĠA ba
Ġibi korwa
I bi
Ġi ri
Ġku geza
ĠA merika
zu ba
o n
Ġa za
ib indi
b yo
Ġ du
Ġn ti
ga me
go mba
Ġc yo
H a
s anga
re ye
ma ri
bu ga
ran ye
Mu ri
ĠKi gali
ve ri
z ina
Ġba ga
Ġama faranga
tan giye
Ġmili yari
jyan ye
j u
k wa
me nye
nd e
ĠB a
b yi
Ġa ha
Ġa vuga
te ro
zi ma
no ma
veri noma
ru tse
Ġ1 0
Ġim yaka
ĠKa game
pi te
ĠLe ta
a ban
e r
m an
Ġ wi
te gan
zi ra
fa tan
Ġ se
Ġu mw
Ġku re
te li
ki ri
ti ma
sa ga
tan gira
Ġigi he
j ye
Ġba ra
te we
ĠR e
i ki
sh wa
ge ro
Ġin ama
Ġubu ryo
pu zama
b ya
i gi
t in
Ġ 7
Ġa ta
Ġu mwe
bu ra
se ze
po r
puzama hanga
u verinoma
Ġ 8
Ġ han
Ġk w
ga mi
Ġu ku
bo ne
yu ra
fa shi
Ġ20 0
pa ka
o u
Ġ twa
an i
yi je
ĠM i
Ġumu saruro
su ra
ts in
n gi
Ġ $
Ġ V
sh an
Ġba fite
te r
ha we
ta ka
Ġbi korwa
kore sha
kome za
por ts
Ġ Z
ye me
ko rana
Ġbi he
hu nda
Ġr we
yu ba
ana ma
ran o
de pite
Ġ 6
Ġku za
Ġc yi
he rere
Ġha rimo
mba ra
kin a
ts we
I gihugu
a bandi
j a
o si
Ġba ba
ge re
te ko
hu ra
zwe ho
tanga je
Ġaka ba
Ġ hi
Ġk we
Ġku bi
Ġbi hugu
si ga
ke ne
ĠS ports
e ru
r ya
w u
y in
Ġ O
ya rwanda
Ġu wo
Ġku va
in tu
ha bwa
Ġumu ntu
Ġaba turage
ga mba
Ġmu nsi
ba re
sh yaka
ko ze
in si
ge nda
ta re
li ya
Ġyo se
garaga ra
ĠCo ngo
teke rezo
i l
u ru
Ġb e
ha ri
Ġbi za
ku ra
sa ba
tera mbere
rasi ra
seze rano
j yi
k anga
p fu
tu mwa
Ġgu kora
ĠA ma
Ġ1 5
Ġby inshi
kore ra
Ġka biri
Ġga hunda
aban tu
rasira zuba
c ya
v en
Ġ re
Ġn ko
Ġba vuga
te gu
te go
te kan
ha r
ha re
Ġgu tanga
shi je
so banu
ĠG uverinoma
han go
tege tsi
mwa ka
Ġ19 9
hin du
tekan o
B a
Ġi ka
yo nge
tu ma
ĠK anama
fu ngu
so ko
gan o
en osi
eru rwe
enosi de
ri zwa
ga ri
Ġa hu
Ġa han
ge n
ho ze
Ġgu te
yu ngu
fa ran
ĠI si
tan u
tan gi
ĠU bu
Ġnta bwo
ĠJ enoside
ĠH a
ĠH o
Ġrwe go
faran sa
U ru
Ġ e
ĠR D
ĠM inisitiri
Ġm yaka
Ġm puzamahanga
fa ta
Ġ1 8
ran e
Ġki mwe
fu za
to ra
pa m
Ġbyo se
Ġuru hare
Ġ"""" .
B i
I mi
Ġi fite
ga ban
Ġba ta
yi jwe
bu hanga
Ġubu kungu
na l
ĠKa rere
Ġimi kino
po ro
komo ka
A banyarwanda
P R
c h
e s
g wi
m va
ri vi
Ġa fite
sh yura
ka zi
in ji
gu zan
me re
cu mbi
ĠBu faransa
zamu tse
ĠY u
ĠNya kanga
Ha ri
guzan yo
n gan
s ta
ri ro
ki pe
me na
ban o
vu gwa
Ġ1 00
mwe ru
shyi ze
Ġ201 8
bwi riza
% .
M inisitiri
l y
m bwe
p an
r wo
Ġku ru
re nga
Ġya bo
Ġbi ri
Ġbi rimo
yu mba
he ra
li ti
Ġm w
Ġ1 2
so ho
ibi hugu
Umu yobozi
im yaka
haga ra
ĠW erurwe
shan wa
pam vu
rivi si
) ,
ga mbi
Ġa bandi
ko mbe
ha m
ho ro
Ġha fi
sa de
rwa ga
shi mi
Ġaba kinnyi
mba sade
ĠC yi
Ġib ya
bwi ye
kwi ra
% ,
Ġ he
Ġi kin
Ġu ta
za ga
Ġbi tandukanye
ki ye
ĠR a
Ġgu shyira
ku nga
ku nda
Ġna ho
sa bye
Ġibi hugu
ran ya
Ġki gero
hi ta
shin giye
ĠS a
kwi ye
rwe go
gani ro
Ġahu bwo
ĠYu hi
G u
I yi
N yuma
m wi
o r
t so
z indi
Ġ me
Ġi ndi
yo ngera
ru shanwa
Ġbi ba
Ġbi tewe
ki liya
shin gi
ĠKa mena
ĠMa ta
shu ri
curu zi
korana buhanga
ĠHo tel
liti ki
I gi
i cyo
m vi
t yo
y inshi
z wi
Ġi zina
Ġku vu
Ġku bona
re nge
in ga
Ġba za
Ġba mwe
Ġba rimo
and t
ĠR wa
Ġc ye
Ġ2 5
ĠS e
sho ra
ĠF a
Ġse rivisi
G I
u ba
Ġb wi
Ġn ubwo
Ġi ba
sh we
gi nya
ko bwa
ko ndo
yo n
ge ga
tu mye
ku nze
ĠK andt
fa she
Ġibi ri
Ġibi ciro
Ġigi tabo
Ġga tatu
ĠJ e
Ġkwa kira
Ġho teli
yonge reye
m paka
Ġ [
Ġ le
ri tse
ri mbo
Ġku jya
re ke
te ri
se ven
hu mbi
ti on
ban a
yu mweru
Ġgi tabo
ĠB i
ĠI mana
twa ra
ĠF C
Ġma teka
Ġaga ciro
banyi ginya
Iki go
gami je
seven i
u l
Ġ 9
Ġi mwe
ra yi
âĢĻ ,
ga ru
za ba
ru nga
zi mpaka
Ġgu ha
si rika
Ġha mwe
sha tsi
ran yije
kin i
bwi ra
shu ro
Ġic ya
Ġhan ze
herere ye
sirika re
H E
j ira
m bwa
n shi
p fo
s ubu
Ġ si
Ġba bi
go ma
tu ye
li ma
li ka
Ġibi bazo
Ġama sezerano
Ġbya ri
ĠL i
po litiki
shaka shatsi
Ġbo se
fatan ye
gaban e
Ġmw anya
ĠCyi lima
GI HE
Ġle ta
I D
I cyo
U yu
i r
t anda
y we
an e
Ġi soko
ra m
Ġa bi
Ġu wa
Ġku gera
Ġba giye
Ġya ra
Ġya baye
ge nzi
and e
Ġbi jyanye
Ġgu fasha
ku rwa
hu nga
Ġin guzanyo
Ġ1 6
Ġni ba
so zi
ama hanga
aba turage
han zi
ĠMa zimpaka
la ri
N ta
O V
a r
Ġku mu
gi re
yo vu
Ġya giye
bi ra
ta mbara
tu ra
Ġgu sura
me nya
Ġna ma
he reza
andi ka
fu n
ubu kerarugendo
kan i
ĠMu seveni
Ġib intu
Ġaban a
Ġ201 7
yobo ra
shobo zi
ib yo
do lari
Ġicyo rezo
tegan yijwe
ĠAma tegeko
OV ID
A banyiginya
I m
U mwami
a ho
d anga
i t
s s
Ġ /
Ġya hawe
yi ra
bu gi
Ġbi ga
Ġbi ta
ĠR o
he ruka
he rutse
mo ka
ĠA banyarwanda
Ġ1 3
gan ira
ĠMu tara
pi ra
Ya vuze
kuriki ra
ĠPa ul
ĠUbu mwe
ĠJe an
tanda tu
h andi
Ġ fi
Ġ pa
ri we
Ġi maze
ko lo
in jira
ge na
ku bi
hu za
yu ze
he re
Ġbu zima
fa ti
Ġumu tima
ĠI shinga
ĠI GIHE
Ġama teka
Ġru san
ĠC OVID
kore rwa
le s
Ġga kondo
inisi teri
zamu ka
fo to
Ġinga ruka
tsin da
ĠRD C
A ban
i re
w ana
Ġ te
an o
Ġb in
ri nda
mu ngu
Ġu za
in gi
Ġya kore
Ġya gize
ha ye
ha riye
ta ba
bo nye
go ro
ho ra
ho teli
me ra
Ġm yi
ke mu
bere ho
Ġru mwe
nge reza
Ġaban yarwanda
Ġic yi
ic anda
Ġinga gi
Ġt wi
shora mari
bugi li
I si
N k
f e
j o
k we
n g
p ubu
s we
u ra
u nze
y wa
Ġ de
âĢ ľ
Ġn yinshi
Ġi ya
Ġi vuga
Ġi shize
ga banya
Ġa ya
ko zi
Ġya tangaje
bu mbe
Ġbi mwe
me za
wi za
Ġha ba
sa bwa
Ġin kunga
Ġni bwo
ĠN i
ĠU mwami
so ro
Ġim yi
Ġngo ma
nga bo
ĠBu rayi
Ġimi rimo
imi ryango
ĠD r
Ġban tu
ĠRe pubu
yuba ko
siga ye
Ġahan tu
Ġfi li
Ġrusan ge
ĠRepubu lika
B u
K a
N ubwo
a banya
c k
i s
p fa
u ro
w an
Ġ ze
âĢĻ .
Ġu fite
yo na
ge nde
te ye
bi li
Ġbi tyo
ĠR ic
ban ga
Ġr yo
ran ira
ĠI ngo
Ġcya ri
tan ye
tan ze
Ġki buga
so n
to za
hi se
nge re
Ġza ri
kore shwa
Ġib indi
shobo ka
pi yona
nya ma
ĠD e
gomba ga
ĠV i
ĠZ unze
Ġkuza hura
ja mbo
mbasade ri
kolo ni
R D
i ya
i koranabuhanga
l in
r t
Ġ and
an ki
ya mu
Ġi zi
ga ciro
Ġa yo
Ġu bwi
Ġu sanga
Ġku gura
re kana
gi rwa
Ġba maze
Ġba shaka
ru ndi
ge ne
Ġbi da
bo za
tu rutse
me zi
ku boza
ban za
ban je
Ġna yo
Ġbu taka
Ġin zu
Ġin yuma
ĠN a
ĠN da
bere ye
Ġzi rimo
Ġzi tandukanye
ĠU ru
ĠU kuboza
ama teka
ĠG icanda
ĠS i
cu rasi
Ġ201 6
ĠKi ge
Ġri mwe
rw anya
hin zi
Ġzo se
Ġban ki
ĠGi curasi
Ġumw anya
bone ka
kene ye
har d
Ġte le
) .
P erezida
R a
h ana
q u
Ġ o
Ġa bo
Ġa giye
Ġmu ryango
Ġmu kerarugendo
Ġmu ntu
Ġu bwa
Ġu shinzwe
Ġu shize
re tse
sh anya
ma ma
gi zi
gi zwe
gi ngo
Ġba shobora
Ġya bwiye
te be
zi za
ze re
ki re
tu tsi
Ġgu han
Ġgu koresha
si yo
nd wa
Ġm wiza
Ġubu kerarugendo
Ġ1 1
Ġaba gore
Ġbya ba
Ġkwi shyura
Ġiki bazo
ĠKi yovu
hin de
imi kino
Ġ5 0
Ġinga mba
Ġkure ba
hari ko
Ġgute za
gwi ro
Ġkuru sha
ĠRwa bugili
danga mu
bili gi
ĠRic hard
ĠKige li
i mari
i zindi
n ani
o nal
Ġ do
Ġ politiki
Ġk in
ya ga
Ġn shya
Ġmu kino
Ġu ba
Ġu mwaka
sh yin
ko zwe
in ka
in du
gu ri
za jya
Ġba cu
Ġba kora
Ġba komoka
ru ra
ru guru
Ġya je
ge nga
zi rane
ki ma
Ġgu komeza
si fu
Ġwa bo
Ġr wi
ĠM inisiteri
Ġm insi
Ġ2 4
Ġibi ce
Ġibi humbi
ĠI ran
Ġama kuru
Ġaba kiliya
tan gwa
Ġru go
Ġki pe
so ma
to zo
shyi gi
Ġkuba ka
Ġbyo mbi
ĠRu ju
shya mba
Ġ3 0
curu zwa
Ġre ro
mere we
hagara riye
mwi hariko
zirane nge
sifu zi
ĠRuju gira
I yo
I bu
I ngo
a l
i a
m p
o d
o ta
t ter
an zi
ri m
Ġn di
Ġi mba
Ġi herereye
ga mbo
Ġa zi
Ġu mwami
Ġu gere
ka ra
Ġba yi
Ġba ha
Ġba da
Ġba gera
zi ga
zi ki
Ġbi kaba
mi siyo
Ġgu shaka
Ġy andi
Ġm bumbe
yan ya
fa shwe
Ġumu kino
Ġumu tekano
Ġ1 7
ran yi
Ġama ze
Ġni bura
ĠN e
mba ga
tan zwe
fi tanye
da ge
to re
ama tegeko
ama dolari
Ġim pu
Ġza bo
shyi rwa
san ze
ĠBu hinde
Ġiki pe
ĠMa r
Ġyi twa
00 0
ĠJ u
shu ti
Ya gize
haga ze
Ġrwo se
sin yi
fungu ra
icyo rezo
Ġpa riki
ingi ta
Ġfili me
ĠUru gwiro
Ġtele fo
Ġguhan gana
F A
T u
a gu
u yu
u bwi
u mwaka
y andi
an zan
Ġb we
Ġb anya
Ġn ziza
Ġi rimo
Ġi terambere
ga banu
Ġa ra
Ġu ri
Ġku ha
re je
re ngan
ye ho
in g
gu fu
Ġba ke
Ġba biri
Ġya ba
Ġya shyi
te zwe
Ġbi ra
Ġbi fite
ki rwa
tu ngo
ro ngo
se se
Ġc yumweru
Ġgu tera
ti onal
wo ngereza
Ġm pamvu
ĠK wi
Ġ2 6
ĠA l
fa twa
Ġumu bano
ĠB wongereza
Ġ1 4
Ġibi go
Ġibi tekerezo
ĠI I
Ġama bwiriza
ĠN teko
tan yi
Ġru h
Ġki za
ubu ryo
ĠG o
Ġmi kino
twa rwaga
ĠF PR
Ġma ze
ĠKa m
Umu kuru
Umu ryango
Ġga to
rw an
ĠT anzan
ĠJ o
Ya komeje
haga ri
yama kuru
ĠAba tutsi
menye tso
zamutse ho
mvi kana
yongereye ho
Ġyakore we
Ġmyi za
Ġugere ranyije
ĠTanzan ia
N C
a ch
b y
c yi
d wa
d ini
o g
s t
t sa
u r
u mwe
Ġ to
ri re
ri rwa
ri ritse
ya bu
Ġn ga
Ġi kaba
Ġi jambo
ga ra
wa gira
Ġmu gabo
ba l
Ġu sanzwe
Ġku yi
Ġku vuga
ye te
ko tanyi
Ġba zi
Ġya bi
Ġya baga
Ġya shyize
te gura
ha me
mi ra
mi gambi
Ġgu hera
me n
Ġna byo
ĠK o
ĠK en
Ġin zira
Ġ2 1
Ġgi tero
yan kore
Ġubu zima
Ġubu shobozi
ĠI s
Ġama kipe
Ġw u
ĠN kuru
de ge
ĠC a
en e
ĠS o
twa ro
Ġno ne
Ġma faranga
kore she
ĠMu kuru
ci riritse
ibi ri
yobo ye
Ġyi ta
ĠT wi
Ku ri
nya rwanda
pe ra
la ge
ve r
kwi riye
Ġbaka ba
ĠIn kotanyi
mbu ye
ĠLe agu
Ġbyi za
komo ko
Ġwi twa
jye pfo
Ġata ri
Ġkw andika
tsin ze
Ġcyi ciro
herere kan
il lage
pfu ye
cya mbwe
Ġ199 4
ĠHa b
ham ya
subu kurwa
gena migambi
wana cyambwe
Ġicyi zere
kwe zi
Ibu rasirazuba
wagira mungu
ĠLeagu e
I ri
a bo
i e
j ana
l u
l le
n gira
Ġ &
Ġ hin
Ġ sta
ri c
mu ka
Ġi ga
Ġi tanga
Ġi garagaza
âĢĻ âĢĻ
Ġa ki
Ġu ga
Ġu gu
Ġku wa
re be
ye mo
in e
in dege
Ġba mu
Ġba ti
Ġba vuye
Ġya gi
Ġya yo
Ġya maze
Ġya tangiye
ge nge
ge ni
bu ye
bu nga
Ġbi ka
ki ki
ki sha
tu ruka
si zi
Ġko ro
Ġko ngera
me ze
hu ngu
hu ngi
vu tse
vu gizi
Ġwa baye
mo do
Ġm pan
sa a
sa bo
Ġin ka
Ġin yungu
sha mi
ĠB o
Ġibi tego
ran gi
ran giye
na ka
Ġru naka
Ġki ri
Ġbya bo
Ġbya tumye
ama faranga
ubu kungu
Ġim insi
han gan
ĠP o
ĠMu jyi
zu ro
Ġkwi ga
Ġkwi rinda
jya ruguru
Ġaka zi
ib ya
ĠRu da
ĠGa sabo
Ġho se
kuriki rana
ĠPa riki
subi ra
yama ma
Ġcyo rezo
ju ru
byi ru
Ġuku vuga
yeme zo
Ġhi rya
tegu ye
gen zu
shimi ra
ĠRa yon
ĠIngo ma
ĠTwi tter
modo ka
A ha
N a
U bwo
i terambere
j im
m po
r d
s wa
u wa
v o
y ana
Ġ tegeko
Ġb indi
Ġn zu
Ġi ra
Ġi shobora
Ġi komeye
Ġi tatu
Ġi shyaka
ra ra
ra zi
Ġa da
Ġa shobora
Ġa tatu
Ġmu twe
Ġu rwego
Ġku bo
re ra
re ba
gi jim
Ġba yo
Ġba ru
Ġba gomba
Ġba tangiye
Ġba tangira
zi hi
ha ra
ha mwe
bu m
ta ri
Ġbi go
Ġc o
Ġy uba
hu ye
hu riro
Ġna bwo
ĠM puzamahanga
Ġha si
Ġbu ru
Ġbu kerarugendo
Ġbu tegetsi
rwa yi
Ġgi shinzwe
ĠA f
ĠA r
Ġru fite
Ġzi ri
bwo ba
ama guru
ĠG e
ĠS ta
han gano
su zu
zu ngu
ibi ciro
ĠBu rasirazuba
Ġbwa bo
ĠL a
Ġtu bi
Ku ba
Ku geza
shu sho
bye yi
tera bwoba
teke reza
ĠIn ka
Ġye gu
bwe nge
Ġho tel
el ly
fatan ya
igi he
Ġkwe zi
Ġnko ranya
kwira kwira
Ġhe juru
Ġindi rimbo
inga gi
Ġimyi tozo
shanya razi
dangamu rage
Ġdo re
Ġimba raga
ĠKen ya
Ġhin o
Ġsta de
byiru ko
mpo riki
gijim ana
Ġnkoranya mbaga
I kin
I mana
I byo
a handi
h anda
i mwe
j wa
m piyona
p le
u za
v an
Ġ sha
Ġb ye
ri e
Ġn kuru
Ġi mu
Ġi ti
Ġi zindi
Ġa l
Ġa mu
Ġa tanga
Ġa vuye
ba za
Ġu ka
Ġku zi
Ġku ganira
re me
ma ra
ye nda
gi sha
Ġba sa
Ġba tege
Ġba kinnyi
Ġba baga
Ġya koze
Ġya pfuye
ha ranira
Ġbi ro
Ġbi komeye
Ġbi garagara
Ġbi vugwa
ze go
ki ko
tu ngan
ĠR NC
se ngi
Ġgu hi
me nyi
Ġna we
Ġna bi
Ġna bo
Ġr yi
ĠM o
li x
Ġbu shingiye
Ġin tumwa
Ġin shuro
Ġin goma
Ġin tambara
ĠA ir
Ġubu ndi
Ġubu taka
Ġubu tumwa
zo bere
ĠI ngabo
Ġama zina
Ġama horo
Ġ20 00
ĠN yira
so re
to n
aba gore
ĠG en
shin jwa
twa ye
ĠF ran
Ġma hanga
kore re
Ġkwi ta
Ġib y
Ġ201 5
ibi korwa
san zu
san gani
umu ntu
umu tekano
Ġimi ryango
Ġnta cyo
ĠMa teke
Ġ( @
ĠL od
Ġtu ri
ĠKi sangani
garaga je
ĠT e
Ġwe se
yari mana
shyira hamwe
mbu ra
Ġbyi ciro
zan ye
ji je
tegan ya
Ġhan o
Ġkw injira
fashi shwa
ĠMi ss
ĠV illage
ĠZ a
Ġahan ini
hita mo
kani sha
it y
nyama banga
ĠNda gijimana
Ġtelefo ni
ĠHab yarimana
Ġsha mpiyona
ĠAir tel
ĠLod ge
A banya
B A
G a
M a
P a
R u
U rwego
b anda
i yi
t ana
Ġ so
Ġ saa
Ġb ana
ri s
ri mi
ri je
Ġn teko
Ġn gamba
Ġi ha
Ġi fu
ra me
Ġa gira
Ġa gera
Ġa herutse
Ġmu gabane
Ġu shobora
Ġku n
Ġku gabanya
sh yu
sh yan
ma ro
ko raga
in gabo
za bera
Ġba bo
Ġba ku
Ġba to
Ġba kunze
Ġya mu
ge nze
ge zweho
te rwa
ha ma
ta za
go mbo
ro zi
Ġgu tangira
Ġgu habwa
Ġgu fata
Ġy an
vu go
he reye
Ġha baga
ĠK in
sa ka
Ġin ganda
Ġin gabo
Ġ2 2
Ġ2 3
Ġ2 8
Ġgi ti
ĠA m
ke sha
Ġumu ryango
Ġumu twe
Ġumu kobwa
Ġubu tegetsi
zo n
Ġibi ro
ran gira
Ġaba ri
ĠN ze
Ġki re
Ġbya ra
to nde
ama hoteli
Ġza yo
shin ja
ĠS ingita
Ġigi kombe
Ġmi gari
ĠF o
Ġib yumba
vi er
tanga zwa
umu gore
ĠBu rundi
ĠBu dage
korwa ga
yobo we
im bere
ĠCo n
rw ana
ĠT wagiramungu
Ġ19 6
Ġrya ri
Ku va
ib in
shyira ho
In ka
ĠGa shyan
ĠY ou
Ġgusa ba
ĠW a
yama ra
byi ri
man u
tegan yi
bone tse
fashi sha
Ġbe ach
tegu rwa
har ti
hindu ra
Ġuta ha
Ġme nshi
fun zwe
moka rasi
guri sha
rengan zira
hagari tswe
ĠGashyan tare
A C
A ka
A bo
E pfo
I S
I mari
S S
a gaciro
c he
i d
o k
p hi
t h
t re
u mwami
u mwihariko
v ana
z ana
Ġ d
Ġ ra
Ġ vu
ri ko
ya mba
Ġn yungu
Ġn shuro
Ġn gingo
Ġi y
Ġi si
Ġi tandatu
Ġi sigaye
ra sa
ga ga
ga banyi
Ġa shaka
Ġmu kuru
Ġu vu
Ġu komeye
Ġku menye
Ġku yobora
re ngera
sh ye
ma il
in uza
gu shyin
we ho
Ġba gi
Ġba kiri
Ġba tuye
ge ngo
te d
ta vuga
ta bera
Ġbi maze
Ġbi bazo
Ġbi fuza
Ġbi shoboka
ze ra
ki riye
tu ranyi
ro u
se nal
Ġgu ta
Ġgu sha
Ġgu ca
Ġgu twara
Ġy u
ban ki
Ġna ko
Ġna zo
yu ho
nd u
li vier
Ġm pera
sa ha
je je
Ġ2 9
ĠA banya
Ġari mo
Ġumu nani
ĠB e
ĠB ibi
ĠB wanacyambwe
Ġibi tabo
ran gwa
Ġama so
Ġni yo
ĠN du
Ġcya bo
Ġki gega
ĠC ity
ĠU gushyin
hi gwa
aba depite
Ġim pan
shin gano
ne t
Ġma bwiriza
kore sho
Ġngo mbwa
su gi
su rwa
ĠMu renge
du ka
san zabera
tanga za
Ġbwa ri
le im
ts indi
Aba mi
ĠL u
Ġtu giye
Ġga ce
Ġrwa ri
im insi
ĠJ a
ĠH ou
teke rere
ĠIn ter
Ġye me
ĠY o
zama kuru
ji jwe
Ġt he
sin ga
Ġ4 0
guru ra
nde ge
fatan yije
fashi shije
Ġbiza ba
hindu ka
soho ka
shimi ye
shingi ro
Igi kombe
here zwa
Ġbin yuze
jo ro
ng we
ĠDe mokarasi
ĠSi poro
qu e
Ġo f
Ingo ro
Ġndi rimbo
ĠRuda higwa
ĠAr senal
tungan ya
Ġvu ba
ĠBibi liya
ĠUgushyin go
leim ani
A bi
B anki
D R
D r
G uverinoma
I genamigambi
T A
a mezi
d ri
i yo
i terabwoba
m inisitiri
n ini
s tin
t wi
u kwezi
Ġ zuba
Ġb andi
âĢ Ķ
âĢ ĺ
Ġn da
Ġi zo
Ġi komeje
Ġi koranabuhanga
ra el
Ġa be
Ġmu shya
Ġmu gari
Ġu du
Ġu ndi
Ġu retse
Ġku menya
re he
ma r
ye reke
in ama
Ġba hu
Ġba jya
Ġba shya
Ġya ku
Ġya cu
Ġya tangira
Ġya hoze
Ġya sabye
Ġya hise
ta si
Ġbi ce
Ġbi garagaza
Ġbi sanzwe
ĠR w
Ġgu ku
Ġgu tuma
Ġgu kemu
si yete
ku ba
vu zi
Ġwa yo
Ġwa hawe
yu mva
nd wi
ĠM an
Ġha shize
sa go
Ġbu fatanye
Ġin e
Ġin gendo
Ġgi komeye
Ġumu yobozi
Ġumu nsi
Ġumu bare
Ġumu ziki
ĠB anki
ĠB harti
Ġubu fatanye
Ġubu ziranenge
Ġubu renganzira
Ġibi jyanye
ĠI kin
Ġaba depite
ĠN sengi
Ġru ganda
Ġru gamba
Ġki ba
Ġki ganiro
Ġzi ba
Ġzi fite
Ġzi maze
to nda
aba mi
di o
di s
Ġim pamvu
Ġma tora
ĠMu ryango
ĠMu sanze
shyi zweho
Ġkwi garu
bwa mi
Ġaban ya
Ġ201 2
Ġimi hango
Ġiki go
Ġtu ra
ĠKi vu
ĠT u
Ġuru gendo
zamu ra
imi bereho
Ġkwa gura
haga rika
In tebe
mbu rwa
Ama jyepfo
Ġbyi tezwe
tara mo
Ġt wo
yama swa
Ibi runga
shan u
yuba ka
kene we
ĠO livier
Ġgutanga za
sobanu ra
sobanu ye
Ġgute gura
tangi je
Ġe byiri
ĠRD B
es t
Ġgushyira ho
Ġme tero
kini raga
fun gwa
riwe ho
Ra poro
shyigi kira
ziga ba
Ġruh ande
bal l
Ġwu ndi
ĠSo leimani
koreshe je
kiki je
genzu ra
Ikin di
Ġso siyete
yamba ro
ĠHou se
A ya
B ya
C A
K i
N R
T a
U wo
a ha
i er
i shyaka
m ina
s se
s ter
Ġ #
Ġ p
Ġ an
Ġ andi
Ġb yeme
ri ce
Ġk ane
mu ryango
Ġn zira
Ġn yubako
Ġn yamara
Ġi tanu
Ġi rushanwa
Ġi gamije
Ġi jana
ra mu
Ġa komeye
Ġa saga
Ġa mbasaderi
Ġa mezi
Ġmu garaga
Ġmu co
Ġu w
Ġu rwo
re ho
in goma
in tambara
gu zi
Ġba je
Ġba gira
Ġba tandukanye
Ġba geze
Ġba komeje
Ġba habwa
ru hu
Ġya vu
Ġya tanzwe
Ġya korwaga
te re
bi re
bu ka
Ġbi ha
Ġbi shobora
Ġbi saba
bo ok
ro n
se ke
Ġgu kina
Ġgu tura
ku ko
ku nzi
vu ra
ĠM e
ĠM ba
ĠM ic
li za
Ġin tera
Ġin shuti
Ġin twaro
sha tu
Ġgi to
Ġgi fite
ĠA be
ke t
Ġumu nya
ĠB ing
Ġubu yobozi
shi man
ran yo
ĠI haranira
tse ho
Ġama foto
Ġama shusho
Ġaba bi
Ġaba kerarugendo
ĠN sanzabera
kin wa
na ma
Ġru komeye
Ġru gero
Ġru rimi
Ġki rimo
Ġki bazo
Ġzi mwe
gan je
ama shanyarazi
hi ro
hi rwe
ubu tegetsi
shin ze
Ġigi ciro
Ġmi rimo
kan ya
ĠP ri
Ġma ke
Ġma kipe
ĠKa biri
ĠMu si
du kikije
shyi zwe
Ġkwi yongera
Ġib yi
Ġ201 0
san gan
tanga jwe
umu ryango
umu tima
Umu rage
Umu vugizi
Ġka rere
ĠMa dri
Ġtu za
Ġtu rimo
pa la
Ġri za
ce book
ndi ro
ĠT he
nye ri
Ġuko moka
ĠD ie
Ġye rekana
ĠGa tanu
Ġiza ba
Ġt w
subi za
ĠGi hanga
Ġaza jya
Ġnti ba
ju gu
ĠBa twarwaga
ĠBa mporiki
Ġaha saga
Ġumw u
bya ra
bya ye
bura yi
ou r
ani el
rizwa mo
gen zo
Ġe shanu
shyize ho
soho tse
hagara ra
Ġibya ha
Ġikin di
Gu sa
shingi zi
ĠLi fe
Nta bwo
yandi ko
ĠKwi tonda
ĠKam pala
ĠJo se
men t
hungi rehe
Ġyegu kanye
Ġal bum
gombo ra
ĠNze ri
Ġkire kire
rengera zuba
ĠIkin yarwanda
Ta riki
Ġmugaraga ro
ĠMadri d
ĠDie u
5 0
A ho
C O
I terambere
I cya
I ngabo
R e
S i
U ko
a se
c anga
g ne
g ram
i zo
i kin
j yana
l d
p h
r Ã©
s pa
u mw
u ar
Ã ´
Ġ f
an zuro
ri jwe
Ġk enshi
mu ra
Ġi s
Ġi tu
Ġi ryo
Ġi jya
Ġi tsinda
Ġi shoramari
Ġi ndwa
Ġi shyamba
Ġi modoka
Ġi kwirakwira
ra li
ra phi
wa ga
Ġa vu
Ġa garagaza
Ġa tanu
Ġa mbasade
Ġa shinjwa
Ġmu bano
Ġu kaba
Ġku ta
Ġku zamuka
Ġku rwanya
re bwa
re bye
gi za
gi je
gi zweho
in ganda
in genzi
gu ma
gu ye
gu tse
we mo
Ġba tu
Ġba be
Ġba komeye
Ġba gize
Ġba saga
Ġba fata
Ġba rwo
yo bwa
Ġya gombaga
zi yo
bi rwa
Ġbi ku
Ġbi tuma
bo n
ki za
tu mi
se mbuye
Ġgu korera
Ġgu soma
Ġy inji
ku re
ti ye
Ġna twe
he nda
ĠM bere
Ġha ka
Ġm buga
ĠK ane
rwa ho
Ġin yubako
Ġ2 7
Ġgi ce
ĠA ka
Ġari yo
Ġari bo
Ġumu shinga
Ġumu co
Ġumu depite
ĠB en
ĠB er
shi ka
shi mwe
shi jwe
shi seke
shi shika
Ġibi ganiro
Ġibi curuzwa
ĠI ra
ĠI bi
Ġama tegeko
Ġama tora
Ġama shuri
Ġama banki
Ġama hirwe
Ġaba kozi
ĠN yan
ĠN do
na ra
Ġcya cu
Ġki go
Ġbya baye
Ġbya gabanu
Ġbya zamutseho
fu nze
ĠU kwa
gan yi
Ġkuri nda
nge ro
ubu banyi
aba ri
di yo
Ġim p
shin gira
ĠS C
ĠS u
Ġigi tekerezo
kan e
ne gihugu
ĠF E
ĠF Ã©
Ġma tegeko
Ġma sezerano
Ġma rushanwa
Ġngo ro
ĠMu sa
cu ku
vi ziyo
ibi go
ĠBu biligi
Ġimi gabane
Ġka re
Ġnta we
Ġiki gega
Ġyi ze
Ġri shya
shobo ye
pi mo
ĠT shiseke
Ġ19 8
Ġrya bo
Ku bera
pe shyi
Ġuru gamba
Ubu mwe
ĠRu ta
Ġ202 1
Ġ"""" ,
ĠD a
Ġkwa mama
Ġic yemezo
ic yi
shyira mo
Ġ3 6
Ġ3 00
In teko
Ama teka
subi zo
banu ka
Ġnti bi
ju je
Ġumw ana
tin ganyi
gami ra
fungu rwa
Ġe shatu
sta gram
ham piyona
kunda ga
Ġkuvu gurura
inga ruka
ĠFa u
subu kura
Ġuwa ri
hunga banyi
ĠMutara ma
Aban tu
taba zi
goro ba
abanya ma
mama ye
Ġkin ini
ĠNe w
ĠMar c
gabanu ka
sese ngu
og raphi
ibiri bwa
Ġyagi ranye
hangan ge
Ġkubo hora
zihi za
ĠGe ographi
ibin yobwa
IS R
Ġkumenye kanisha
Ġguku mira
dis son
Ġkwigaru rira
Ġindwa ra
ĠUkwa kira
ĠFÃ© lix
ĠTshiseke di
ĠGeographi c
1 8
A riko
B PR
E FA
L e
S e
T wa
U mwe
a han
b w
b rice
c t
e ra
f f
g h
i se
n yu
n zwe
o is
r y
s te
u ku
u wo
u ran
z indu
Ġ 0
Ġ h
Ġ en
Ġ rika
Ġ pe
Ġb inji
ri a
ri n
ri mana
Ġn ke
Ġn to
Ġn jye
Ġn genga
Ġn dangamurage
Ġi he
Ġi tandukanye
Ġi shingiro
ra so
ga l
Ġa yi
Ġa jya
Ġa biri
Ġa handi
Ġmu shinga
Ġmu saruro
Ġmu gambi
Ġu mwihariko
Ġu bwenge
Ġku gi
Ġku garagaza
Ġku genda
Ġku ram
re n
re we
re nze
ye shuri
gi na
ko sa
ka ma
in gamba
in yungu
in gengo
gu ngira
za za
Ġba te
Ġba bu
Ġba ki
Ġba sha
ru ye
ru ta
ru mp
Ġya te
Ġya ha
Ġya jya
Ġya tanze
Ġya sinyi
te za
te me
zi mungu
bi tabo
yi mana
bu nda
Ġbi tu
Ġbi hu
Ġbi twa
Ġbi vuze
Ġbi shya
bo gami
tu ngu
tu nzi
ro ko
ro ka
ro te
ho n
ho mbo
Ġc yu
mi ka
mi je
Ġgu hunga
Ġgu fungura
Ġgu shyigikira
Ġgu subukura
si mbu
me s
me ka
me zwa
Ġy ana
hu ba
Ġwa banje
he l
Ġm yinshi
ĠK an
Ġbu ke
Ġbu sanzwe
Ġbu curuzi
Ġin gana
Ġin ter
Ġin tego
Ġin gufu
Ġin komoko
sha hara
ĠA ban
ke nshi
fa shwa
Ġumu ti
Ġumu kinnyi
Ġumu rame
ĠB anya
ĠB lu
Ġubu sa
Ġubu horo
Ġubu curuzi
Ġubu shakashatsi
Ġibi he
Ġibi hangano
ran ce
Ġama ta
Ġama rushanwa
Ġaba yobozi
andi tsi
kin gi
Ġcya ba
tan ira
Ġru gendo
Ġru buga
Ġki garagaza
Ġzi komeye
Ġzi gamije
Ġbya yo
fu ngi
ĠC en
ĠC har
ĠU ni
so za
hi ma
nge ye
ubu ndi
ubu curuzi
aba kerarugendo
aba kinnyi
aba minisitiri
ĠG u
Ġigi tero
Ġigi soro
Ġyo mbi
han i
twa ri
ĠP S
ĠP ere
ĠP ier
vuga ga
ne ri
ĠF u
Ġma gambo
kome re
kome ze
ĠKa taza
su ye
su rance
zu ye
vi en
umu nya
umu pira
ĠBu sh
Ġimi shinga
tege reza
le x
Ġnta mbara
ĠMa rie
Ġri ri
Ġri komeye
tsi ko
tsi bo
tsi mburwa
pi c
pi ma
Ġaka maro
ĠT a
ĠT rump
yango mbwa
ĠRu ba
mana ho
Ġubwo ba
ina zi
Ġbwo ko
bona ga
ĠE spa
ĠIn surance
ca gu
Ġ3 1
In tego
ĠGa tsibo
Ama foto
ĠY e
nzi za
lo mo
Ġiyi twa
subi je
co m
ĠUmu nyamabanga
curu za
Ġdu fite
ĠBa r
Ġumw anzi
Ġumw anzuro
iki pe
tin g
fashi je
fashi shijwe
Ġ200 3
yuba hiro
kina mo
kura mbere
ĠAma zon
ven tion
Imi kino
Imi bare
inji za
sta uran
Ġyabo nye
Ġikin tu
Ġkuvu ra
ĠFa cebook
Ġkumu rika
ĠVi vien
RD B
gene we
rim bana
Ġimpu nzi
Ġyashyi zwe
ĠII I
ĠIs rael
Ġnone ho
ibiri ndiro
Ġwitwa ga
Ġuga sanga
bunga bunga
yamama re
Ġco ronavirus
Ġyuba tswe
Ġburu ndu
ĠSta de
ĠFo Ã©
ĠCon vention
teganyi riza
yereke zo
ĠNsengi yumva
ĠJose ph
Ġbyagabanu tseho
ahan tu
bogami zi
Ġinter net
ĠCen tre
A bandi
D F
D u
I cyi
I shami
M bere
R A
R W
U mw
U retse
Y i
Y o
a u
a ka
a bi
b wu
c y
c an
g anga
h wi
j wi
l la
m yi
o t
o ne
r s
r wi
u rugendo
u mweru
v amahanga
y anga
¨ ne
Ã §
Ã ¨ne
Ġ @
Ġ Q
Ġ Â
Ġ âĢĻ
Ġ li
Ġ di
Ġ twe
Ġ 000
Ġb ene
ri ndwa
Ġk era
âĢ ¦
Ġn za
Ġn yamu
Ġn yabu
Ġn kuko
Ġn yandiko
Ġi so
Ġi nda
Ġi cu
Ġi tegeko
Ġi shinga
Ġi habwa
Ġi ndege
Ġi joro
ra saga
ga ruka
ga rutse
Ġa ko
Ġa ku
Ġa ci
Ġa tandukanye
Ġa kana
Ġa sanzwe
Ġa kenshi
Ġmu bi
Ġmu biri
Ġmu jyi
Ġmu hanzi
Ġmu ziki
ba zi
ba mbwe
Ġu kwi
Ġu vuye
Ġu zwi
Ġku mwe
Ġku garagara
Ġku zamura
re ma
re mye
ko ro
ka za
in ye
in zi
in zu
in eza
in kwa
in ota
in dwa
gu ze
gu ke
gu du
gu rira
za ho
Ġba ya
Ġba ho
Ġba yobozi
Ġba turage
Ġba sura
Ġba koze
Ġba tanu
Ġba genzi
Ġba keneye
Ġba koresheje
ru ru
ru bo
Ġya ko
Ġya yi
Ġya ho
Ġya komeje
Ġya kunze
Ġya haye
Ġya garagaje
Ġya tangije
Ġya kiniraga
ge se
and o
te ve
bi tekerezo
bu za
bu tso
ta bi
Ġbi yi
Ġbi tanga
Ġbi biri
Ġbi ganiro
Ġbi teganyijwe
bo ko
go ri
go go
ki we
ki mbi
mi te
mi jwe
Ġgu cu
Ġgu korwa
Ġgu verinoma
Ġgu tangi
si tu
Ġko ko
Ġko misiyo
ban ze
Ġwa ra
Ġwa geze
be rt
Ġr ye
yu ngwe
Ġha za
Ġha baye
Ġha mbere
Ġha kaba
Ġha gende
Ġm anda
Ġm yanya
Ġm vamahanga
ĠK inazi
Ġbu ka
Ġbu za
Ġmuri ka
Ġin zobere
Ġin yamaswa
sha ga
sha ho
Ġgi shobora
Ġgi hari
ĠA nge
ĠA mbasaderi
Ġari byo
Ġumu pira
Ġumu rongo
shi mu
shi sho
Ġibi tero
Ġibi koresho
ran ze
ĠI m
ĠI zina
Ġama gambo
Ġni ho
ĠN tara
ĠN dangamurage
kin ira
na tional
Ġru ga
Ġru ta
Ġru shinzwe
Ġki rere
Ġki maze
Ġki kaba
Ġzi za
Ġzi giye
da ga
da sanzwe
so zwa
to ranyi
gan ye
gan zu
ama horo
ama shuri
hi riza
ubu ki
ubu zima
ubu shakashatsi
ubu kure
aba kozi
di ri
ĠG rou
Ġim yambaro
Ġza baga
ĠS ha
ĠS han
ĠS hampiyona
Ġigi zwe
Ġmi bereho
ĠP e
ĠP la
ĠF re
Ġma soko
su gire
du tse
du gudu
Ġkwi yubaka
Ġib in
kuru za
bwa ho
ibi bazo
ibi humbi
Ġbw u
ĠBu rengerazuba
Ġimi twe
Ġimi bereho
Umu jyi
Ġka ri
Ġka zi
ĠMa jyaruguru
Aba zigaba
Ġyi se
Ġtu ka
Ġtu zi
im yanya
Ġaka jya
gera ho
Ġ19 3
Ġ19 7
ib intu
ĠH u
Ġuru byiruko
Ubu yobozi
Ubu sanzwe
ĠRu se
shaka ga
Ġwo se
Ġubwo rozi
Ġkwa mbara
Ġhaga mijwe
ĠE i
ĠE to
Ġic yari
ic ya
ĠâĢĺ âĢĺ
ĠIn teko
ĠIn kima
ĠIn stagram
ca rubo
Ġ3 2
Ġ3 4
mbu zi
Ġbyi yongera
bwe negihugu
gani riye
ĠNya ru
Ġiza jya
ĠW e
subi tswe
subi reho
sin ya
ĠGi saka
ĠUmu nyarwanda
ĠAba gabo
Ġcyo se
Ġaha ri
man zi
man ota
Ġbara mu
ĠRe al
Ġ7 0
ĠMi li
ĠMi bambwe
tsin dwa
yeme je
Ġbihe mbo
cya ha
Ġre me
Ġ199 9
hindu ye
gen za
Ġ18 9
mere ra
Ġme zi
shingi we
ĠHotel s
ĠFa brice
kini ye
Im yaka
heruka ga
kubi ti
Aban yankore
ĠUmwami kazi
Bu ri
ĠVi si
rt y
ĠNa tional
indu ka
shyigi kiye
Ingo ma
rim byi
Ġyandi tse
tore ro
ĠJu ne
ĠKam inuza
Ġto ni
Ġyashyize ho
Ġyita bye
Ġmpan gano
ibya tsi
ĠAf ri
Ġbatege ranye
Ġbiro ri
ĠNyira b
ĠFran Ã§
ĠTe le
ĠZa twarwaga
ris ti
ĠKin yarwanda
ĠAm b
che ster
Ġra poro
Ġuvu ka
Ġimpan o
tekerere za
ĠInter national
Ġyatangira ga
Ġgukemu ra
Ki yovu
ganje mo
ĠPri me
ĠMusi c
aniel la
ĠBer lin
ĠRuta gungira
hungabanyi jwe
zindu ko
Ġen ye
Ġkuram ya
Ġyate ranye
fungi we
ĠPere fe
ĠPier re
ĠRuba vu
ĠEspa gne
stauran t
Icyi ciro
Ġnyabu ranga
inkwa vu
indwa ra
gese ra
kimbi rane
Ġhagende we
ĠGrou p
carubo zo
1 0
A furika
A ir
A mbasaderi
A FA
A BA
A TA
D L
I zo
I fite
I tanga
I huriro
I nama
K elly
M inisiteri
M anzi
N ko
N ti
N da
N ISR
P DF
R C
R wa
R wanda
S A
S ingita
U wa
W erurwe
] ,
a ga
a banyarwanda
c ho
c ted
c yuho
d d
d di
e mail
g andu
h n
h Ã©
i mba
i bwami
k andi
l an
n wa
n ti
n ana
n nyi
p fi
u gu
u ni
v andi
z zi
z anya
Ġ +
Ġ _
Ġ s
Ġ po
Ġ modoka
an jye
Ġb yu
Ġb yan
ri ri
Ġk intu
mu re
Ġn ya
Ġn guzanyo
Ġn danga
Ġi z
Ġi da
Ġi gira
Ġi gera
Ġi saga
Ġi zwi
Ġi heruka
Ġi ciriritse
ra ma
ga ba
ga be
ga bwe
wa ba
wa bo
Ġa hi
Ġa tege
Ġa bona
Ġa gomba
Ġa sanga
Ġa kiri
Ġa jye
Ġa zwi
Ġa teganyijwe
Ġa manota
Ġmu to
Ġmu tima
Ġmu tekano
Ġmu sozi
Ġmu nara
ba cyuho
Ġu tu
Ġu giye
Ġu bona
Ġu yobora
Ġu rwan
Ġu kwezi
Ġku bura
Ġku bana
Ġku boneka
Ġku mvikana
Ġku byara
Ġku bungabunga
re zi
re kanye
gi tura
ko ma
ka ri
ka mu
in shuti
we ya
Ġba ge
Ġba baye
Ġba gabo
Ġba kuriki
Ġba sanzwe
Ġba sanga
Ġba genda
Ġba kwiye
Ġba fashe
Ġba tanze
Ġba koraga
ru wa
Ġya hu
Ġya ci
Ġya sin
Ġya fati
and Air
te garu
bi korwa
bu ze
bu tsa
ta ha
ta gan
Ġbi ze
Ġbi geze
Ġbi tangwa
Ġbi meze
ze ye
go bo
tu be
tu nga
tu nze
tu manaho
ro he
ĠR U
ĠR weya
se ru
Ġc ou
Ġgu hu
Ġgu kuriki
Ġgu siga
Ġgu sobanu
Ġgu huza
Ġgu subukurwa
Ġgu kurikirana
Ġgu hagarara
Ġgu fungurwa
Ġgu pima
me ro
me tero
Ġy indi
ku ndo
ku bye
ku yeho
hu nde
ti ra
vu ko
Ġwa mu
Ġwa ba
Ġwa giye
Ġwa twaye
be mba
yu tse
yu mvi
he mbwa
ĠM bo
Ġha ra
Ġha shingiwe
Ġm ba
Ġm bi
sa li
sa tion
Ġbu vuga
Ġbu rimo
Ġbu maze
Ġbu yobozi
Ġbu tumwa
Ġbu shobozi
Ġin gano
Ġin goro
Ġin shingano
sha li
sha ke
sha tse
Ġgi kuru
Ġgi tanga
Ġgi sirikare
Ġgi taramo
ĠA S
ĠA do
yan zuro
Ġumu paka
Ġumu byeyi
ĠB an
ĠB RD
ĠB NR
Ġubu rwayi
shi ma
shi di
Ġibi dukikije
ĠI gi
ĠI ki
Ġama hanga
Ġama dolari
Ġama hoteli
Ġama buye
Ġama saha
Ġama sugi
Ġama raso
Ġaba yi
Ġaba hanga
Ġaba kobwa
Ġaba sirikare
Ġni ko
Ġni bo
ĠN kore
ĠN yungwe
Ġcya tangaje
tan ge
Ġru ba
Ġru tonde
Ġru nini
Ġki ta
Ġki vuga
Ġki gera
Ġzi ha
Ġzi gera
Ġzi kora
Ġzi zajya
Ġzi gezweho
Ġbya ha
Ġbya genze
fu nga
fi ri
fi tiye
ĠC h
ĠC la
ĠC yumweru
gan za
ama da
ama kuru
ama tungo
ama buye
ama vuko
hi rwa
hi le
hi zamu
hi rizwa
nge sho
ubu yobozi
ubu taka
ubu geni
aba kuru
aba kobwa
aba tuye
Ġim yenda
Ġza zamutse
Ġza fashwe
en ga
Ġigi korwa
Ġigi hango
Ġmi bare
Ġmi handa
sho toranyi
Ġby ana
han o
han ze
han gwa
han ce
twa rire
ĠP ro
ĠP or
ĠF DL
kome reza
ĠMu zi
ĠMu da
ĠMu tabazi
du fasha
gwa te
zu re
Ġkwi ca
Ġkwi fashishwa
ni s
Ġ201 1
Ġz indi
umu gabo
umu hungu
Ġcy andi
Ġimi paka
Ġimi bare
Umu nya
Umu co
Umu rundi
Ġnta ho
Ġiki ba
ts ina
Aba gore
Ġyi hariye
Ġtu ba
ĠKi go
ĠKi mi
im yi
pi on
ce lo
ĠCo l
ĠCo u
ĠT i
ĠT hÃ©
Ġ19 0
Ġrya tewe
pe r
Ġuru ganda
Ubu kerarugendo
Ubu banyi
Ubu kungu
Ubu tumwa
Ubu hinzi
ĠRu ganzu
hin ga
shu shanya
Ġ202 4
tiri we
Ġbwo se
ĠE n
ĠE ric
ĠE uni
Ġbo mbi
Ġic yenda
Ġbaka jya
haga ritse
Ġ3 3
Ġye merewe
In kima
In twari
ĠGa tatu
gabo waga
she je
Ama hanga
Ama kipe
fo r
gani sha
Ġban e
Ġban yu
Ġ5 00
mbe r
Ġiyi carubozo
sin e
ĠUmu tima
Ġ4 2
Ġ4 8
guru rwa
ĠAba gore
Ibi hugu
on g
Ġdu kesha
Ġnti ya
Ġbaga kora
menye kanye
aban a
Ġigihe mbo
iki go
igi rimana
Ġ8 00
Ġhan tu
Ġkw injiza
Ġ200 7
Ġ200 8
Ġ6 0
Ġcyi za
osi yete
Ġbaba rizwa
gere ranya
Ġhi fashishijwe
Ġhi rindwa
Ġkwe rekana
yin e
ĠO mar
saba gina
Ġ15 00
Ġ199 8
hindu tse
yonge ye
Uru byiruko
Ġ18 8
Bi vuze
mere rwa
Ġmw ana
ham pion
Ġibya go
Ġhe za
Gu hera
ĠBi runga
ĠBi zimungu
Ġsi poro
ram bye
kani sation
ibyo rezo
yira rebe
Ġbiga tuma
kubi ye
ano ne
Bu sh
uro pa
wan tare
Ġze merewe
ĠIngo ro
hise mo
nyama kuru
yamu ryango
Ġubwi genge
gene ra
Ġbida sembuye
Ġkurusha ho
Ġazi ze
misiyo neri
Ġbanya rwanda
ĠAl ly
fatwa ga
Ġruh ando
rwan ira
ĠJo hn
Ġnga gi
bal kanisation
ĠKo misiyo
ĠKo mite
ĠNkuru nziza
koreshe jwe
hererekan e
hererekan ya
Ġitanga zamakuru
Ġkoro hereza
Ġmpan uro
rangi za
Ġtubi kesha
Ġimu rika
Ġbasa bwe
ĠFran k
sanzu re
Ru cagu
shinja cyaha
rwana shyaka
ĠYou tube
AC CO
Aka gera
id ane
Ġgusha kisha
Ġabe nshi
ĠRw inkwavu
Ġp rote
ramu biri
ron ko
ĠAbe d
shiman gira
Icya kora
shishika riza
Ġngoro ramubiri
ĠMusa firi
Ġkwamama za
Le ta
gh t
Ġngenga bitekerezo
Ġihe rezo
tungu ranye
Ġguhunga banya
ĠKan yirarebe
ĠAban yankore
ĠBanya rwanda
ĠBar celo
RW AFA
inzi bacyuho
shisho zi
Ġruta hizamu
daga du
ĠShan gi
ĠRuse sabagina
ĠWe mba
Ġreme zo
ĠFranÃ§ ois
ĠTele viziyo
vandi mwe
zzi el
gabe kazi
Ġurwan go
tegaru gori
tagan zwa
ĠFDL R
ĠEuni ce
gabowaga hunde
hampion s
Ġprote cted
1 7
A ndi
A SS
B est
C CA
E T
I b
I nga
I mbere
I shyaka
I shyirahamwe
K wi
M I
M ar
N du
P A
P re
R uba
S O
T ura
U ganda
U bwi
U mwaka
V i
Y aba
] .
a yo
a be
c Ã©
f ana
g we
h wa
i y
i za
i tegeko
i rushanwa
i shoramari
i banze
l c
l andi
l de
m ini
m pi
m manu
m inuza
n ta
n ce
o po
p hon
u tu
u ne
u rwego
u bwu
v Ã©
y ina
ð Ł
Ġ mo
Ġ huba
Ġ pic
Ġ for
Ġ sine
Ġb eza
ri ck
mu el
Ġn zego
Ġn anone
Ġi ru
Ġi ta
Ġi kora
Ġi sanzwe
Ġi kina
Ġi cumbi
Ġi zamuka
Ġi curuzwa
Ġi dini
Ġi shusho
Ġi yobowe
Ġi kubiti
ga ti
ga mo
Ġa t
Ġa re
Ġa ru
Ġa mwe
Ġa va
Ġa gura
Ġa shinzwe
Ġa kina
Ġa hita
Ġa heruka
Ġa turutse
Ġmu kinnyi
Ġmu sore
ba si
Ġu ra
Ġu bi
Ġu ha
Ġu vuga
Ġu gera
Ġu kina
Ġu herutse
Ġu gizwe
Ġu yoboye
Ġu bwenegihugu
Ġku r
Ġku ya
Ġku ki
Ġku byi
Ġku mva
Ġku girwa
Ġku banza
re ka
re mbo
re ngwe
sh yanga
ye ro
ye bare
ko banya
ka me
in guzanyo
in gufu
in zego
gu gu
gu rwa
gu fi
Ġba kuru
Ġba vuze
Ġba va
Ġba bona
Ġba jyan
Ġba renga
Ġba sabwa
Ġba gombaga
Ġba zanye
Ġba fatanyije
yo tso
ru kan
ru mbu
Ġya ma
Ġya zi
Ġya geze
Ġya byo
Ġya rwo
Ġya banje
Ġya gizwe
Ġya kozwe
Ġya tore
Ġya tsinze
Ġya herukaga
ge r
ge ri
ge zi
ge nd
ge je
te n
te ran
te raga
te kanye
zi ya
zi gamira
bi kora
bi mana
yi ri
yi ro
yi si
bu re
bu kuru
bu ngo
ta mbwe
ta bira
Ġbi ki
Ġbi se
Ġbi to
Ġbi kuru
Ġbi kora
Ġbi gize
Ġbi tatu
Ġbi buga
Ġbi kiri
Ġbi genda
Ġbi tare
Ġbi shingiye
Ġbi kwiye
Ġbi yongera
Ġbi runga
Ġbi menyetso
Ġbi fashishije
ki mana
tu tu
tu gal
ro hereza
ho rera
ho landi
ĠR PA
se nyi
se nyeri
se ngesho
mi er
Ġgu se
Ġgu ke
Ġgu to
Ġgu kura
Ġgu tyo
Ġgu kurikira
Ġgu subira
Ġgu hitamo
Ġgu hindura
si ze
si vi
si bye
me ye
ku ye
ku za
ku ta
ku ndi
ku nzwe
hu rura
ban ye
vu kiye
Ġwa sa
Ġwa hoze
Ġwa zamutse
Ġna vuga
Ġr yeme
mo n
ĠM es
ĠM DR
Ġha ta
Ġha to
Ġha teganyijwe
Ġm wu
ĠK ini
ĠK anya
ĠK elly
sa m
sa su
sa bira
Ġbu ba
Ġbu mwe
Ġbu fasha
Ġbu komeje
Ġbu mva
Ġbu shakashatsi
Ġbu hinzi
rwa ya
Ġin go
Ġin zo
Ġin kuru
Ġin ota
Ġin gwate
Ġgi korwa
Ġgi shya
ĠA mbasade
ĠA banyiginya
ĠA lex
ĠA yebare
yan gugu
Ġari we
Ġumu gabo
Ġumu hango
Ġumu riro
Ġumu tungo
ĠB la
ĠB el
ĠB PR
ĠB igirimana
ĠB ET
Ġubu hanga
Ġubu hinzi
Ġubu menyi
Ġubu tasi
Ġubu sugire
zo ka
Ġibi za
Ġibi ti
Ġibi menyetso
ĠI nga
ĠI shyirahamwe
Ġama shanyarazi
Ġw ana
Ġaba shinzwe
Ġaba kiri
Ġaba hanzi
Ġaba rwanya
Ġaba sifuzi
Ġni byo
ĠN go
ĠN shinga
mba ye
kin nye
Ġcya gabwe
Ġru za
Ġru ndi
Ġki ga
Ġki va
Ġzi ka
Ġzi ta
Ġzi vuye
Ġzi saga
Ġzi renga
Ġbya ro
Ġbya je
Ġbya giye
Ġbya hagaritswe
ĠC hi
ĠC hance
ĠC hampions
ĠC yangugu
ĠU EFA
ĠU zziel
da tsimburwa
to r
to ngo
gan ya
ama fi
ama do
ama bwiriza
hi tana
Ġkuri rimbana
nge rwa
nge yeho
aba yobozi
aba turanyi
aba tegarugori
Ġza ra
Ġza ba
shin wa
en nis
Ġigi ce
Ġigi cumbi
Ġigi hombo
raga ho
raga raga
Ġmi sa
Ġmi ryango
Ġmi jyi
twa re
ĠP hile
ĠP lc
ne y
Ġma kuru
kore we
ĠKa vutse
ngu kira
su mbuye
ĠMu kobanya
shyi riweho
Ġkwi zihiza
Ġkwi tegereza
ci a
ci ka
Ġib yangombwa
Ġaban za
Ġaban yama
Ġaban yamuryango
ibi ti
ibi cumbi
ibi ganiro
san gwa
Ġz ina
umu kino
umu saruro
ĠBu tare
ĠBu gesera
Ġimi ti
Ġimi tima
Ġimi pira
Ġimi korere
Ġbwa gize
Umu shakashatsi
Umu nyamabanga
Ġkuba ha
Ġka ra
tege kimana
le r
ĠMa j
ĠMa ri
ĠMa jyepfo
zwa ga
yobo ke
yobo rere
Aba sha
Aba depite
Aba biligi
Aba singa
ĠL o
Ġyi fuza
Ġyi teguye
Ġtu kaba
Ġri gira
Ġri vuga
Ġga sozi
po zama
im p
im peshyi
Ġaka mu
ĠT o
Ġ19 5
Ġnde ge
la s
la de
Ġuru gero
Ġuru pfu
Ġuru tonde
Ubu ryo
Ubu rasirazuba
Ubu shakashatsi
riye ho
ĠRu tsindi
hin da
hin gwa
ranga bo
ve s
Ya je
do uar
biri we
ĠE mmanu
ĠE douar
Ġic yuho
Ġbaka ha
teke reje
she ho
mbu ka
Ama guru
Ama jyaruguru
Ama zon
Ã© n
gani re
garagaza ga
nzi ma
Ġban gana
ĠNya rwaya
lo ma
Ġiza kini
ĠW or
ĠPa pa
subi ye
sin gwa
yama tsiko
ĠUmu yobozi
Ġ4 4
ĠAba singa
Ġaza ba
kwa ga
Ġaha bwa
Ġaha garagara
aban yeshuri
Ġwi geze
Ġkure shya
kiri we
ĠRe so
iki renga
bya zwa
igi ciro
tin yiro
Ġ7 2
Ġata vuga
Ġ8 0
Ġ8 8
gami ye
Ġuku ri
yura mo
Ġ200 6
Ġ200 9
ngi rije
ĠZ idane
Ġcyi twa
gere ranyo
Ġkwe meza
kene ra
ĠO ly
uru zi
Ġbe merewe
Ġ15 0
Ġ15 4
cya mura
Ġre staurant
Ġnko kora
tegu we
sobanu ro
Ġ199 5
Ba mporiki
fungu ye
Uru buga
Bi tewe
Bi teganyijwe
Ġbata ri
Ġ100 0
Ġkuru ta
soho ye
hagara rira
kwira kwi
zaga banuka
ĠSa lomo
or ge
Ġkuvu gana
Ġ25 0
ĠSe bu
Ġbwi za
Ġbwi te
ĠJe une
Ġ[ âĢ¦
Ġ9 5
Ġguha ma
Ġicya yi
Ġicya ha
Ġsi ko
hunga bana
Im pamvu
Umwami kazi
it ler
Ġbita ri
ĠRo bert
ĠRo sali
Ġ13 7
fati ka
ĠNi yo
Ġfili mi
Ka bemba
Ġubwi sanzure
Ra yon
Ra disson
Ġubwa bo
dangamu co
Ġyandi kiye
ĠMar tin
sinyi shije
Ġtelefo ne
Tu be
Ġyashyi zweho
ĠKwi ta
by ini
cyi ru
Ġnga be
Ġwu ngirije
ric ket
kiki jwe
hungi ro
ĠBo s
hangan ye
yamama riza
bum bye
Ġbigo ye
ĠLa muka
fatanya bikorwa
Ġiti ke
Ġguhi mba
Ġryi twa
ĠNyira rebe
Abanya merika
Ga kondo
Ru datsimburwa
ĠAm anda
ĠYou Tube
ĠWa t
Ġguta ha
ĠNdu hungirehe
ĠNdu wantare
Ġimpan uro
tsindi ye
Ġyeme je
Abi korera
Ġzuba tse
Ġudu ce
Ġyahise mo
ĠMba rara
ĠMic hel
sangan yamatsiko
Ġumwu ka
ĠNyan za
ĠFE RWAFA
cuku zi
icyi ciro
ĠFau stin
sesengu zi
ff el
uku ri
Ġbinji ye
rin ganire
teme we
ĠUni ted
hani tse
Yo ngeyeho
abi korera
Ġinda sago
Ġicu mi
inye nyeri
Ġgutangi za
ĠPla y
ĠEi ffel
icya yi
ĠNyaru genge
ĠAfri ca
ĠNyirab wana
ĠPerefe gitura
RC D
dd y
kandi da
waba ri
Ġahi twa
Ġcou ple
ĠPor tugal
ĠMuzi to
ĠCou ple
ĠBarcelo ne
dagadu ro
opo ld
yina wabari
Ġsine ma
Ġikubiti ro
ĠKini gi
amado rali
ĠPhile mon
pozama rira
ĠRutsindi re
ĠEmmanu el
ĠEdouar d
Ġ[âĢ¦ ]
1 5
A N
A vuga
B C
B e
D E
H i
I N
I ndi
I GIHE
I ndege
I ATA
K o
M R
M an
N ka
N aho
N yira
N yamu
S a
S teve
S osiyete
T N
T wagiramungu
Y e
a h
a m
a t
c wa
c ye
c en
d de
d ine
f lix
g n
g Ã©
h we
h ande
i k
i p
i ye
i ka
i zi
i ryo
i tanga
i ce
i tsinda
i banga
i dini
i sugi
i tumanaho
j y
l p
l and
l Ã©
l ly
l inga
m bye
m son
n zu
n gana
n yine
p p
p Ã´
r k
s ket
t t
t y
t wo
t he
t flix
u ndi
u mva
u bwami
Ġ ane
Ġ ðŁ
an wa
an ye
an uar
ri ze
ri mba
ri kwa
ri bonye
Ġk ina
mu mu
mu rika
mu co
mu riwe
Ġn uko
Ġn gabo
Ġn yarwanda
Ġn tego
Ġn tangi
Ġn kunda
Ġn gufu
Ġn kingi
Ġn dangamuco
Ġi hu
Ġi sa
Ġi tandu
Ġi shinzwe
Ġi korana
Ġi rya
Ġi fata
Ġi shingiye
Ġi herutse
Ġi sabwa
Ġi koreshwa
Ġi shyirwa
Ġi hagaze
Ġi teganya
Ġi hagaritswe
ra ya
ra ba
ra te
ra bu
ra mbi
ra mbo
ra gutse
âĢĻ âĢĻ.
wa mi
wa rd
Ġa b
Ġa y
Ġa gi
Ġa tu
Ġa se
Ġa geze
Ġa kuriki
Ġa jyanye
Ġa fata
Ġa kunda
Ġa kwiye
Ġa tangwa
Ġa hagarariye
Ġa fitanye
Ġmu rwa
Ġmu paka
Ġmu bumbe
Ġmu nini
Ġmu canga
Ġmu goroba
ba je
ba tsi
ba shije
Ġu yi
Ġu da
Ġu shaka
Ġu genda
Ġu zaba
Ġu huza
Ġu hagarariye
Ġu bw
Ġu rwi
Ġku ra
Ġku ge
Ġku ban
Ġku da
Ġku gana
Ġku rya
Ġku gaban
Ġku rara
Ġku rwana
Ġku genzura
Ġku guma
re go
re mo
re rwa
re gan
re twa
re rane
re mera
re bure
sh w
ma gana
ma kaza
ye r
gi we
gi jwe
ko ngera
ka ye
ka mana
in d
in ya
in za
in da
in ne
in yubako
in tebe
in kima
in zobere
in zoka
gu re
gu ka
gu ha
gu ruka
gu kana
we ri
Ġba mi
Ġba hi
Ġba du
Ġba tanga
Ġba shinzwe
Ġba menye
Ġba hawe
Ġba koresha
Ġba wu
Ġba korera
Ġba sabye
Ġba kiliya
Ġba zwi
Ġba bana
Ġba gire
Ġba tandatu
Ġba banje
Ġba hagarariye
Ġba sifuzi
Ġba tekereza
Ġba shimu
yo meka
Ġya ga
Ġya we
Ġya to
Ġya sho
Ġya rimo
Ġya du
Ġya cyo
Ġya kira
Ġya wu
Ġya sabwa
Ġya kiriye
Ġya byaye
Ġya sohotse
Ġya vugaga
Ġya guze
ge reza
ge reye
te s
te ze
te sha
zi mu
zi gera
zi mana
bi hugu
bi la
yi go
ha t
ha bu
ha di
ha el
bu ro
bu sa
bu to
bu mbi
bu geni
ta li
ta biriwe
Ġbi mu
Ġbi zi
Ġbi ke
Ġbi vuga
Ġbi ciro
Ġbi gera
Ġbi baye
Ġbi fasha
Ġbi ca
Ġbi tara
Ġbi vuye
Ġbi komeje
Ġbi gomba
Ġbi tekerezo
Ġbi hari
Ġbi gwi
Ġbi tandatu
Ġbi kwiriye
Ġbi shimira
ze ngu
ze yimana
bo mana
go ye
ki ro
ki gera
tu za
ro ndo
ro roka
ho ryo
ho ice
ĠR wi
se na
se kuruza
Ġc on
mi hango
Ġgu ma
Ġgu ho
Ġgu su
Ġgu subi
Ġgu shize
Ġgu korana
Ġgu soho
Ġgu shora
Ġgu kini
Ġgu hana
Ġgu shyirwa
Ġgu sese
Ġgu surwa
Ġgu hagarika
Ġgu hererekanya
si ba
Ġko hereza
me rou
Ġy andika
Ġy injira
wi twa
ku we
ku ku
ku rya
ku gombora
hu je
ti c
ban zi
ban ji
ban gamiye
vu zwe
vu byi
vu kire
Ġwa ha
Ġwa twa
Ġwa koze
Ġwa gombaga
Ġwa yoboye
Ġwa tsinze
Ġwa mamaye
Ġna wo
Ġna ryo
wo od
be rwa
yu ka
yu nge
yu jije
yu ranyo
he mba
he nge
he mbe
ĠM ana
ĠM pa
ĠM on
ĠM RCD
Ġha je
Ġha giye
Ġha tyo
Ġha zaba
Ġha sigaye
Ġha teye
Ġha tegurwa
Ġha kenewe
Ġha rebwa
Ġha koreshejwe
Ġm yu
Ġm bona
ĠK andi
sa be
sa bwe
sa bimana
Ġbu se
Ġbu ndi
Ġbu komeye
Ġbu tandukanye
Ġbu kungu
Ġbu kene
Ġbu rya
Ġbu rasirazuba
Ġbu ziranenge
Ġbu nyu
Ġbu roko
Ġbu gufi
Ġbu ngana
je ho
Ġin tege
Ġin teko
Ġin gingo
Ġin zego
Ġin tambwe
Ġin sanganyamatsiko
Ġgi pimo
ĠA li
ĠA PR
ĠA ugu
ĠA DE
ĠA ward
yan i
yan ja
Ġari ho
Ġari bwo
Ġari cyo
Ġumu vu
Ġumu gambi
Ġumu kiliya
Ġumu toza
Ġumu nyarwanda
Ġumu gisha
Ġumu canga
Ġumu tinganyi
ĠB wi
Ġubu ntu
Ġubu kene
Ġubu rame
Ġubu tabera
Ġubu hangange
Ġubu tunzi
Ġubu rebure
shi ra
zo ngera
Ġibi kombe
ran wa
ran go
ran gura
ran yijwe
ran ire
ĠI mi
ĠI terambere
ĠI hame
ĠI shimwe
ĠI SO
Ġama zi
Ġama hitamo
Ġama kimbirane
Ġaba gera
Ġaba genzi
Ġaba shoramari
Ġaba tavuga
Ġaba kunzi
Ġni we
Ġni tu
Ġni cyo
Ġni mero
ĠN o
ĠN ta
ĠN ic
ĠN tare
ĠN BA
ĠN yiri
ĠN sabimana
de yo
de moka
Ġcya yo
Ġcya vuye
tan zweho
Ġru ka
Ġru ha
Ġru da
Ġru maze
Ġru kaba
Ġru kiko
Ġru kuta
Ġki giye
Ġki jyanye
Ġzi be
Ġzi gira
Ġzi rya
Ġzi gire
Ġzi hariye
Ġbya tangiye
fu ra
ĠC le
ĠC hoice
ĠU PDF
da mu
gira ho
gira mo
so be
to te
to ni
gan wa
ama zu
ama shyaka
ama saha
ama yero
hi s
hi ra
hi go
hi shu
hi tanye
Ġkuri mba
ubu hanga
ubu shobozi
ubu koloni
ubu tabera
aba ba
aba gabo
aba hanzi
aba sifuzi
aba gabekazi
Ġim buga
Ġim bunda
Ġim bogamizi
Ġim yotso
Ġza gize
Ġza dutse
Ġza subitswe
ĠS ho
ĠS ere
ĠS er
ĠS eru
ĠS ACCO
Ġigi tinyiro
Ġmi bi
Ġmi ke
Ġmi kuru
Ġmi twe
Ġmi hango
Ġmi renge
sho nga
han zwe
kan gura
Mu seveni
Mu taganzwa
Mu gabowagahunde
ne s
ĠF it
Ġma gana
Ġma zina
Ġma foto
Ġma tsinda
Ġma hoteli
Ġma dini
Ġma jyaruguru
Ġma boko
kore zi
kore raga
ĠKa gali
ĠKa gere
ĠKa yon
ĠKa jeje
ĠKa kame
ĠKa linga
ĠKa bila
su we
su ku
su pu
su nzu
ĠMu hanga
ĠMu kungu
ĠMu regan
riki ya
nda shonga
shyi ki
shyi tsi
Ġkwi ru
Ġkwi fatanya
Ġkwi baza
Ġkwi teganyiriza
cu ra
cu kiro
kuru ra
ni a
vi d
vi lle
Ġaban yamakuru
Ġ201 3
Ġ201 4
ibi ro
ibi gwi
ibi hangano
san ura
umu twe
umu kinnyi
umu shinga
umu co
umu bano
umu kobwa
umu hanzi
umu soro
ndo to
ĠBu shinwa
Ġgihe mbo
Ġimi zi
Ġimi vugo
Ġbwa ba
Ġbwa yo
Ġbwa rwo
Ġbwa kozwe
Umu bare
Umu bano
Umu pira
Umu sizi
Ġkuba hiriza
Ġka yo
Ġka mere
Ġka vukire
tege ka
tege reje
jya ga
le h
le y
Ġiki ri
Ġiki guzi
mbi ka
mbi tse
zwa yo
Aba ri
Aba turage
Aba kinnyi
Aba dage
Aba tekereza
Aba rabu
ĠL t
ĠL yon
Ġyi ya
Ġyi ca
Ġyi geze
Ġyi yongereye
Ġyi swe
Ġyi yemeje
Ġyi muriwe
Ġtu ga
Ġtu yi
Ġtu maze
Ġtu gomba
Ġtu zaba
ĠKi menyi
Ġri ti
Ġri rimo
Ġri shinzwe
Ġri tavuga
Ġri zagabanuka
Ġrwa ba
Ġrwa bo
Ġrwa baga
tsi bihugu
im pamvu
im banza
im inota
im buto
ce ce
bwi we
rw ani
Ġaka vuga
Ġaka wu
ĠT ennis
Ġ19 4
Ġrya yo
Ku rasaga
ĠJ anuar
pe ta
la m
la r
la in
ĠH itler
Ġuru ndi
Ġuru buga
Ġhari ya
Ubu zima
Ubu tegetsi
Ġwe nda
Ġbari ho
nye zamu
ĠRu tara
ĠRu genera
Ya ri
Ya bi
Ya bwiye
do r
zamu ye
imi hango
imi gabane
imi genzo
ĠD aniella
tiri rwa
bona mo
geza ho
ĠE U
ĠE sta
ĠE uropa
Ġbo hereza
Ġic yerekezo
Ġbaka bi
ic yerekezo
teke re
Ni yo
Ni ho
ĠIn s
Ġzo mbi
Ġye reke
Ġye meza
In zu
In zira
ĠGa tandatu
ĠGa singwa
Ġaga ce
Ġaga ruka
Ġaga mije
she jwe
Ama tora
Ġbyi fashe
Ġbyi hariye
Ġbyi yongereyeho
Ġbyi buze
ĠY or
twe rerane
Ġban jye
Ġban yuze
ĠNya mu
ĠNya ma
tara ma
Ġ5 5
Ġ5 9
Ġiza bera
Ġiza fasha
Ġiza kinwa
ĠW est
rira ho
ĠPa ris
Iki gega
Iki mina
sin ywa
ĠGi sirikare
ĠGi senyi
ĠGi sanura
komo rerwa
ĠUmu ryango
curu jwe
Ġ4 1
Ġ4 3
ĠAba mi
ĠAba zigaba
menye sha
menye kana
ĠBa sket
byi fuza
Ġaha we
Ġaha gana
Ġaha hoze
pite ni
Ġkure ngera
Ġkure kurwa
Ġbara ya
ĠRe mera
iki yaga
igi ce
igi cumbi
tin ya
Ġ7 00
bone ke
Ġ200 2
Ġ200 5
ĠMi sago
tsin zwe
ĠV o
yeme za
Ġ6 1
Ġ6 7
Ġhi swe
Ġkwe mezwa
Ġkwe merera
Ġkubi ba
siga si
uru da
uru pfu
uru kiko
uru kundo
pfu kamu
Ġbavuga ga
sobanu rira
Ġika mu
Ġika za
yonge re
Ġahu za
Ġahan ganye
ĠHo lly
Uru ganda
Uru gero
Uru gaga
Ġe jo
Bi vugwa
Ġbata za
nal do
inji je
pan uro
Ġkuru mika
yumba ti
shimi shije
Ġibya ra
Ġikin wa
Ġikin yamakuru
Ġikin yuranyo
ĠRa disson
ĠSa mson
ĠSa leh
Igi ce
Igi tabo
mvi kane
Ġbaza komeza
Ġcye nda
ĠSe sanga
Ġiba rizwa
Ġiba ruwa
garu ra
Ġguha shya
Ġguha ranira
Ġguha tanira
ĠLi ga
ram yi
Ġyabaye ho
Ġbiga korwa
ĠRo naldo
kurikira ho
kubi ta
kubi yemo
here jwe
fati rwa
Aban ye
Ġbin e
kemu ra
Ġicyi ciro
abanya merika
gende ra
ĠDe ene
ĠVi runga
RD C
yamu remye
Ġubwi shingizi
gene ye
ĠSi mba
qu es
Ġkin gana
Ġbada shobora
tore rwa
Ġimpu shya
ĠJu stin
yandi kisha
Ġbanya mihango
rengan e
by anga
og le
og Ã¨ne
ur ley
yabu zima
gara ma
ĠIs mail
ĠCa merou
hererekan yijwe
lle y
ric an
ĠPo li
Na tional
Ġyuba tse
Ġburu ta
ĠAf rican
ĠGe orge
suzu ma
Ġguhi rika
Ga hunda
Pa diri
Ġiha mye
Ġabari nzi
Ġ196 1
manu ka
teganyi rize
Aka rere
Abo ngera
Ġra diyo
riko ko
gabanyi je
gabanyi rizwa
ĠAbanya furika
ĠAbanya burayi
ĠLu anda
Ġyeme ye
ĠYo weri
Ġzuba tswe
Ġyaku san
ĠRw andAir
Ġgukemu ka
kuba hwa
ĠMan chester
ĠTu rikiya
Ġbagira ga
Ġyavu kiye
ĠMe ddi
ĠMba bazi
ĠMic hael
Ġgito ndo
shiman giye
jugu n
ase m
Ġitu ze
ĠAka rere
ĠIbi ro
ĠNdo li
Ġimp ande
ĠFE ASS
ĠFau re
abanyama kuru
Ġyajya ga
ĠPS D
ĠFu ng
ĠTa p
ĠYe zu
aka rere
ĠQ asem
Ġnyamu kuru
Ġiso nga
Ġaku mva
Ġaci bwa
Ġmurika bitabo
ĠHu ye
Ġicyari mwe
Ġbyiyongera ho
ĠMili yari
risti ano
Itanga zo
Rwa bugili
ĠRU RA
seru kira
yumvi re
ĠMbo nyi
shidi kanya
Ġabayi koresha
ĠMuda kama
Ġcyandi tswe
ĠKimi ronko
ĠThÃ© ogÃ¨ne
Ndu hungirehe
Ruba duka
phon se
ubwu batsi
teran kunga
Ġwasa ritse
ĠMes si
Ġinzo zi
ĠInga bire
Ã©n Ã©
Ġizakini rwa
ĠWor ld
ĠSebu rikoko
Ġguhama gara
Ġ137 8
ĠNiyo nzima
IN MR
Nyamu henda
jy anama
pÃ´ tre
mumu gizi
hadi tsi
rondo ro
sena teri
Ġgusoho ra
Ġgusese kara
banji rije
ĠMpa tsibihugu
ĠKandi ho
demoka rate
Ġzirya mye
ĠCle ver
ĠSere na
kangura mbaga
ĠFit ch
ĠKayon za
ĠKakame ga
ĠMuregan shuro
ĠJanuar y
ĠRutara ka
ĠEsta dio
ĠYor k
ĠBasket ball
pfukamu nwa
ĠHolly wood
ĠDeene y
ĠCamerou n
ĠMeddi e
% ),
2 0
4 5
5 2
6 7
9 1
A f
A be
B ira
B yari
B enshi
B RD
B NR
B yongeye
C ya
D P
D e
D aniella
E se
E AC
F a
F rw
G i
G icanda
H e
I s
I ra
I zina
I shoramari
I hame
I vo
I hinduka
I torero
I CCA
J a
K anya
M ba
M TN
N e
N uko
N yamara
N kuko
N one
N gandu
N yinawabari
P N
P o
R M
R w
S ta
S inza
U rebye
U EFA
U sibye
V illage
W a
W e
Y ana
Y ama
Z imwe
a ta
b le
b yin
b wanacyambwe
c ron
c yamamare
d ineza
e man
f re
f ere
f ano
g no
g ton
g lade
i o
i z
i ri
i va
i soko
i jambo
i genamigambi
i tabi
i gn
k s
l f
l lo
l ande
l les
l lin
m yu
m pa
m bera
n y
n je
n gwa
n yuze
n ura
o l
o m
o pi
o om
p t
r g
r ch
s tu
s sa
s por
s bon
t hi
t rick
u c
u m
u s
w n
x el
z andika
Ã ¼
Ġ ana
Ġ sho
Ġ on
Ġ shyaka
Ġ huriro
Ġ shingiro
Ġ our
an yu
an ce
an giza
Ġb intu
Ġb yungu
Ġb yangombwa
ri mu
ri ya
ri se
ri zo
ri kana
ri nzi
ri es
ri lla
ri ot
ri rimbyi
Ġk anya
mu ga
mu kira
mu rura
ya to
Ġn ganda
Ġn gendo
Ġn kunga
Ġi ze
Ġi san
Ġi korwa
Ġi shaka
Ġi zamu
Ġi baye
Ġi tariki
Ġi shyira
Ġi mari
Ġi jyanye
Ġi hari
Ġi korera
Ġi komoka
Ġi renga
Ġi shuri
Ġi banza
Ġi fitanye
Ġi genamigambi
Ġi shami
Ġi rangiye
Ġi genzu
Ġi huriro
Ġi tegurwa
Ġi funzwe
Ġi ry
Ġi wabo
Ġi shyanga
ra bi
ra mo
ra ke
ra ck
ra kari
ga tare
ga bira
Ġa m
Ġa he
Ġa shyira
Ġa garagara
Ġa saba
Ġa rayi
Ġa tuye
Ġa gire
Ġa yobora
Ġa gena
Ġa bonye
Ġa girwa
Ġa boneka
Ġa keneye
Ġa ciriritse
Ġa yoboye
Ġa shimira
Ġa sobanura
Ġa ruhu
Ġmu ba
Ġmu ke
Ġmu nya
Ġmu gore
Ġmu byo
Ġmu depite
Ġmu bare
Ġmu genzi
Ġmu nani
Ġmu handa
Ġmu ganga
ba r
ba ma
ba ka
ba ho
ba li
ba sha
ba tse
ba rasa
Ġu ti
Ġu mwa
Ġu rw
Ġu maze
Ġu gana
Ġu kuriki
Ġu kwa
Ġu korera
Ġu mwi
Ġu tuye
Ġu heruka
Ġu fatwa
Ġu rangiye
Ġu hereye
Ġu rebye
Ġu nyuze
Ġku yo
Ġku mi
Ġku ti
Ġku gwa
Ġku cyo
Ġku bya
Ġku bone
Ġku gurisha
Ġku vana
Ġku zana
Ġku gombora
Ġku ngukira
Ġku rangura
Ġku gabira
re ss
sh ywe
sh wan
sh ene
ma d
ma in
ma teka
ye rere
ye jana
gi ro
gi rira
gi ranye
gi tari
gi shw
ko mwe
ko ngo
ko no
ko man
ko pera
ka baye
ka rengane
in go
in gana
in goro
in komoko
in shingano
gu ta
gu rika
za mo
Ġba he
Ġba han
Ġba kan
Ġba kore
Ġba hanga
Ġba bye
Ġba zamu
Ġba gana
Ġba shyira
Ġba ca
Ġba kana
Ġba garagaza
Ġba tara
Ġba fatan
Ġba jye
Ġba korana
Ġba depite
Ġba kina
Ġba kura
Ġba kunda
Ġba hita
Ġba sirikare
Ġba korerwa
Ġba haye
Ġba shoramari
Ġba kozi
Ġba pfa
Ġba turutse
Ġba fashwe
Ġba fitanye
Ġba sanze
Ġba fatwa
Ġba funzwe
Ġba twi
Ġba kundaga
Ġba ganiriye
Ġba fungiwe
Ġba tanzweho
yo ma
yo ro
yo mo
yo bera
ru ke
ru mwe
ru tin
ru hame
ru mika
ru sheho
ru retwa
ru xel
Ġya za
Ġya ge
Ġya bu
Ġya ki
Ġya zo
Ġya tanga
Ġya garaga
Ġya kwi
Ġya kuriki
Ġya shinzwe
Ġya vuye
Ġya shize
Ġya tewe
Ġya mbara
Ġya habwa
Ġya tumye
Ġya fashe
Ġya rangiye
Ġya teguye
Ġya shimiye
Ġya tangajwe
Ġya guye
Ġya kundaga
Ġya simbu
Ġya subije
Ġya menyekanye
Ġya funguye
Ġya sohoye
Ġya tsindiye
Ġya hishu
Ġya gabanyije
ge ma
ge shwe
ge ria
and en
and ball
te te
te rere
te zweho
te fano
zi g
zi twa
bi ru
bi je
bi koze
bi dde
yi ta
ha za
ha gira
ha hi
ha gera
ha tana
ha mber
bu wa
bu tse
bu rana
bu taka
bu guzi
ta g
ta we
ta yu
ta gira
ta genze
ta bwaho
Ġbi giye
Ġbi garaga
Ġbi shyira
Ġbi kana
Ġbi tero
Ġbi tegan
Ġbi saga
Ġbi zwi
Ġbi shwe
Ġbi yongereye
Ġbi gamije
Ġbi hariye
Ġbi sigaye
Ġbi turutse
Ġbi fitanye
Ġbi yongereyeho
Ġbi hangano
Ġbi reme
Ġbi rangira
Ġbi fashisha
Ġbi koresho
Ġbi sembuye
Ġbi can
Ġbi ganza
Ġbi sobanuro
ze ngere
ki garagara
ki shije
ki rutin
tu gu
tu we
tu juje
ro m
ro y
ro byi
ro shye
ho za
ĠR i
ĠR amada
se nga
Ġc ho
Ġc yeme
Ġc yumba
Ġc yemezo
Ġc ricket
mi zi
mi co
mi kwa
mi jana
Ġgu ka
Ġgu si
Ġgu kan
Ġgu hanga
Ġgu shinga
Ġgu hura
Ġgu tora
Ġgu tsinda
Ġgu pfa
Ġgu koreshwa
Ġgu curuzwa
Ġgu fatanya
Ġgu fungwa
Ġgu subiza
Ġgu shingira
Ġgu fashwa
Ġgu sozwa
Ġgu sinya
Ġgu funga
Ġgu shushanya
Ġgu cece
Ġgu torerwa
si a
si ma
si go
si ro
Ġko rana
Ġko nti
Ġko ngerwa
me jwe
me ranya
Ġy uko
wi ye
ku ri
ku ze
ku riza
hu ka
hu ta
hu ti
hu sha
hu zaga
hu rch
ti shoboye
ban ire
ban ywa
vu gira
vu ruru
Ġwa ga
Ġwa zi
Ġwa yi
Ġwa ho
Ġwa ku
Ġwa gira
Ġwa vuze
Ġwa vuye
Ġwa tangiye
Ġwa seze
Ġwa hari
Ġwa gizwe
Ġwa soma
Ġwa fashwe
Ġwa kiniraga
Ġwa kiniye
Ġwa vukiye
Ġwa koreraga
Ġwa huzaga
Ġna ri
Ġna ba
be se
be raga
be th
be ria
he r
he sha
he to
he nnyi
ĠM wi
ĠM wan
ĠM inne
ĠM bidde
li sh
li me
li ca
li ziya
li ance
Ġha zi
Ġha ti
Ġha kuriki
Ġha ruguru
Ġha shyizwe
Ġha sinywa
Ġm p
Ġm inisitiri
Ġm paka
Ġm vugo
Ġm peshyi
ĠK u
ĠK aba
sa baga
Ġbu ga
Ġbu bi
Ġbu shya
Ġbu shobora
Ġbu tara
Ġbu jyanye
Ġbu tuma
Ġbu vuzi
Ġbu tunzi
Ġmuri mo
rwa ye
Ġin ko
Ġin yu
Ġin tare
Ġin gengo
Ġin tasi
sha ra
sha mbo
sha kisha
Ġgi fasha
Ġgi kwiye
Ġgi kemu
Ġgi tuwe
ĠA t
ĠA gaciro
yan e
Ġari wo
ke s
ke nga
fa ire
Ġumu gore
Ġumu curuzi
Ġumu hanzi
Ġumu hungu
Ġumu vugizi
Ġumu rwayi
Ġumu sanzu
Ġumu nyamakuru
Ġumu rambo
Ġumu senateri
ĠB il
ĠB ruxel
Ġubu so
Ġubu fasha
Ġubu kiri
Ġubu rasirazuba
Ġubu sizi
Ġubu shishozi
shi mye
shi myu
Ġibi ryo
Ġibi garagaza
Ġibi gwi
Ġibi korerwa
Ġibi yaga
Ġibi taramo
Ġibi subizo
Ġibi hingwa
Ġibi tagenze
ran ywe
ĠI kipe
ĠI saa
ĠI nama
ĠI jwi
ĠI subireho
ĠI cyamamare
Ġama hugu
Ġama fu
Ġama fi
Ġama shyamba
Ġama dini
Ġama kosa
Ġama tsiko
Ġama jwi
Ġama kenga
Ġw inji
Ġw anjye
Ġaba ru
Ġaba zi
Ġaba jya
Ġaba maze
Ġaba shaka
Ġaba gabo
Ġaba saga
Ġaba sura
Ġaba hungu
Ġaba byeyi
Ġaba kurambere
Ġaba yoboke
Ġaba tishoboye
andi kira
Ġni bwira
Ġni kigera
ĠN yobozi
ĠN genda
ĠN ISR
ĠN gishw
de o
kin do
kin wu
Ġcya baye
Ġcya gize
Ġcya rano
Ġcya shyizeho
Ġru ri
Ġru ki
Ġru tara
Ġru gari
Ġru shanwa
Ġru herereye
Ġru teganya
Ġru banda
Ġru vana
Ġru zinduko
Ġki mu
Ġki ra
Ġki ka
Ġki da
Ġki gomba
Ġki zaba
Ġki swe
Ġki gereranyo
Ġzi mu
Ġzi zi
Ġzi ki
Ġzi twa
Ġzi vuga
Ġzi bera
Ġzi shobora
Ġzi kaba
Ġzi komeje
Ġzi komeza
Ġzi komoka
Ġzi shingiye
Ġzi herereye
Ġzi teye
Ġzi surwa
Ġzi tunganya
Ġbya komeje
Ġbya turutse
Ġbya rangiye
Ġbya kiriye
Ġbya hinduye
Ġbya hungabanyijwe
fu zo
fu ngo
ĠC ya
ĠC Ã©
ĠC MI
ĠC ristiano
ĠC hamber
ĠU p
ĠU bwo
ĠU bwi
ĠU shinzwe
ĠU rwego
da m
so ta
so mo
so je
so zera
to he
to lika
to ngero
gan zo
gan nye
ama zi
ama sezerano
ama kipe
ama shyamba
ama sasu
hi ga
hi mana
nge nge
nge reye
ubu mwe
ubu hinzi
ubu ziranenge
ubu rwayi
ubu shinjacyaha
aba ru
aba fite
aba hoze
aba sirikare
aba hagarariye
aba hungu
aba zungu
aba tavuga
aba kurambere
aba tunze
aba sivi
Ġim bi
Ġim pa
Ġim vugo
Ġim inota
Ġim pozamarira
Ġim fura
Ġim peta
Ġza cu
Ġza shyizweho
Ġza shyizwe
Ġza habu
shin ganisha
shin gton
en ze
ĠS y
ĠS teve
Ġigi ye
Ġigi tego
Ġigi sirikare
Ġigi subizo
Ġigi fungo
Ġmi zi
Ġmi shya
Ġmi sozi
Ġyo ngere
Ġyo ur
Ġyo ngeye
kan subije
ĠP L
ĠP DR
vuga ho
Mu ra
Mu tabazi
Mu senyeri
ĠF e
Ġma zi
Ġma shuri
Ġma shyamba
Ġma twi
ĠKa yi
ĠKa yumba
ĠKa reke
ĠKa liza
ĠKa geri
ĠKa cyiru
ĠKa ruretwa
su f
su ganya
su mizi
ĠMu ha
ĠMu ni
ĠMu dugudu
ĠMu kuku
du ko
du ce
zu ra
zu za
shyi kiri
shyi remo
Ġkwi twa
Ġkwi garagaza
Ġkwi huza
Ġkwi gisha
Ġkwi fashisha
Ġkwi buka
Ġkwi subiza
Ġkwi gobo
Ġkwi zigamira
Ġkwi horera
Ġkwi cwa
Ġkwi makaza
Ġkwi yandikisha
ci ye
cu za
cu nga
cu ngi
cu kura
ibi he
ibi tabo
ibi jyanye
ibi ciriritse
ibi dukikije
Ġbw inshi
san giza
umu rimo
umu kuru
umu depite
umu jyi
umu toza
umu biligi
umu kara
umu zungu
ĠBu nya
ĠBu ju
ĠBu shali
ĠBu holandi
Ġimi co
Ġimi jyi
Ġimi rongo
Ġimi terere
Ġbwa zamutse
Ġbwa gizweho
Umu rwa
Umu tima
Umu depite
Umu hango
Umu tekano
Umu toza
Ġkuba ho
Ġkuba rura
Ġkuba hirizwa
Ġka ru
Ġka bo
Ġka minuza
Ġnta ren
mbi a
ĠMa ya
ĠMa de
ĠMa id
ĠMa damu
ĠMa cron
ĠMa sozera
yobo raga
Aba yobozi
Aba kozi
Aba koloni
Aba sifuzi
Aba banda
ĠL ou
Ġyi ga
Ġyi genga
Ġyi tezwe
Ġyi shyu
Ġyi fashishije
Ġyi tiriwe
Ġyi sumbuye
Ġtu mwe
Ġtu va
Ġtu bona
Ġtu zajya
ĠKi buga
ĠKi liziya
Ġri ga
Ġri ha
Ġri fasha
Ġri garagaza
Ġri rambye
Ġga zi
Ġga hanga
Ġga banuka
garaga riza
Ġrwa shyize
po loma
tsi rika
rere ye
rere za
im pi
im buga
ĠCo lo
ĠCo vid
bwi raga
va mo
Ġnk wiye
rw ano
Ġaka ya
Ġaka bi
Ġaka rere
Ġaka genda
Ġbyo ngere
ĠT wa
ĠT our
Ġrya maze
Ku jya
Ku rumika
nya mbo
ĠJ io
ib yumba
mbo go
mbo na
ĠH e
ĠH en
ĠH indu
ĠH urley
ĠH andball
Ġuru go
Ġuru rimi
Ġhari ho
Ubu curuzi
Ubu rayi
Ubu tabera
Ubu vuzi
Ubu rezi
Ġwe nyine
rage zwa
ĠRu gaga
shaka mo
ranga ga
ve lo
ve rty
Ġwo we
andu ye
shu shan
Ya sobanuye
Ġmwa mi
Ġmwa mba
Ġ202 2
zamu rikwa
imi rimo
imi kindo
ĠD is
tandu kanya
ĠE thi
Ġic y
Ġic yumba
Ġic yubahiro
Ġbaka mu
Ġbaka ya
Ġbaka za
Ġbaka vuga
ic yumweru
ic yubahiro
ic yamamare
ĠIn tebe
ca kara
Ġ3 5
Ġ3 000
ngera ho
Ġye ar
Ġye rekanye
In ganda
In komoko
ĠGa tete
ĠGa tolika
Ġaga tanga
Ġaga kunda
she ma
she geshwe
mbu riye
mbu rira
Ama sezerano
ĠLe opold
fo rd
ĠY ves
gani ye
gani we
geze ho
Ġban i
kuriki ranya
ĠNya ba
ĠNya mp
ĠNya kubahwa
ĠNya gatare
lo metero
banyi rizwa
Ġ5 6
Ġgusa hura
ĠW il
Ġiyi ha
zama ra
ĠPa r
ĠPa rty
ĠPa trick
Ġinga be
Ġt ra
Ġt wu
Ġt hat
Ġt his
vuye ho
sin g
ĠGi hugu
ĠGi cumbi
ĠGi hana
ĠGi tarama
ĠUmu kuru
ĠUmu nya
ĠUmu nsi
ĠUmu depite
ĠUmu tekano
Ġ4 9
Ibi go
Ibi ro
Ibi ciro
Ibi gwi
Ibi sumizi
Ġiri ho
Ġiri ndi
Ġaza kina
Ġdu ce
Ġdu saba
Ġnti wa
Ġnti bya
Ha giye
Ha shize
Ġbaga ban
Ġbaga mije
kwa mbara
menye reye
menye kanisha
ĠBa hama
ĠBa buwa
tero li
er ta
man ura
Ġwi ta
Ġwi fuza
Ġumw anditsi
Ġkure n
Ġkure ma
Ġbara ka
iki menyetso
bya re
bya ro
igi ro
tin ze
Ġ7 5
Ġ7 9
seze ranye
Ġ8 7
Ġ8 18
Ġhan yuma
Ġkw andu
Ġuku gira
Ġuku nda
Ġuku ntu
Ġuku reba
Ġ200 1
Ġ200 4
ou t
Ġtwa ri
Ġtwa vuga
Ġtwa sinyishije
ĠMi l
ĠMi renge
komeza ga
ĠZ oom
yeme rere
Ġ6 2
Ġ6 3
Ġ6 00
Ġkuza jya
Ġcyi swe
Ġbaba she
Ġhi zihi
Ġkwe gukana
Ġkubi bona
Ġkubi kuriza
siga ra
kene rwa
yin ya
yin zira
ĠO bama
tare nga
uru gamba
uru hererekane
Ġbe mera
tegu ro
Ġ199 0
Ġ199 7
hindu rwa
Ba ra
Ba mwe
Ġika ku
Ġika gira
gari ro
Ġgute rwa
tangi re
tangi zwa
tangi jwe
tangi riye
tangi rira
ĠHa m
ĠHa tegekimana
ĠRD I
fata ga
pam yabu
Bi mwe
Bi tandukanye
Imi twe
Imi korere
Imi gogo
buhanga ho
komoka ho
ĠYu nze
ngan ira
pan o
pan gu
Ġbiri bwa
Ġbiri ndwi
Ġ12 0
soho za
ĠCyi mumugizi
Ġibya tsi
Ġibya baye
Ġibya kozwe
Ġhe gitari
Ġikin yoma
Ġuta ri
Ġuta vuze
zaga ruka
ĠRa diyo
ĠRa ting
ĠSa hara
tso be
yongera ho
Igi cumbi
Ġkuvu gururwa
Ġbaza jya
Ġbaza habwa
ĠRwa magana
Ġcye reke
Ġ25 5
ĠSe ndashonga
uba tswe
Ġbwi hariye
Ġiba ra
Ġiba rirwa
Ġiba rizwamo
yon cÃ©
Ġibiri bwa
Ġkujya ho
Ġ9 3
Ġ9 10
garu ke
zaba sha
ĠLi sbon
ĠLi beria
Ġabi mukira
Ġuwa hoze
ar t
Ġyagiye ho
kani ro
ĠRo ck
kubi to
fati ye
fati ro
les tin
les ch
Ġbin yu
Ġuza jya
hora ho
Ġmyi tozo
Ġtwi ta
Ġtwi geze
Ġtwi zeye
ĠNi shimwe
ĠNi geria
Ġimyi dagaduro
Bu shali
Ka bu
Ka game
Ka piteni
wan yi
gende ye
gende rwaho
ngere ra
koreshwa ga
ĠDe velo
koloni je
koloni jwe
gene ke
Ġinzu ri
ĠSi bomana
Ġtele viziyo
Ġo ne
Ġkin yamakuru
shyin gura
Ġrwi butso
Ġndi mi
Ġiherereye mo
Ġazi yamamariza
Ġumwami kazi
Ġbada fite
ĠNe buka
Ġimpu ngenge
ĠMar riot
Ġyitwa ye
Ġyitwa je
Tu maze
ubwi shingizi
ubwi korezi
Ġuri ho
Ġkuha rara
Ġbake tse
Ġyaba jijwe
sese kaye
ĠGo ogle
ĠGo rilla
rwan yi
hagari kwa
NC TA
by ina
Ġnga ruka
Ġyabaga mo
ĠIs lam
Ġyita bira
ĠHab ineza
Ġiga re
Ġitanga za
Ġitanga zo
Ġugu shyigikira
ine dine
Ġyagi riye
Ġkoro shya
Ġkoro roka
ĠBo ni
rangi rira
ĠPo litiki
ĠPo verty
ĠRuda tsimburwa
uwa hoze
vo ma
Ġira shize
Ġada kunda
Ġada tura
Ġbaru shaho
ĠSta r
suzu gu
Ikin yarwanda
van ganzo
Ġryi ta
sanzu ye
Abanya burayi
Ma ta
Ġkun yo
Ġkun yura
hama gara
Ġyan yuze
ĠNze yimana
Ġ196 0
ibin yabuzima
ĠWa shington
Abo ngereza
Ġbatuye mo
Ġguca mo
ĠJa mes
ĠYo lande
Abi bumbye
Ġbahu nze
ĠNsengi mana
ĠTu rere
CA M
aha zaza
Ġan gana
Ġbyeme we
Ġbyeme ranyije
Ġbageze ho
Ġbahabwa ga
ruhu ko
Ġbiha gije
liza beth
Ġumunya politiki
Ġibyi za
Ġntiba bi
Ġumwu zure
CO M
Re ba
Si mba
ikin yamakuru
umw ana
umw anditsi
Ã´ te
Ġf rom
Ġkuta ruta
Ġbiku bye
ĠAka manzi
shishika jwe
ĠIra koze
ĠIra mbona
ĠNdo ba
nara ribonye
Ġimp induka
Ġkwamama ra
Ġntibi geze
abanyama hanga
sesengu ye
ste ur
Ġpe re
Ġpe teroli
Ġnke ngero
Ġnto ki
Ġkugi rira
ren za
Ġbasha kisha
Ġyasinyi shije
roko ka
Ġubusa be
ĠChar les
ĠChar gÃ©
ĠGu ma
ĠPS F
ĠFu nd
ĠTa deyo
Yi ta
can yi
lla h
ĠQ ata
ĠÂ ¼
ĠÂ ½
tabi riye
Ġruga hamya
ĠSha rangabo
Ġ193 8
Ġ197 5
Ġbaramu tse
ĠMili yoni
risti an
imba raga
Ġbyu mvikana
Ġbyan ze
mure myi
Ġndanga gaciro
Ġndanga mateka
Ġyaci ye
Ġyasin ye
Ġyasin ywe
gobo ka
rohe je
Ġguhu ngira
Ġgukuriki za
Ġgukuriki zwa
Ġgusobanu kirwa
ĠAdo nia
ĠBan glade
imyi twarire
Ġ188 4
Ġ188 5
Inga gi
Kwi ta
Mar c
Pre mier
Vi si
mpi que
vÃ© nal
Ġikina mico
Ġat ya
Ġbajyan wa
rukan ywe
rumbu ke
gend anwa
Ġbitare nze
Ġguse nya
Ġgukura ho
kundi ye
sam banyi
ĠBla ise
ĠBel lomo
ĠNgo mijana
Ġkiga hitana
cika mo
sangwa butaka
ĠLo ni
ĠReso rt
ĠOly mpique
ĠRosali e
Ġguhimba za
ĠWat ford
Man chester
Sa muel
Ye su
itanga zamakuru
Ġntangi riro
Ġurwi butso
Ġkuban gamira
Ġkugaban a
guruka ga
yomeka ho
Ġyawu vuyeho
Ġyasabwa ga
tali yani
Ġgusubi zwa
Ġgukini sha
henge ri
ĠMon t
Ġmyu gariro
Ġbuse mbere
ĠADE PR
ĠAward s
ĠBwi ru
ĠNic o
Ġruha bo
tote zwa
shyiki rano
Ġyiya huye
tekere ze
Ġyereke je
ĠNyamu henda
ĠVo lley
uruda ca
ĠFEASS SA
serukira muco
Af faire
De pite
Is rael
Ivo ire
Ja mes
Kanya rengwe
Sinza tesha
dineza li
fere nce
mpa ye
opi a
Ġisan o
Ġurw u
Ġkuyo hera
Ġkucyo hera
Ġyahishu ye
Ġbitegan ywa
Ġbifashisha ga
Ġbican wa
zengere je
kirutin ka
Ġgucece ka
Ġkorana buhanga
Ġwaseze ye
Ġwahari we
ĠMwan za
ĠMinne sota
Ġhasinywa ga
ĠBruxel les
shimyu muremyi
ĠIsaa c
Ġamahugu rwa
ĠNgenda himana
ĠNgishw anama
kinwu mi
ĠCÃ© lestin
ĠChamber lain
abasivi li
ĠKareke zi
ĠMuni ch
Ġkwigobo tora
cungi re
ĠBunya bungo
ĠBuju mbura
Ġntaren gwa
ĠDis ney
ĠEthi opia
ĠNyamp inga
ĠBahama s
Ġ818 9
pamyabu menyi
ĠRating s
Ġcyereke zo
Ġ910 5
ĠNebuka dinezali
NCTA D
ĠQata r
ĠVolley ball
Affaire s
% )
' t
0 8
1 1
1 2
1 3
2 3
3 5
4 0
4 4
4 6
5 5
6 1
7 5
7 6
9 9
A E
A L
A P
A S
A m
A r
A ga
A yo
A hu
A maze
A kana
A ganira
A gaciro
A garuka
A pÃ´tre
A kinwumi
B yo
B harti
C G
C har
C OVID
C ity
D o
E G
E st
E uropa
F D
F E
F P
F i
G A
G M
G O
G o
G en
G hana
H o
H ikin
I Z
I c
I ya
I ba
I bya
I sezerano
I soko
I shora
I banga
I FA
I cy
I subireho
I tumanaho
I murika
I ndoto
I yamuremye
I nyambo
I nararibonye
J P
K A
K imi
K imwe
K inya
L K
L N
L ong
M A
M S
M i
M AN
N g
N o
N go
N di
N kuru
N zaba
N tekereza
N sanzabera
O L
O r
P e
P ri
P hi
P la
P ier
R o
R SS
R amada
S T
S o
S an
S our
S hampiyona
S ACCO
S PN
T o
T our
T roy
U rugendo
U shobora
U sanga
U rwo
U PDF
V uba
W I
W i
W hi
Y u
Y ubatswe
a y
a ya
a yi
a ti
a mo
a ce
a saga
a kazi
a st
b ga
b in
b du
b yari
b ande
c re
c ha
c hi
c yari
c yura
c tor
d an
d ye
d anda
d indi
d ji
e bwe
e jo
e byiri
f s
f y
g ro
g he
g da
g wan
h ran
h di
h mad
i si
i de
i sura
i les
i curuzwa
i joro
i wabo
i hinga
i murika
i suku
k h
k w
l s
l en
l ina
l ingi
l dor
m y
m ve
m byo
m bya
m bwiye
m bana
m pic
n k
n an
n en
n ne
n nye
n jo
n toni
n rise
o se
o ple
p s
p ti
p he
p pe
p ani
p ment
p per
r yi
r da
r ts
r po
s ana
s tan
s san
s ini
s lo
s Ã¨ne
s per
s sing
t to
t ni
t Ã©
t sura
t wu
u p
u ga
u ma
u ka
u ta
u sa
u rwa
u mwa
u ter
u st
u rice
u bwenegihugu
u taha
u ght
u witwa
u hatana
u duce
u erta
v ano
x it
y ne
y che
y sia
z Ã©
z ingo
z anden
¡ dio
Ã £
Ã ¯
Ã ¡dio
Ġ *
Ġ l
Ġ go
Ġ anga
Ġ sa
Ġ da
Ġ riki
Ġ zu
Ġ vi
Ġ Ya
Ġ handi
Ġ fati
Ġ tsinda
Ġ jambo
Ġ hana
Ġ qu
Ġ âĢĻâĢĻ
Ġ gereranya
Ġ shene
an g
an s
an t
an u
an gi
an ka
an gu
an gana
an ja
an tekerezo
an ney
an ny
Ġb andika
ri g
ri nga
ri rana
ri shami
ri kingi
ri situ
Ġk aba
Ġk indi
Ġk ere
mu ri
mu ha
mu nsi
mu shyiraho
mu goye
ya tekerere
ya pani
Ġn e
Ġn gu
Ġn ini
Ġn sanga
Ġn tumwa
Ġn yira
Ġn tebe
Ġn shingano
Ġn yine
Ġn geri
Ġn umva
Ġn yigo
Ġn kenerwa
Ġi r
Ġi re
Ġi ye
Ġi te
Ġi be
Ġi kore
Ġi du
Ġi pe
Ġi bera
Ġi fasha
Ġi teka
Ġi geze
Ġi kuriki
Ġi tara
Ġi gomba
Ġi tangiye
Ġi tangira
Ġi bone
Ġi hura
Ġi tangaje
Ġi yin
Ġi garagara
Ġi tuma
Ġi gen
Ġi vugwa
Ġi hita
Ġi kwiye
Ġi kurikira
Ġi huza
Ġi korerwa
Ġi keneye
Ġi tangwa
Ġi kwiriye
Ġi tsinze
Ġi subukurwa
Ġi subira
Ġi reba
Ġi terabwoba
Ġi van
Ġi reme
Ġi twaye
Ġi terwa
Ġi surwa
Ġi duka
Ġi sohoka
Ġi sobanura
Ġi kosa
Ġi kinamo
Ġi subireho
Ġi hangwa
Ġi tekanye
Ġi tongo
Ġi hungabana
Ġi fatika
Ġi suku
Ġi gendanwa
Ġi serukiramuco
ra l
ra ro
ra jwe
ra bura
ra muka
ra teganya
ra diyo
ga in
ga za
ga je
ga la
ga birwa
wa kansubije
Ġa h
Ġa bu
Ġa si
Ġa je
Ġa sha
Ġa kan
Ġa du
Ġa vuze
Ġa kora
Ġa fasha
Ġa ca
Ġa tara
Ġa subi
Ġa komeza
Ġa genda
Ġa kura
Ġa korera
Ġa komoka
Ġa renga
Ġa shingiye
Ġa mwi
Ġa kurikira
Ġa tandatu
Ġa sabwa
Ġa pfa
Ġa teye
Ġa tanze
Ġa koreshwa
Ġa genga
Ġa turuka
Ġa van
Ġa shyiraho
Ġa rangwa
Ġa tunganya
Ġa hagarika
Ġa koresheje
Ġa guye
Ġa tumi
Ġa teme
Ġa soza
Ġa kinamo
Ġa kinira
Ġa fungiwe
Ġa kenera
Ġa pp
Ġmu ra
Ġmu re
Ġmu ru
Ġmu he
Ġmu nye
Ġmu shaka
Ġmu hango
Ġmu kiliya
Ġmu curuzi
Ġmu kobwa
Ġmu gambo
Ġmu tungo
Ġmu rongo
Ġmu rwayi
Ġmu zungu
Ġmu gezi
Ġmu buro
Ġmu bonamo
Ġmu mpaye
ba ra
ba mo
ba shi
ba rizwa
ba girwa
ba jije
Ġu zi
Ġu ki
Ġu hu
Ġu je
Ġu shin
Ġu kan
Ġu jya
Ġu va
Ġu fasha
Ġu kana
Ġu geze
Ġu tara
Ġu gomba
Ġu tangiye
Ġu kiri
Ġu fungu
Ġu kwiye
Ġu zamuka
Ġu toza
Ġu keneye
Ġu kwiriye
Ġu van
Ġu rangira
Ġu sohotse
Ġu nyu
Ġu curuza
Ġu bwu
Ġu ganiriye
Ġu sibye
Ġu witwa
Ġu zongera
Ġku hi
Ġku du
Ġku zamu
Ġku gani
Ġku wu
Ġku vugwa
Ġku mwi
Ġku van
Ġku rasa
Ġku gabanuka
Ġku garuka
Ġku gurira
Ġku buza
Ġku rangiza
Ġku byina
Ġku rokoka
re e
re nd
re en
re jwe
re bera
re nzi
re er
re rwaga
re kurwa
re rire
re rimana
re mier
re cye
re ign
re xit
sh anga
sh wana
sh ywa
ma ye
ma ka
ma mo
ma cu
ma id
ye recye
gi fite
gi kora
gi ngi
gi rire
gi saka
ko le
ko kera
ko ranire
ko njo
ka ti
ka sa
ka je
ka rongo
ka maro
in s
in t
in yi
in gira
in gan
in tego
in es
in ziza
in twaro
gu me
gu sha
gu riye
gu kira
gu fasha
gu mye
gu riro
za m
za ra
za bi
za yi
za ha
za sanga
za tion
we r
Ġba go
Ġba ci
Ġba mbi
Ġba fasha
Ġba tatu
Ġba sin
Ġba gore
Ġba zira
Ġba bone
Ġba komeza
Ġba gere
Ġba hura
Ġba garagara
Ġba hoze
Ġba cumbi
Ġba vugwa
Ġba tumye
Ġba reke
Ġba tura
Ġba kurikira
Ġba bonye
Ġba hora
Ġba shoboka
Ġba banza
Ġba pfuye
Ġba hamya
Ġba turuka
Ġba huye
Ġba mara
Ġba sore
Ġba shinjwa
Ġba twaye
Ġba yobowe
Ġba rangwa
Ġba genzura
Ġba funze
Ġba shyiramo
Ġba suye
Ġba teganyiriza
Ġba rema
Ġba remye
Ġba komereza
Ġba hisemo
Ġba rwanira
Ġba shyiriweho
Ġba mbuka
Ġba fatanyabikorwa
Ġba kongera
Ġba bwiwe
Ġba curujwe
Ġba kwambara
Ġba buhangaho
yo go
yo bya
ru we
ru rwa
ru ngi
ru ger
ru batse
ru zuza
ru rishami
Ġya ya
Ġya wo
Ġya sha
Ġya so
Ġya raga
Ġya gura
Ġya mbu
Ġya twe
Ġya subi
Ġya gaban
Ġya zamutse
Ġya zaga
Ġya hita
Ġya sanze
Ġya zamutseho
Ġya vutse
Ġya huye
Ġya zanye
Ġya hereye
Ġya manu
Ġya shinze
Ġya tumi
Ġya renze
Ġya garutse
Ġya ranze
Ġya shakaga
Ġya ganiriye
Ġya kiniye
Ġya hindutse
Ġya fatwaga
Ġya tekereje
Ġya garagazaga
Ġya kwirakwi
Ġya suwe
Ġya kurura
Ġya tsinzwe
Ġya shimangiye
Ġya beraga
Ġya sabaga
Ġya komezaga
Ġya tangiriye
Ġya mbwiye
Ġya rubatse
ge yo
ge rwa
ge zo
ge zwa
ge jwe
ge rwaho
and ine
te ha
te je
te ngu
te mbere
te mera
te rura
te ruye
zi go
zi ho
zi game
zi dor
bi zi
bi riye
