#version: 0.2
a n
Ġ b
Ġ k
r i
m u
Ġ n
r a
y a
Ġ i
Ġ a
â Ģ
g a
w a
b a
âĢ Ļ
Ġ mu
r e
Ġ u
s h
y e
Ġk u
k o
m a
g i
Ġb a
w e
z a
i n
k a
g u
y o
r u
z i
Ġ ya
b i
t a
g e
t e
y i
t u
b u
h a
z e
b o
d a
g o
s e
k i
Ġb i
s i
w i
r o
h o
Ġk o
Ġ gu
m e
d i
k u
Ġ c
an a
t i
m i
v u
Ġn a
y u
Ġ wa
b an
w o
h u
Ġ y
j e
t an
Ġ r
b e
m o
sh a
w an
h e
Ġ R
s a
Ġ M
Ġu mu
Ġ m
y an
r an
sh i
Ġmu ri
Ġa ba
Ġi n
Ġ K
Ġb u
r wa
d e
Ġ ha
Ġa ri
f a
l i
Ġu bu
d u
m we
Ġ A
z o
k e
h an
Ġa ma
Ġn i
wan da
t se
Ġ gi
Ġ I
g an
t o
Ġi bi
Ġ 2
Ġ B
Ġ N
s o
Ġ w
f i
gi ra
m ba
n e
Ġ ru
n ge
an di
h i
Ġn go
n a
Ġi m
Ġk i
be re
Ġ U
b wo
vu ga
Ġk a
Ġ zi
sh o
ĠR wanda
t wa
k in
Ġ 1
a ba
ko re
Ġ yo
f u
ga ra
hu gu
Ġ âĢ
k an
Ġ ma
Ġb ya
Ġn o
z we
Ġk wi
Ġ P
Ġ C
e n
Ġc yan
ku ru
Ġi b
s an
u mu
Ġ S
Ġ2 0
Ġ G
sh in
fi te
a ma
ge n
Ġk andi
Ġc ya
Ġku ri
Ġi gi
s u
ko me
g wa
yo bo
u bu
z u
Ġa ban
gi ye
c u
ĠM u
b wa
Ġ tu
Ġi ki
Ġn ta
ĠK a
Ġku ba
re re
tan ga
d o
M u
v a
ku n
me n
âĢ Ŀ
sh yi
Ġ (
ko ra
Ġ za
Ġ yi
Ġa ka
t s
Ġ we
Ġb y
sh u
ĠâĢ ľ
Ġi c
Ġku ko
sho bo
r yo
ri mo
ri ka
Ġn de
U mu
l e
Ġ F
Ġu ru
p e
yu ma
Ġ mi
m ana
b wi
Ġ z
Ġ T
n ga
ri ki
Ġi mi
Ġari ko
ko rwa
m bi
v i
Ġa ho
te ge
c i
o n
Ġ J
Ġb wa
Ġnde tse
Ġ ri
t si
p a
ra ge
Ġcyan e
j ya
yobo zi
j we
c e
Ġ L
Ġ D
in i
Ġb o
m bo
ri ye
ya ka
Ġ ga
Ġc y
n da
Ġb w
Ġn k
Ġb yo
p o
i bi
b ye
Ġgi he
i ra
Ġ20 1
ya ma
h in
sh e
ĠK i
A ba
Ġha ri
n i
Ġba ri
Ġa ti
be ra
bo na
n tu
n di
vu ze
c a
Ġr ya
ĠB u
in di
ba zo
Ġu ko
Ġu yu
z wa
yan go
gara ga
ĠM a
K u
l a
m wa
ka ba
gi ze
Ġya ri
r wanda
Ġr y
tu rage
bi ri
han ga
k wi
re zi
kan ye
n gu
r ana
sha ka
u ko
e za
Ġku gira
0 0
i m
Y a
Ġ H
r yango
shobo ra
Ġr wa
n go
Ġm bere
te ra
ge ra
Ġaban tu
ya rwanda
U bu
i gi
b ana
Ġ du
a ban
Ġ E
ga bo
y in
Ġa vuga
k ana
ma ze
c o
ran ga
Ġcyan gwa
ts in
Ġ ye
Ġn yuma
b ya
Ġn ti
ki ra
w u
ta ra
Ġn eza
Ġib yo
Ġ wo
ĠG a
m an
ri ra
Ġb wo
sh ya
fa sha
rezi da
Ġc yo
zi ma
v e
shu ri
tan du
Ġi yo
Ġr w
nge ra
ĠR u
b yi
u ru
N i
gan i
Ġ Y
j ye
Ġu m
p i
. âĢĿ
Ġu bwo
Ġic yo
2 0
j i
p u
m bu
go re
sa ba
Ġa ga
Ġb an
Ġm wa
b yo
Ġ twa
re za
ru ka
ba ye
ri za
Ġ 3
n ye
n si
e rezida
su bi
Ġbu ryo
ge ze
g ana
ĠL e
men ye
Ġi yi
ga li
m va
t we
ĠU mu
Ġ wi
Ġa ta
kin o
w ana
go mba
tandu kanye
Ġgu sa
Ġ zo
ku riki
r we
f o
fa ranga
re n
ĠP a
gu ra
b we
. .
ci ro
c yo
shi mi
Ġya vuze
j a
kome ye
wan ya
an i
Ġba ra
tege ko
shyi ra
Ġk wa
Ġim bere
Ġigi he
re ro
en shi
re nge
Ġbu ri
Ġ se
ta riki
n o
i mi
san zwe
kome za
ĠKi gali
ran ye
Ġba ta
tu ma
in a
Ġba ba
Ġba ka
Ġku bera
n yi
ge za
Ġgi hugu
Ġi ri
Ġmwa ka
k wa
A ma
san ga
m ye
Ġbi ta
zi ra
Ġa ha
Ġn ka
gan da
shin zwe
kore ra
ini si
Ġaka ba
ban u
Ġr we
in tu
I n
l o
Ġ han
sh wa
ĠA ba
si de
kore sha
Ġ W
bo ne
Ġ1 9
ki ri
ĠLe ta
Ġgu kora
I bi
ĠN ya
ko ze
sh an
za ba
gu ru
i ki
te ke
ga me
kome je
Ġ t
u bwo
fa ta
Ġb enshi
cu ru
in e
ra ga
c ya
Ġumu ntu
Ġ V
ĠP erezida
ĠG i
Ġb yi
Ġr wo
fa tan
Ġ -
j yan
m be
ĠC o
Ġb e
H a
Ġya ra
pa m
ga ti
ko bwa
A ti
bu ra
shin ga
Ġmu nsi
Ġk we
ye me
ĠKa game
Ġaba turage
fu rika
Ġa ra
Ġu mwe
igi hugu
re zo
ga mi
r ya
I gi
B a
so banu
s t
garaga za
Ġ 5
za mu
bwi ra
Ġ O
ĠâĢ ĺ
Ġu ku
tan giye
u m
o u
shi je
ti ri
Ġ 4
in shi
ke ne
te ka
i b
ĠI n
e r
Ġgu ha
en o
ĠI mana
gen da
Ġu wo
shi ze
za ma
pam vu
Ã ©
li si
se ze
Ġbyo se
ri ko
Ġrwe go
m bere
ĠP o
di ri
re ke
Ġa bana
n gi
hin du
Ġbo se
hu nda
ĠB a
eno side
Ġ yu
in si
Ġba fite
P R
Ġa bi
Ġ tariki
e l
tu tsi
ku ra
Ġba ga
kun da
kwi ye
ĠJ enoside
me rika
p fu
Ġbi te
ru tse
Ġba ha
ga ri
gen zi
ko rana
j yi
A N
p an
âĢĿ .
sh yu
ĠR e
Ġya ba
Ġib ya
han zi
Ġama faranga
men ya
gani ro
tsin da
Ġha mwe
n ze
te ri
m vi
Ġba za
Ġim yaka
I ki
Ġa hu
A ban
ĠH a
Ġa fite
Ġku mu
Ġga hunda
bu ga
ĠM i
Ġa bo
te r
kin nyi
jyan ye
Ġa za
Ġ ,
Ġku re
Ġ e
1 9
Ġaban di
Ġ si
tan gira
Ġmi li
Mu ri
j o
Ġubu ryo
kan o
s in
tan gi
Ġgu te
Ġ20 2
yo ni
Ġwa ri
d wa
Ġku geza
inisi tiri
U yu
an e
yama kuru
Ġb wi
t in
bye yi
Ġha gati
ki ko
gara gara
Ġku va
te go
tanga je
ho ra
Ġbi korwa
re nga
Ġ ho
te kano
Ġni ba
Ġku bi
hi ta
me ra
gi sha
tege tsi
ĠS a
ĠR a
ze go
ta bi
ri s
G u
zu ba
bo nye
ĠY e
to ra
ko zi
Ġba mwe
j u
ka rere
k we
bwi ye
G I
si ga
im yaka
re ye
ru sha
ta tu
sh we
yo n
aban di
n de
ĠA furika
ban za
ma ri
Ġahu bwo
Ġha rimo
ts we
Ġ rero
Ġ 6
) .
) ,
si rika
ĠI gi
ra si
ho ro
Ġby inshi
gu ye
vu ye
n ya
Ġiki bazo
Ġibi korwa
Ġigi hugu
ru ko
z an
Ġ Z
ha re
Ġib intu
tan u
twa ra
Ġi za
ru ndi
ren gan
Ġba vuga
Ġka rere
mwe ru
po r
y ana
diri mbo
ri je
ki ye
ĠU bu
Ġi mba
ga ruka
ran o
ta ri
ha m
tu mwa
co m
Ġgu tanga
yu ba
Ã ¢
â Ĥ
âĤ ¬
mwa ka
Ġi kin
U ru
ĠJ e
Ġ po
hi se
Ġ "
ba re
n zi
sirika re
Ġka biri
ri ro
yu mweru
Ġku jya
n do
fu za
Ġnta bwo
Ġ he
ran gi
Ġku bona
te gan
yi je
byi ruko
Ġki mwe
gan o
Ġ1 0
gen do
l l
Ġna we
Ġa han
Ġu ri
t yo
Ġm pu
hu mbi
re ra
yin shi
Ġba tu
ĠN i
Ġ 7
H E
fa she
sa bye
Ġ 0
Ġya kore
Ġi z
ta ba
ĠK o
y wa
m bwa
ri nda
Ġy an
r wanya
aban tu
ĠF C
Ġma ze
Ġya bo
ti on
u l
Ya gize
B i
Ġic ya
ta re
ga ban
Ġc yi
Ġya ha
m in
.. .
me za
20 1
Ġk w
Ġmili yoni
tera mbere
Ġba bi
te ro
li ti
ran e
Ġb in
ĠB i
Ġba mu
I mana
ĠG u
Ġ sa
Ġku gi
ran i
ib indi
gan ira
san ge
Ġyo se
curu zi
Ġuru hare
Ġubu zima
ri re
â Ħ
ge ro
so ko
âĦ ¢
Ġya gize
âĤ¬ âĦ¢
s s
i c
san ze
mo ka
ĠâĢ ĵ
ĠU ganda
00 0
Ġi si
on go
ĠA merika
j yana
q u
t so
Ġbi ri
ti ma
Ġwe se
vu gwa
han da
Ġama kuru
R A
ta ka
Ġbi hugu
n d
ĠKa rere
a ho
seze rano
m bye
Ġum wana
a r
ĠJe an
kin a
v an
so re
Ġn da
Ġ 8
Ġba kaba
Ġha fi
yan di
Ġn ko
Ġibi bazo
Ġi ba
mba ra
ĠS e
ga mba
m wi
ge re
ban ga
Ġhan ze
Ġiki pe
tu mye
ĠA ma
teke rezo
y we
gen de
Ġbi ba
ĠA ban
GI HE
tan da
Ġu wa
shan wa
Ġbi za
Umu yobozi
do ka
u za
sa ru
Ġ201 9
fa ti
Ha ri
Igi hugu
ĠS por
hin zi
p fo
an o
mo doka
N yuma
Ġin ama
re tse
sh ye
ri we
te ye
Ġm wi
a l
shyi ze
hu za
z wi
Ġi ka
ran ya
Ġbi ga
to za
Ġ :
o r
yi za
t wi
Ġ19 9
aba turage
gi ngo
N ta
Ġno ne
r w
Ġmu ntu
shimi ra
Ġna ho
ran go
Ġbi ra
Ġt wi
Ġ20 20
Ġu fite
I yo
so ho
Ġru sange
gi zi
ĠAba tutsi
Ġm yaka
bere ye
hu ra
ĠI GIHE
zwe ho
bu hanga
j uru
m p
tu ngo
Ġki bazo
ku bi
Ġr yo
fa shi
fu n
Ġbi tandukanye
ĠD i
Ġku za
Ġ de
d an
fo to
saru ro
Ġba rimo
Ġba giye
sh yin
Ġ hi
ĠJ o
li ka
Ġku bu
Ġb ana
P erezida
Ġ1 5
s wa
Ġi ra
yobo ra
re ba
T u
dwa ra
min uza
re ka
Ġa ya
Ġ le
bu ka
kun do
ge ne
shobo zi
ran sa
Ġyakore we
ri ya
Ġku gera
Ġata ri
I N
Ġba maze
ĠSpor ts
ran ira
âĢ ¦
N a
rengan zira
tara mo
Ġaka zi
Ġ 9
ri rwa
ja mbo
fu ngu
me re
korana buhanga
ka zi
Ġi fite
zama hanga
Ġ20 0
Ġgu shyira
ro ngo
sh yaka
h ana
c an
ko zwe
! !
ba za
tanda tu
fa ransa
garaga je
r wan
ge rage
Ġ .
kun gu
shu ro
tu ye
tan ze
I yi
hi rwe
r wo
Ġsa a
mbu ye
ye shuri
mi ra
kore sho
Ġna ma
Ġ Â
Ġa mu
Ġ201 7
o ta
shimi ye
cya ha
Ġ201 8
gami je
kore she
Ġm pamvu
Ġw u
Ġy andi
a ga
B A
men yi
ve ri
Ġama ze
yu ngu
kore shwa
Ġb we
qu e
n gan
po ro
kun ga
Ġn ya
ĠM o
Y A
Ġba ki
ma ra
ĠPo lisi
Ġumu tekano
Ġna bi
f e
Ġu za
go ro
Ġr wi
R I
ri zwa
Ġ an
ha ye
r y
kun ze
I D
Ġa yo
ha ri
na l
bi korwa
Ġ te
p fa
Ġumu gore
Ġku rusha
shyi rwa
shin ja
U bwo
Ġn yinshi
Ġa gira
ĠD e
Ġban tu
K a
Ġu ta
n yama
Ġu ka
Ġbi tyo
fatan ya
Ġku yi
u yu
ze re
gan ga
tanga za
Ġ1 2
ho ze
ha mwe
Ġna bo
Ġ s
ĠM e
si yo
Ġbi rimo
nge ye
Ġmu kuru
Ġimba raga
wan di
Ġba zi
Ġmu ryango
han go
ko mbe
A riko
Ġc ye
r t
Ġba bo
liti ki
ĠPa ul
Ġu bwi
ga mbo
me ze
Ġya bi
Ġin dirimbo
Ġin yuma
t sa
kene ye
Ġba kora
ke mu
Ġi zi
inisi teri
ri vi
i l
Ġha ba
ham ya
sha mi
ru shanwa
sha tsi
p ira
shin gano
Ġwi twa
Ġk in
nge reza
ĠRa yon
Ġle ta
si ra
Ġn zi
Ġku menya
Ġbya ri
Ġri mwe
en ya
ĠK u
âĢ ľ
shaka shatsi
Ġi mwe
Ġba hu
M a
shobo ka
ha bwa
Ġ v
Ġ202 1
shin giye
ga ru
ha gara
Ġibi humbi
ĠM inisitiri
shobo ye
Ġku rwanya
Ġya tangaje
si ye
pe ra
he ra
Ġ201 6
i byo
ĠBu rundi
li ya
ku ko
Ġru go
yu ze
o l
yi jwe
W A
Ġbu zima
he rere
Ġ do
Ġum wanya
i re
ĠA f
yu mba
Ku ri
Ġu ba
Ġbi kaba
c k
Ġ3 0
to rero
bwe nge
Ġic yi
m bwe
Ġ pe
i z
te gu
Ġim insi
shyu ra
ku ri
yeme zo
on i
ĠI ki
gi je
Ġumu saruro
ĠS i
Ġse rivi
mba ga
M A
Ġmu kino
teke reza
ĠB o
Ġaga ciro
ĠR o
Ġkuba ka
t h
Ġbi ka
re je
Ġ1 1
pa ka
Ġi tariki
Ġim pamvu
r d
Ġ twe
shyi gi
fatan ye
Ġmpu zamahanga
Ġn ubwo
ji je
Ġi zo
me zi
Ġ wan
n shi
Ġba da
yo ngera
A karere
fa twa
ĠD r
Ġkwe zi
rwe go
ĠC ongo
se nge
i si
Ġu shinzwe
Ġgu komeza
R E
siga ye
ban da
te we
Ġ o
a bana
gen ga
Ġu bwa
fa shwe
Ġkugi rango
Ġbi jyanye
I mi
Ġbite we
ĠC a
Ġku vuga
I m
Ġgu koresha
ĠN a
I byo
Ġn u
te rwa
bwi riza
Ġm insi
ĠJ a
te ko
Ġibi ri
ĠAban yarwanda
zama kuru
Ġgu fata
ĠW e
j ira
sa ga
shu ti
su ra
i s
Ġ mo
ba ba
Ġbi he
u ka
tanga zamakuru
mbu ra
ĠT o
ĠN e
Ġu sanga
Ġim pan
Ġtu ra
Ġim pu
Ġ2 5
Ġi kaba
z ani
ha riko
Ġzo se
ki pe
Ġu gu
yi ri
j wi
Ġumu ryango
Ġgu fasha
Ġ p
zi ki
Ġumu gabo
re kana
yin e
yi ra
su zu
Ġibya ha
um wi
Ġc a
kun zi
Ġkwi rinda
Ġgu shaka
Ġama zi
du gu
Ġya bwiye
Ġ1 8
gi re
tsin ze
c h
Ġu ga
ban ze
Ġumu yobozi
sa ha
Ġi ta
menye tso
vi d
gi za
gen zu
Ġni bwo
S H
en t
sa bwa
de ge
ren ze
bere ho
sho ra
so mo
in du
Ġbi tuma
Ġ [
Ġ men
ĠS u
han de
Ġko ngera
ri n
Ġku n
ibi hugu
Ġku vu
ga mbi
Ġubu renganzira
twa ye
Ġya mu
M U
dugu du
Ġi terambere
Ġba ti
l u
m pi
subi ra
bone ka
nyama banga
Ġbyi za
Ġgu tu
a bi
I cyo
Ġu mwaka
ya ga
shu sho
Ġserivi si
ĠF PR
Ġi vuga
rwa yi
Ġhe juru
I kin
Ġubu shobozi
Ġ ze
re me
pi te
ĠGi cu
Ġmen shi
m ban
Ġbi mwe
Ġaba yobozi
Ġki ganiro
Ġa shobora
Ġama hirwe
p ubu
Ġn di
Ġi soko
Ġa da
Ġ1 4
Ġubu yobozi
Ġgu tera
Ġaban yarwanda
tsin a
mu ga
ki je
Ġgi to
G A
ki re
Ġm wanya
Ġumu n
in ji
Ġnti ba
R u
Ġ â
Ġaba ri
Ġhan o
ya ri
ru si
Ġku mwe
Ġa giye
Ġki go
ku ba
Ġ1 3
gu fu
Ġbi da
yu mvi
Ġba turage
subi za
Ġya baye
Ġi shuri
ĠD a
Ġga tatu
han o
a bo
kuriki rana
tan ye
Ġte le
ha we
v en
Ġim yi
Ġzi tandukanye
kan ga
Ġahan tu
yo na
ha ga
ubu zima
ki rwa
B u
ĠK enya
ta bo
Ġmu n
ru guru
t y
te za
Ġiz ina
Ġba gomba
n du
Aban yarwanda
han gana
Ġkwi ga
ye mo
te gura
ĠB an
Ġna yo
ze ra
Ġa ki
kore rwa
sobanu ra
Ġb ye
no ma
Ġimi rimo
hindu ra
Ġm yiza
ĠA l
Ġ1 6
kan ya
Ġku zi
Ġin ta
veri noma
Ġya je
i cyo
pubu lika
Ġyo mbi
Ġin da
o ne
shan ya
ra yi
Ġn kuru
Ġaba gore
zu ro
Ġuru byiruko
me na
Ġgute za
Ġ ra
gi rwa
Ġgi korwa
b in
Ġama tegeko
u r
ta bera
gu ri
Ġba genzi
i yi
jo ro
Ġku wa
ra zi
shi ka
Ġko ko
Ġmu jyi
u bwi
ma ro
Ġk e
Ġa ko
yama ra
Ġho se
mwa mi
ri a
Ġya giye
Ġya gi
he re
ĠC O
ĠA PR
vu gizi
ba vu
Ġc yumweru
ama tegeko
ĠF a
Ġu tu
te guye
Ġya koze
z ana
Ġa zi
kan i
bo n
ĠI si
men t
he reza
Ġ1 7
umu ntu
Ġk an
an zani
m ini
Ġin garuka
v o
Ġ fi
Ġba to
i yo
ĠM inisiteri
hu ngu
in g
mi siyo
Ġin zu
hora ho
umu ryango
ĠJ u
Ġyi twa
Ġ pa
Ġza bo
Ġmu renge
Ġtu ri
ĠRe pubulika
ĠMu renge
ĠT e
ĠP e
Ġr yi
Ġki ri
Ġwa bo
pfu ye
M inisitiri
Ġbi go
Umu ryango
to nde
c ye
hu nga
Ġnzi za
shi ra
Ġba ke
shya mba
ĠL i
Ġcyo se
Ġ199 4
tabi ra
Ġib indi
Ġmu gabo
Ġin di
zi ya
ra m
hu tu
ama faranga
ke ra
Ġba biri
P a
Ġbya ba
Ġi jambo
ti ye
ru s
c he
ran gira
ka ra
Ġn dirimbo
Ġ Ya
Ġya tangiye
yandi ko
ĠT he
Ġama sezerano
Ġubu tumwa
ve r
z ina
Ġba jya
vu ra
Ġumu nsi
V ID
Ġya hise
Ġbi komeye
i r
kwi ra
Ġn zu
Ġi ga
Ġ sha
gaban e
da y
wu ga
Ġu ndi
Gu sa
Ġmwi za
subi zo
Ġib y
ĠMa ta
Ġ vi
Ġba shobora
tara ma
Ġngo mbwa
ye ho
nga bo
B C
kuriki ra
S A
le s
Ġya sabye
Ġu ra
T wa
ya mu
Ġin kunga
bu ze
Ġba gi
s te
D A
umu tekano
Ġn zego
Ġubu ndi
ro zi
ĠN da
Ġaba kinnyi
te be
ĠT anzani
f ana
Ġgu so
ba sha
Ġyandi tse
Ġgu se
tan gwa
i mari
twa ri
ris to
ri ca
ĠH u
Ġi koranabuhanga
Ġku mva
ri e
in jira
Ġa man
umwi hariko
Ġku ru
Ġc o
ĠR wa
O N
Ġye me
fun gwa
Ġba yi
Ġi maze
Ġa be
he rutse
Ġbi shobora
R e
Ġrwo se
Ġibi hugu
bu ye
Ġi modoka
Ġpo litiki
zu ye
Ġumu kino
ti ve
Ġi da
Ġkwi ta
ro na
Ġdo re
ha ranira
ĠL a
t ana
ma ga
koreshe je
ĠF rw
po lisi
v andi
kore re
ho va
F A
Ġnta cyo
ĠF ran
can yi
ĠT u
Ġn kuko
Ya vuze
bi zi
sh yan
yama ma
ran yije
ĠYe su
ĠKa minuza
Ġn uko
ban o
Ġzi rimo
igi he
so n
Ġnti bi
Ġka zi
Ġ2 4
Ġ ana
K i
rere za
vandi mwe
iz indi
Ġdu fite
Ġbi ro
ye nda
Ġicya ha
Ġki za
Ġi shize
K A
A vuga
Ġuku ri
R U
shin wa
Ġin dwara
ba zi
di o
Ġama horo
mba ye
Ġaba byeyi
gan ye
Ġru hande
ri ri
Ġu kun
Ġtu za
ha gije
Ġkure ba
s ta
rwa ho
shinja cyaha
ra mu
wu ka
yi mana
Ġaba kozi
ĠCo m
ĠM U
Ġbi bazo
Ġm bi
shi jwe
Ġki pe
Ġmu twe
Ġikin tu
shanya razi
ĠMa r
Ġba cu
ro ko
Ġin shingano
go ma
twa ro
Ġin zego
tan yi
ĠCo vid
Ġbu ru
Ġ vu
ho ho
tabi riye
Ġama teka
shi man
ĠU wi
Ġba shaka
yu mva
gerage za
Ġm ba
Ġbwa bo
rangi za
ĠU ru
Ġzi ri
he ruka
d ana
gi ro
Ġubu tegetsi
so zi
N da
umu gore
gende ra
man u
so ro
b y
ki sha
re ngera
Ġ2 1
g wi
ha me
a karere
A bi
yobo ye
in ga
Ġa ke
Ġi ryo
Ġa tu
o nal
Ġsha mpi
ĠCO VID
hagara riye
Ġi ti
ri mu
Ġgu ta
Ġtu ba
re be
reke za
je je
i banze
Ġi tsinda
gu rira
Ya komeje
ĠH o
Ġba gera
ha riye
ban je
wa bo
kuriki ran
shi shika
ko tanyi
baye ho
Ġshampi yona
s we
t te
yin a
ĠMu kuru
Ġin yungu
Ġn shya
me tero
ubu ryo
bya ra
Ġgu korera
Ġya cu
Ġa gomba
ga ga
ĠYe hova
A ha
u mwaka
Ġkwi ca
yo bya
hugu rwa
garaga ye
gan wa
ro shye
su mbuye
hita mo
ĠI kin
tu ra
Ġma shuri
ĠUbu mwe
ko sa
G a
d y
Ġk wan
ĠUmu yobozi
k andi
Ġga ce
Ġvu ba
na ma
Ġni yo
ĠNya kanga
Ġ je
ra so
Ġibi koresho
rona vi
Ġ201 5
ya bu
hin da
ta li
ana ma
sa de
Ġimi kino
N k
Ġi ya
Ġ so
rangi je
u wa
n yine
ĠMu sanze
mvi kana
Ġ2 3
gaban ya
Ġba gize
I M
Ġn shuro
ĠV i
Ġumu bare
Ġ2 2
sha ke
ĠB e
Ġu du
Ġama shuri
K U
hi go
ĠG o
Ġmi kino
ti ra
aba gore
d ini
ri mana
ĠBu faransa
Ġnta ra
Ġru mwe
ko moka
ĠS o
m pa
Ġa kora
Ġaban yeshuri
ĠGicu rasi
Ġku ta
ran giye
kwi riye
ru mp
Ġn zira
Ġku zamu
fa shije
yu ranye
Ġtu ka
Ġin gabo
D C
se ra
ran gwa
sa bi
s si
yuba hi
Ba mwe
Ġna ri
Ġu shize
Ġbita ro
san zu
Ġr ye
l y
li ce
Ni ba
Ġibi ro
ĠMu se
u wo
E se
r s
shyin go
Ġm we
Ġbya bo
ĠG e
me ro
ru wa
to n
Ġ1 00
Ġ hin
Ġumu kobwa
ge nge
Ġha si
kwe zi
ri mi
Ġi tu
Ġhi rya
Ġga to
yeme je
Ġib yi
Ġigi korwa
Ġin zira
ĠN ze
a ka
no side
ĠKa mena
genzu ra
pe rereza
ĠC la
shi ma
Ġib in
ru rwe
Ġimi ryango
w s
fi tanye
ci ye
nd wi
tan i
byi ri
Ġwan jye
ĠD u
zi hi
K o
Ġicyi zere
u nze
l le
E R
Ġu rwo
A C
Ġgu ku
Ġmu handa
Ikin di
yu ra
Ġbi tu
Ġmu gi
ti c
ĠMi ss
ĠF D
kwa kira
Ġo f
ge reza
Ġbwi za
ronavi rus
shi ki
Ġm an
D u
tan zwe
A merika
Ġru swa
sha tse
ĠMu jyi
gene we
iki pe
mba sade
Ġum wi
Ġbin yuze
in zego
Y e
Ġka minuza
nge re
fi tiye
Ġi rimo
u mwe
Ġya maze
kemu ra
bo ko
hindu ka
ngan ya
in gabo
ra li
Ama kuru
ĠM an
ge zweho
Ġin shuro
E pfo
wan zuro
Ġhin o
ge sera
Ġu shobora
pera tive
ha ra
Ġki buga
shyan tare
Ġbaha we
Ġku rya
bo za
kene we
jyana ma
tegan ya
ĠWe rurwe
Ġyaha we
de pite
Ġgu hangana
an d
Ġin kuru
1 0
ama shuri
ngi rije
Y E
Ġyu ko
m wo
t ri
hin ga
ro n
Ġmili yari
Ġ ?
Ġku ya
Ġi tatu
gu shyingo
ĠP ro
K O
n yarwanda
ĠU ni
Ġubu menyi
ĠN o
ki kije
curu zwa
man za
Ġin zo
ku ye
yobya bwenge
bu za
ĠGa shyantare
rusi ya
to re
Ġwa we
bi li
Ġa shaka
Ġubu sa
ubu yobozi
Ġwa ba
ri mbo
ĠÂ «
bu to
Ġkwi shyura
Ġu da
to ki
Ġubu muga
Ġbya tumye
Ġfi li
fatan yije
Ġburu ndu
bu nga
i bya
Ġgu kina
Ġma kuru
Ġha za
han u
g we
shin gwa
I cya
Ġgu hi
ĠE m
ĠRu bavu
ĠTo day
bi je
Ġgi taramo
mere we
Ġb intu
ibi liya
ban gami
Ġma faranga
Ġya komeje
andi tswe
Ġguha bwa
ĠMu tarama
Ġ2 7
Ġya tu
Ġ2 8
Ġa saba
Ġa jya
tanga zo
ko ro
Ġnone ho
ĠA u
Ġn jye
ka za
Ġje noside
Ġba koze
Z A
ama guru
Ġkuba ho
yan ya
ĠT rump
ĠK anama
me s
Ġari mo
Ġ2 6
Ġ5 0
yeme za
shora mari
shyira hamwe
Ġibi ganiro
ran yi
Ġm wana
" .
ki za
N ubwo
ri c
Ġ re
Ġin ka
Ġya yo
she je
Ġza ri
ĠTanzani a
ma ma
kin go
Ġba je
te l
siye te
ta ro
han i
hu ye
ra ba
Ġkwa kira
Nta bwo
Ġn yamara
ĠF e
ĠÂ »
zi mana
Ġn Ã¢
wo ngereza
ji jwe
r wi
Ġin gamba
curu za
Ġibi he
Ġubwo ba
s ter
Ġhan yuma
I B
Ku va
ĠA r
R wanda
kan e
Ġubu mwe
Ġku gu
ha r
hi ra
Ġi su
tegan yijwe
ru ra
Ġâ Ĩ
kwa ho
manu el
ĠU gushyingo
ma gana
Ġgi sirikare
Aban tu
jya ruguru
moka rasi
C O
ze ye
li ziya
Ġn tu
shi mye
Ġk ane
shyi zwe
Ġba tandukanye
r wana
menye sha
Ġya vu
P o
Ġaka maro
T A
jye pfo
ku boza
Ġbi fite
S E
indu ka
Ġmu bi
Ġu retse
aba yobozi
Ġiz indi
herere ye
Ġn ke
vu zi
u kuri
Ġcya ri
Ġbita bi
ĠâĨ Ĵ
c wa
j wa
Ġbi biri
yuba ko
gomba ga
Ġku yobora
Ġic yemezo
a m
to zo
yu ka
Ġkwi buka
Ġi tegeko
Ġya shyize
ĠB wongereza
he reye
ba ll
Ġibi tekerezo
Ġk enshi
an jye
ĠS ta
ĠN yama
ke sha
ki riye
l in
Ġnti ya
re go
ĠY o
j ana
i terambere
âĢĻ âĢĻ
tege reje
Ġna byo
me we
wu ba
ĠU kwakira
Ġama gambo
Ġibi tego
ca manza
shyigi kira
L R
A bo
Ġuru kundo
Ġ202 2
Ġuru gero
Ġaba tutsi
W E
m y
D E
subi ze
Ġi mu
Ġigi kombe
Iki go
Ġu b
ĠLe a
Ġumu twe
gu e
cu mbi
st in
Ġgu saba
Ġumu co
ama vu
Ġzi ba
be rt
du ra
du kikije
gi we
Ġi shobora
ĠI s
za bi
Ġni ko
gi zwe
N go
guri sha
Ġaba gabo
shin jwa
sobanu ye
zu ngu
Ġma ke
ra bu
Ġbu ba
Ġi sa
hi riza
ĠGu verinoma
Ġgu korana
. "
Ġim p
Ġma tora
umu gabo
ĠZ a
yango mbwa
Ġu maze
Ġ to
Ġu zi
H o
Ġimba bazi
N e
Ġmu genzi
Ġwa cu
goro ba
yi gi
Ġku genda
Ġma hanga
Ġcyi ciro
Ġra poro
ĠAf rica
ĠA n
ka ri
Ġba ku
Ġgu tuma
Ġya garagaje
Ġibi go
AN A
gen za
kin i
Ġba bona
Ġba gira
soho ka
Ġi so
ri mba
ĠB BC
Ġmu kobwa
Ġbi vugwa
rasi ra
Ġ !
ou s
bu tso
Ã ¨
ranya mbaga
Ġaman ota
U ko
u b
ĠHu ye
Ġru na
Ġkurusha ho
ĠN tara
ĠZ unze
shi mwe
Ġ d
Ġbi ce
ĠKo misiyo
ĠN yan
Ġba kiri
Ġimi bereho
Ġbu tumwa
Ġ di
Ġna ba
Ġe byiri
sa za
hu je
ĠK an
p h
ĠU kuboza
Ġgu twara
Ġn yarwanda
ĠNya ga
rusha ho
Ġb yan
ĠT a
Ġbata tu
2 3
ga rutse
bili gi
ĠN ta
Ġha kaba
su ye
Ġm bona
Ġikin di
ĠEm manuel
U mwe
shyi zweho
Ġn gingo
Ġa yi
Ġi rushanwa
Y o
gi hugu
mbe r
c yi
tanga jwe
ge na
Ġama tora
Ġmu gore
N ti
kome re
te d
hu riro
ĠB ibiliya
tsi ko
G O
ĠK in
Ġin tego
ru hu
Ġbatu ye
Aba turage
Ġiki go
ĠC h
kin ira
U wo
Ġm yi
ĠNze ri
Ġb indi
se ke
se ri
ki we
Ġi tanu
B U
Ġbya ra
Ġb andi
te re
Ġyi ta
ru gendo
Ġba tangiye
Ġnko ranyambaga
Ġku da
ko ndo
re gwa
si zi
Ġukun tu
Ġa r
gan ya
Ġgi komeye
ĠW a
Ġaba kobwa
ĠB en
Ġtwa ri
Ġe jo
ĠD o
i kin
Ġba yobozi
R a
Ġu bi
zan yo
ĠYe zu
kun dana
âĢĻ ,
sa gara
Ġi perereza
be shya
mu ra
in ota
Ġmi ryango
Ġaban ya
mo ko
rwa ye
ven i
Ġruna ka
um wana
Ġba kwiye
Ġumu tima
Ġgu kura
Ku ba
Ġimpan o
h n
Ġku garagaza
vu go
ĠI bi
bwo ba
Ġya we
ama zi
Ġgu hera
ubu curuzi
p ho
Ġya ho
kan gura
ubu tegetsi
Ġpe rezida
Ġu kaba
aban yarwanda
Ġgu korwa
ĠCo ronavirus
in dege
aba kobwa
haga ze
Ġ2 9
ĠFD LR
ĠNya ru
i koranabuhanga
Ġmi bi
Ġgu tangira
roko tse
Ġama somo
ĠP i
shingwa bikorwa
T E
Ġari yo
Ġi komeye
Ġgito ndo
kome ze
ris tu
shi mo
Ġbi mu
Ġ '
Ġama bwiriza
1 2
gu fi
gi ri
Ġzi mwe
zan ye
Ġkin ini
Z I
Ġma sezerano
Ġya tanze
L e
âĢĻ .
Ġmu ganga
reme zo
kera rugendo
ba ra
in genzi
m ya
Ġke ra
gen ze
Ġbi garagara
Ġba yo
Ġbu tegetsi
yubahi ro
tanga rije
Ġwo we
Ġin ko
de n
ibi korwa
ga ho
Ġfili me
Umu nyamabanga
Ġigi tego
Ġama so
Ġin gu
Ġgu cu
yan ga
Ġa ku
ham pi
ts indi
vu za
Ġmu shinga
Ġ zu
D r
to r
ĠN kuru
Ġbitabi riye
da ga
Ġni bura
vi er
c ent
Ġtu bi
m yi
Ġgute gura
Ubu yobozi
a han
1 1
Ġm fite
Ġma gambo
Ġwu ngirije
G E
Ġumu pira
Ġkw injira
si mbu
Ġma teka
Ġigi ye
Ġkwi ba
Ġyagi ranye
menye kana
Ġi tangazamakuru
Ġyo ngeye
kore ye
bura sira
se nga
Ġin twaro
Ġku ra
Ġba te
Ġba kuru
ĠR wi
vu guru
Ġa hi
Ġk wandi
pi mo
Ġm pera
s ana
Ġy ana
Ġki ra
Ġbyo mbi
burasira zuba
Ġba geze
Ġzi za
Ġa zaba
Ġn za
âĢĿ ,
ĠBu rayi
ĠBu gesera
A R
bone ra
ĠC on
go mbye
O T
Ġa mezi
ĠG en
la ri
Ġuru gendo
suzu ma
ĠR i
Ġba komeje
ki ro
N one
Ġ201 4
ke n
Ġm yinshi
Ġgu hindura
ne ri
yamu ryango
tera bwoba
I si
ĠMu subize
Ġumu shinga
ge ria
rengera zuba
bi re
Ġm pan
ci ka
Ġari we
Ġama kipe
Ġm buga
da mu
Ġuru kiko
Ġ #
sa bo
Ġmu hanzi
Ġ4 0
kangura mbaga
ya mba
bu tsa
mi te
bu mbye
shiman gira
Ġgi shinzwe
Ġgu sha
Ġgu tsinda
T a
kore we
Ġmu sore
ro he
im insi
% .
shyi kiri
Ġmu zi
tege ka
se se
Ġtu rere
ĠPo lice
l d
gera ho
Ġga tanu
zo ngera
kubi ta
Ġbo mbi
Ġm w
I ri
ĠKa yi
bya rimana
bone tse
Ġbata ri
i ri
Ku geza
yobo we
Ġubu curuzi
mu ri
shyira ho
bon ano
ga be
ou r
mu ka
ibi go
in ta
Ġubu kungu
Ġi garagaza
Ġgu hu
mu ntu
Ġ modoka
Ġk intu
i mwe
x t
Ġa bona
pu ro
Ġinta mbara
si ze
Ġuga sanga
Ġbwo ko
Ġba koresha
K wi
Ġ meza
A furika
Ġba sa
h wa
ano ne
U wa
ne t
yobo rere
S i
Ġumu ziki
twa rire
Ġmu to
amavu ko
b le
Ġbiga tuma
ubu ndi
ru kan
A gira
B ya
Ġibi jyanye
Ġu kwi
t ter
Ġbwo se
Ġa biri
Ġu zwi
Ġgi ti
ll y
Ġum wanzuro
Ġku gura
Ġibi menyetso
nge nge
su we
iki go
Y I
tegu we
je jwe
ama do
t hi
Ġi cu
Ġin tege
Ġbu fatanye
i ya
ha gari
Ġzi ta
I nama
reke ye
Ho me
gi rira
umu kobwa
ĠGa tanu
ĠKi liziya
Ġki ba
vu ka
s co
Ġkuzamu ra
no ta
pa puro
Ġgi fite
Ġumu rimo
Ġaka rere
u p
je mo
Ġcya bo
taba zi
nge reye
ĠT i
Ġi zaba
Ġgu ca
shyigi kiye
Ġ201 2
tangi za
Ġuru banza
gani riye
T U
D o
garaga ro
Ġru buga
Ġin shuti
rasira zuba
ibi bazo
Ġ f
ra ri
f oni
Ġba renga
imi kino
Ġya ta
Ġ201 3
mbasade ri
rwa mo
shishika riza
Ġin gufu
da ge
ti onal
Ġyu ba
Ġni we
senge ro
fati we
N C
ki mbi
ĠH i
Ġumu kinnyi
Ġu rwego
ban ya
Ġt w
gu kanye
P re
Ġbaha bwa
U retse
Ġimi ti
Ġbi ganiro
Ġicyo rezo
Ġa hita
s se
Ġama shusho
I S
yumvi re
Ġin go
SH YA
Ġna twe
u tu
Ġbu ta
c y
Ġbi bi
fatanya bikorwa
ge jeje
Ġyi se
Ġku ki
rani re
tic le
ama hanga
Ġa kana
Ġbu ra
in da
Ġki ta
ĠCla u
Ġata tu
h we
201 7
ĠMu hanga
M E
ĠJo hn
tsin zwe
Ġkwi gisha
kimbi rane
Ġama zina
U m
gi na
Ġahan di
Ġigi ce
ju ra
H O
gami jwe
he rero
gami zi
S e
5 0
Ġka ri
Ġwa yo
Ġn dwara
gani re
Ġnu mva
Ġgu kurikirana
Ġumu ti
Uru kiko
Ġmu hango
ga rika
tin ya
Ġba korera
Ġyu mva
ĠJo se
Ġaba fite
Ġi shyaka
Ġu gere
Ġba zaba
Ġ âĢĻ
Ġu komeye
2 1
i mba
ĠMu n
Ġru shanwa
A ho
Ġku garagara
gen go
N D
uru byiruko
nye ri
ĠMuse veni
Ġn yina
a man
Ġbu da
a s
Ġbi fuza
U wi
K I
sa su
ĠHa byarimana
nga bunga
Ġuku vuga
Ġwa baye
Ġgi ce
Ġa t
Ġc g
Ġa komeza
mo nd
va mo
Ġka re
hoho terwa
menye kanye
w in
Ġba tara
vuga ga
tegan yo
Ġumun ani
ubu kungu
ha ma
Ġu ti
Ġku tu
fo r
Ġa garagaza
Ġake nshi
yigi sho
ga mo
hu ti
M i
u n
hu riye
Ġa gera
Ġ gereza
B I
Ġya geze
Ġin e
d ri
aba kozi
Ġbya ha
Ġi tandukanye
ĠM bere
Ġu bwe
Ġi wabo
Ġahan ini
Ġyi fuza
In tebe
Ġama raso
Ġwa ra
Igi he
Ġu shaka
l an
re bana
ĠN yiri
ĠMu ka
e e
Ġku b
Ġa m
ĠR U
aga ciro
Ġmu shya
Ubu zima
Ġba hise
vu bi
Ġya bonye
ĠA karere
Ġtu ga
kwira kwi
Ġaban za
fu nga
ĠT wi
Ġrya ri
Ġbi meze
rengan e
Â »
aba byeyi
kandi da
Ġya tsinze
Ġna bwo
Ġb wan
shin i
Ġumu tungo
Ġimpu nzi
Ġya fashe
tangi riro
sha tu
Ġpo lisi
ho za
fashi sha
Ġa tandukanye
tu mi
er re
be r
Ġgu kemura
Ġru kiko
jyan wa
Ġumu byeyi
Ġumu bano
Ġaba hanzi
l la
re ze
Ġba hanzi
ĠGa tatu
vu tse
Ġbya baye
ĠL u
v ana
p p
Ġim bo
C A
im pu
Ġgu hura
ban yi
du ye
Ġaba sirikare
Ġmu ra
gu zi
Ġmu garagaro
Ġma so
fo ne
Ġn ku
Iki pe
Ġan d
yo ma
ĠGa tandatu
Ġumu riro
ama horo
Ġmu yobozi
Ġbwa ri
nzi za
Ġba kinnyi
uru kundo
Umu vugizi
Ġba bonye
tanga zwa
zamu ka
? ?
Ġwa mu
Ġumu biri
Ġtu gomba
ta ha
Ġubu shakashatsi
ĠK wi
yan i
n yamakuru
ĠK U
ba ga
fun zwe
ER WA
s ti
Ġumu toza
shimi shije
Ġumu hanzi
Ġi he
Ġtwe se
shin ze
tu re
Ġku ha
Ġumu nya
Ġa l
Ġbu taka
ĠMa rie
ĠF i
Ġkubu ngabunga
ĠBu shinwa
Ġmu tima
ĠIn ter
Ġ sin
Ġi torero
bya ye
Ġki re
Ġubu taka
Ġaha ri
Ġguku mira
Ġt wo
za ra
Ġa tara
ĠKa biri
gu rwa
gu kana
shyi ki
ĠB A
Ġigi taramo
re bye
re we
Ġni byo
gi shwa
i se
Ġz in
Ġmi rimo
Ġba sanzwe
ĠAma kuru
Ġuru go
Ġye meza
ĠRa dio
Ġba du
m pan
Ġb yu
sha kanye
d ani
ha maga
Ġkuri nda
Ġya hi
z indu
aga teganyo
Ġmu nota
A ya
Ġv ya
bu rani
I ngabo
Ġki gero
Ġu vuga
garaga m
ju je
Ġku gabanya
Ġyan jye
Ġru banda
Ġ3 1
Ġa sanzwe
ĠUwi teka
ahan di
Ġzi fite
ri ma
kora ga
B ira
ke ye
Ġgushyira ho
hanga yi
A ka
g h
Ġcya cu
i cya
ga re
Ġbi sanzwe
Ġbi kwiye
Ġu kora
tu rutse
ĠU wa
tu ngu
Ġn shingano
Ġku ga
Ġba tanga
AN DA
fungu ra
ĠE s
201 8
tu ranyi
Umu renge
zihi za
Ġu sanzwe
vi ous
Ġba vuze
Ġib yiza
Ġi shami
Ġubu tabera
ĠDe mokarasi
ĠNyan za
Ġn anjye
tsin zi
ĠH e
n ti
le y
ci we
ri jwe
Ġu gomba
tsin dwa
Ġibi yobyabwenge
Ġma tegeko
kan gurira
gati fu
a mond
se ngi
Ġbu n
koreshe jwe
ĠRu sizi
yama hanga
ra mo
d dy
Ġba gore
Ġkwi tabira
ĠI M
Ġama shanyarazi
me rera
ke t
te rere
ĠK ongo
Ġa gi
hanu zi
gerage je
bu kuru
Ġzi komeye
Ġmu gabane
Ġa kiri
Ġban e
M bere
indi rimbo
ru ta
Ġru fite
ĠI N
Ġku bura
u ndi
M e
u ra
ge ga
kuriki je
kun zwe
Ġu bona
biri we
Ġgu to
im yi
Ġi gira
kun di
ĠK ane
Ġari bo
Ġy Ã¢
u s
Ġyi sumbuye
Ġi san
Ġtele foni
Ġru ri
Ġha gamijwe
A komeza
Ġum wuka
3 0
mi je
Ġimi shinga
Ġcyo rezo
Ġru byiruko
Ġcya ha
zi yo
Ġbe ne
ĠN yira
sobanu ro
Ġru tonde
shu mba
ĠPa tri
Ġya ko
Ġku du
Y O
Ġgu he
R W
Ġim yenda
ĠL t
Ġabe nshi
DE PR
Ġib yangombwa
Ġga tandatu
H A
tangi je
lu b
Ġar ticle
Aban ya
Ġtu zi
ne s
Ġ202 4
Ġimp induka
te li
Ġsi poro
Ġso siyete
Ġgu sura
t he
so ma
Ġni bo
za mini
si bye
bi tekerezo
in ya
Ġ6 0
cu kiro
y s
a mezi
Ġaba kiri
c ha
Ġu ki
fashi shwa
Ġi joro
nga bire
Ġkwandi ka
Ġm p
Ġya yi
ĠR E
s sa
vu zwe
k risto
inji za
si teri
ci tse
ĠI mi
aba gabo
umu kino
go ye
Ġin yandiko
ku rwa
Ġbwi te
Ġinta mbwe
S a
shan yo
Ġru gendo
I burasirazuba
Ġin dege
Ġubu fatanye
zabi tsina
man i
gen i
Ġmu da
shaka ga
fu ngo
Ġ andi
t re
vi ziyo
Ġu wi
Ġba ko
Ġgu subira
ta l
Ġma zi
umu yobozi
ĠE ric
Ġubu fasha
Ġru banza
ha za
Ġban ki
di yo
Ġba gabo
Ġga kondo
ĠA S
K E
Ġumu turage
Ne xt
Ġimpu ngenge
Ġ201 1
veri neri
W a
Ġri ri
umu pira
Ġgu huza
Ġn yandiko
Ġu giye
Ġba komeye
ti we
ĠK A
Ġmpu zabitsina
ĠY anditswe
Ġru ta
Ġn gufu
Ġumu kozi
Ġbw inshi
ĠU MU
ĠUni ted
Ġisu ku
ra mbo
yi ta
rwan yi
taba ra
Ġya du
tera hamwe
ĠKi vu
ubu rezi
hin gwa
Ġya soho
Ġha ra
Ġmu ba
ngi ro
Ġa sanga
Ġaba ba
ĠClau de
Ġzi ra
Ġimpan uka
mbu ka
Do re
ĠBan ki
sha hara
Ġba kunda
tali ki
e u
Icya kora
ĠT wa
Tu ra
Ġimyi tozo
ĠC i
imi ryango
Ġsi ta
Ġmun ini
V A
ibi humbi
Ku bera
p he
Ġbita tu
mu tse
Ġguha garika
aban ya
Ġzi da
gan jemo
ar d
Ġimi korere
u kwezi
Pre vious
senge sho
so za
Ġama saha
Ġya ku
Ġin gingo
ĠN shingwabikorwa
ĠS an
Ġ( ...
20 20
ze za
Ġzo mbi
ĠB wana
here zwa
du ko
20 19
Ġum wuga
ĠâĢ Ŀ
Ġkire kire
n gira
si mbura
igi ce
ĠI m
Ġa te
Ġha kiri
Ġn yi
G i
hindu tse
Ġt he
Ġru za
Ġim buto
le x
reke zo
bi kora
Ġaban yamakuru
ĠNyaga tare
ĠNyaru genge
Ġbi shwe
e s
201 6
yu nge
ban ye
ĠGicu mbi
Ġ rika
Ġmu biri
hu bwo
Ġiki ganiro
Ġn yira
Ġabi vuga
fu nze
Ġyaha ye
me ye
Ġbi saba
ro ndo
Ġbu za
tege reza
Umu jyi
ĠNi geria
Ġama kosa
ĠC har
Ġ ;
yobo ke
Ġingu zanyo
Ġi y
K andi
Ġba saba
ĠR D
Ġri za
Ġba ru
ĠA b
R O
du ro
ĠBu biligi
ne ra
ĠA DEPR
Ġibi dukikije
ris ti
n t
kin gi
ĠU horaho
m byi
Ġ mezi
inji ye
Ġu bwenge
ma r
jya ga
uru kiko
Ġmu ke
Ġ202 3
tandu kana
Ġi kora
yu jije
de r
fu ngi
Ġbiro ri
ĠM pu
fu zo
Ġuko moka
ĠBa r
yamama za
Ġguso ma
C o
Ġn gu
Ġmo to
Ġba hi
Ġu n
mba za
Ama foto
ĠNda yi
Ġaka za
ĠNe ws
v yo
ke re
ama shanyarazi
Ġ19 8
Ġk indi
Ġmi rongo
ĠYa suwe
ĠPi erre
n y
se saba
Ġba ya
Ġibi hano
pe r
a kazi
ba ri
Ġibi ce
Ġbaza jya
% ,
zan ya
ic yi
tu nga
so je
ĠLea gue
bi ra
Ġbi maze
sesaba gina
S S
ngan e
Ġma kipe
Ġbi zaba
ĠGa sabo
Ġku bana
ngu ra
Ġa re
fa shwa
A MA
G U
la mu
ju gu
i bu
Ġku ganira
Ġku bo
si tu
Ġbite gan
ĠO li
n ganira
Ĭ ķ
n g
Ġubwo ko
yo ngereye
Ġmu dugudu
ĠC yumweru
B O
Ġba bu
yuba ka
Ġigi subizo
Ġmu ru
Ġn yungu
rwa ga
âĢ¦ ]
si ri
Ġa tanga
Ġu hagarariye
Ġya gu
ge reye
ĠAma tegeko
ĠIn kotanyi
ro ngi
Ġwo se
Ġkwi vuza
ĠY ou
mu n
bwi re
she ma
Ama jyepfo
ywe ho
Ġha shize
Ġgutanga za
yama swa
ĠNe w
Ġgi shize
ku re
ru kira
Ġba kana
Ġna ko
Ġgu shyirwa
Ġha ta
ran ze
ge zi
Umu hanzi
ubu hinzi
Ġtu ta
Ġa komeye
N yamara
Ġa bu
Ġama jwi
Ġumu gambi
Abi bumbye
an za
Ġnti bya
n ta
mo nyi
sha kira
Ġmu ziki
Ġa gu
Ġzi ka
Ġbu ka
daga duro
yo vu
we ho
Ġbu mva
wandi tsi
Ġba vuye
Ġbita ri
ĠJose ph
ri kana
wu mva
Ġwe nyine
Ġin gendo
Bu ri
ĠKi cukiro
Ġban jye
Ġwe nda
riwe ho
bu tse
ta gatifu
Ġnta ho
bya za
Le ta
re he
Ġko se
Ġba kobwa
Ġgi tabo
kan da
ra ma
ĠIkin ya
Ġaba fana
Ġkun ywa
ko no
i zi
T wi
n giye
yi si
l ine
Ġi jana
Ġu tuye
Ġugere ranyije
1 5
kuba hwa
Ġ taliki
Ġa he
men ts
Ġba he
ca ro
banu ka
i tangazamakuru
ĠL o
I b
Ġba re
kin nye
kuriki za
Ġbyi ciro
te ze
Ġ5 00
Ġ on
sa ka
Ġaba genzi
N ya
Ġwa hoze
ĠNyiri ngabo
U rwego
ID A
j an
Ġki kaba
Ġinzo ga
Ġn ki
Ġimi bare
bu m
i shuri
Ġe shatu
Ġku no
aban yamakuru
B o
mban yi
yo se
mu kira
n gani
wa cu
yan zuro
Ġru kundo
Po lisi
ngera ho
t wo
Ġ remezo
re kanye
go ra
Ġ Q
Ġu yobora
ra ho
te si
ĠRwa magana
twa re
u ba
in ama
Umu kuru
k ra
shin giro
Ġyi geze
i terabwoba
ban di
fe ri
ĠUmu ryango
shimi sha
nge rera
ma shini
kani sha
Ġama hugurwa
Ġnta we
so bwa
iki bazo
ĠUmu nyamabanga
in shuti
i byi
Ġgu pfa
I C
Ġri ra
e jo
ci de
Ġigihe mbo
inta mbara
de o
Ġbya mu
go me
geze ho
ha kana
a riko
Ġru gamba
U MU
ĠKi yovu
Ġc u
Ġku mwi
mu na
ĠK aba
Ġahi twa
Ġin ter
Ġya tumye
N aho
li yoni
Ġya shimiye
ĠDi amond
bona ga
Ġman da
r Ã©
V U
Ġwu ndi
Ġba keneye
Ġni ho
Ġn tego
dan ga
Ġba gu
aba kinnyi
S o
ra el
she ke
Ġni mu
Ġbi vuze
yu ho
ran yo
he li
Ġ la
ĠR DC
Ġicu mi
ĠNkuru nziza
Ġi tari
se n
Ġgu su
ĠM IN
Ġ metero
Ġumu handa
Ġa herutse
Umu ntu
umu nsi
shan ga
on s
mu re
Ġba kunze
Ġbu shya
ĠY A
Ġi sanzwe
shyize ho
tan ge
H U
baba je
Ġku wu
ubu tabera
Ġumu kunzi
1 8
be se
kene ra
Ġbu tandukanye
sa be
hunga banya
Ġbaka jya
Ġbu shakashatsi
Ġumu kuru
Ġubu kwe
ĠI zuba
ĠI shinga
Ġa mwe
Ġuru hu
g ram
2 4
mama za
zindu ko
zu ra
che ster
Ġâ Ĭķ
Ġnta mbara
Ġkubu ryo
Ġaha garagara
Ġyeme je
yobo ro
Ġ[ âĢ¦]
ta ye
ĠS ha
Ġku genzura
Z E
Ġibi subizo
Ġaka mu
D I
Ġbi gize
Ġrwa ri
Ġko ro
hu se
Ġbi garagaza
ru ru
Ġbi geze
han ganye
ĠC lub
fati ka
c ho
Ġa vuye
1 6
ko ko
garu ra
ruhu ko
Ġu zaba
ana da
ĠJean ne
fungu ro
ĠKa yumba
Ku ya
o pi
Ġibi curuzwa
ĠI ra
fashi shije
c hi
bya ha
L I
kurikiran wa
san i
Ġumu sore
cu ti
Ġba tangira
Ġma rushanwa
tin da
Ġu mwa
yu ga
ĠP re
jya mbere
Ġkwi yongera
tin ze
Ġp m
aba ri
âĢ ĺ
ĠR IB
twi te
Ġbatu rutse
W I
ĠN goma
mu ngu
bwa ho
Ġba vu
gi ran
Ġmu rongo
Ġaha bwa
ama teka
F rw
Ġaba gize
Ġbu sanzwe
2 2
Ġubu hinzi
me rere
du fasha
Ġu mwami
Ġtele fone
Ġzi ga
so ra
mvi se
Ġi gomba
P A
ko ranire
Ġba fata
Ġim vura
Aba yobozi
Ġimi bonano
ama tora
amado lari
Ġgu verinoma
Ġmi ke
genza cyaha
Ġa geze
hin de
gira ho
in zo
Ġya bereye
0 8
Ġcyi za
pi ma
!! !
Ġba garagaje
Ġgu fungwa
Ġkwe rekana
Ġmuzi ka
vu duko
i su
cu ku
ĠBu rusiya
ĠRu sesabagina
Ġya fashwe
mana ho
thi opi
Ġb yeme
re mye
In tara
Ġmugi he
bizi ga
Ama jyaruguru
ri ze
mi rimo
Ġ hu
Ġama ta
S I
Ġ /
Ġba genda
Ġu tari
mp inga
Ġubu hamya
Ġrwa bo
Ġbi humbi
ho mbo
T he
ĠM ana
ĠAf rika
re a
Ġp ro
ĠI ngabire
Ġgu kunda
pam yabu
Ġbi ke
ĠB er
Ġbu gufi
kura mo
Ġbaka bi
Ġgu tekereza
Ġmuda sobwa
Ġgu shyigikira
ĠJa mes
Ġi komeje
Ġbu vuga
ĠPa pa
Ġibyi shimo
ĠTwi tter
re ga
Ġaba hinzi
hu rira
Ġibi ciro
umu kuru
Ġn garuka
ne y
Ġmu bu
Ġru ganda
ĠA ka
Ġumu sanzu
ru kana
Ġi gamije
hi sha
genga bitekerezo
T I
Ġi korera
tu ruka
Ġmi renge
Ġaba bi
ĠMpu zamahanga
ca l
rabu zima
zu za
ĠSu dani
Ġgu fatanya
san gan
Ġ en
liti ke
n ini
Ġzu nze
ĠC ent
Ġa b
n ko
in go
t ho
Ġ8 0
ĠM ini
Ġmu za
ze ro
1 7
Ġha to
umu nya
Ġi koreshwa
in zu
A ga
yi re
Ġn tangiriro
ĠBo sco
m bera
sa bwe
mbi ra
bangami ra
zi ba
ubu taka
Ki gali
ĠK risto
D e
kan gu
Ġba menye
Ġa kunda
tege tse
umu biri
haga rika
san gira
im pan
ĠPa diri
Ġi ha
Ġaka vuga
shyu rwa
Ġba kozi
Ġbi gira
bu nda
ib in
re jwe
Ġban yarwanda
mbi re
ĠV isi
aban yeshuri
ge rwaho
Ġama foto
na teri
ĠR NC
Ġdu kesha
m b
Ġbu yobozi
Ġubu rezi
Ġban yeshuri
Ġgu sin
ĠR ira
be ho
yamama re
Ġi te
Ġa kwiye
Ġya bu
ne za
Ġkuba hiriza
ren za
by ini
Ġma saha
Ġn anone
. âĢĻâĢĻ
kurikiran yweho
uru pfu
hi she
g ne
gara ma
Ġha baye
Ã Ĥ
A F
ic yumweru
Ġzi kaba
Ġu yi
i tegeko
Ġya vuye
u ku
Ġgu ko
Ġbu hinzi
Ġama vu
to ni
ĠHo tel
Ġumun yamakuru
N di
pe ri
he sha
Ġba saga
Ġmu goroba
Ġkwe mera
ĠA lex
1 4
Ġcu mi
sobanu kirwa
geza ho
shira hamwe
Ġguta ha
Ġi teka
ĠJ an
n an
Ġisan o
Ġi tangazo
Ġ7 0
ĠK e
m inisitiri
ta ho
so ni
Ġn gabo
icyo rezo
I zi
kra ine
umu co
be shye
Ġtu giye
Ġaka jya
M I
he nge
Ġi bu
ĠNya bi
Ġkuri rimba
Ġaba rwayi
i joro
Ġbi shoboka
renge je
Ġbu bi
Ġwa bi
ga l
rane nge
Ġubu basha
Ġgu si
fashi shijwe
Ta riki
vu nyi
Ġa tangira
li x
ga ba
ĠN A
Ġbe meza
yemeza mirimo
ĠRira she
reke je
Uru gero
ri ta
Ġimi handa
Ġumu nye
ruwa si
Ġ3 5
Ġ201 0
ĠP la
âĢ Ķ
R C
we mo
Ġi mari
Ġya subi
N jye
gi he
ĠGa to
li sa
Ġama kimbirane
Ġigi tekerezo
Ġuru pfu
tangi jwe
ze ngu
Ġna ra
ken ke
Ġza yo
mo n
Ġkuba ha
yon za
I P
Ġi shinzwe
R D
garagam byo
du ka
Ġi juru
ĠS IDA
Ġari byo
re rwa
kwirakwi za
0 7
um vi
me je
Ġku byara
I bya
Ġkuno za
In teko
f f
na tional
Ġbaka za
Ġgu seze
Ġzi shobora
zi ranenge
U horaho
Ġ 000
ĠB ru
0 9
Ġgu fatwa
Iki bazo
aba hanzi
gi rango
Ġn yubako
Ġubu shake
cya ri
ĠOli vier
Ġuta ha
Ġ19 7
Ġaba kunzi
Ġtwa ba
t Ã©
Ġtu kaba
Ġba tanu
Ġabari mu
ĠCom ment
re s
Ġy indi
bone ye
tse ho
OT O
Y anditswe
k ristu
shi di
Ġa tandatu
Ġru ndi
i modoka
KU RU
Ġku m
1 3
Ġbi twa
Ġbaka mu
In kotanyi
Ġye rekana
se nal
on g
ge r
Ġbata zi
Ġr wan
Ġin a
i d
ĠUmu renge
p ani
han gano
hi re
pfu ka
Ġki rere
to ro
ERWA FA
Ġguha ranira
Ġri vuga
Ġba shya
Ġ3 00
0 5
Ġku garuka
ko ngo
Ġya te
Ġinter net
Ġgu koreshwa
ĠMi siri
onal d
hindu ye
shyirwa ho
Ġu kwezi
o o
Ġba garagaza
shu li
Ġya kwi
gan za
Ġkure ngera
Ġbu mwe
fu ra
Ġuru ganda
: âĢĿ
kwi gendera
Ġbwa cu
n gwa
Ġbi gomba
i shyaka
Ġya kozwe
Ġku byi
van ga
0 4
do n
Ġbi koresho
ĠP hi
Ġtwa ra
i zo
mbi tse
ĠMan chester
in dwara
ki ze
mo tari
go ngo
ĠCi ty
Ġa va
Ġ(... )
Ġumu hungu
Ġki da
Y i
ngeye ho
Ġba sanga
Ġibi tero
s ket
Ġa go
rwa ra
po litiki
ye shyamba
ar y
Ġgutu nganya
ibi he
ĠI haranira
0 6
ku za
Ġi saha
ze yimana
a yo
i ro
Ġi sura
Ġgu kin
ĠA nge
Ġ $
Ġba fashe
c to
ĠR wan
Ġnde ge
Ġkan ya
Ġbi gamije
ĠE thiopi
ĠUru kiko
0 1
ta de
Ġaza jya
ĠU N
Ġiti ke
Ġya mbaye
Ġv y
ani we
Ġibihe mbo
genzu zi
h h
Ġya gombaga
N o
sho feri
Ġa sa
ĠIs rael
Ġumu gisha
Ġma hugurwa
Ġhaba ho
Ġ19 6
gi riye
Ġ shuri
Ku gira
ĠU kraine
Ġigi fungo
c t
Uru byiruko
pa diri
Ġmu co
hampi yona
Ġ me
ya pani
B E
Ġc yemezo
Ġibi ti
ĠV ic
gani sha
Ġmu kinnyi
ĠP S
tsi bo
dri d
shin gizi
Ġba korana
ĠC hi
ĠMa la
rani ye
Ġari ho
Ġbu komeye
Ġumu kono
Ġi gera
Ġim inota
ta biriwe
umu renge
Ġya ka
Ġm yanya
Umu nya
gu ruka
Ġdu kora
N kuko
wan du
Ġi tera
Ġguse nga
Ġim yumvire
Ġri komeye
sobanu rira
ran gan
se nyi
ĠMu kura
rwan o
ubu mwe
bya ro
Ġibiro ri
Ġaba hutu
re ya
Ġbitegan yijwe
Ġbwa we
Ġgu subiza
shyi tsi
fati ra
0 3
Ġi banga
umu hanzi
l oni
Ġri shinzwe
ĠT V
hinda gu
2 00
ku ta
de li
Ġa tuye
ibi ri
Ibi hugu
Ġib yemezo
van gura
Ġumu rongo
zwa ga
t ya
bone za
J o
ru nga
Ġya garutse
kuriki ye
Ġikin yamakuru
ne gihugu
aba fite
ĠMa drid
ĠAban ya
Ġimi soro
A bana
J e
Aba tutsi
re mbo
Ġbi sa
Ġ ane
Ġa du
ĠB y
tsindi ye
mi ye
Ġibi shoboka
c tion
tu we
2 5
Ġi ku
ĠC anada
c on
Ġn e
F OTO
Ġku rangiza
han gan
ĠC he
Ġara mu
Ġaba yi
Ġuru rimi
Ġgu tyo
di a
hi zamu
D i
a ri
hu ta
p ri
i za
m ve
Ġi ru
u ro
Ġigi hano
ĠMar tin
gaga ciro
Ġya sobanuye
ĠA ga
ya biziga
ko ma
Ġic o
Ġz an
Ġmu li
Ġc yumba
ib intu
ĠSta de
ca ye
do u
Ġubwi canyi
ĠCo l
Ġimbo gamizi
ĠS y
Ġku mi
0 2
hu ka
Ġic yenda
Ġuru buga
Ġba byi
Ġka gari
Ġtu rimo
ĠGu ma
Ġaba mu
ibi ro
vu gira
imi bereho
Ġi hohoterwa
Ġimi biri
Ġya sin
Ġ0 7
li a
bu tumwa
Ġama zu
M inisiteri
ĠU mwami
Ġwu mva
hangayi ki
im bere
ĠV ol
tangi re
A hubwo
U mwami
Ġn du
ya hu
A f
Ġye gukanye
te s
ĠS he
Ġubu sanzwe
Ġi tanga
tandu kanya
Ġa fata
mu tima
Ġbi genda
Ġko perative
fi se
tan ira
ĠRu hango
guru ra
en ga
Ġmi handa
ĠKa rongi
ge ri
ga ze
umu tima
Ġbu rya
Ġibya go
ĠIn no
por t
Ġki rimo
ĠU m
Ġhan tu
gara riye
Ġza ra
Ġyeme ye
tu nganya
Ġkwi twara
hise mo
a u
Ġu te
ĠV al
p fi
Ġgu tangiza
Ġaba tuye
a ya
Ġkuba fasha
Ġ g
Ġimyi twarire
Ġ tsinda
rd s
Ġaba ta
IM ANA
ibi koresho
Ġ li
ku biri
dan gagaciro
Ġya pfuye
Ġbya genze
ĠI nama
Ġtu bona
ĠC ha
B e
bu rira
n je
Ġyi ba
shobora ga
wu lo
ĠBu rera
ĠBu dage
Ġkwi han
fun giye
Ġu tara
ĠAf ri
Umu gore
rin ganire
Ġim pamyabu
ri tse
ki liya
mbi a
ĠNi yon
ĠF re
Ġuru gamba
Ġa tangaza
Ġba mwi
fu mbire
s so
ge zwa
ĠT our
Ġn yiri
sin zi
kura ho
kuru ra
Ġya banje
Ġbu curuzi
ye re
Ġko hereza
yo ro
Ġni bi
gu ke
I ndi
sta gram
Ġn in
Ġye mera
Ġubu kangurambaga
T e
Ġi tara
ĠIgi hugu
ĠA bi
mi sha
gi rana
Ã© e
aba sirikare
la s
rari bonye
en ne
Ġaba zi
Mi ss
Ġa sobanura
Ġma bwiriza
lo metero
Ġubwa bo
Ġimi tungo
Ġba fashwe
mere rwa
n zwe
T N
in cent
mpan yi
shyira mo
tali yani
Ġma shya
ĠG ro
E N
Ubu rundi
b yin
Im pamvu
Ġigi tu
Ġaba ganga
201 2
de ri
zamu ra
T we
za ga
bwa mi
Ã §
Ġna zo
tsi ro
ĠPa s
fungu rwa
riri tse
ĠGato lika
l andi
ĠKa gari
Ġ reka
ce lo
H ON
Ġa kan
Ġbite rwa
Ġim anza
Ġkwi zihiza
Ġbahu riye
ĠInter national
Ġpo ro
J a
Ġn ini
ĠGi sagara
ĠN yu
Ġku menye
Ġba tanze
si mbuye
bangami ye
Ġama buye
ĠN goro
Ġnya mu
ic ha
Ġba va
Ġba komeza
Ġkwi tegura
Ġgi tsina
Ġiri ya
i mbo
ko perative
Ġi shinga
Ġmu ka
Ġaga hinda
ngi re
l and
U ndi
ĠS en
Ġkan seri
ne zero
Ġ tegeko
ĠPa ris
Ġ ro
ĠN sengi
Ġyan yu
Ġhi fashishijwe
ĠRu ta
Ubu rezi
Ġi foto
Ġaba gera
ĠAr senal
Ġ9 0
I tegeko
Ġimi twe
ma s
ĠDi eu
Ġba sanze
19 9
Ġgu shyin
Ġkwa mbara
ĠChar les
Aban di
Y aba
!! !!
M IN
ji sho
Ġaba za
ĠO N
Ġu ha
shu shanyo
re ma
Ġ for
ĠKa monyi
Ġin ganda
ĠPatri ck
sanzu re
Ġbada fite
ran wa
soho tse
ĠLt d
m ine
Ġa genda
man zi
kome ra
ĠHa bi
re na
Ġz indi
Ġba koresheje
Ġkwi gira
rwi butso
Umu gabo
ĠTanzani ya
ĠPo litiki
Ġku r
Ġkuba kwa
I foto
za mbi
ran ywa
Ubu mwe
ke kwaho
Ġa korera
wan zi
Ġyu zuye
Ġrwi yemezamirimo
ĠNyama gabe
ce ce
ĠA i
Ġi renga
ĠKi rehe
Ġaba kora
que s
vu ge
ĠBan yarwanda
N uko
Ġyaba ga
Ġza cu
bwi rwa
Ġkwi teza
Ġbara mu
U N
Ġya kiriye
Ġama twi
ve s
Ġcya ba
fungu ye
Ġbi ha
Ra yon
Ġnde rabuzima
kunda ga
gu fasha
Ġigi zwe
E S
Ni yo
Ġuru tonde
ci a
ĠA nd
p te
sket ball
Ġzi bi
she ho
Ġco m
Ġubu rwayi
ĠF AR
H AN
Ġzi gera
Ġaba polisi
Ġi tuma
Ġiri ndwi
M S
Ġba sigaye
nge ro
shi mu
rani ro
mo so
Ġha ga
Ġaga mije
ke ka
Ġza ba
ku mi
Ġgi shobora
ĠK ristu
Ġu rimo
Ġn yine
yan e
si vi
ubwo rozi
Ġngo ro
ubu vuzi
ĠRe mera
sha je
Ġbi baye
Ġika mba
te ga
Ġmi bereho
vu gana
mban ya
u rwego
Ġuri ya
Ġya to
VA HON
VAHON SHYA
Ġiso nga
Ġc yu
Ġ4 5
Ġgi tero
gene rwa
Ġkubi kora
ra tion
Ġ jye
Ubu shinjacyaha
Ġgusha kisha
fa ri
m ina
Ku ko
ĠBi zimana
s ine
Ġn ga
Ubu tegetsi
a a
Ġbi to
Ġmu byeyi
in garuka
fashi jwe
te mewe
Ġbari ya
umu twe
Ġya vugaga
ĠTe le
Ġhaza za
reke zi
gen dan
bu kije
Ġbi hagije
Ġde mokarasi
ko ni
s pe
Ġzi renga
Ġtwa bi
Ġna mwe
Ġru komeye
Ġba hita
yan da
ĠEthiopi a
Ġgu hinga
Ġbu ke
Ġgu hanga
tiri we
mira mbo
Ġumwi hariko
mo gi
A yo
Ubu sanzwe
Ġi hu
Ġ20 00
za ho
Ġi jwi
Ġbin yuranye
en ce
aman ota
Ġri ti
Ġs ina
R o
ĠU SA
Ġyi teguye
ĠMa c
kan wa
Ġama rushanwa
ubwi yunge
te te
Ġbi se
Ġiki menyetso
Ġn kaba
cu nga
seke di
ci s
gu ma
Im yi
yamba ro
ĠW A
gira ga
sabi mana
ĠE AC
si fu
Ġyi ze
a ha
shyi re
D U
Ġgu tora
Ġumu jyi
Ġaka bi
Ġnti yi
fati ye
Ġkwi yamamaza
ĠS h
burani sha
Ġnka mbi
m bwira
ci sha
ru ye
Ġaban yamuryango
ĠT shi
here jwe
n ani
Ġka ga
ĠKo mite
Ġguha gara
L A
g y
ba ho
Ġyi tabiriye
Ġri shingiye
b yu
mu co
wu mvi
ĠNya kubahwa
Ġna cyo
fu je
Ġbyo roshye
M o
ro c
ĠA mbasaderi
ĠAu gu
ĠN yarwanda
shidi kanya
Ġku mara
âĢ ĵ
Ġari bwo
Ġ da
H I
Ġku zana
Ġgi kombe
ĠInno cent
Ġba shinzwe
Ġumu hango
Ġbu sa
Ġin yubako
ĠKa yonza
Ġvi rusi
S O
ĠMi liyoni
imba bwe
to ri
Ġbya kozwe
rwan ira
Ġku banza
du ha
ĠA li
henge ri
Ġu jya
te zwe
si gara
Ġba sabwa
Ġm pa
Ġbu fite
Ġa bwira
ĠI I
sha kisha
Ġki maze
ĠG ra
gara mu
sha sa
Ubu ndi
Ibi korwa
kome reza
20 21
C a
twa za
Ku ki
ĠD onald
ĠA ir
Ġyi ga
ĠF ERWAFA
Ġic yumweru
T O
ba jije
ta r
gara gu
ĠW i
Ġru rimi
ĠW il
Ġru ra
ĠIn teko
ĠC hampi
v in
Ġiz wi
yo bwa
Ġwa je
an ga
Ġya seze
ĠS hampiyona
Ġi somo
in ka
Ġi se
Ġmu pira
Ya ri
rangan ji
ĠAma vubi
u e
t t
mpa la
Ġa komeje
Ġ X
Ġbwa yo
ĠNyama sheke
Ġhe za
ci ra
Mu ka
shan u
ku ze
Ġu kwiye
ama s
ĠD ani
Ġuwa ri
Ġki bi
ti ke
teke reje
Ġ200 9
x i
Ġya hu
yan ja
Ġaka ya
Ġc ane
shiki ranganji
Ġki ga
i tu
sabi ra
he reje
il la
Ġbi giye
Ġzi maze
ĠMa li
Ġi geze
Ġba hura
ubu fatanye
she jwe
ĠNya ruguru
byini ro
ĠN teko
ĠMu dugudu
Ġu gira
Ġan gana
hoho tera
se ngera
aba ta
ubu shobozi
Ġban ya
hi rwa
Ġmuri mo
Ġyita bye
Ġibi tabo
Ġko misiyo
Ġmi shinga
l on
taka za
in t
ĠN de
Ġguso za
ce ri
Ġiba ruwa
ĠV incent
tegu ro
umu riro
Re ka
Ġha giye
Re ba
In kuru
ley ball
ĠL oni
uru go
di e
Ġi zamu
Ġku boneka
ĠB ri
umu ziki
Ġim bunda
Aba depite
ĠSe na
Ġyan ze
Ġ fa
ĠC e
kubi yemo
ĠMu ha
Ġgucu nga
Ġko nti
Ġigi tabo
ĠBar celo
yose zi
Ġha koreshejwe
Ġn tera
Ġka mere
Ġba byeyi
ĠMa ri
re fe
ĠJeanne tte
u ri
Ġigi tero
Ġkwe gukana
o k
a d
Ġtu maze
ca kubiri
Yo ngeyeho
ce r
Ġbi bu
ku we
hama gara
Ġtele viziyo
ĠN di
Ġzin yuranye
ĠMuse nyeri
li e
subi zwa
ibya ha
bi la
Ġibi zamini
Ġbya tangajwe
umu hungu
Ġata zi
mun wa
z in
Ġ su
Ġki riya
Ġi mashini
shi sho
Ġdo siye
Ġri fite
ĠNya mpinga
gu ha
zi za
Ġubu kene
Ġumun yarwanda
A be
Ġ &
yobo ka
nde ra
ĠGo ma
ĠB I
Ġw Ã¢
re en
Ġubu hanga
Ġbigo ye
Ġru shinzwe
ba ma
Ġya tewe
Ġic ye
Umu toza
rukan wa
Ġi we
Ġkwe meza
abi korera
Ġmu paka
Ġ0 8
Ġaga ce
Ġim yanya
umu jyi
Ġya tangarije
ĠGa tsibo
ĠUmu nyarwanda
mi gambi
ĠRe al
ĠC N
Ġin tumwa
Ġim papuro
Ġmi twe
Ġn giye
ĠA na
Ġi vu
ran yijwe
ĠTshi sekedi
k wan
Ġbaka vuga
ĠKo reya
ĠVic to
I shami
Ġb eza
ĠCom ments
Ġkwi cwa
I jambo
Ġi reme
ri nzi
Ġi shaka
Ġa koresheje
ĠMe lo
AMA FOTO
hugu ra
Ġa koresha
Ġya guye
ĠIki go
ĠMo zambi
bin yujije
Ġa ru
Ġn kiko
gi ranye
Ġha maze
Ġtu mu
Ġbi vuga
Ġgu tandukana
gi shije
ĠKin yarwanda
R w
ban ire
Ġaba sore
Ubu banyi
ĠGi senyi
gi tari
ci bwa
Ġgu hinduka
Ġaba vandimwe
cto ber
re bwa
renge ro
garaga jwe
Ġkuru ta
ko mo
ma gara
ĠY E
Ġko mite
Ġin zara
shin gira
Ġuru byaro
hi mana
ki zimana
vugwa ho
san ya
ĠRe ta
ĠBu tare
ĠW or
ĠKi mi
Ġi shema
yongera ho
Ġbi yemeje
Ġubu ra
ĠL ou
t ta
Ġicyi ciro
Ġbaba ga
shiman giye
impu nzi
Ġu korera
ce l
tangi riye
Ġb ina
wu zu
icha rd
B wana
Ġbi shimiye
Ġyi shwe
ĠGa kenke
Ġmu si
han wa
Ġin genzi
ga ma
A PR
Ġtu da
st re
i tsinda
cu ngire
Ġku mvikana
Ġma tsinda
201 3
Ġbya yo
Ġya menye
gu we
tege rejwe
ĠV e
Ġru ha
Ġin zi
Ġibi sabwa
Ġin tsinzi
ba ka
ĠPa wulo
Ġa je
Ġma boko
Ġba kwi
Ġu sibye
g ye
so nga
Ġbi fasha
Ġku bwira
gena migambi
ama kipe
umu kunzi
Ġi shyamba
Ġama do
Ġgu hana
Ġgu siga
hagari tse
Ġara vuga
Ġ0 9
Ġuwi twa
V i
Ġbi ru
ĠON U
mbi ye
Ġimi terere
Ġdu ce
Ġimi paka
ĠPa ruwasi
ĠC y
Ġba ho
Ubu shakashatsi
Ġbya cu
i y
ge so
ku bwira
. âĢĻ
re mwa
ju rire
Ġibiri bwa
Ġya hoze
Ġbya giye
kwe mera
Ġbi rebana
ba hi
Ġya shimye
Ġic umu
Ġbi ki
Ġyakore ye
Ġki vuga
ĠLea ve
Ġgu hora
Ġki ka
Ġbi ze
Ġi shoramari
Ġbi tanga
Ġy injiye
B AN
Ġ )
Ka game
ho landi
Aba gore
im vura
Ġu kunda
mari ya
shyiki riza
Ġmu turage
Ġe shanu
Ġku ti
U bwi
Ġma ma
ti shoboye
ra f
n dwa
Ġ19 5
ĠN du
Ġdu shobora
Ġbitu rutse
ga vu
R wa
Ġya tanzwe
yu za
Ġgu fungura
mbi ka
ĠS er
mo ni
ĠI cyo
si a
Umu nsi
Ġya teye
Ġmu ma
ama raso
F i
hagara ra
Ġyashyize ho
ĠJa c
âĢ ¢
ĠA wa
Ġbite guye
ubu renganzira
Ġa renga
U ganda
Ġbu ndi
Ġn to
kuriki yeho
ubu sa
u wi
pfo bya
ĠIn stagram
yaka zi
Ġi fasha
Ġgu hita
ĠN I
Ġnyamu kuru
Ġin yigisho
w n
Ġba fitanye
ubu menyi
Ġbasa bwe
B an
I mari
Ġba bone
kubi ye
hu ha
Ġigi tsina
Ġ4 00
Ġbi shya
Ġn teko
Ġbu horo
fa te
gende ye
Ġcya baye
Ama hanga
ĠNya mirambo
Ġyasoho ye
in gu
ĠMu ri
Ġba baye
Ġbwan jye
Aba kinnyi
ĠDu sin
fu ka
ĠThe o
Ġn zo
g ra
se a
tegu rwa
b yumva
Ġida sanzwe
Ġc on
Ġaha gana
Ġkuvu ra
Ġru nini
ĠRu tsiro
Ġu wu
Ġka bo
Ġ3 6
bu hamya
mu ha
ĠC up
tu ngan
men yo
Ġyi hariye
ve mber
Ġal bum
ĠG U
ji ma
ĠMa damu
pho ne
Ġa shinjwa
ĠF ou
Ġa zwi
garaga riza
teke rere
na rd
ra bi
Ġmun ani
D a
yobo rwa
ĠMu sa
ama buye
i torero
ba zwa
ĠNyabi hu
nda tion
D F
Ġin kingo
Ġ3 2
shobo re
Ġ3 3
ĠD an
ĠSa mu
bye mera
ĠBi den
ci al
ĠKa bila
Ġgute rwa
i cyaha
ju mbura
Ġin gengabitekerezo
shimi yimana
st ine
tu nzi
Ġyi shimiye
Ġni cyo
Ġma shusho
tege rere
c ana
Ġin goma
ĠKin shasa
ĠR W
in tebe
ĠA MA
Ġma horo
umu tungo
Ġcyi twa
gan de
Ġn shinga
ha bu
u gu
ĠRo nal
L i
yu gari
yu ranyije
me r
Ġha bayeho
Ġbu ga
Ġbi tanu
Ġ l
gi rika
ĠN shinga
ye li
go go
Ġa kanya
Ġama soko
Ġcya ra
pite ni
ĠRu da
aba fana
Um wana
Ġnti tu
ĠMu kan
Ġu w
ye ri
bu re
Ġkugi rana
ĠSo ma
l bert
ĠN ti
ĠFran cis
m wuga
hu ngiro
en ter
Bi mwe
Ġ3 4
m bana
Ġbi gera
ĠR A
shin giwe
i je
Ġkuvu gana
re ge
ĠR we
Ġba kina
su ngane
Ġbu kungu
Ġtu ki
Ġba bana
Ġha ka
A r
to ine
garu rira
Ġa saga
d indi
Ġgu curuza
Ġkwa gura
Ġama hanga
In gingo
mama ye
Ġ >
kiri we
Im pu
mba ro
garaga zwa
ĠSi poro
rani je
m yo
Ġn gamba
Ġmu ga
le ss
gizi mana
shi mana
Ġba sabye
Ġib ye
T AN
ran kunga
Ġwa sanga
Ġru sengero
ĠKi zi
g win
l li
Ġbu kaba
se nye
ntu mwa
Ġye rekeza
ĠMa riya
ĠPe tero
hi ro
Ġburi ya
Ġmu gambi
Ġbya tuma
Ġma zu
Ġm bese
Ġbi kunze
Ġryo se
kwira kwira
Â °
F I
ĠE r
ĠKu ya
Ġya ma
Ġku gerageza
ĠRe my
Ġba rangije
yi riza
huti sha
Ġi zuba
Ġya ga
Ġa jyanye
Ġim yanzuro
ra bura
Ġwa bereye
sha ki
ĠChampi ons
Ġiki rego
Ġi ko
ĠKa mpala
gani riza
a b
ba shije
I zo
er ry
renga giza
ĠPo st
fu riza
Ġ200 8
do re
Ġbwi canyi
Ġin gano
kun dwa
aba ganga
Ġnde nde
Ġibi taramo
201 5
Ġi saba
Umu nyamakuru
fati rwa
Ġamavu ta
ĠBa sketball
Ġaba curuzi
u stin
Ġa yobora
Ġibi taro
Ã¨ ne
Ġkwa mamaza
ĠTwa gira
sirika ri
ĠT ou
Ġgu shinga
Ġisa bukuru
Ġama boko
kubi se
ra koze
Ġba jye
Ġu rebye
ĠZ imbabwe
tegerere zo
Ġmu rwa
Ġubu ziranenge
rwan go
Ġgu suzuma
Ġru ba
Ġn jya
Ġhe gitari
Ġ ...
Ġbahu ye
Ġkwi baza
shyikiri zwa
Ubu rusiya
ĠY u
Z U
Ġaban ye
ha riwe
Ġen ye
Ġmpan uka
me ka
bwi raga
sa tsi
Ġm wuga
Ibi ro
Ġmw inshi
bo la
Ġin yo
ci riritse
Ġwa koze
ĠRE G
igi kombe
Ġrika ba
Ġbu shobozi
Ġa keneye
Ġku garura
P F
me ri
go zi
aba fatanyabikorwa
Je an
ĠN za
sifu zi
I c
Ġbi shingiye
Ġbiza tuma
K an
Ġi shyirwa
ne l
Ġyi yemeje
ca ra
Ġyo ngera
Ġimi tima
Ġi tandatu
Ġu rwa
Ġya sanze
mbu zi
Ġyata we
Ama vubi
rie s
Ġba shoboye
SH A
Y U
ĠRwi gara
ĠHa r
P ro
shyu he
tekerere ze
he mbwa
ĠO bama
Ġpo litike
hu ru
Ġri ba
ĠAma horo
Umu nyarwanda
a mi
zengu ruka
Ġbwa kozwe
Ġim vugo
be l
n se
Ġi genda
Umu co
Ġwi geze
goro rwa
pe ta
e k
ĠDi ane
gere ranya
Ġba komoka
p ti
Ba ra
kwe to
Ġimpamyabu menyi
ca ca
umu ra
ĠBu jumbura
il le
Ġrwi za
ĠDi yosezi
ĠFou ndation
mwa sa
ĠM A
G e
n Ã©
Ġruta hizamu
Ġimi higo
ĠKo mini
Ama horo
Ġya shize
Ġma gana
Ġkuzamu ka
in zira
ĠDusin gizimana
t ro
ta mbo
Ġbi komeje
Ġkwi zera
hunga bana
Ġya shyizwe
ĠMozambi que
Ġn kunga
Ġba wu
Ġru kaba
bu ri
RI B
Ġki tari
al th
te je
Ġbi menyetso
Ġic yubahiro
Ġ3 8
Ġumu renge
Ġni mero
Ġim vu
Ġ1 000
m bya
i zuba
Ġki zaba
v ye
umu rimo
yuze mo
ran zwe
Ġigi ciro
in o
Ġ199 0
Ġto ni
Ġkugera ho
or k
Ġgu hitamo
Ġmpan de
ba ti
Ġbida sanzwe
Ġi rengero
Ġ3 7
subi ye
mi we
ranga mutima
I torero
u mwami
ĠF o
i sa
ban e
Ġba kundana
Ġ0 1
Ġu banza
Ã§ o
ĠBu hinde
Ġin yama
Ġyakore sheje
d wi
tabi rwa
pfuka munwa
I bu
hu tira
I cyi
umu byeyi
Ġnya kwigendera
Ġka bu
ĠS te
Ġba pfuye
ĠR ichard
saba ga
Ġa genga
m po
Ġin gengo
ma kuru
Ġzi saga
gu gu
yugari ro
n gwe
pte mber
ani rwa
Ġyabi tangaje
Tu ri
ĠDa vid
Ġku vugwa
Ġe se
ba ha
" ,
umu kinnyi
Ġu kiri
mbu rwa
ga yi
Ku wa
ĠGu verineri
Ġz ina
yama tsiko
ĠRo bert
Ġkwan dura
tanda ro
Ġ0 4
Imi bare
ĠN ku
en s
ĠF or
Ġa tanu
Ġu herutse
shyu za
risto phe
Ġya ru
Ġb ine
Ġi herereye
Ġku gurisha
SE KE
G B
ĠCo lo
sho p
ĠT ho
Ġmu mu
Ġku gwa
Ġku zaba
Ġrya bo
ne ti
ĠHa ri
ĠNgoro rero
Ġkin yamakuru
S u
Ġya huye
um wuka
Ġgu funga
ĠSpor t
Ikin yamakuru
R WA
me reye
sese ngura
Ġgu ho
Ġuru kingo
zamu tse
i shami
iki rere
Ġya zi
.. ..
Ġn shingwabikorwa
so hora
rizwa mo
Ġbya garagaye
N anone
ĠM TN
vuguru ra
M O
ĠC ar
po ol
ĠVol leyball
Ġhari ya
Ġyaha gari
t ha
ti ro
i ryo
Ġkure ka
aba gize
R AN
in kiko
Ġm inisiteri
Gu verineri
bu ke
Ġgu shishikariza
yobo raga
Ġiza jya
Ġa yoboye
Ġi dini
ver si
ĠP u
ge jejwe
A mbasaderi
ba ru
ren zi
ĠUmu jyi
ĠAfri can
Ġkwan ga
ĠI C
kuriki ranye
tu gu
Ġgu sanga
Ġim ana
gen dana
Ġumu vugizi
i ka
? âĢĿ
Ġmu saza
Ġubu vugizi
sangan yamatsiko
gi jwe
yandi tswe
ver pool
Ġiki ri
ĠE l
Ġi kosa
Ġgu korerwa
ĠSamu el
Ġc an
Ġma soko
vuga ho
ĠCa mero
Ki mwe
aba tutsi
Umu kino
Ġmi korere
rukira muco
yisi lamu
b indi
on o
Ġu hereye
ki ya
Ġimpan de
s ina
ibi za
Ġbaba she
im buto
Ġbiri ya
en da
tin g
kemu ka
Ubu ryo
Ġbi ti
Rw OT
Ġbya je
cuku zi
mi jwe
Ġri ta
Ġtwi fuza
Ġumu vuduko
no w
Ġgu shora
ta si
Ġmi jyi
Ġin yi
ĠD en
Ġba sore
Ġi shingiye
ran da
bi bi
ban ki
Ġbu rimo
Ġkugu ma
Ġku menyekana
hi ye
ĠC han
ĠMu tagatifu
ĠE x
U S
Ġwi ta
Y AN
Ġkw injiza
Ġbara bi
taba za
l sea
Ġma somo
umu toza
riki re
2 8
ĠDani el
ĠC AF
Ġi kwiye
Ġgu toza
Ġguso hora
isu ku
Ġku rwana
I terambere
Ġba gamije
Ġdu shaka
Ġyahise mo
vi ramo
ma il
che l
tanga buhamya
ĠBru ce
W e
Ġ h
ĠRu hengeri
Ġa ganira
Ġgu hungabanya
shyu ye
N de
Ġi haranira
ama tungo
ĠMa roc
Ġga komeye
ĠNya mwasa
Ġru hame
yabu zima
Ġv yo
ĠM on
go nda
Ġngo ma
Ġiki zere
Ġubu re
ĠFran co
ĠPro f
shyiki rano
Bi teganyijwe
komere tsa
Ġru ka
ri ndi
se nateri
heruka ga
na raribonye
P e
Ġkumu rika
Ġa heruka
ĠKa ra
Ġi shusho
shiki wabo
Ġwi fuza
Ġin teko
bo hora
Ġzi tuma
Ġu vuye
me d
Ġin tera
ĠE li
ĠY ork
Ġgu ka
Ġbya tangiye
bwi we
Ġru maze
Ġporo garamu
ma kaza
ĠD amas
ĠKi go
Ġserivi se
Ġzi kora
riri mbyi
tabi re
Ġba ganiriye
Ġ san
r yi
ha guru
Ġama tungo
hi tana
Ġibi ryo
Ġru gero
ĠKa buga
Ye su
du kunda
a st
Ġi heruka
Ġba tandatu
Ġbika za
Ġumu nyamabanga
ji ji
Ġimi rire
Ġmwe ne
te rane
Ġm inisitiri
ne r
p pe
Ġma bi
shyi riweho
Aba kozi
aban yamahanga
gu ze
Ġmu ta
ĠK ano
Ġaba shinzwe
Ġmpu nzi
bi le
gh t
r k
Ubu faransa
kiri situ
Ġru zinduko
gwi ro
pu b
mu riza
ke curu
Ġiki rere
H i
ĠBa ra
Aban yeshuri
yamama riza
ĠPa riki
Ġyavu tse
Ġba m
Ġb on
Ġbi shimira
li ki
Ġka ra
Ġbu shingiye
Ġi huriro
baba zi
a c
ka rengane
Ġin o
Ġnti ha
Ġimi yoborere
Ġni joro
tin yuka
yandi kisha
2 6
S P
Ġiso ni
ĠO ctober
twi ka
or ge
Ġaba saba
ine ma
ran s
ĠJa y
Ġku ro
Ġban ga
go bo
Ġkuvu gurura
Ġbu kene
ran ce
Ġho teli
N A
Ġ0 6
va l
t ra
reke jwe
Ġibin yabiziga
ĠKo perative
h wi
4 0
m pu
Ġya koraga
Ġya suye
pi s
I ryo
hu r
utu rere
ko loni
ĠU rwego
Ġib yuma
ĠTu yi
rohe je
teri neti
sese ngu
ri ne
nera l
ko pi
ĠB la
gani jwe
Ã ´
tandu kani
sira heli
sobanu tse
o d
gize mo
2 7
H u
ĠFa ustin
Ġi wacu
Ġ @
ĠNyaga sani
Ġi vyo
Ġcye nda
Ġbita renze
gami ye
J u
Ġgu kangurira
ĠRonal do
o p
shu ye
ĠGa sana
Ġgu sohoka
Ġaba yoboke
han ganira
Ġyi gisha
Ġati geze
Ġbi gi
Ġma jwi
ĠE bola
ĠMe ssi
im inota
Ġba sirikare
Ġn gira
Ġn danga
Ġbu shake
Ġha zaba
Ġmi bare
ti zi
ti fu
Ġaba ha
Ġba mbaye
in ganda
bu ngo
Ġkwi ya
Ġim pa
he rezo
te rankunga
Ġ hana
Ġbite ye
Ġya shakaga
ba je
im pamvu
Ġaba rwanyi
Ġbara vuga
ho ndo
Ġtu zaba
Ġmu tu
Ġumu paka
Ġin gana
Ġyako ranye
Ġgu kwirakwiza
kaba ye
Ġ0 3
Ġbu menyi
Ġru hare
Ġumwe nda
A ra
Aba minisitiri
Ġibi za
in gengo
ra di
cu ro
ĠAn toine
b ra
in tara
E C
v ya
hi ma
Ġya he
shyu rira
ĠRu lin
zama ra
Ġkuba za
shyi kirwa
Ġkuta gira
ku rya
ib y
Ġrwi butso
Ġc i
Ġbi tera
Ġbi zwi
subi je
mwi ta
ĠI torero
im p
yahu di
Ġgu tsindwa
Ġubwi za
iz ina
Ġa meze
ama shusho
Ya sabye
kurikira ho
gari je
Ġya shyizweho
ĠK ing
Ġrya yo
mbu we
Ġba kin
yo ngere
re bera
kiri ya
ama kuru
gene ra
Ġma foto
Ġbu kangurambaga
tswe ho
imi yoborere
tu za
Ġgu kira
Ġako moka
RW ANDA
Ġwa tangiye
ĠA BA
ĠMu gisha
Ubu tabera
Ġbin ji
Ġumu rambo
Ġm bo
a be
zan ira
mvi kanye
garagara mo
ĠBu rasirazuba
ngo la
pa gne
Ġ zuba
Ġba pfa
ĠC le
Ġic y
rwe nya
Ġi jisho
B enshi
u ma
ama sezerano
Ġku mvi
Ġ15 0
mpi ke
Ġna bonye
e t
Ġyi she
ĠC enter
Ġcya yo
Ġbagi ranye
san giye
kene rwa
reke ranye
Ġkure nga
la m
Ġaba tegetsi
Ġbu rezi
han e
ren ce
Ġku rangira
Ġ4 8
Ġba rya
Ġabo nye
M wa
to we
Ġzi shinzwe
umu shinga
Ġa sigaye
Ġya fatiwe
Ġibya baye
Ġgu sobanukirwa
Ġubu shinjacyaha
bo ra
ku riye
Ġya twaye
Ġabi tabiriye
nge rwa
gwa te
H an
b ri
R i
he nze
Ġkwe gera
gu ro
Ġnti wa
Ġmwi herero
Ġde s
Ġabakiri ya
ĠPla t
Ġya garagaye
re ru
korera ga
Ġuku riye
Ġ200 7
bo zo
Ġbya tewe
ca tion
Ġu na
ĠA d
Ġnta wa
ran d
herere kanya
Ġbake kwaho
Ġubu vuzi
Ġku ran
Ġhari ho
si c
Ha gati
Ġaba hanga
Ġamu bwira
ka ye
Ġm vugo
Ġib yumba
ĠGra ce
M ar
lo ma
bone ke
jo r
Ġha ki
Ġa wu
hi te
me ne
Ġim buga
Ġaba kuru
ĠNo vember
ĠI tegeko
Ġ soko
Ġma jyaruguru
man uka
shyi mbo
ĠF lo
Ġru kora
Ġgu shimira
Ġcya bereye
Ġub w
Ha shize
ĠUMU SEKE
ĠRulin do
Ġbwa ba
si te
Ġakaya bo
um wuga
ya ba
m pe
bya ranye
Ġtwe bwe
vuye mo
Ġibi sobanuro
Ġim paka
soho ye
Ġi du
Ġimi koranire
Ã ¯
PR C
bin eza
Ġmu ti
Ġyi swe
Ġs tade
tore we
Ġumu shahara
rage ra
dou ard
mi rwa
Imi kino
fite mo
ama jwi
Ġwa gize
Ġha ruguru
Ġari cyo
ĠIkin yarwanda
Ġbi taramo
risti ano
Ġryi ta
Ġub wandu
Ġbuka bije
p en
fungi we
ĠRD B
ko de
shi p
Ġ7 5
menye rewe
ĠFran k
Ġwa yi
k h
ĠDa ta
Ġa y
ĠGro up
u bwa
Ġa zira
ĠTho mas
Ġya kinnye
Ġinzo zi
bona mo
Ġaban yama
Ġyi ca
Ġyitwa je
vu kiye
Ġban gana
ĠS ou
Ġibi kombe
icyi ciro
U mwaka
Ġubu twari
gira mo
on y
n u
Ġku ku
Ġbu shobora
ĠHa kizimana
e ws
so mye
Ġbya bereye
yandi tse
C P
in ko
ĠM ou
ri nde
g wan
bi ko
Ġbi yi
hindagu rikire
Ġgu sobanura
ĠN gi
garaga rira
Ġba banje
Ġaba rokotse
Ġna mu
ĠG hana
Ġbw ana
me zwa
ama hirwe
ri mbye
ha ha
ro ngera
Ġtu ti
M BA
Ġya za
ki ran
Ġudu shya
Â «
Aba rundi
Ġba shyize
Ġm pe
ĠF I
Umu kobwa
Ġi korwa
Ġ6 00
ban ji
ubu shakashatsi
Ġa li
M C
itu manaho
R DC
Mu sanze
banu tse
Ġ0 5
Ġya tangije
Ġnjye we
ĠBarcelo na
Ġin ga
Ġgu tya
Ġabi korera
Ġata za
cho ol
Ġru ga
Ġmwa rimu
Ġba tegereje
hi tanye
Ya bi
Ġukun di
Ġi jya
Ġbye rekana
ĠH A
kome retse
Ġm wanzuro
ĠAka gari
mu nsi
M an
se nyeri
Ġra diyo
uru ndi
ibiri bwa
Ġin toki
ĠI ngabo
re zwa
Ġaba tishoboye
Ġbw u
ĠNdayi shimiye
giran eza
Ġi yobowe
mbu tse
ĠMac ron
vo ma
Ġmu sozi
Ġumwa rimu
ikin yamakuru
Ġbi fitanye
ban tu
ĠN yi
Ġcya ro
gami ra
B y
Ġba ma
ĠS AC
ĠKano mbe
ĠA rusha
kuriki rwa
3 5
gan yi
Ġi komeza
ĠN san
Ġuru mva
mbu ro
ĠWor ld
yu tse
umu goroba
ko ngera
koreshe reze
Ġban yu
Ġbitwa je
ĠChe lsea
Ġya re
se nya
pti ste
Y ou
Ġka mwe
aba hungu
te ur
Ġbwa garagaje
2 9
C R
Ġzi vuga
Ġika za
Ġn shaka
AN O
Ġaba renga
sobanu kiwe
vo ka
umvi se
Ġinko moko
pri l
ĠBu yapani
Ġkwita bwaho
aba kuru
ibi ganiro
Ġgutu ra
ĠN sabimana
Ġa shimira
Ġkwe rekeza
ĠLi verpool
L N
van ye
d in
Ġku nye
si we
Ġbaga kora
Ġtu rebe
Ġnya kuri
ĠIM VAHONSHYA
Ġmu zima
ĠSta r
N u
Ġtu yi
se mburo
Ġibi hangano
Ġri da
d ine
si on
riki ra
U BU
ibi taro
ibi yobyabwenge
ĠZ i
I shyirahamwe
ĠK I
wuba tsi
Ġbi tekerezo
ci ke
pho nse
Ġkumu ha
Ġi to
Ġbita ba
Ġi fumbire
Ġi terabwoba
Ġre ta
N yira
u du
w w
jyan ywe
me zo
ti rwa
Ġ0 2
c le
o na
ĠSa la
rere zi
kuriki jwe
guru be
shyikiri jwe
Ã§o is
ra ra
Ġru da
si lika
aba vandimwe
ma teka
ban zi
fa shanyo
ĠC yan
ĠZa mbia
ca r
Ġi saga
ĠO le
ĠCh ristophe
Ġki twa
pfu ra
ĠB U
O C
Ġri shya
da ri
Ġn an
Ġm in
Ġ200 3
Ġyagi zwe
de he
Ġwa vuze
Ġicya ri
Ġba zo
Ġic yuho
hi mba
ne st
kome reka
Ġaka rengane
rasi re
BA VU
sa raba
ts wa
201 4
S ha
ĠâĢ ¦
Ġya jyaga
Ġbi tangazwa
Ġru pfu
rt y
Ġye we
Ġyara vuze
ĠA t
rira ho
s san
Ġm bonera
Ġki geze
po ra
Ġuku ba
re mi
Ubwo ngereza
Ġbu ntu
Ġtwa vuga
Ġnyi r
Ġbi tara
Ġkwi shimira
Ġika rita
ĠM wa
Ġbi reba
Ġaban yamahanga
Ġa vu
Ġibi tangaza
Ġru hu
H e
Ġu gi
ren t
D R
U sibye
Ġfili mi
gi tura
huti rwa
I tangazo
gu za
ĠAna sta
Ġn ganda
ĠFAR DC
Ġku ne
Ġya jya
ĠE u
now less
ye jana
ĠV C
Ġbatu ruka
vuga butumwa
muga yo
sin ga
risti an
ĠAwa rds
Ibu rengerazuba
Ġi gu
Y ana
Ġi fata
ki ranya
Ġgukura ho
4 5
g s
Aba byeyi
por ts
Ġ tangazo
bi ka
baba ro
tsindi ra
ba tse
Ġama sa
s tan
I GIHE
kin di
I R
Ġyo nyine
Ġ she
gene ye
ĠI jambo
Ġbaka yi
Ġn kora
i soko
h Ã©
Ġa shyira
iki renga
ri que
ru gero
ji mana
Ġiri ho
kini ye
imi ti
iro bi
ba siye
Ġma hirwe
tegan ywa
Bi tyo
Ġa shimangira
Ġba ran
imi korere
Ġaha mya
Ġbaba sha
Ġn jyana
Ġimi zi
Ib intu
Ġbi ca
Ġku jyana
ro hereza
nde r
Ġbagomba ga
u ti
Ġha sigaye
aba hutu
Ġbazi ze
c ra
Ġba tewe
ĠI sa
he mbe
Ġigi hombo
L a
ĠM wi
Ġaba ye
gu ka
bu ja
uru ganda
Ġubu da
Ġgu shize
Ġy in
yan ge
ĠK O
Ġgu cika
rwan i
tori al
versi ty
Ġi be
ĠG reen
Ġnta go
gi ti
âĤ¬ Â
Ġ shingiro
Ġgi shya
Ġaba koresha
ĠBan k
Ġ200 6
ban i
Ġba shyira
ĠS ol
gera ga
se gonda
Ġibi komere
shu ka
In zego
S in
Ġba zwi
Ġyandi kiye
Ġguse nya
j on
Ġndu mva
Ġye rekanye
Ġiki ra
Ġza we
kun tu
ĠB ro
Ġu kina
ubwo ko
Ġba tekereza
Ġgi pimo
e pfo
Ġa kurikiranyweho
Ġu yoboye
Ġba hora
Ġbe merewe
Ġa jye
ubu kerarugendo
Ġ3 9
Ġumunye shuri
aba ba
haza bu
giri zo
ce s
abi bumbye
tu dio
Ġgusa mbanya
ti mana
se ka
Ġaka yi
Ġkubo hora
Ġyi bukije
zu ka
âĢ¦ .
yiri ngiro
Ġby ana
umu turage
Ġt wumva
Ġubwi genge
Ġku zuza
Ġwa kwi
ĠUmu kuru
imi rimo
Ġw ana
A ir
Ġara ba
ĠE va
ĠCent re
Ġ5 5
i t
garaga rije
side nt
c co
Ġada shobora
Ġba teye
Ġi tangwa
Ġya cyo
Ġya teguwe
ĠMu shikiwabo
Ġin tara
suzu gura
refe gitura
a ce
Ġ wandi
Ĺ ı
Ġk di
Ġga ciro
Ni mu
Ġbahise mo
ĠMa y
Ġatu ruka
hagari tswe
Ġya buze
ce mber
Ru bavu
ĠSAC CO
sh en
Ġi kana
Ġm yugariro
Iki renga
ĠTwagira mungu
Ġba be
ĠD ar
muna ra
Ġko mpanyi
d ge
ĠMu gabe
Ġbye rekeye
ram bwira
hangan ge
Ġkwi yubaka
3 9
G en
ye zu
Ġdu kwiye
Ġbaka gira
Ġba fatanyije
yanga mugayo
Ġki garagaza
umu handa
umu nyamakuru
ĠF la
Ġgusha kira
kore zi
Ġba seze
Ġim yambaro
fo ro
ga mbwe
ĠSe ptember
Ġyara bi
Ġbi ganjemo
umu nyarwanda
Ġt wu
Ġib yumweru
Ġa regwa
ye nzi
Ġku boneza
ĠC E
Ġrwa cu
tu bwira
Ġr wanda
hindu rwa
J E
fatan ije
aba rimu
Pa diri
u re
Ġbwa ra
imba raga
Ġya ciye
ĠE n
yo be
ikin di
Ġr wu
bu ne
Ġwa giye
Ubu curuzi
ĠNi yi
] ,
p ha
jo ra
Ġbati shoboye
Ġbata za
gu re
Ġgu pima
Ġri maze
ubwi canyi
â Ĩ
umu saruro
ĠBa ptiste
yan gwa
ĠNa irobi
r n
ama gambo
si tani
Ġuku gira
se r
Ġum wanzi
ĠMun yan
ni ka
Ġy injira
ba girwa
Ġumu camanza
ĠC ND
vo ire
Ġn gi
Ġha kenewe
Ġibin yoma
Ġicye rekezo
Ġki giye
ĠMun yakazi
Ġbu ha
ĠT hi
Ġin terineti
ram paka
di tse
ĠSa tani
ra mbi
Ġzi gamije
Ġyaha maga
gen o
Ġye merewe
imi twe
Imyi dagaduro
ĠA mbasade
ĠG A
Ġsin zi
giri tse
po ir
ge ma
ĠA ngola
kari ta
Ġi tangira
tu s
aba tuye
Ġya byo
ĠC al
r ye
Ġyi zeye
cu za
Ġmyi tozo
Ġzi gomba
guri shwa
Ġaba shaka
he mu
hagara rira
aba polisi
hu ngiye
tse mba
M wi
da me
A l
ĠSa int
Ġkumenye kanisha
Ġi shingiro
ri zo
kin girizo
Ġmu saruro
Ġgu kubita
3 7
tan ya
bo ok
ĠRW ANDA
Ġbuda sanzwe
Ġru byiniro
Ġkuzi rikana
Ga hunda
mpa ye
Nde tse
ĠM bo
c yu
Ġa kina
Ġco ronavirus
umu sore
ndi ro
d s
Ġba we
Ġdu keneye
Ġbu renganzira
ul y
U shobora
he rwe
ĠEs pagne
Ġmu shiki
sine ss
Ġgu shimangira
Ma damu
ĠPa siteri
Ġbe mera
Ġndi mi
Ġbite ro
Ġuruhu shya
Ġka to
Ġka ba
Ġya tsinzwe
ram ya
ĠMe ddy
M enya
Ġgutu nga
Ġtu gira
Ġaba kiliya
aba turanyi
Ġa moko
Ġki yaga
la in
Ġbaha garariye
Ġku ngu
andi tse
ru za
âĨ Ĳ
Ġa shingiye
Ġya kira
Ġu geze
ĠKa ri
Ġtu jya
d yo
han do
Ġbaka bona
Ġba zira
wu ndi
Ġgukura mo
ra peri
ĠKa bera
ne rali
igi tsina
we r
Ġaba bo
en ze
me rica
Ġi tabi
ĠJac ques
li am
U tu
Ġbahu ngiye
Ġya huje
kuriki ranira
uru za
Ġhe nshi
rwan ye
Ġumu kandida
Ġba kan
hindu we
Gu verinoma
ĠRwan d
K enya
Ġbata bi
b gayi
riye mo
Ġ6 5
Ġn ubu
ĠFran Ã§ois
ĠBu taliyani
ĠGe neral
ko man
Ġ ta
ĠKizi to
Ġwa hawe
Ġyara mu
Ġmwe se
gendan wa
te zweho
gen du
Ġma shyamba
Pa ul
ĠJa ck
s to
Ġba hoze
ku mbi
ĠGa tu
mu ryango
Ġgu tangwa
Ġnti mu
Ġbata gira
ba ze
ru kanye
Ġata bi
C ya
Ġaba shoramari
no ne
Ġba rebe
n ywa
van ze
ĠKwi zera
mi c
tion s
u ary
Ġbi twaye
ĠRu guru
Ġba buze
igi sirikare
l s
bere ka
ni s
C U
Ġumu rwayi
nye shuri
Ġigi sirikare
n gana
Ġki ciro
Ġtwa bonye
liya ri
ub w
ramu tse
ĠIn tara
ĠSa fi
be ga
ĠM in
Ġi herutse
m bwiye
Ra poro
Ġe t
I huriro
ge li
I ntumwa
I tsinda
Ġuka bona
ama saha
Ġyasoho tse
Ġ4 4
ĠR PF
Ġ8 00
UMU BAVU
Ġba shakanye
ĠSi da
bon ana
Ġa bone
tu ngane
Ġcya munara
In ta
Ba vuga
I shyaka
Ġm inota
Ġama cakubiri
Ġaba hungu
su bu
Ġaki mara
Ġmu nya
Ġcya we
ko za
in zara
Ġgu sangira
ĠA U
Ġic i
Ġgihe mbwe
gi jimana
an ney
ĠPo lly
ngu we
ĠPe ter
Ġa rwaye
Ġbira shoboka
in yungu
de nde
f fi
Ġi tsinze
Ġbu garagaza
ji jo
ris te
ĠBu ru
ĠL on
Ġmi sozi
ĠGa tabazi
g han
tu nze
ĠM ani
bu jije
el le
ĠMelo die
ci en
Ġa shize
ĠC ro
yan ye
Ġama shyamba
Ġzi sanzwe
Ġ4 6
Ġa koze
kun de
tangi rwa
Ġbi zi
ru rwa
Ġnka ho
Ġubu kerarugendo
sin gye
ama ta
Ġku byaza
Ġsita siyo
Ġku rangwa
Ġbwo roshye
ĠMe ya
Ġi huza
Ġada fite
ĠSu n
ĠI ran
GA ME
Ġâ Ĺı
Ġ Ã
ĠGe orge
in yeshyamba
Ġzi giye
ĠU BU
ama so
Ġya kuye
ĠSe ne
I voire
Ġmi dugudu
ĠTo m
ka bije
Ġigitu tu
Ġkwan giza
A n
ma horo
subi re
Ġnke ngero
Ġutu rere
Ġna vuga
Ġ jambo
Ġim yuga
kini sha
aba yi
Ġku renza
ha to
Ġkwi hutisha
yongereye ho
ma ble
Ġbi rangira
Aba ri
ca de
garagam bya
Ġnda ba
Ġubu ntu
Ġu rwibutso
Ġgu hunga
Ġibi ra
Igi ce
Ġi baye
ĠMu sic
U P
byi za
kin wa
Ġkwi fatanya
Ġaka gira
ĠI PRC
Ġ200 5
ĠRo se
ĠBer nard
Ġama funguro
Ġryi twa
in de
yumva mo
3 3
Ġba reba
yoro ro
c tor
m vu
Ġku bwiriza
ĠN shya
ĠSa m
Ġgi tuma
i x
gi riza
ĠAba hutu
Ġha shingiwe
Han yuma
Ġkwi taba
ubu kwe
Ġdu sanga
Ġin yamaswa
f ranga
Ġkwi hangana
Ġa sabwa
v yi
Ġin twari
Ġkwi makaza
ĠAban tu
gendera ho
ĠUmu nya
imi rire
Ama faranga
a kaba
ĠKa bgayi
ĠE ti
N tu
ri yoni
ĠB ra
Ubu rasirazuba
Ġku rwara
Ġbakora ga
man ye
si ganwa
Ġmo n
ĠLa u
mi seri
mu bwira
Ġzi terwa
Ġtu geze
Uwi teka
z indi
Ġtele phone
jon jora
wan ye
Ġban ze
Ġika ze
, âĢĿ
shin g
reme reye
Ġgu subi
Ġzi ha
Ġbabi kora
Ġba tera
uru banza
i ba
in do
ĠE douard
yumvi sha
ub li
ĠHabi mana
ĠAnasta se
Z O
r vi
Ġngoro ramu
Ġaba vuga
ja gari
Ġbi ranga
ku mira
ĠKi m
mu biri
tu riye
Ġka bari
ba ro
liti ro
ke kwa
ĠH ou
Ġim peta
Ġmun yarwanda
huza bikorwa
Ġm pi
Ba ri
ĠVi anney
A L
ĠUni versity
ro ha
subira mo
Ġku ma
he muka
Aba hutu
f an
Ġnk ana
Ġu gamije
rondo ro
uru hu
lla h
ĠFi li
da li
ngani zi
jya mo
3 1
Ġ geno
kubi twa
Ġru kuta
Ġtu na
Ġyabi vuze
Ġmu tekano
fungu we
ĠFranco is
Ġba shinjwa
Ġigi ze
ama ze
ĠNi yo
Ġba ganira
kana ma
Ġisi ganwa
ĠU bwo
Ġgu tabara
Ġiru hande
Ama tora
Ġya sa
san giza
na liti
ĠGi hugu
Ġiba ra
b ru
so be
Ġcyan jye
Ġbuta yu
I ngo
di s
ĠAb du
Ġa mwi
zi ze
Ma ze
Ġcya tumye
Ġbaba rirwa
l ing
hi rizwa
kin g
Ġbiba za
Ġzi tari
yu mu
herere za
ĠUbu shinjacyaha
ĠDa y
I ra
pe ti
van wa
U ra
re kwa
Ġkuba kira
ĠIgi si
Ġgu shira
Ġyagi riye
ĠCh ri
Ġya tangira
Ġha kurikijwe
Ġku bya
ĠSu per
aba bi
vu giye
du ku
Ġyan ga
Ġc yubahiro
Ġuta zi
yeme ra
Ġkubu rani
ni ba
ĠÂ» .
ge rero
Ġba meze
r ban
ĠJo e
Ġmba raga
ĠVicto ire
Ġbu temewe
Ġri rambwira
genda ga
siga ranye
Ġya gejeje
tura rwanda
ĠV a
N za
shimi re
Ġi rya
Ġya shimangiye
ĠB K
va ho
Ġbahu je
M bese
Ġr yan
tuwe li
sha ho
Ġbi huriye
Ġma gendu
spe l
T o
Ġim yanda
Ġyi shimira
âĤ¬Â Ŀ
T i
Ġin dangagaciro
ro ka
Ġaba bwira
Ġbu kuru
Ġmo ko
ĠPhi li
u rwa
ĠA s
ibi ciro
Ġ5 4
re d
Ġimyi garagambyo
mva ho
Ġza giye
Ġwi ga
ĠAba turage
Ġ4 7
ĠS hi
Ġu jye
Ġbu hamya
ke nshi
riri mba
ki rana
uru gendo
he mba
Ġgu kundana
Ġin tanga
curu riza
shyu shye
ce book
ĠGe reza
Ġu kinira
Ġkwi twa
5 00
ta ga
men yin
shu shanya
ĠOle mpike
Mu n
bo mana
so gi
umu dugudu
Umu kozi
si ti
ngu tse
Ġbi kana
Ġubwe negihugu
Ġ go
Ġubu kana
Ġibi pimo
aba depite
mbe ro
Ġmp induka
gi zwa
Ġna wo
a ture
Ġbwi hariye
Ġkari ndwi
Ġnti zi
ko ranye
si rwa
gan zo
hi ga
ĠT ra
sivi li
p ro
Ġi kwirakwira
Ġya menyekanye
Ġkwi zi
yumvi kana
menyin giro
Ġ25 0
Ġu rwango
ĠA F
ryo he
bura yi
Ġyasubi je
ĠNsengi yumva
sa ku
Ġba tangaje
Ġgu kurikiza
Ġyi fashishije
Ġ Ã¢
Ġgu komera
Ġkin gana
Ġyavu kiye
Ġbon yine
Ġbu gamije
Ġkure ra
ri me
B yari
Ġba fatwa
ubu banyi
Ġyara ye
g le
Ġaka bona
se s
rere ye
Ama teka
Ġbu fasha
ĠN or
aba mu
Ġu keneye
ĠN yaka
ĠGe ra
SH I
p hi
ka ga
gari jwe
Ġbajya ga
Ġbita bo
sha kiye
Ġi shyirahamwe
Ġguku sanya
ke nga
ĠB yumba
bone yeho
rwe ho
u t
Ġbaka zi
kubi tiro
Ġmi shya
ĠHa ssan
g ge
ĠBu holandi
Ġbavuga ga
ba ya
in teko
ki jwe
uwa ri
shyikiri je
Ġya shatse
p re
Ġbu rasirazuba
m paka
Ġbari ndwi
Ġkun yura
Ġ4 2
Ġba rwaye
Ġki lometero
rege ya
Ġmu bare
k y
nyama tegeko
Ġya rimo
ubu kene
ĠFD U
ren te
Ġgusi ganwa
Ġwa menyekanye
wi si
ĠMi cha
Ġi tangaza
Ġi genzura
sho meri
AN I
umwi merere
du cer
ĠHa bineza
Ġi jyanye
Ġtu vuga
Ubu shinwa
K e
N yaga
Ġba cye
ama gare
di torial
Ġi hari
Ġba gerageza
Ġya kunze
ku rire
ĠF Ã©
tyo za
ĠFre d
ĠFI FA
A ri
Ġbu kwe
Ġkwi fashisha
gu sa
Ġgu kinira
ĠR ama
bu shake
Ġko ngerera
Ġu koresha
Ġama ra
YA RWANDA
wan ga
U ku
mwa rimu
Ġuka bije
ĠM ama
Ġba suye
ĠS chool
ĠJan vier
Ġgukin gira
Ġgu kurikiranwa
sira yeli
der man
F o
sh ywe
Ġuda fite
Z a
te zwa
ĠGi sozi
he ba
li mu
st rali
Ye zu
B urundi
ĠCent raf
j inya
Ġbi renga
mi za
Ġkumu fasha
rohe ye
ĠTele viziyo
Ġha bonetse
Ġzi zaba
bru ary
Uwi twa
ka mo
Ġbi renze
Ġin kiko
Ġrira mbye
Ġban duye
ken nye
Ġya gerageje
Ġim bwa
fu byi
ĠF LN
Ġma jyepfo
c umu
in gingo
t ine
ha ti
Ġma kosa
ĠUwi mana
Ġbi hu
Ġaho ra
ĠAnd re
Ġa mi
han gani
Ġya ran
ĠB el
Ġimi co
ĠRu sange
hin e
aban ye
ature d
ĠGa caca
Ġbwi huse
Ġmu bano
Ġiki bi
Aba kobwa
Ġbyi bura
hame d
Ġn gengo
H aba
ĠZa ri
Ġibi bi
shyin guye
ĠN gabo
Ġa zo
menye reye
u nd
Ġaba depite
Ġibi rego
Ġyahi shuye
Ġba bayeho
bera ga
ĠUmu seke
Ġimpu hwe
banji rije
Ġ litiro
ĠCh ristian
ĠKenya tta
kara ba
shi kiri
Ġz anjye
korwa ga
Ġwa mamaye
de ni
ĠI shimwe
Ġimi rwano
s teri
Ġbu vuzi
ĠPa si
ssi on
Ġmu cyo
van ji
t ina
Ġa gize
tu rire
gene ke
Ġn giro
Ġn tebe
ze we
Ġmu gu
ge ranyo
Ġmi kuru
ĠPa rty
Ġbiri bwa
hangayiki shijwe
ĠNyu ngwe
Ġgi ca
Ġbata we
Ġbi rinda
Aba faransa
kubi swe
Ġba guye
ĠKi bungo
Ġka bone
Ġzi jyanye
le mu
ni e
shimi we
ti a
Ġmi ti
Ġu genda
shi gi
ĠKA GAME
Na ri
ĠNyama ta
a y
a moko
Ġa teganya
ka maro
Ġmon th
Ġbya we
Ubu hinzi
ĠW ine
Ġtwo se
um z
shisho zi
to ndo
3 4
ĠG lo
jan ye
u rwo
Ġba tsinze
fashijwe mo
C h
Ġu twa
Ġkuba ba
pi misha
shije ho
Ġi hame
ĠP en
Ġma zina
hi shu
cu pa
sin ye
ze rwa
si ba
Ġmi higo
In tego
Ġaba fatanyabikorwa
ho teli
Ġgu takaza
Ġiki zamini
âĢ ĭ
gi sho
ma li
yi ka
hi mbaza
suzu mwa
le d
Ġruha go
ĠH er
Ġbaza komeza
ĠTou ch
ĠAlex is
Ġwasanga ga
ru bozo
Ġa shinzwe
rage ze
Ġgi sanzwe
le stin
we ra
Indi rimbo
man ya
Ġbada shobora
bi ro
tin gi
gwin gira
I nga
ĠN shimiyimana
ĠQ a
ĠWil liam
Ġbi gisha
vi lle
umu bare
ama ra
he za
Ġru bi
Ġuru muri
Ġi vangura
Ġzi mu
ĠC P
Ġba zamu
Ġm ini
Ġcya tangaje
ĠA rena
Ġa tangiye
Ã© nÃ©
pfi riye
rongo ye
su ru
Ġuru mogi
te sha
aba sore
ĠNo heli
Ġka bi
shimi rwa
Ġiza bera
Ġi koresha
ĠI cya
Ġku garu
ra l
ĠI shami
ĠV S
Ġmu kerarugendo
go ri
Ġba fatiwe
Ġbi hari
Ġubwo nko
3 6
ĠI yo
mi er
im yuga
Ġnya yo
Ġba fasha
gu me
ku san
yi ko
aba kunzi
Ġ200 4
tungu ranye
U SA
ri ke
ĠJu li
Ġubu jura
Ġma guru
N yama
mbu kiranya
ramu ka
Ġgeno cide
n yu
Ġgi hari
rwana shyaka
Ġha tandukanye
the r
Ġn shuti
Ġnti bu
Ġaga hita
rin ce
re bere
Ġba hanganye
Ġibi ba
gufu li
Ġi meze
menye reza
Ġkunye reza
ĠTe am
Pa pa
ri se
te raniro
me rwa
Ġkugi rira
ĠYE ZU
Ġgi ciro
Ġgi tekerezo
Ġbu maze
A BA
Ġma shyaka
hin a
Ġu hagije
Ġya size
t ch
ĠF c
Ġgi shanga
ĠSene gal
Ġka ru
ama dini
o ts
Ġku gana
So ma
ĠT hÃ©
Ġwitwa ga
i banga
Ġmuri ma
ĠBu ra
Ġum wanda
Ġna giye
Ġga fite
pan ga
ro hera
gi fite
he be
Ġin tebe
Ġn toki
ĠBi kira
ĠMala wi
Ġu gera
l m
ĠAugu st
ĠA g
kemu rampaka
Bi vugwa
I koranabuhanga
Ġubwi sungane
ĠNa himana
i teka
Umu tekano
Ġumu sirikare
to ye
Ġumu vandimwe
ĠNya bu
C la
ĠBu singye
ani ye
inzo bere
a t
i shoramari
hi gwa
koresha ga
ĠLi bya
Ġya ya
ĠY ves
Ġse rvi
Ġmu toza
Ġ1 20
ama bwiriza
kora ho
Ġha shobora
Ġkwi shyira
ĠIgi he
i jambo
ubu rwayi
de wo
Ġbya vuzwe
Ubu genzacyaha
Ġicya kora
Ġa rya
ĠMa jor
ĠUmu vugizi
Ġbyi buze
ĠAi mable
Ġntiyi geze
zi mu
Ġuku mva
Ġa garagara
ti rira
hani tse
Ġguha shya
ba l
ĠRD F
W O
ke r
mbu to
Ġicyi caro
s ton
Ġaba sha
aga hinda
ĠWe st
garutse ho
3 8
wi di
ni a
dan ya
mo cra
Ġyu nze
Ġmu ki
Ġu huza
i dini
Ġyaba shije
Ġpa pa
Ġi je
Ġi kubitiro
F D
qu i
zi ga
su wisi
Ġmpu zama
Ġman za
sin gi
Ġama tsiko
N R
Ġ torero
ĠEs poir
Ġru vuga
Ġiki buga
Ġkuza jya
Ġm va
ĠMu nye
ĠMini st
ĠD j
Ġindi shyi
A S
Ġcya tangiye
] .
Ġama tsinda
ama renga
Ġbihe mbo
Bu rya
rira mo
ĠO MS
C IP
Ko misiyo
Ġdu to
ubu ra
yere kwa
Å ĵ
Ġbyan ze
byin o
Ġumu ganga
Ġtura ba
Ġkub w
u kuntu
hu ngi
Ġbara ba
Yo ngeraho
4 8
Ġgu tegereza
Ġguhi mbaza
Ġkwihan gira
hi ze
le r
Ġri rimo
ahan tu
De pite
Ġimi gambi
Ġzi tu
Im yaka
Ġha je
ĠS A
Ġ shyaka
wan jye
P E
ĠGi sirikare
sin gwa
hanga rwa
Umu shinga
kwe reka
Ġyaka tiwe
ĠUbu yobozi
Ġrwa ra
Ġgushyin gura
e f
hangayiki shije
z y
Ġya kora
riye ho
Ġya zo
Ġni ki
Ġimba ga
ĠKi beho
Ġumu soro
Ġa to
Ġa twite
Ġba herutse
gira kamaro
Ġake kwaho
Ġnumva ga
Ġn kunda
ĠR uko
aban yamuryango
da m
Ġki liziya
Umu vunyi
de l
da te
ĠKa rekezi
Ġmu tungo
Ġbi ciye
ĠNya furika
Ġb yumweru
Ġaka ga
hamaga ye
ĠN yuma
ĠEr nest
E FA
tege tswe
Ġin kweto
ĠNsengi mana
Ġya teguye
aba kora
rwa fa
so zwa
Ġwa ha
ca rubozo
Ġn sanga
i shyirahamwe
Ġwa maze
yan si
Ġbun gana
ĠW o
Ġaga ruka
n umz
hi zi
E ditorial
ki shije
ĠMi higo
ĠIra dukunda
n we
aba hanga
Ġara mutse
ĠDe cember
RI M
ba hiriza
Ġyu mvise
F e
mu zi
Ġbi du
ĠK nowless
Ġru hando
Ġguhagara rira
ĠAir tel
ĠN YA
ubu tumwa
Ġcya hoze
gende rwaho
Aha banza
Ġngaruka mwaka
Ġba rushaho
Ġama hame
ĠE ast
Ġibyi ciro
sengi mana
Ġa byi
razi l
ĠNiyon zima
Ġi buranisha
imyi twarire
Ġin curo
an ce
Ġaba turanyi
Ġibya bo
si re
Ġumu ganda
Ġwan yu
Ġba menya
Ġin tandaro
ĠK ama
umu kozi
Ġa pfa
Ġbiba ho
cel les
gge d
ĠA cade
ĠAba hamya
ĠGi lbert
Ġuza jya
Ġba rokotse
ho rera
ĠO ne
e se
ĠTu ni
m wu
Ġbi va
Ġku ramya
ĠU n
Ġ4 9
ĠBu r
hu nze
Ġma la
Ġpe naliti
Njye we
ĠA h
shyin giran
Ġmbo gamizi
Ġu tanga
ka ho
Ġmuru muna
ĠD el
um wanya
ĠS t
ĠKa ru
roko ka
yororo kere
Ġgihe rereye
shing ton
Ġubu su
Ġku byo
pa siteri
Ġ ju
Ġzi riya
ĠBo y
ĠB wi
ĠMu nezero
yin ya
Ġgi tu
ĠA pril
ibu ryo
ĠC ya
uwi twa
ĠMicha el
ĠAl phonse
s y
nde tse
Ġuda sanzwe
Ubu tumwa
ren gwa
ĠCamero un
a yi
du ru
Ġim bibi
Ġbi kurikira
Ġaga toki
mpo riki
Ġcan ke
n yo
Ġbe rekeza
Ġara bi
Ġgu sana
Gu hera
Ġaba zungu
in gendo
Ġi s
Ġke retse
fuza ga
Ġzi twara
Ġnda bona
ka mba
Ġya rwo
Ġru guru
yi senga
Ġubwa yo
hu ri
Ġvi ta
ama torero
Ġbu hagije
Ġama rangamutima
Ġbaha ri
j ani
ĠCyan gugu
Aba jijwe
hi li
4 7
bi za
du za
Ġni zo
hindagu rika
Ġguhagara ra
Z imwe
Ġpa riki
Re ro
han di
Ġkure bera
dan ye
one l
x y
Ġi pfu
Ġicya yi
Ġa rangije
ĠM babazi
Ġm vuga
ĠPas cal
aba shinzwe
gu tse
aba hinzi
ĠPlat numz
ĠKe vin
Ġn ye
Umu twe
b s
mu fasha
tu mba
Ġama shyaka
ĠIn terahamwe
Ġ5 6
Ġte re
ri si
Ġba su
Ġimbo ga
Ġi garagara
Ġra dio
Ġa zamu
hangan e
Ġn zaba
âĢ º
ubu dehe
L G
Ġya fashije
ĠT ri
ĠPa r
ĠAu strali
P S
di er
Ġaba koze
ci shije
Ru ta
Ġma vu
ck y
mu rwa
sho ro
Ġa fatwa
Ġyi genga
ĠCon fe
T uza
gi e
ubu ringanire
ĠMa j
tin celles
gan ura
Aba gize
ĠH ANO
kundi ra
zan ywe
me jwe
Ġbu tuma
Ama shuri
e byiri
na mo
Du fite
Ġgu fashwa
ĠNze li
i ce
cu ra
3 2
Ġari rimba
Ġye ar
Ġaku mva
Ġubu nararibonye
C E
ti re
za za
ba i
Ġuru zinduko
ĠN go
an de
re di
Ġbi kenewe
Ġmu fite
Ġwa ru
Umu camanza
Ġpe tero
Ġi va
Ġimi gabane
ter s
tandu kan
an g
Ġmu ha
Ġigi pimo
ce ne
Aba hamya
ĠJ uly
Ġbo ngeye
Ġha mbere
ron ko
Abanya merika
ĠSh yaka
shin ya
ve lo
ibu moso
4 4
Ġata ba
ĠIgi shinwa
fata ga
gu riye
Ġkwi garurira
Ġamu saba
Ġa koreshwa
Ġgu simbu
Uru kundo
ĠPu tin
Ġm bu
Ġngo mba
ĠKayi banda
yan za
tangi rira
Ġza habu
ĠHou se
ro re
gan yije
Ġa tekereza
ma tegeko
sangan ywe
Ġa vuze
Ġba renze
Ġrya ra
Ġaha gije
Ġba bwiye
Ġvi deo
Ġa fatanyije
ku mva
f t
rin ka
V E
Ġibi ta
silika re
Ġba banza
Ġi yerekwa
Ġubwa mi
Ġgu hugura
Ġ4 1
Ġmonth s
a ko
gejeje ho
K IN
gi teri
Ġko rana
shimi shijwe
Ġbyi huse
Imi ryango
Ġam bwira
A kenshi
Ġu va
hu muriza
Ġaba da
Ġri ga
Ġn yigisho
Ġibigo ri
gan e
ba ruwa
Ġu komeje
Ġrya kozwe
Ġbi ciwe
korera bushake
Ġaba maze
pis kopi
ĠW u
in goma
ĠThi erry
Ġakaba riro
Ġkabu rimbo
Hu ye
ĠC HAN
Ġigi ti
Ġzi ki
Ġn tan
Ġi hita
Ġya ki
Ġin gero
Ġnta ki
Ġgihe mbo
Ġbi korerwa
Umu byeyi
twe reka
te ma
Ġkwica ra
pe rezida
Ġaman de
gu nga
ĠS and
Vi deo
Ġma ra
ĠMa i
ana byaha
Ġyandi tswe
ibyi shimo
hur ch
Ġin dyo
Umu kinnyi
qu a
garu tsweho
ĠPo r
ic k
imyi dagaduro
ĠN E
B wa
Ġi suzuma
eno cide
me ranya
ĠMa gufuli
Ġiga re
Ġkwa ka
ĠV illa
Ġbaku mva
ĠMu nya
Ġm ane
Ġkubi ka
IB I
m wana
Ġku beshya
imi soro
G P
Ġya tsindiye
Ġbi tangazamakuru
z zo
Ġya tangajwe
ĠI shuri
Ġru kumbi
ven tion
ĠA merica
rage za
Ġdu tandukanye
pi ya
Ġubwi shingizi
tungu ye
Ġz Ã¢
a bu
ma rt
Ġm ano
Ġha boneka
mi deli
Ġu sa
kwirakwi zwa
ĠN jyanama
ho to
ĠGa sogi
Ġkan wa
Ġyita biriwe
Ġba regwa
ĠK ini
mi r
sha sha
tara mira
Ġnda bi
Ġu rw
ĠR RA
ĠJu ne
herere kane
c yubahiro
Ġma cye
ĠKa me
Ġbin yamakuru
taka je
ĠWa shington
T C
an ira
Ġaba saga
rana ga
Ġa menyo
ga ju
ĠMu tabazi
Ubu rayi
Ġkwa magana
re si
yo mo
ro ma
ĠâĢ º
fati zo
Ġkwi yandikisha
rukan ywe
Ġnta mbwe
Ġt wuba
, âĢ¦
N du
Ġv s
Ġa ran
ĠN do
Ġbaba shije
gende we
Ġi fatwa
Ġba kwiriye
Ġki gomba
Ġbw uba
im bano
hamaga rira
Ġba hitamo
intu mwa
Ġkubu rana
ĠYo hani
ĠG er
Ġa shoboye
ta we
Ġbi cwa
sti val
Ġgusin ya
Ġya kiriwe
si giye
Ġakana ma
Ġa menye
mba raga
Ġga ke
mban o
mu ni
randa si
W i
han ze
shyin guwe
Ġba riye
ĠM ba
Ġmyi garagambyo
Ġu two
Ġcyi caro
Ġka wa
ĠAugu stin
i rushanwa
ĠRu kiko
hagari kwa
Abe nshi
Ġa subiza
ko nje
de s
sho ye
Ġa vuka
ĠMu hire
jyan e
zani ye
ĠMa ra
Ġyuba tse
kin yi
Ġbika bije
Ġabi mukira
Ġ5 2
B ibiliya
Ġi teye
Ġya ranze
Ġumu gabane
Ġgi sa
sobanu riye
in gufu
ĠPre mier
u tsi
Ġwa tsinze
Ġabakiri situ
Ġkorana buhanga
l Ã©
Ġtu mwe
Ġkuta bona
ĠTouch rwanda
P O
ĠAcade my
Ġki gega
Ġ5 9
kuriki zwa
Ġaba she
ibi rayi
Ġ %
gan je
Ġiki za
ĠNya ba
Ġbite mewe
ĠMi chel
Ġbi zeye
hi rane
ĠNgi rente
ĠM we
ĠU rban
ĠSa a
Ġ199 3
ĠKu wa
ĠJan uary
remwa muntu
ĠDo mini
Ġma to
Ġma gingo
ĠMa uri
Ya ra
inzo ga
p po
yu rwa
uru hare
yumvi se
M ini
u w
Ġbi twara
ĠP rezida
va ga
Z WE
Ġyongeye ho
Ġya ryo
Ġnya furika
Ka yi
i mana
Ġguha tanira
yeme rera
Ġguha magara
sesengu zi
i hohoterwa
Ġkuba ra
tin ganyi
SE N
Ġru shobora
tani ye
Ġbi kiri
Ġha kwiye
ĠS C
Ġumu jyanama
banzi riza
Ġba koreye
aman ywa
Ġyu juje
icya yi
t ball
ĠC ristiano
Ġri genga
In dege
Ġa binyujije
Ġmu jye
vu ganye
ĠM er
Ġumu maro
Ġ5 8
pub li
u bwenge
ho o
Ġmi riyoni
Ġnti twa
tekereza ho
Ġkura sa
4 6
Ġaba tari
Ġmi yoborere
Ġbite za
Ġku go
ĠBo ys
ĠNyu ndo
ĠCND D
A maze
shi riza
Ġki jyanye
gu tabara
Ġrwa tangiye
ĠNda gijimana
Ġku gendera
Ġumu hanga
ĠS co
Ibi bazo
ĠMi renge
ĠSo siyete
Ġa reba
Ġaba kene
ĠKa m
ja min
a hubwo
Ġbi sobanuye
Ġmi tima
Ġtwa giye
Ġbyi hariye
ub wubatsi
i kh
n ana
ri ba
ĠA be
shaka mo
Ġmano ta
te nde
Ġicyi fuzo
Ġkuru huka
mure myi
U bwami
' ,
shi me
In zu
Ġa d
ĠI terambere
Ġza tumye
Ġmu gari
ĠRU RA
ĠIcyo ngereza
Ġa fitanye
Ġbu mu
Ġ tatu
Ġbi hano
Ġya rangije
ĠGo spel
Ġka piteni
ĠMu ryango
Ġiza komeza
ĠNyabu gogo
Ġku gerwaho
Ġubu gingo
ic yubahiro
t han
Ġbara saba
in yuma
rengan ya
ĠRA B
Ġku vana
Ġari ya
Ġi teganya
vuguru rwa
de le
ĠAl bum
ĠFran ce
on ne
i hazabu
ĠY an
Ġtwa koze
vo de
Ġn gendo
se suye
Ġkita renze
Ġbyi tezwe
shaki shwa
can ga
Ġna je
ba tswe
Ġitu manaho
Ġgu teka
Ikin yarwanda
ibigo ri
Ġbara yi
Ġaha garariye
rwana ho
za jya
ĠU nder
ĠBi shop
Ġindi mi
fati re
ibi dukikije
kuriki we
R ND
Ġu kwa
Aban ye
ĠKi ri
Ġin jyana
Ġkwi rukana
yumba ti
Ġwa tanze
sa zi
Ġba twi
199 4
s k
zi ka
ĠNa tional
ĠâĢº âĢº
! âĢĿ
Ġba shiki
Ġahan i
hwe ma
ĠRwa bu
ĠPas tor
Ġkin ya
8 8
jugu nya
Ġ ÃĤ
Ġma ku
Ġiri ndi
Ġama rira
20 22
Ġmi hango
ubwi shingizi
i wabo
in gamba
yu zu
Ubwo rozi
Ġ pu
Ġa u
he ze
ĠK andi
ĠU S
bu no
ibin yabuzima
SS B
Ġa tera
ĠE uro
lix te
Ġubu ri
Ġki gamije
4 9
Ġya mwi
Ġbahu nga
Ġzibi shinzwe
Ġbi ku
Ġy inji
vu gisha
Ġgi kuru
Ġbi kora
Ġama dini
Ġ7 00
Ġmi rima
ĠGa tete
yeme rere
Ġubwi herero
Ġkuran dura
Ġha gomba
Mu hanga
Ġbaka menya
sabi ye
ĠTi mes
A pp
Ġ4 3
c yura
Ġba hinzi
fu rije
Ġyeme reye
Ġgusiga sira
in yamaswa
twa we
vi a
tumi re
ba bi
Ġru giye
Ġma shini
pfi ra
Ġbyeme we
Ġya bonaga
Ġkwi rukanwa
rukan we
Ġa tangwa
Ġwa kora
ur wi
Ġi funguro
Ġc ou
kunga haye
Ġinko ni
ĠCentraf rique
Ġum wu
ĠPe refegitura
) ;
Ġmu gezi
ĠE se
im pe
shyigi kiwe
foro mo
Ġguseze ra
Ġbara sabwa
wumvi kane
Ġi habwa
cyi ru
Ġa fasha
ta yu
ĠO r
ĠQa tar
ĠD Ã©
d ro
Ġimu rika
Ġya kundaga
Ġbi jya
hi m
ĠUmu nyamakuru
ĠIgi faransa
Ġba b
Ġgi sagara
Ġrwa ba
ba giwe
Ġzi garagaza
ĠMu da
Ġa hana
Ġzi gezweho
Ġwe gukanye
yoboka mana
Ġba ruwa
Ġumu ha
Ġmyi twarire
to nda
Ġkwi yamamariza
Ġyahagari tse
Ġri gena
CO M
i perereza
Ġu meze
ba jwe
A ki
pfa kazi
bonera ho
Ġi ke
ĠD RC
Ġbaga habwa
Ġsi ko
F ran
tu ru
mbo na
byi bu
E O
ð Ł
Ġyo ngeraho
Ġbin ini
Ġa tsinda
sh yo
in yongera
Ġha korwa
Ġru kuru
E jo
Ġi teganyijwe
Ġa kunze
re e
Ġby Ã¢
Ġkur yama
Ġbi be
Ġbu tabera
ĠSy l
Ġba funzwe
Ġs ta
hugu we
Ġga re
Ib indi
Ġim fungwa
gerage zwa
Ha rimo
ba sira
Ġ lo
zamu ye
ri ti
Ġmu kozi
twe re
Ġ5 7
Ġbitu ruka
Ġa shima
ĠA ri
ĠIn yarwanda
Ġcye ra
im yororokere
Ġmaku mya
ce nge
ĠMi liyari
Ġmu randasi
in twari
Ġn tekereza
ĠP A
ĠRu go
shami kiye
ĠUm wana
Ġgi kwiye
Ġba ze
Ġinyo ta
do lari
Ġri shobora
tangi ranye
c yuho
ĠBe a
Ġban ye
ĠGi tifu
ĠIki pe
Ġbaku ze
ĠCle ment
Ġbiza jya
Ġi twara
Ġyi jeje
aban yama
Ġbahu rira
ĠM p
Ġma raso
Ġbite gura
ĠSoma lia
Ġib yan
Ġmu byo
ĠT ha
Ġw ww
ĠEva riste
Ġkwiba sira
tandukani ro
k w
Ġb Ã¢
Ġri zaba
ĠU EFA
Ġbika mu
hoho tewe
Ġu rebe
Ġha tangiye
V isi
Ġs inema
ĠMar ch
Ġba shatse
Ġna ryo
Ġngororamu biri
hani shwa
Ġyi ya
W o
Ġba ca
Ġbu to
hin ze
Ġzi koreshwa
hani rwa
Ġnk Ã¢
Ġbi korera
Ġkwe gura
gendan ye
ke shimana
ĠB razil
ĠQ ue
I mwe
Ġbya maze
Ġbashaka ga
fungi rwa
Ġri gizwe
reke ra
Ġyi tegura
Ġa ze
Ġbu ti
Ġbi bera
Ġbata ba
ĠDe pite
sti tu
go mbwa
sha ga
ibi ti
in twaro
Fi led
Ġba fana
Ġibi sasu
Ġbaka ya
Ġu no
menye sheje
Ġkwa ri
GI RA
G o
Ġinzo bere
N E
h wanye
Ġubu tunzi
imi terere
ĠWi th
Aba gabo
ju ri
Ġman ywa
in gi
Ġwa menya
Ġumu ceri
Ġnta zi
Ġhan di
Ġabi gishwa
ĠDa vi
Ġvi dewo
yamu remye
M WE
Ġm yanzuro
kan ywe
Ġkoro hereza
ĠColo nel
Ġwa yoboye
so myi
ma ge
riki ye
menye kane
ee ee
p tion
r yama
Ġya su
garu kira
Ġinzi tizi
I nge
C ongo
yo ye
ju mba
p r
im my
ĠSa l
Ġi sigaye
Ni byo
umu hondo
ĠNku si
ibi tekerezo
RI S
tu be
Ġama banga
Ġa kinira
ĠM pa
uru gero
Ġrya ba
zihi zwa
Ġ huriro
Ġbaha gaze
ĠRa diyo
Ġ fe
Ġbi kuru
Mu senyeri
Ama kipe
ĠIn kuru
Ġimyi teguro
Ġko n
Ġha bereye
ĠZ e
Ġari zo
g n
Ġama fi
Ġbiza fasha
Ġaba toza
tanga ga
Pa siteri
A kaba
Ġ fo
vu mo
B BC
C N
A ganira
Ġa tuma
bi mana
ĠUmu nsi
Ko ko
danga muntu
re bwe
gari kwa
ĠFe lix
Ġba vandimwe
Ġin geso
Ġri bi
S he
se rukira
ubwi za
Ġru zi
yura mo
ĠM RND
Ġba gana
si si
Ġim fashanyo
mbi we
je riya
Ġm wuka
gerage zo
Ġyata ye
ĠR BC
Ġbya tanzwe
Tu be
ĠAustrali a
sa ya
vi e
Ġrya tangiye
ĠFe stival
Ġ195 9
Ġmakumya biri
menye kanisha
Ġara saba
Fo to
Ġama guru
hi riye
Ġbi gu
Ġkwi ha
ĠC lo
ĠKi geli
yu nga
imi koranire
Ġs tudio
Ġi fu
Ġba rwayi
ĠM c
se ti
Ġumu hinzi
Ġi wa
to tsi
Ġa fungiye
Ġubu shyuhe
ci e
Ġbyi twa
Ġbaha ranira
Ġmubu ryo
Ġbu giye
do ne
Ġza tangiye
T anzani
c ro
ĠI S
Ġburi ri
ĠG I
ĠJu stin
ru mvikana
Ġibyi fuzo
ra h
Ġzi tangwa
Ġri kuru
ĠBi ruta
Ġaban zi
ĠD ji
Ya bwiye
Ġ7 2
Ġika wa
bu guzi
imi handa
Ġbi kozwe
ĠGu ine
Ġubusa be
ze r
komoka ho
Ġmu gongo
Ġumu polisi
ĠA mi
ĠFe bruary
p s
hu riza
Ġguhi tana
ĠYo hana
Ġi twaye
Ġba gire
yo r
Ġwa shinze
sin yi
Ġgi kora
pfu mu
Ġguse se
ĠKa regeya
Ġi genamigambi
ĠF A
In terahamwe
dindi za
tu ro
Ġyabi koze
SA C
Ġngu zanyo
Ġ6 6
Ġguse ngera
ĠSer ge
Ġgu shika
ĠMo hamed
ĠR GB
Ġic yuma
hin ja
tangi zwa
i shirahamwe
L E
ĠMu ntu
Ġn gaho
lo gy
shyin gurwa
ĠE tincelles
imi hindagurikire
Ġyaha bwa
f rw
ĠI jwi
imi renge
ĠW ha
ĠCo r
ĠNyaba rongo
Ġbi vuye
Ġum wanditsi
to rwa
Ġzi komeje
ama shyaka
Ġaga higo
ba baza
ĠM ine
Ġbya teye
Ġyuba tswe
ĠI bra
5 9
ĠI B
m s
Ġtwa sanze
impan uka
Ġ5 1
gende ranire
mina ri
Ġya zanye
he nda
ĠInter net
Ġa simbuye
ĠT ony
ĠRo ho
mban e
hi s
Ġga shinzwe
ĠO f
pfu nyi
ĠTu rere
shin je
Ġsita de
ĠKa cyiru
ĠV UP
Ġnda mu
Ġicyari mwe
mi co
Ġbo ngera
mbu re
ĠUbu zima
Ġ199 8
Ġku gezwa
Ġba kurikiranyweho
ran ge
twa li
Ġyagu ze
Ġ6 8
Ġabanya gihugu
ĠI GI
ĠE ri
Ġibya vuye
ĠLau rent
Ġami koro
gara ra
ĠâĢĺ âĢĺ
Ġkin yejana
z za
wo se
ran de
ĠVal ens
Ġbya rangiye
Ġ foto
Ġbi she
Ġki mu
ĠD R
ĠCh ris
hi ri
Ubu kungu
ndu tse
Ġaba kristu
ubu shinjacyaha
ib yumweru
yabu pfura
Ġinzira karengane
Ġbako ranye
v y
twa rwa
Ġkwa bo
ĠSi ta
ĠSi bomana
Ġbati geze
aba zungu
Ġumwe re
Aban yamakuru
za yi
Ġnti yari
Ġmpan o
ĠDieu don
mi riza
ĠA ni
Ikin tu
ĠDu bai
Ġn yanja
Ġbi sobanura
Aba hanga
Ġkubu za
z ine
Ġyabi tangarije
U mwi
Ġu haranira
jo si
Ġnimu goroba
Ġya soje
ĠF oo
ĠGi kondo
ĠPe ace
Ġi sengesho
Ġri giye
: "
Â º
Ġbu garagara
ĠT U
Ġnu mwe
J ye
Ġ pi
gaban yije
Tu gomba
ru sho
Ġ200 2
guri shije
Aka gari
ĠR ou
Ġ8 5
ĠJohn son
Ġba curuzi
in shingano
twere rane
Ġki zwi
Ġyara ba
ĠSa r
Ġnke ya
lin da
amado rali
mon we
Ġin gwate
ĠKwi buka
Ġya gira
hagara riwe
Ġbin gana
Ġic yangombwa
kun danye
Ġaga pfukamunwa
Ġs ports
ĠDa widi
ki shwa
Ġmu r
Ġba komeze
Ġbu horaho
vi le
Ġingu rane
ĠPatri ots
B ana
ze fu
ĠCo lle
) :
Ġi terwa
ĠTa gged
ĠPS G
an da
Aba hanzi
Ġazi ze
Ġgica munsi
Ġin yeshyamba
Ġwi hariye
O S
n ja
ro u
ĠR BA
Ġingo rane
ĠRo ma
Ġama sengesho
vanji li
U M
ge ye
Ġnta rengwa
shobo tse
Ġye re
i huriro
Ġu koresheje
lin ton
Ġi taba
Ġaba shyitsi
Ġki banza
Ġma ta
Aba fite
st ra
Ġ5 3
bi a
Ġuru jijo
I nyi
yuba kwa
tore rwa
sin ya
Ġyumva ga
c ine
ti s
ĠNi zeyimana
monwe alth
T S
Ġi kan
nye zamu
None ho
Ġi bona
ĠS to
baba rira
i tora
Ġimi hango
ĠA c
Ġki ruhuko
Ġri korerwa
Ġrwa we
Ġaha we
as pora
Ġku bangamira
Mu kan
ĠH en
ri o
Ġa gerageza
Ġtwa mu
N DA
Ġibikorwa remezo
ban danya
ĠMu tesi
Ġbwa to
Ġguhu rira
ba bare
Ġu kekwaho
ĠA mb
ama jyepfo
ĠBu rengerazuba
ĠPa c
In twari
biri za
yubahi rizwa
ĠCon vention
ĠLou ise
Ġa ca
Ġa seze
Ġkwe reka
ĠSu dan
ĠAl bert
Ġpetero li
sa ma
gen zo
ĠA lain
Ġmi tungo
dan da
Ġga horo
shyin gura
ĠK wa
Ġha bura
mu rira
z ane
ga banuka
yamba rire
In zo
Ġbika rangira
yo ngeye
Ġibi huha
Mu ra
Ġri gamije
RE BA
Ġu gizwe
Ġtu jye
ĠB ira
garaga yemo
Ġba tangaza
ha mu
Ġinda bo
Ġn yamaswa
Ġi faranga
cu ngu
ca kara
yo bera
hu rura
Ġm buto
Ġka game
hh hh
ĠUbu rusiya
Ġgu karaba
Ġbyeme jwe
ĠU shinzwe
ĠKaba rebe
Ka monyi
Ġbike kwa
Ġwa yoboraga
aba rwanyi
ĠT rans
Ġguha kana
ĠFe rwafa
vugwa ga
Ġbagi fite
Ġyatu bwiye
Ġbi tandatu
re ho
Ġita liki
Ġguhi ga
to nze
Ġtu gize
Ġtubi kesha
Ġba gerageje
Ġbi koresha
Ġr yiza
Ġkwi bohora
n ywe
Ġimi pira
rongo ra
I F
mb re
Ġubu gome
Ġs port
ngere rwa
Ġkwiya hura
Ġubu hungiro
Ru sizi
ge ka
Ġin terahamwe
Ġibi vugwa
Ġubure mere
sh wana
Ġha gendewe
Ġubu rere
garaga ze
rin dwa
Ġguhi rika
inda shyikirwa
Ġgu twi
e d
re y
fo rd
ĠLe o
Ġgushyira mo
Ġ> >
Ġgu shima
Ġba teguye
Ama tegeko
kongo ro
Ġya shinzwe
ĠA lo
P C
d ina
ĠRe v
Ġkure ma
Ġsa ys
U rwo
Ġna rwo
ran t
E rega
U rwanda
Ġba fatanya
ĠF RW
Ġu ya
Ġki zi
she shatu
ni ck
im yenda
kuriki rane
fatan ywe
Ġbira goye
Ġru rimo
Ġma gare
sobanu rirwa
Uru ganda
ĠIs lam
ku bye
Ġihe rezo
ĠE gi
ĠUbu rundi
I s
i la
Ġba yobora
se neza
ĠBla ck
Ġba yoboye
Ġco vid
Ġumu curuzi
reru re
T V
ĠL y
Ġubwo rozi
Ġbida kwiye
Ġwa vuye
Ġrya baye
Ġumwe te
Ye go
bo ho
Ġaba gi
ĠT ur
Ġban yamakuru
Ġcyi swe
Ġyaha kanye
cece ka
ayi sumbuye
Ġba terwa
Ġba soje
ĠA ziya
gen we
Ġzi tanga
Ġmi rwano
Ġ200 1
tu ku
Ġa teye
kemu rwa
ND I
tho n
Ġbu tari
Ġyi twaye
Ġmuru go
ko bo
ĠIgi po
yiri ze
an ge
in kuru
ĠA po
ĠLi li
ĠRwand Air
Ġahani shwa
ro byi
ĠH on
zuba kwa
ĠRi derman
yuba kira
4 3
y mar
ĠI buka
Ġaka gari
Ġgu shidikanya
Ġiki banza
ĠS ho
igi korwa
Ġbu rwayi
Ġni wo
Ġru rerure
KU RI
ĠMu nyarwanda
ĠAba rundi
Ġe x
m fasha
yi se
ĠU ko
po loma
one ste
shi rize
shyize mo
hungi rehe
ĠUru rimi
ĠKam banda
Ġya genewe
Ġgi cuti
Ġahu ra
Ġinko ngi
gh ts
Ġya herukaga
gani rwa
Ibi taro
I modoka
d ji
ha hirane
Ġwa mbaye
F a
ubu tasi
ĠA m
Ġmugi hugu
ĠE U
siga je
Ġyamenye sheje
ĠA rabi
Ġama shami
lan de
Ġyahi tanye
ta mo
Ġwa ga
Ġda ta
Ġumu yoboro
ĠP rince
Ġbwa korewe
IM VAHONSHYA
SHYA SHYA
I ngabire
Ġya byaye
Ġcye rekezo
ĠDamas cene
Ġha shyizweho
ĠF er
el ly
re kura
Ġha garagaye
Ġm wo
li za
du haye
Ġiki renge
Ġama sasu
ĠC HU
ĠD A
uru mogi
Ġ199 2
Ġnta ri
Ġbata ha
impan de
ĠKa r
Ġabi canyi
tri ce
ĠCal lixte
ĠIgisi lo
Ġn geso
mi e
la ire
yuba tse
ku mwe
Ġkwi ye
Cya kora
Ġku be
wan yu
pi mwa
ta in
Ġbu so
ve nal
Ġmwa ri
Ġyu bu
ĠSan kara
Ġama kenga
Ġyi shyu
Ġiyi carubozo
ĠRE B
H ano
go ndwa
Ġcya mu
Ġbito roshye
Ġimi rongo
rangi re
ze rerezi
si tiri
Ġru zaba
rin g
ĠVi deo
T WA
Ġkiza bera
Z i
cu mi
kuba ka
Ġatu bwira
I shuri
ko rwe
Ġmo teri
Ġihe ne
Ġkuva mo
Ġkwi garagaza
u Rwanda
Ġaba hagarariye
Ġkub yina
ka tiwe
de ration
Ġyi taba
Ġrwa gati
shya ri
Ġbaza bi
Ġida fite
mban ira
ru ba
fu zwa
t ini
Ġba bya
Ġ9 5
Ġu je
Ġya tuma
se bya
vu na
Ġumu dugudu
so zo
Gi cumbi
Ġi sezerano
Ġki gera
Ġmi sa
SH IM
ĠBen jamin
Ġmpuzama kungu
Aba sirikare
byi mba
ĠRU SHYASHYA
Ġko ga
Ġba twara
he ne
Ġin kotanyi
Umu sore
CA FA
ĠNsan zimana
ama kimbirane
Ġye rekeje
Ġbita za
gere ranywa
tekereza ga
de la
Ġbaga sanga
Ġi ranga
ĠKa rangwa
Ġza baye
kurikiran weho
Ġya sabwe
ĠUmu bavu
Ġa hitamo
si ane
Ġaba tu
ĠN GO
ine s
Ġr yu
Ġkwi korera
ĠHi p
Ġu menye
ĠBi taro
saru ra
Ġbitegan ywa
ĠYou Tube
so jwe
Ġiki gega
... )
Ġbin jira
Ġumunye zamu
gu kunda
Ġgu kurikira
ama zu
ĠBo bi
Ġbi si
ĠNya mu
kina ga
ĠE di
Ġaga kora
ĠFa cebook
ĠF il
ibi curuzwa
ĠSun rise
Ġibi rayi
Ġma sa
Ġya rangiye
ĠC linton
Ġimi rambo
Ġikin yoma
ga bwe
bu genewe
ĠBu suwisi
Ġubwa to
tingi to
D O
g Ã¨ne
Ġkwan girika
uwa hoze
ĠA bo
ĠN yobozi
Ġmi tuweli
Ġbya ranze
do m
ĠKa manzi
Ġrwa yo
Ġbaga komeza
ga ye
Ġm papuro
li cien
ĠÂ ½
ĠE co
Ġzi gize
soho za
ĠBo se
ĠMan zi
ĠYo we
Co m
ri mbyi
Ġm yumvire
ĠK en
C ol
tan ywe
Ġsi yansi
a li
er t
si bo
vu riza
ĠI ngo
Ġuka mu
hu re
Ġgi komeje
aba tari
i i
bo ni
Ġamado lari
re shya
re mera
Ġin yu
Ġgi terane
ĠB on
Ġ5 000
Ġi shimwe
ama somo
Ã¨ re
Ġmuke curu
Ġcyan di
ĠKo rea
Ġbari rimba
bunga bunga
Ġa subira
Ġku nga
Ġkwi shyurwa
i ta
i le
gu ni
si e
ĠM ane
ĠIgi ce
Abi tabiriye
Ġbitabi ra
A li
Ġba kore
ĠK ina
ngu ranye
Ġimvu ruru
Ġzi jya
K wa
Ġm paka
Ġuru hande
Ġinga gi
Ġki gira
Ġkwi yi
tege kwa
Ġri n
p ment
ko sora
tonde ra
gi si
in kumi
ka ma
sivi le
ri ty
Ġzi shingiye
ib yamamare
bangami we
u kwa
Ġaga saba
Ġudu ce
bin jira
ki zwa
ĠK ha
shin ge
Ġfi lm
Ġba twite
ibi hano
shya mi
gere ranyo
ri nze
ĠUmu hoza
Ġnya bu
geneke rezo
5 5
ama jyaruguru
Ġmu gani
ĠKini gi
s car
Ġ +
ga mbanyi
Ġya shinze
Ġiki guzi
Ġaha gaze
ingu zanyo
gara garaga
Ġkwi butsa
ĠFa mi
Ġtwa kwi
Ġyate ranye
Ġbi koreshwa
Ġgu tinya
Ġuru ndi
Aba polisi
Ġbi yobyabwenge
Ġaba kandida
4 2
Ġri herereye
( ...)
Ġya bonetse
p t
kuru za
ama jyambere
tanga riza
Ubu rengerazuba
. )
ste d
ke nya
Ġama hitamo
Ġkuri ra
Ġka za
Ġwe ra
ibi yaga
ngu ka
Uru banza
Ġ199 6
ro ra
J ya
gwa ho
ru me
Me ya
i burasirazuba
re myi
bwo ko
Ġaga habwa
ĠRuda singwa
ca ga
Um wuka
ra mba
ka myo
Ġbu zaba
Ġha garagara
ĠT en
aka rengane
Ġi hagaze
ta shye
ĠRu kuru
fe ro
Ġgu tegeka
han an
Ġ6 7
Ta gs
Ġu tabi
subi rwaho
Ġburi ho
tte n
Ġba twaye
Ġbi fashishije
ĠN ziza
Ġbu korwa
Ġku hira
Ġaga kiza
ĠG ol
1 00
Ġnti baba
ji ya
Ġyara maze
ĠSe ba
kundi ro
Ġumu ra
Ġu rwi
Ġzi va
ĠUmu gabo
Ġba tinya
Ġga hato
ĠE vode
ku bera
Ġama franga
ĠSi mba
igi fungo
re am
Ġe sheshatu
icyi tegererezo
Af rica
gi s
Bu gesera
ge rweho
Ġbyi shimo
yandi ka
E T
Ġn umvise
ha t
Ġyandi ka
menyesha makuru
bi ba
Ġmi bonano
il y
S ina
ge ranye
yi moni
ĠMa di
ĠTuyi senge
ma rira
Ġm vu
Ġkwi ruka
Ġyi shyura
Ġko mine
Ġin ke
Ġama herezo
nta bwo
Ġi sho
Ġu fata
ta t
Ġama koperative
Ġaga sanga
genzu rwa
yisi re
aba rokotse
mbu tsa
Ġimvu ne
te garu
im vu
zan wa
Ġ199 7
Ġbi gari
Ġyi baza
nga yire
Ġri gira
yuba tswe
Ġs y
hin di
Ġbite ze
T rump
Ġi shyan
Ġba zima
Ġba tegura
Ġaba bu
Ġnta ba
In ganda
Ġyaba bwiye
ziba cyuho
Ġkwihan ganira
Ġi pa
ye ro
yu ranyo
Ġcy Ã¢
Ġabata vuga
Ġubuda hangarwa
u mweru
ĠV o
Ġibya ri
ĠMinist ries
Ġa su
si ta
Ġrya cu
Ġbako ngera
ta bwaho
Ġubu ranga
ĠFa so
F U
yu zwe
ĠGa bon
ĠIgi ta
ĠDo na
Ġibu moso
Ġgu ke
Ġbata vuga
n k
Aba tuye
t d
Ġin do
Ġmo ya
Ġuku bera
Ġku ranga
ubu hu
Ġbinji ye
umu ceri
Ġnta za
kwa ya
Ġkuvu guru
Ġkwa ma
Ġi cumbi
ti f
Ġgi tanga
Ġnko kora
Ġkwizi gamira
Ġu saba
in yubako
ĠJu venal
u di
Ġzi hari
ya be
in zi
ĠMU RI
ĠChan tal
so me
Ġaba jyanama
ĠN ko
mbi tswe
yamba je
Ġba fungiye
te ganijwe
Ġbi kwiriye
Ġbu hungiro
Ġkwa mbuka
I tangazamakuru
ĠN TA
Ġzi fasha
Ġkabi sa
M ama
Ġu kwemera
ban yarwanda
ĠN shuti
Ġic yumba
Ġimi yoboro
ban dwa
gara mbe
Ġbu kwiye
Ġubwi sanzure
Ġari wo
Ġbata bona
Ġun gana
Ġvi ews
ĠMuha bura
hi a
in gengabitekerezo
Ġnyiri zina
Ġu be
si pan
ĠQ u
p hine
Ġbu komeje
Ġzi zwi
ama foto
gana ga
Ġgu fatira
de sha
SH O
Ġu taba
Ġin de
aba koresha
Bo se
ĠKa bu
Ġguha ha
Ġ199 5
ĠYou ng
radi zo
U za
Ġba si
Ġy injiza
aba curuzi
Ġma kimbirane
ubu menyingiro
ĠKa lisa
g g
Ġgu hohotera
ma in
Ġya shoboraga
Ġkugi rwa
Ġko rali
Ġma dini
Ġban yamuryango
yuba kire
Bi tewe
Ġu regwa
ro ni
Ġni bindi
Ġki jyambere
ĠMu gabo
shu ra
Ġyari rimbye
Ġubu so
aba rwayi
Ġaba citse
Ġyo ngere
Ġkuza hura
I byi
Ġibi komoka
Ġbe meje
Ġuwa hoze
p y
Ġikin a
Ġana vuga
Ġu heruka
Ġba kira
f fe
mu tungo
Ġba rwanyi
cu ngira
Ġba teganya
Ġnya ba
c s
bo ka
Ġgi taha
aba toza
korera mo
Ġwi shwe
Ġgucu kura
kan ywa
YA CU
?? ?
Ġinyi go
bu sa
Ġbi curuzwa
Ġbari mu
r g
ĠAba yobozi
Ġy ine
Umu bare
ki mana
sobanu rwa
ĠC an
ĠGi twaza
ĠMi sa
Ġkuvu ka
Ġin sanganyamatsiko
uru rimi
guru tse
Ġna koze
velo pment
b yanga
h y
Ġya wo
she ge
Ġbe meye
Ġki ro
Ni yon
Ama sezerano
Ġguha guruka
Ġbahu nze
Ġkiri mbuzi
li ma
ha guruka
tan e
Ġka riya
ste m
Ġba hinga
Ġgute ga
Ġyakore shejwe
Ġya tegetse
Ġumu jinya
Ban ki
ha gera
pfu sha
Ġpo st
Ġukwi zera
Ġa teganyijwe
Ġkida sanzwe
Ġk anama
in yandiko
Ġama gare
Ġmp imbano
Ġim fura
Aba rabu
ĠNi co
ganira ga
Ġgu simbura
Ġama to
imi shinga
ĠI yamuremye
Ġbaha gari
tegu rira
here ze
Ġa funzwe
bu ndi
Ġna bandi
ĠSa cco
ĠAbdu l
' .
la r
Ġyadu tangarije
ĠGuine a
gi riki
g na
t to
Ġa jyanwa
Ġgu shi
F C
ka mere
Ġgu tinda
Pa s
Ġgusese ngura
gi rire
Ġya byi
Ġgi hamya
ON I
Ġya yoboye
Ġma hame
4 1
Ġibi tsina
Inta mbara
ĠPasi ka
Ġna yi
Ġugere ranije
Ġigi koresho
N anjye
Ġa korana
Ġha ti
Ġcya je
ĠY unze
E m
Ġguto rwa
u d
Ġu hu
Ġyi yongera
Ġbamu bwira
ĠUwa se
N I
i jwi
ru na
Ġipfu nwe
ĠM bon
Ġha fashwe
Ġna hise
Ġban yuze
Ġniba za
wandi ka
Ã «
aba tegetsi
su ku
Ġa kwiriye
gu rika
san si
ĠYo zefu
Ġbyu zuye
Ġzida sanzwe
Ġku bonana
ka gombye
kome reje
Ġbi rego
ĠMu rambi
Ġimi deli
Ġku mera
Ġba fatanyabikorwa
ra sa
ru m
tu ka
bura yo
he rekeza
Ġimi rima
Ġba kura
5 8
Ġama tara
ĠN yina
shya shya
ĠMa dame
ĠChristophe r
Ġtwa ganiriye
Ġba hereye
yo nga
Ġkin yarwanda
Ġbiri rwa
fungu zo
Ġcyaha riwe
rita s
Ġbi fatika
Ġinyo ko
ĠR WA
Ġgi tego
Ibi go
Ġa menya
Ġha da
Ġzi koresha
rira she
dende zo
Ġkwe mezwa
subira ho
Aka gera
ĠIkinya ru
koman goma
mu kiye
Ġgu kiza
Ġari ndwi
Umu shinjacyaha
ci fi
tin ye
Ġbida shoboka
tan wa
kin gira
Ġuku boko
Ġu twite
ama sasu
Ġinko ko
RD B
Y u
mu neza
ki riza
Ġama yeri
reme ye
bi he
Ġbi bangamiye
ĠI byo
fi siye
wuba ka
Ġn shobora
ĠF in
Ġ7 6
Ġa bura
Ġba kunzwe
tu ri
ho u
Ġaba je
Igi korwa
Ġguha maga
Ġumu shoferi
Ġka buza
ĠKi buye
ĠN ina
shyirwa mo
Ġyamu haye
l lo
ni ya
ina l
in geri
lisi ti
Ġibya gezweho
ĠJu di
Ġkuru shinga
ĠKa be
Ġbw Ã¢
ĠMbo nyi
Ġbi caye
Ġm vura
mvi ra
Ġabo rozi
Ġyadu haye
M we
Ġbya go
ama fi
ci ence
rin ho
Ġyin jije
i saha
Ġn yobozi
Ġba bura
ama segonda
ĠMa hama
ic ye
gwi za
Ġri komeza
Ġbari ho
IS AN
i co
Ġ riki
ĠJo siane
Ġisu kari
urwi butso
Ġru gomba
Ġaban gavu
sso cia
gere je
ĠGa ho
man e
ĠMo ney
Ġkwi mura
Po lice
imi bonano
ch ni
ĠIbra him
mu rika
Ġmu ganda
do ti
Ġmi zi
uru buga
here we
Ġya ganiriye
ĠG S
mban yije
Ġaba camanza
Umu dugudu
Ġ shi
Ġic a
ĠR PA
ven tus
ĠBe ne
ĠCe lestin
Ġibi shyimbo
ts App
nd we
K in
Ġba shyigikiye
Ġgu hererekanya
Ġaba motari
Ġin duru
pi ri
Ġibin yamakuru
Ġn kingi
Ġsi te
Na we
Ġi zamuka
ta yo
Ġumu higo
garagaza ga
Ġe s
zu yemo
ĠCom monwealth
Ġnzo ga
tu gal
mi rije
Ġubu ringanire
Ġnyira yo
koza soni
f er
ĠI mvaho
Ġigi shushanyo
ĠBi ro
Ġi fatanyije
Ġyaba jijwe
ĠLi onel
gen gwa
Ġbya genda
Ġcya kozwe
5 7
Ġu zamu
ĠHo p
Ġbibu mbiye
Ġk wo
Ġtu menye
ha va
Ġbyo ngera
Ġkubi ba
ĠGi rinka
Ġbun yuranyije
Ġakan tu
ĠMelo dy
Ġbiru mvikana
b re
Ġi tangiye
he ri
Ġri teganya
Ġimpu guke
ĠKayi ranga
sse in
u ne
Ġzi fata
ama gara
koro ni
t indi
si tora
rimu s
shisho za
Ġbaha ye
i a
Ġu vuze
Ġba rangiza
Ġgu kurura
ĠV en
I vyo
re rimana
Ġdu saba
gume sitiri
Ġa fashe
Ġya wu
du rira
ci rwa
ĠBa mporiki
Ġa kandi
ĠS ul
ĠMa jyaruguru
Ġya gera
Ġumu gani
Ġzi gira
ubu twari
Ġza tanzwe
ĠGa huza
gere ranyije
ngan ye
Ġkoro shya
Ġmu m
shin girwa
gobo ka
Ġya gombye
Ġbi pimo
Ġrya we
Ġwi tabiriwe
Ġguha tana
Ġpa r
ĠDan ny
i bye
mu rage
li s
ĠC hurch
ĠMu rekezi
Ġbi boneka
ĠU R
Ġkure kura
I mbo
ri l
ĠA de
Ġbara cya
korerwa mo
Di amond
A ndi
Ġyo hereje
su biri
sho je
G M
Ġyi caye
A fite
umu rongo
ĠMu kaba
Ġaba cu
so rwa
Ġmu bona
Ġya funguye
Ġka vu
Ġbyu garije
imbo gamizi
Ġutwa tsi
N yi
ĠGi tarama
Ġyaba haye
ĠSi tade
ĠGlo bal
5 6
Ġba ro
ru ro
nan ye
Ġi bura
Ġtura bi
an t
in wa
Ġyara giye
Ġ9 9
Ġguseze rana
Ġku ndi
teke reze
Ġuka za
Utu rere
Ġn te
aba genzi
ĠR SSB
Ġumu saza
ĠB wa
ĠP L
ni or
Ġp re
N ka
Ġn sengero
ga juru
Ġba se
ku si
Nti bi
Ġaba regwa
ve l
kinira ga
Ġba jyanwa
ku gira
Ġwa vutse
impu guke
Ġ jya
Ġaha zwi
Ġvi rus
imbo ga
m w
o gle
shu re
Pro f
Ġrw inshi
ĠFre e
d Ã©
bu je
Ġmuri ro
Aba fana
Ġya bona
Ġguhe mba
Ġa pfuye
Ġc e
Ġbwa tangaje
Ġum wo
muka rasi
Ġi sha
Ġnta yo
Ġyaba jije
Ġbwe mewe
Ġkwi pimisha
âĢ¦ âĢ¦
ĠUwi zeyimana
i zamu
po litike
ib inya
Ġbiza genda
ĠMe xi
Ġru ke
Ġimi shahara
Ġkumvi ra
ĠM I
aba shakanye
jya ho
ĠGi kongoro
Ġa simbu
Ġu fasha
ĠNta ganda
generwa bikorwa
Ġku zura
bu kwa
gen wa
Ġata gira
sin zira
Ġrwi sumbuye
Twa ri
B ON
Ġmun yamakuru
ĠUwa mariya
Ġbu tu
Ġki tara
umu kara
Tanzani a
tegaru gori
Ġba tan
Ġwi tabiriye
ka je
Ġbu mvise
ĠE d
Ġn geri
ĠG enocide
ĠU yu
shimi shwa
Ġba mara
Aba kuru
subi tswe
Ġbu gezweho
ĠC yi
Ġbwa vuze
ka me
ryo zwa
ĠO mar
Ġya hinduye
ĠA lice
Ġama cumbi
ĠN DA
ama hugurwa
kiri ho
Ġbaga saba
ĠIgi ci
Ġi rangiye
Ġbi fata
Ġma koperative
N gi
i juru
he to
Ġumu hutu
ran zi
Ġuru toki
Ġpa diri
I bin
Ġgutanga zwa
den ce
Ġba fashwa
ha kanye
si s
Ġkuba ga
Ġbiga korwa
Ġbura mbye
con o
ĠMadi ba
G WA
ĠMi ke
in kunga
ĠRu ha
ĠLou is
S en
ubu hanzi
sen yutse
i sha
Ġkure kurwa
Ġga z
ĠJu les
Ã´ te
garu riye
yubahi riza
Ġba zana
mbi rwa
Ġbaka reba
Ġ199 1
tre a
gu ta
Ġm bonye
ham med
fatwa ga
Ġi keneye
ren gana
ĠAl ine
Nyaga tare
Ġha kaza
Ġubu cuti
ĠChi ef
Ġyahagari tswe
Ġ joro
Ġim yuka
su s
ĠMu gesera
ĠGa shumba
ani za
sta u
Ġha vugwa
wandi ko
ĠIkin yan
ibi tero
Ġiza tangira
Ġndi mo
Icyi ciro
Ġi gezweho
Ġba go
ĠB ya
ts wana
Ġ ani
Ġbu cye
ĠY O
Ġnka we
Ġhe he
Ġn d
Ġgi teye
st ric
in tanga
Ġbu keye
hi tira
yi rizwa
yu zwa
gen dwa
Ya je
ĠH an
Ġkira ro
DU C
p Ã©
Ġbida fite
ĠII I
Ġbi shyu
ĠNe xt
Ġa bereye
ti t
ĠS il
Umu pira
rezi dan
Ġ7 8
Y an
yo piya
Ġbageze ho
si giti
Ġu rwaye
Ġry Ã¢
ĠRu tare
ngan ywa
Ġwandi tse
Ġa hera
Ġba rwanya
bu kwe
Ġwa rangiye
ma si
ĠAl geria
Ġwa bonye
ĠZ uma
Ġbi kan
Ġha teganyijwe
Ġ( @
impan o
Ġmpe shyi
ĠCE CAFA
Ġu sigaye
Ġu kurikije
he r
Ġumu tutsi
Ġ hita
Ġa twara
ĠS E
cu l
sha ri
su re
Ġibu ryo
ĠChri stine
Ġkwi gishwa
Ġ6 4
ĠCro ix
Ġtu ru
Ġikira ro
I sa
Ġumu fasha
Ġkubi vuga
ĠYou tube
ĠYou th
to be
Ġbya garagajwe
Ġigi humbi
IN E
me ke
Ġzi kwiye
Ġga sozi
Ġbya fashwe
do r
Ġu hari
uru kiya
he sheje
de tte
Ġama karita
um ve
ĠMu ni
Ġbu gomba
ĠMu vunyi
kira mo
yi tse
ĠN O
mva ga
Ye hova
ghan is
hi ganwa
Ġaza bi
âĢĻâĢĻ .
ĠJack son
ĠBur kina
ĠSita siyo
Ġgu fungurwa
Ġbw umvi
Ġwi we
A bu
Ġiyi he
BU KA
Ġn jyanama
gi sa
Tu bi
Bira shoboka
G AN
bu zi
ama soko
shishika jwe
IC E
Ġwa geze
Ġubu shishozi
ĠI siraheli
Ġira vuga
mama re
Ġku menyesha
VID EO
n yuma
ubu genzacyaha
rira ga
herere je
Ġn geze
aba hagarariye
ibi bi
yiri jwe
kina mico
ĠKa rasira
Ġye gukana
seri be
Ġurugo mo
Ġkuga ba
reru ya
A u
P i
ru ke
Ġbwo nko
pan y
ĠKu ri
. '
n on
Ġi vya
Ġata ki
uru gamba
Ġkumu bwira
Ġbamu ha
ĠK ana
ibi tabo
Ġin kingi
Ġza fashwe
renga gije
remi re
l de
ma la
na ra
Ġye rekeye
Ġjye we
te le
zan guni
rivi si
Ġgusu bu
Ġban yuranye
ĠSa date
Uru gaga
Ġba korewe
Ġnta wu
Ġp la
Ġu gana
ĠI ndi
im anza
Ġbahe mbwa
mo ra
Ġnti du
Jo se
u x
Ġn twaro
Ġa kin
ĠG or
Ġcya fashwe
ĠW hite
Ġimi tekerereze
Aba hinzi
ĠVisi on
ĠQue en
A G
Ġba banye
fo tora
Ġyamu bwiye
Ġkinya mwuga
Ġwa gira
c yangwa
N GO
Ġm yenda
ly mpi
Wo we
Ġi boneka
sh ywa
Ġba subira
hindu re
SS O
Ġba zanye
Ġi josi
ĠI KI
el ine
si mba
Ġbu koreshwa
Abanya furika
r wu
t sura
Ġba vutse
so go
nga kamere
Ġbata basha
ĠLili ane
u kwi
Ġni fuza
Ubwi yunge
Ġku mwa
ĠR Ã©
Ġha gira
du tse
Ubu renganzira
Ġtwa vuze
x el
han ye
Ġ7 7
ĠVilla ge
M B
Ġmu mi
Ġwa fashwe
Ġwa huje
Ġkuba bwira
Ġmi banire
Ġbwa mu
Ġata ha
rirwa ho
Ġa gire
Ġgi ha
Ġaha zaza
Ġbaga rutse
Ġ6 9
Ġbada kwiye
Ġu menya
Ġzi zi
Ġbabona ga
Ġu bonye
Ġu tekereza
sa sa
ĠDi dier
Ġtuka bi
G G
Im pan
ĠIm pu
Ġise rukiramuco
Ġama hano
shyin gu
T SI
Ġbi ruhuko
Ġibi gwi
ibi komoka
Ġnda vuga
ĠWu ngirije
ru kiye
gani ye
Bi rumvikana
Ġ199 9
Ġwa pfuye
ĠIgi seribe
Ġnye ne
Ġku nya
Ġigi shoro
on da
Ġgushyirwa ho
ĠT P
ĠMo bile
Ġzan yu
b yan
se be
Ġsi site
Ġa kura
Ġa tangazwa
Ġkuba zwa
s per
mu gabo
Ġka cu
Ġmi paka
Ġaga komeza
ĠKimi ronko
si tion
ra ye
Ġba vuka
burani shwa
ĠGera rd
Ġimi sozi
ĠIgi swa
twi gisha
Ġkudu fasha
Ġza byo
Ġuru saku
Ġbin yuranyije
aka gari
ĠRwi gema
tu gali
ĠCa mp
Ġumwa mbaro
N ko
tera ga
Ġru kingo
ĠD J
Ya tangiye
ĠCla ver
R wose
Ġbigo ranye
aba ha
ĠHa bu
Ġbi dukikije
do da
Ġyan aniwe
herere yemo
u bira
Ġaza komeza
Ġbabi vuga
d ing
ge ban
Igi kombe
Ġinta ma
ĠD on
Ġbi fatwa
Ġiba rura
i tariki
gi shijwe
ubu tabazi
Uru tonde
Ġyeme we
Ġbaru sheho
i vangura
ri ngi
gu ti
ĠK ira
Ġnta byo
Ġyi haye
kemu rira
ĠPro ducer
B ru
Ġb yumba
l ina
Ġi peti
Ġbu he
Ġki rego
Ġye guye
tandu ra
Ġtuza jya
Ġyan enze
Ġkuvu gisha
Ġbwan yu
Ġin tunga
gu i
Ġic yu
aga tsiko
bon an
Ġbake ka
Ġnti ru
C har
Ġya tangijwe
Ġgu san
Ġcya teguwe
Ġtu gi
ĠL Ã©
zi mungu
ĠN tarama
Ġyasin yi
Ġkuri mbura
ĠE A
Ġiza fasha
ĠMa shya
Ġbaha maga
T B
a h
ri lla
Ġi bera
Ġu hora
Ġru shya
Ġimi cungire
Ġa mbasade
sin g
Ġatu rutse
ye rn
Ġiyi twa
Ġu horaho
bi koze
mp ani
ĠClau dine
Ġuka jya
Ġi vuye
ĠF M
Ġba kurikirana
mi ka
b w
ma riye
ĠMu sha
Aba tegetsi
imi sozi
Kwi buka
Ġaba kristo
tegu re
umu nani
Ġaba ya
tiri rwa
c yane
v Ã©
Ġn do
Ġya torewe
Ġro ho
ĠWo men
Ġu we
Ġya rana
ti e
rere ro
Ġtwa tangiye
ĠAba kristo
Ġa mbasaderi
Ġbu rengerazuba
Ġmi biri
Ġguta bwa
ĠBoy z
Ġcya tsinzwe
ĠSa hara
Ġivu riro
Ġba tegetsi
S U
ĠA pp
in koko
In ter
Ġni geze
Ġbaha mya
Ġs ini
Ġmwe bwe
b intu
ĠM el
Ġbatu bwira
zi mpaka
Ġumu rage
Ġho tel
Tu yi
ĠA rt
Ġ6 2
Ġyato we
E DUC
ubu mu
Ġ3 000
Ġbwu zuye
i hinga
Ġa vugwa
Ġye nda
Ġyu mvikana
Pa tri
Ġnku mva
ĠKimi hurura
ĠJ immy
Ġbari ko
Ġuka bi
hunga ban
Â» .
Ġumu sifuzi
Ġbya gize
ĠUmu gore
yani ka
Umuhanzi kazi
Ġma shami
yumvi ro
ĠYowe ri
gi she
Ġumu rego
Ġama shyi
Ġpa si
Jo hn
ĠN ama
cu cike
Ġimi banire
ĠJe nerali
O ya
g ba
Ġba yobowe
Ġbi kubiye
Ġin yuranye
Ġicya tumye
GA RA
yabe te
Ġk eza
Ġi kunze
he ma
Ġha shyirwaho
Ġiki ba
Ġ9 4
utu ndi
Ġzi turuka
shin giraho
ĠSy ria
Ġkandi da
Ġrya bereye
C S
m me
ĠK AN
in gurube
Ġaka gera
ibi ce
ĠNi ba
gu nge
Ġya funzwe
di te
Ġmi co
ĠGa hunda
Ġ6 1
FD D
Ġku gena
ta ko
Ġru geze
ngu rwa
ĠH ono
van o
ĠDe o
lu s
Nda yi
iki yaga
Ġbaza habwa
u u
mu rirwa
Ġbi buka
vu rwa
Ġba curuza
ki ru
ubu ntu
Ġza maze
ĠO n
abi mukira
Ġinzo ka
re bure
ke nye
Ha ra
ikin tu
Ġ gore
Ġmu ku
Ġzi ti
Ġ6 3
Ġtw inshi
ro me
Ġubu rozi
Ġkuba mo
Icyo ngereza
ĠJu ventus
Ġbi shyura
si ya
ama boko
Ġdu te
iki menyetso
N ZI
n shinga
ĠE me
ĠO d
Ġbyaba ga
n za
in yama
Ġgu subizwa
Ġzi genda
bwi za
ĠNya mi
garu ke
Ġgucu ranga
ba ld
Ġba shinze
ĠCo te
ĠU RU
byi mana
Ġbyan jye
r yan
Ġmu vuga
fa ce
Ġyi gaga
ĠBu tera
zere kana
Ġku zenguruka
Ġba kunzi
yo ta
yo go
aba minisitiri
Mu gisha
Ġsi ma
Ġukun zwe
ari fa
O MS
p loma
ta ire
ku bwa
tege kimana
Ġkwe sa
ĠRe co
Ġita za
Ġyeme jwe
mu ye
ĠM oni
Ġumu byara
Ġha tari
ĠB oni
Ġmu sozo
zi rikana
ĠMu hoza
ruza lemu
umu yaga
im ye
ĠH and
Ġgute gurwa
ĠKo rali
Ġa c
ane ssa
hwi tse
Ġbya turutse
ĠS ina
Ġnti ki
Ġba shyizwe
ĠV I
tegu riye
Ġkan ini
ĠCom pany
da shi
Ġumu nezero
ĠP er
Ġdu koresha
rangi ngo
ll s
ĠCom mi
U ri
Ġi korana
si lamu
Ġgu komeretsa
he mbwe
Ġumu gongo
Ġama torero
Ġmi koro
z inga
ru sa
Ġumu shumba
ĠW ar
Ġuba rizwa
Ġkun ganira
ĠKayi tesi
Ġkuga banuka
c Ã¨ne
Ġaba shakanye
Ġki rwa
ĠH aba
gerage re
Ye we
Twe se
pub lika
bu riye
Ġimi satsi
ca s
imi tungo
ĠNya kwigendera
Ġnzo zi
N YA
Ġku ntu
Ġbara komereka
ĠPac cy
F PR
zi guye
Ġru to
ane ws
ris se
Ġubure bure
mu twe
Ġin eza
ĠMu renzi
Ġi fungwa
Ġba ciye
Ġuka gera
zihi je
ĠColle ge
an gira
Ġgu kaza
umu bano
ic yamamare
Ġguko sora
Ġn genga
ru tugali
ĠMu hima
Ġyara baye
ĠBa ri
ĠHu ssein
ĠWha tsApp
ĠP rimus
ĠMata yo
mpan o
Ġumu rwa
uru kozasoni
ĠBo na
Ġibiri ndiro
Ġku voma
Ġkwi fashishwa
Ġu tuma
Ġya giraga
Ġaba hoze
gu rirwa
Ġwa hariwe
ĠI rani
ĠI BUKA
wandi kira
u se
ran ywe
andi ka
Ã© ra
goro fa
Ġm ana
ĠGi tega
ĠAr ticle
geban que
C I
Ġin ya
Ġura bona
Ġtuza komeza
ubu jura
Ġbatu ranyi
p ine
Ġu ni
gu kira
ki bi
su mba
Ġri zwi
Ġsi ganwa
Ġubura kari
Ġntiha gire
Ġbi gizwe
Ġbwa mi
ĠL uka
Ġguha garikwa
Ġyatu rutse
Ġbi shize
ti que
li mana
Ġic yiza
man ga
Ġtuba ri
Ġumunya muryango
Ġi tandukaniro
huriye mo
Ġb yangombwa
Ġi hungabana
Ġa tyo
men tu
ĠSala am
R imwe
Ġin goro
ĠTen nis
n gano
di ko
kuriki ranya
Ġbaga tanga
Ġnu mero
mar k
Ġba gura
ĠC YA
tege reze
S h
Ġtwa hawe
mwi ca
s tiri
ĠA bana
Ġru gi
Ġru herereye
Ġyi twara
Ġbaba rizwa
Ġyaba sabye
Ġ9 8
Ġi buye
Ġba kenera
di um
Ġbiba fasha
B yi
Ġu kwiriye
ama koperative
ubu kangurambaga
vuguru ye
urugo mo
byibu ho
Ġbi zo
li que
Ġimi renge
Ġbara ra
Ġkwe ge
ĠAbanya furika
Ġa twaye
Ġbi komoka
ĠMu tara
Ġyako mo
ti ent
shi on
aba rundi
Ġba shyizeho
ĠP ri
Ġban ywa
kurikiran we
yere kano
Ġbi zamu
aba da
im bwa
Nda ba
dashi an
Ġbi hingwa
Ġibi korerwa
Ġdu tanga
yin ji
ĠUwa mahoro
5 3
U R
Ġbi je
ho ne
Na twe
ĠN el
Ġin gurube
ĠI BI
le nge
biri gi
ye nyeri
Ġkuba gezaho
umwi jima
ĠTuni sia
Ġbu ki
Ġbwa baye
ĠNi jeriya
Ġuta gira
U sanga
g re
bi gwi
si gira
ho rana
twa je
kan we
yama ze
Ġuwa mu
ĠPS D
Ġwita bye
ka pu
Ġyabi garutseho
Ġbate raniye
Ġmuhanzi kazi
ni tse
Ġbama ranye
ĠEu gene
ĠFÃ© lix
I banze
Ġaba jura
Ġmpu ngenge
Ġyo u
ĠC yu
he rekeje
ga ciro
go ranye
san duku
Ġza bukuru
ubwo nko
Ġisa mbu
Ġbakiri nda
Ġyize we
Inyi gisho
Ġi hagije
tu bwiye
ama pa
ĠRu gan
ĠT ru
Ġwi ze
ĠRe be
ĠAr gen
N gaho
umu ganda
Ġaha bona
rin gira
yumvi ra
op le
kiran uka
, ,
Ġi gura
han na
ĠNdayi saba
ĠC ho
ĠS pe
Ġdu korana
Nya kubahwa
6 0
li me
Ġubu tabazi
men yana
rya mana
ĠR I
ĠBu ka
Ni yi
ĠSa lo
Uru buga
sen yuka
yuzu re
Ġk ana
Ġbi garagazwa
ĠA BAN
Ġama gi
ĠPor tugal
E AC
Ġa tan
mi re
kan ira
ta gira
ĠT urukiya
Ubu hamya
ruhu ka
ĠK on
KA MA
Ġnyabu ranga
Ġa shyiraho
Ġya geraga
Ġtu ya
In kingi
Ġbaha tanira
byin nyi
hi ti
Ġdu tu
Ġbiri ndwi
van ywe
ĠBarcelo ne
stric t
vi sion
Ġkun anirwa
ĠAba depite
ĠV u
Ġcyi zere
Ġguto roka
Ġbu kerarugendo
ĠMu tu
Ġnti za
mp le
cifi que
sha shi
umu nyamabanga
jyan we
ta yeho
ĠT cha
ĠFa bri
HA GO
Ġza mu
gerage ze
ER G
Ġkurya mana
imi cungire
IN A
ĠVal en
Ġintunga mubiri
Ġba shobore
Ġgu twika
Ġnda shaka
Ġyasubi ye
Ġimpamyabu shobozi
ĠWA SAC
se l
J enoside
n jye
Ġn kemurampaka
zan de
Ġugu shaka
ron ka
Ġumu koro
Ġbu shoboka
Ġama gara
Ġri komeje
rani jwe
B en
P ubli
c ling
Ġaba tara
na ho
zu mva
ami koro
hi mbano
Ġki menyetso
Ġbya geze
kwan o
tu byaye
ĠI shyirahamwe
do l
Ġbaka gera
ĠBi ll
ĠJo na
wan yi
ĠUbu faransa
gambi riye
Ġbyan giza
imyi tozo
icyi zere
Ġi kurikira
ci sse
Ġubwi tange
d ra
n nye
Ġi fi
Ġza hawe
Ġyavu zwe
Ġkwiba sirwa
Ġhaki yongeraho
N jyanwa
Ġu reba
Ġin sengero
Ġba polisi
Ġri garagaza
Ġkwe gereza
ĠM ina
Ġmuri ka
Ġni tu
ganira ho
Ġbaki riye
Ġumuha te
Ġbi komeza
ĠI huriro
Ġcyi hariye
Ġkwitwara rika
s indi
Ġn tumwa
Ġaba giye
ĠI yi
vu zweho
ĠU huru
gu zwe
shami bare
abi canyi
ĠC ard
Ġ15 00
rin to
5 4
Ġban i
BE RE
ti en
ĠB ib
Ġma torero
ĠMari nes
ĠUru byiruko
Ġ menya
Ġa menyesha
19 8
Ġma teraniro
yamba za
Ġku li
Ġtu genda
inga gi
I zindi
ĠB ou
ĠÂ ¼
Ġimi koreshereze
ĠE le
Ġli sansi
T SE
he zanguni
Ġbada shaka
Umu seke
ĠYe ruzalemu
Ġba tangije
te zi
Ġntara makuru
Ġwa hise
ĠP ubli
ca mo
ĠRwa ga
Ġbun yuranye
Ġa fise
N yina
ĠY i
subi kwa
Be ne
ĠRou ge
Ġyifuza ga
Ġtu tari
Ġpo lice
ĠKimi sagara
V I
Ġama tike
mbo go
Ya garagaje
ĠShe ikh
ghanis tan
Ġgu hindu
ku ka
ĠI shyaka
ubu hanga
ĠHa m
ĠIbi tekerezo
Ġaba kekwaho
ĠK WI
Ġavuga ko
Ġkura ra
Ġmu tego
Ni geria
Ġwi gisha
Ġbaza kora
Iki ganiro
Ġabazi ze
i ye
ĠGa sa
Ġbata ki
ll en
Ġmu reke
Ġmu hungu
ha d
Ġwa tumye
ĠA riko
Ġbahu ngu
ĠRuda higwa
Ġb yemezo
mu saruro
Ġya vuga
Ġrw Ã¢
ĠIn tyoza
Ġim pfu
ri shamibare
bu jijwe
ki rwe
Ġmi remire
kemu tse
Ġtura shaka
inta ma
Ġbubi ko
u riya
Ġba gere
diri shya
Ġbida tinze
HAGO YACU
Ġmi gabane
mi a
Ġaba shakashatsi
ĠIn stitu
pfu shije
Bu riya
Ġi banza
ch no
HO GM
aba vuga
i kira
Ġ fatizo
Ġbi sabwa
mi merere
riza mo
Ġziza jya
Ġmbu mbe
zi ri
Ġaba rundi
âĢ¦ âĢĿ
Ġudu pfukamunwa
san zuye
Ġga tera
Ġbaki ze
Ġryan jye
5 2
Ġkuri ya
Ġnta shobora
Umu turage
mbu ga
ĠNe ymar
I genamigambi
kin iki
Ġkin o
ubu jurire
ĠAba yahudi
m fura
go mwa
Ġpo liti
ĠGo ogle
ĠMwi seneza
A b
i jana
Ġabi kora
el la
Ġbatu riye
ryohe rwa
S an
Ġbi fashisha
Ġc yuho
Ġha kurya
Ġibi banza
Ġd Ã©
ĠFabri ce
ani ranye
Ġbaga hita
yiri zo
aa aa
hishu we
Ġubu taha
ĠI mbuto
to ma
Ġibi hingwa
ĠB NR
Ġka maro
Ġzi tera
ĠRu kundo
Ba vandimwe
Ġbyeme zwa
ra ble
ĠA M
Ġbyi fashishwa
s pa
Ġru mu
umu vugizi
Ġyari ri
Ġdu kunda
nyama hanga
ĠAlo ys
bye meza
Ya hise
Ġyu mvi
p on
u bwami
Ġma tungo
kiri ro
st ro
Ġv yi
ke nd
ĠN gamije
U RU
Ġu tera
Ġya hindutse
ha bwe
Ġbyi yongera
ĠYan nick
GG SS
Ġzi korera
Ġt wan
. âĢĶ
Ġu hagaze
Ġba subi
Ġbi jyana
Ġama seti
ko l
giye mo
Ġuru jya
Ġuru sobe
vuguru za
ĠKar dashian
fa shan
to je
ven ture
Ġa komeze
po risi
sobanu riwe
Ġgute mbera
ĠFla sh
Ġrin zaho
Umu rimo
Ġara mbwira
Ġsi mu
re man
in gano
ibi tego
cumbi kira
sinzi riye
ĠMunyan eza
ISAN TE
K AN
ma ta
Ġbi gishwa
ĠU mwe
Ġtu gari
Ġamu ha
ti zwa
U ni
Ġa rebe
ta tion
Ġibi renge
Umu hango
ibi menyetso
Ġumu gozi
Ġin dangamuntu
mbu ke
Ġbagi rana
ga bi
Ġma sengesho
mbi kwa
rwan diko
ĠCN LG
N GU
Ġa yandi
Ġaga kingirizo
Ama gambo
Ġbiza komeza
B aba
Ġa bere
ĠE mi
iz zo
suzu misha
Ġnto ya
I mage
Ġzi tara
ĠMa jyepfo
Ġi kubiyemo
ti mba
Ġubu babare
Ġgi subizo
ĠNyi ran
Ġba size
bu rirwa
bu rg
ĠC Ã´te
Ġbiba baje
Ġkiza za
in s
ku yemo
sho nje
Ġic yamamare
ĠMa ria
Ġimpan uro
R IN
Ġu fatwa
ĠRu be
er s
hamaga ro
Ġyasin ye
Ġsa tani
Ġzin gana
Ġi gabanya
ĠMan dela
Ġumwi herero
Ġguhu meka
Ġu herereye
Ġya simbu
Ġbi ciro
gan go
Ġiy indi
c inya
ĠNdayi senga
Ġamavu riro
gwan eza
ĠFoo tball
ya remye
ta mba
yu da
ĠD ja
po re
maze yo
spe ctor
Ġn ge
Ġha te
ĠMa kuza
Ġabi zi
Ġkwi banda
ibi jyanye
Ġbita ga
ĠRu to
Ġtwi zeye
baza ga
Ġisu ri
h ini
Ġbwa tumye
ĠMa ster
Ha mwe
ri da
ha geze
Ġata vuga
Ġbwe nge
tic s
Ġmane geka
N yanza
ko mye
Ġgu taka
Ġgu taramira
Ġgutu za
ON US
Inga ruka
Ġaba fasha
Ġgi fasha
na mira
im yumvire
seze ranya
ĠB yiringiro
ĠN u
igi koni
Ġaha maga
inko ngi
z inya
Ġha menyekane
Ġa zana
ha yimana
Ibi ganiro
Ġbyi ganjemo
Ġin cuti
Ġha kozwe
Ġama ko
hi shwa
Ġbyi basiye
zamu tseho
Yaba ye
A c
Ġa fitiye
Ġwe merewe
menye ra
ĠFa shion
k s
Ġbi gezweho
ĠA bu
fi ki
umu hanga
kwa vu
Ġabanya byaha
Ġrwan jye
ĠClo se
Ġmu re
Igi taramo
u de
z z
Ġ ti
Ġwa bona
Ka yumba
ĠNa mi
5 1
mu gire
Ġn tangira
Ġhari mwo
ĠVi ta
Ġguhi sha
Ġi fitiye
Ġaba shoferi
Ġbe me
ĠAh med
C on
I mp
Ġ tanu
Ġya geneye
to ry
Ġara cya
Ġhaba ga
ĠU rwibutso
po l
ĠNi ger
ĠAu tho
ĠKayi hura
R wan
g r
Ġu habwa
Ġbi ganza
ti za
Ġwa gombaga
Ġwa bonaga
ĠAba ko
Ġre sitora
ĠRuta yisire
Ġbi tangwa
Ġkwi bu
Ġuku bi
siga rana
Ġwaba ga
Ġyatu nguwe
L u
?? ??
ubusa mbanyi
Ġi yoboye
Ġgu fatirwa
Ġin tore
imi bare
amavu ta
wuzu zanye
Ġ7 9
ĠJo lly
Ġyama ganye
in terahamwe
Ġwa cyo
Ġumu rindi
Ġnta bi
ĠHa mi
icya ro
I shimwe
Ġa herereye
Ġimi gisha
Ġi curuzwa
Ġgu cana
sa mbanya
Ġib yu
Ġubusa mbanyi
ama shyamba
Ġaka ri
ĠGo d
Uwa ri
ĠIsa ac
Ġki garagara
ĠRu gamba
M ana
Ġk ina
Ġbita mu
Ġabi sobanura
suzu guro
Ġkuvu gira
Ġba byaranye
ta za
Ġki ti
lo r
Ġca ption
moni ze
Ã©nÃ© gal
Ġuburi ganya
n wa
Ġba korerwa
ha yo
Ġbi rangiye
ĠA RI
Ġbyi fashe
Ġaba padiri
Ġha be
Ġbya tangaje
hanu ra
ho mba
Ġgu pfobya
ĠP l
Bi zimana
Ġziri ndwi
re kurwa
Ġzi temewe
Ġimi deri
Ġyara shwe
Ġman ini
vuguru we
ru tso
Ġko herezwa
san go
ama cakubiri
ĠCa ritas
Ġahe mbwa
C yangwa
Ġtu ndi
ibi ra
tegan yije
Ġryi gisha
ĠVi ews
A ko
Ġaba ki
Ġata basha
lo te
y ini
Ġa tegereje
Ġbu basha
Ġzi habwa
ĠMi co
ĠBi zimungu
Ġumwi jima
ĠLon don
ĠâĢ ¢
ama tsinda
ĠMu ganga
Ġ7 3
M fite
vi o
Ġkwa mbura
shishika rije
Ġn kiri
Ġbi ya
ĠI van
so mwa
Ġyi butsa
ĠHe alth
Ġkumwi ca
Ġaramu bwira
ta baye
Ġama renga
Ġzi hariye
Ġtwi ta
Ġmu kora
Ġko pi
cu ke
Ġbwa tangiye
ĠBe st
ĠTa arifa
our ce
kanda gira
ĠEti enne
Ġn kan
Ġmu he
Ġki gali
Ġbya fasha
igi taramo
ĠAfri que
Ġmpi ta
Ġmu du
Ġu kana
Ġba sin
Ġaba garagu
kura mbere
wandi tse
lle r
N aba
in tego
Ġka rimo
ĠZ A
gu wa
abo ra
Ġmu bikorwa
Ġki gizwe
Ġmi si
pi tal
ĠUm wanditsi
i shimwe
Ġ or
Ġi gwa
Ġku mena
imi dugudu
ĠSe nateri
ĠRwa sa
Ġkuvuguru rwa
Ġmi rire
ĠVi rusi
ONUS CO
ĠR T
Ġic e
igi tugu
Ġrwan yu
Ġgu sho
ĠPhili ppe
N gu
Ġbi ran
ĠA ra
Ġubwa tsi
s yi
Ġa shyirwa
Ġgi tera
iza bukuru
Twe bwe
E B
fite ho
Ġbu hari
Ġbya tu
Ġa shatse
Ġku bwo
Ġgu tsindira
A rongera
Ġib yiringiro
su ka
hu meka
ĠLi ve
rali rwa
CO VID
d res
in dangagaciro
Ġya kabaye
Ġbaga shaka
Ġutu ruka
Abo ngereza
ĠSou th
Ġmu yoboro
ge me
Ġbi janye
Ġin girakamaro
Ġza je
Ġkutu mva
teze ho
I by
R BC
Ġba sura
ĠSh yo
Ġi hora
ĠMu keshimana
L o
goro ra
Ġpa ruwasi
Nda shimira
Ġbariye ri
Umu raperi
ĠRu ga
Ġbara mutse
Uru gendo
Bi shop
Ġada hari
Ġbyan yu
ĠBara ck
re ne
tan guye
Ġkwi rwanaho
ĠF und
Ġni mwe
ngu ye
ĠUmu toni
Ġara shaka
Ġ8 6
ĠWe ra
Ġabanya politiki
ĠNde rabuzima
Ġma gara
ssocia tion
ĠB igi
Ġuko ze
imi higo
Ġaha kana
hanu ye
mba bazi
Ġikin ami
SH U
ĠMou rinho
Ġha fatwa
RD F
F ERWAFA
Ġu byi
ĠRu ju
hora le
ur s
Ġyitwa ga
Ruta hizamu
Ġ !!
Ġi rwanya
ĠKa li
ĠNda hiro
ĠDen is
Ġikinami co
zi gera
Ġru tanga
Ġbabi koze
Ġita gira
ĠNyan ge
AL OC
Ġa f
ĠK C
ĠKu ba
None se
ĠMuni ch
i bura
Ġna tangiye
ĠDe velopment
Ġki be
Ġyan yuzemo
Ġubura ya
ĠThÃ© o
Ġno mero
Ġuwa ba
Ġmo shi
Ġkuzi gama
Ġya go
bu rana
Ġbaba ha
ĠHo teli
A mwe
s tani
ĠM DR
ĠE du
ĠEti yopiya
Ġbu zwi
Ġkwi shakamo
Igi sirikare
in kingo
Ġgu ma
Ġgu tandukanya
shi rizwa
ubu shake
ĠF u
Ġrwi twa
ĠGaho ngayire
Ġn genderwaho
aba gororwa
ĠC yanika
gere ho
ĠYE GO
ĠRu kara
ju ma
sta r
u le
Ġu kwe
hu mure
ĠA lly
han tu
Ġka ka
Ġutu bari
i hungabana
Ġi komeze
wa wa
Ġubu bi
aba za
Ġigi tambo
ĠMu soni
le b
Ġcom ment
Ġu tangira
ĠI bya
Ġru kwiye
ibi ya
ĠCo rona
Ġ8 9
tu mira
Ġwa jya
Ġr wuba
vana mo
i ti
Ġgi te
N goma
nga mo
shyu shya
KO RE
W S
ku yeho
Ġmwa shakanye
ĠO lympi
Ġyu nganira
Ġri gomba
imi gabane
Ġbuba tse
D P
H CR
e kend
Ġdi si
zinya yo
Ġ sho
Ġba byo
ĠBa yern
Ġ: âĢĿ
ĠDi aspora
ĠRuta bana
shigi kiye
Ġu bone
ĠAban ye
sabi re
shimu ta
ĠDA SSO
aba zi
ĠS inga
Ru hango
Ġmyi teguro
Ġnin de
suru tsa
tten ham
re m
ĠK T
ĠPhi lbert
Ġibya kozwe
rangi rira
Ġ8 7
tungu we
: âĢľ
Ġya m
Ġaba twara
fa twe
Ġse rukiramuco
shyi riraho
Ġdu ha
Ġbandi tse
ĠIn tore
ĠCla ire
Bru ce
A za
Ġba garagara
Ġgute rana
be s
Ġki meze
Ġcya tanzwe
In zira
inji riza
Ġika mu
amado rari
senye ra
Ġi tegura
Ġu garagaza
ge ment
to ranyijwe
Ġibe ndera
Ġya mbara
to day
umu paka
ub wandu
abata vuga
ĠBro wn
Ġu garagara
Ġigi tangaza
Ġu shinjwa
Ġbu jyanye
tsin de
ibin yoma
wuzu re
ĠNdu hungirehe
Ġmu vuduko
Ġbo ngere
Ġbata shye
or g
Ma tayo
Ġbi haye
Ġibi tangazamakuru
umu gabane
cu kura
guru kira
Ġntiba ri
Ġici riritse
Ġbi yongera
ĠB ongo
Ġyi buka
yandi kishije
wandi kiye
Se nateri
stau rant
Ġu twaye
Ġha rebwa
su mo
Ġri riya
seze ranyije
201 1
ĠMe dia
AC P
sa mbo
Ġha komeje
Ġni yi
Ġbyi mazeyo
shikiri je
Ġku bwi
ĠLe on
ĠI sezerano
ĠI ntumwa
ĠCy cling
M bega
Ġmu sa
Ġumu twaro
Ġin kwi
Ġyabaye ho
Wa ri
ĠTheo gene
Ġkuburani shwa
Ġkubaba rira
Ġbya vuye
ĠT WA
In yandiko
Ġbaga tangira
ĠMi che
ĠAi me
Ġku ka
Ġgu cibwa
tan gana
Ġumu satsi
Ġumu kiriya
Ġbya hoze
Mu genzi
Ġtwa giranye
ĠPa ki
teka mutwe
Ġ8 4
u ters
Ġwa fashe
Ġaba guzi
Ġibi da
Ġyo hereza
Ġbye rekeranye
Ġfi rime
Kwi zera
o ze
ran ganya
bya rira
Imi rimo
gwi ra
Ġna kwi
Ġaka to
ĠF abi
Ġimi jyi
Ġdu sanzwe
In kiko
Ġbyu kuri
byu tse
gwa mo
ĠIn spector
Ġbwi herero
ĠMo hammed
ĠTe ta
RC D
ĠI myi
Ġaka genda
Ġbabi zi
Ġgato lika
Ġya kiniye
vu yo
ĠC Ã©
Ka rongi
ĠMan ira
Ġn ubundi
Ġin tu
ĠKi menyi
Ġara yi
sabwa ga
shiman girwa
Rwa magana
d ja
su pu
ĠSer vi
ĠN Âº
Ġbya ro
ndu ra
ĠFe atured
Ġu tangiye
Ġbaga ruka
RA B
ronavi rusi
Ġma buye
Ġri shyira
Ġba fise
Ġbu hu
aba shaka
cu cu
Ġn ina
gi rije
Ġmi terere
Ġaga tanga
Tura saba
ĠD ream
byo se
tumi ye
Ġiku zo
Ġru tunganya
Ar c
AG RI
J an
Ġ j
Ġbya gezweho
Mu se
Ġkure bwa
ĠOd inga
Ġbi sigaye
twa raga
abata rengeje
n ji
Ġba heruka
ĠK ani
Ġuru sengero
f r
ubu muga
Ġbyi hutirwa
nt ry
Ġyiba siye
Ġ shyirahamwe
Ġn dan
ga ya
in zibacyuho
Ġgu sobanurira
Ġkubi ca
Ġpo ur
Ġbi bwira
Ġbwa ho
ĠW al
shiki riza
Ġguhi mba
IS I
Ġtere fone
Ġbi fitiye
ho re
Ġgusa bana
ĠO u
Ġmugi tondo
l en
ri en
Ġu hita
shu shan
im Ã©
Ġdu hura
um wanzi
Iki gega
gere jwe
Ġhaba mo
ĠIm ma
don ke
a menyo
Ġbu gira
Ġru komeje
ĠBu siness
Ġse n
impe ruka
Ġtwi buka
rangwa mo
Impu nzi
Ġu kunze
Ka minuza
ibya baye
Ġa s
ama banki
ĠUmu dugudu
Ġ8 8
RE N
hu ngira
to ire
ubu rasirazuba
seze ra
Ġ reba
Ġi sanga
Ġba rwana
Ġkwi gana
shyi rwe
ĠRa poro
ĠJudi th
ĠHand ball
gu saba
ĠCa li
B yongeye
M P
Ġaba saza
ĠMu zika
mbi ya
Ama zi
baba jwe
ent re
Ġuda shobora
Ġagi fite
Ġba hera
ti co
kome reye
Ġi duka
Ġba gombye
Ġbi shinzwe
Ġbi tangaje
Ġin yongera
Ġcom ments
ĠDomini que
Ġama bere
Ġkwi cisha
Ġtu bonye
rere kana
Ġmi tekerereze
Ġdu komeze
Ġ198 0
U rebye
in yigisho
ĠJ ong
aban gavu
ano rama
Na ra
Ġp rezida
Ġintanga rugero
RIS TU
ĠEgi de
re mo
Ġaban duye
um wanditsi
19 7
Ġkw in
ĠTu ra
gu fa
Ġya tangiriye
ĠMu l
Ġaka menya
ĠMa geragere
riwe mo
Ġi koze
Ġnk wi
i mbaga
Ġba toza
Ġbi saga
Ġbu no
ĠSe rena
ĠWil son
Ġb yuma
Ġmu cye
Ġama kara
Mu kura
Ġiza kina
Ġumu semburo
mana ma
Ġbwa giye
seze ranye
ĠHa rerimana
Ġkub yumva
S AN
Ġ saba
si go
Ġha rebwe
shishika rizwa
lin gi
ND O
Ġla bora
I GI
v onne
i e
ti fi
Ġaba tangabuhamya
Ġyi ganjemo
ĠL an
Ġkuvu rwa
ĠAnd rÃ©
bahi rije
ĠAndre w
hitira mo
P rezida
re gura
Ġwa banje
bye meye
Ġyan duye
Ġkiza jya
Ġya komeza
se ruko
nya mwuga
Ġguhu riza
gi rwe
Ġbi ryo
ĠA za
Ġrwa baye
ĠSo cial
Ġyabu riye
zengu rutse
Ġubwa byo
ĠIkin yamakuru
pi mwe
ĠSe bu
suzu me
hoo zi
ĠV anessa
Kan da
Ġimi tsi
Ġira ba
can wa
Ġya shyikirijwe
Ġbi hagaze
ll on
Ġkandida tire
Ġ shami
Ġya hereye
Ġgu ci
Aban yama
Nyama sheke
Ġa girwa
Ġumu shyitsi
mba ri
Ġim fubyi
igi ciro
Ġyara koze
Ġv ye
sabi we
ĠConfe deration
ranga jwe
In dwara
ĠBo tswana
ĠYa kobo
simbu za
pfunyi ka
Pas tor
B yose
te ranya
Ġbu tanga
Ġkumu fata
P hoto
Ġsi byo
Ġmp anabyaha
shimu swe
Ġi gerageza
ĠV an
ĠChar ly
imp induka
hangani shije
Ġmu fuka
in yanja
go rana
Ġvi si
Y unze
Ġbu siness
han we
Ku girango
Ġtura cya
K iyo
Ġya ro
Mu gihe
Ġnti ri
pi ganwa
Ġtwa yi
Ġara za
tumi we
Ġri nini
ĠO ff
rani rwa
A saba
Ġba fungiwe
Ġzi tandura
aba jyanama
Ġdu fata
fasha ga
Ġutu ntu
Ġi ro
te mbere
se nda
ĠB DF
Ġira ri
Ġitu ruka
E E
aba shoramari
Ġbita baye
van ge
Imi yoborere
Ġmura peri
Ġi genewe
Ġa genewe
ga banutse
ta je
Ġtu be
Ġyi fatanyije
Ġguta huka
B in
ĠD ro
man o
Ġbaba ho
ĠIn gingo
ĠAu stin
ĠDamas cÃ¨ne
Ã ³
Ġmu kundana
ge rwa
ubwi korezi
fashan yigisho
mu za
Ġba sangiye
Ġbi sobanuro
Ġrwa tangaje
ha ba
gen ce
Ġbwa tanzwe
Ġbyi mbitse
Ġhakaba ho
i wacu
z ingo
Ġi shyira
Ġna gize
Ġzi garagara
ibi shyimbo
Ġ7 4
Ġuru gwiro
Ġmi koranire
Ġburu se
Ã« l
icye rekezo
A na
Ġba tege
Ġ9 00
Ġyavu giye
jugu nywe
Ġndanga murage
Ġn dangagaciro
Ġbu genda
Ya sobanuye
Ġbazi tabira
Ġmu gomba
Ġama rembo
yobo re
ĠF an
in ja
Ġwa rwo
Ġumu hanuzi
Ġzi kurikira
Ni bwo
bura gihe
Ġ7 1
Ġako ngera
Ġd ro
go s
bya riye
Ġba garagaye
Ġbu teye
Ġzi vuye
sho ngo
Ġbaha bwe
Ġubwa we
meke ro
ubu gome
nan t
Ã ¼
Ġya se
li mo
kan yi
ĠKa mi
Gu kora
baya zana
Yunze mo
Ġi ry
zi bera
li kani
Ibi he
Ġuri ho
kubwa bo
Ġn dwi
ma d
Ġtu reba
Ġubu genzuzi
ĠC MI
Ġban aniwe
ld ren
Ġyate je
Ġm bone
ke mwa
Ġbi fatanyije
shi zwe
ĠU b
Ġyi bwe
gende keye
Ġbiza korwa
ĠBo b
L uka
ga je
he ranwa
umu vuduko
ĠBu garama
Ġara pfa
ĠSu p
HU TU
Ġi tegurwa
bwi mana
Ġika gira
Ġtwi teguye
icyo ngereza
Ġhata gira
Ġgi tangaza
Ġaka rusho
ĠUmu twe
ja wa
Ġan yuranye
ĠTe radi
TE GE
ĠMauri ce
yi jani
ĠB Ã©
Ġbara ye
no cide
ĠLon dres
Ġumura va
in kotanyi
man da
Ġkuha gera
Ġku jyanwa
Ġya hita
Ġka kaba
Ġyo herejwe
ĠBri g
Ġkuba hirizwa
ĠPa u
ĠPa cifique
Ġrwe meje
Ġibin yobwa
Ã¨ le
ĠBen i
Ġyear s
Ġha bi
Ġni ryo
Ġyi we
Ġcye rekana
Ġbizaba fasha
Ġbya za
ĠRu banda
ywe ra
Ġkuburani sha
Ġmu sirikare
Ġku twi
Ġbi hinduka
Ġgu shimisha
Ġna sanze
ĠZ one
yuba ha
Ġbakaba sha
ĠSu pe
Twa gira
baru shimana
Ġru ki
ci yemo
K aba
o t
Ġa jejwe
ĠMa saka
fatanya cyaha
ĠDa mi
ĠVicto ry
M bona
ta bye
abo rozi
roko keye
ĠPl c
a mwe
Ġk m
ubu kure
igi polisi
ĠE ng
ĠY van
bi tsi
ti jwe
aba mi
rya rya
ju ju
Ġbira garagara
ĠDe sire
Ġmin ini
Ġba saza
Ġwa tangaje
seze rera
ĠM y
Ġma gufi
ĠC YAN
ĠD or
ĠBoni face
Ġa boneka
Ġu komeza
Ġku ja
Ġya koreraga
ku mana
Aba kora
Ġtwa kora
goro rero
ĠMini steri
u mwa
mu gisha
ĠM en
Ġaba rezi
Ġubu cukuzi
Ġama jyambere
Ġmwa mi
Ġitu kura
B M
U kuri
Ġi hinduka
za be
ĠP an
ĠMa hia
ĠâĢĺ âĢĻ
beshye ra
Ġsimu siga
Ġu gize
Ġgu taba
ĠM or
Bi vuze
Kiyo vu
i fumbire
Ġm wu
gen je
tsin do
Ġbyatuma ga
ĠCHU K
Ã ¡
Ġgi hombo
ĠP AC
Ġyi zeza
Aban yamuryango
I jwi
Ġba rwo
Ġba komeretse
ĠKa rama
Ġbiro metero
ĠTi mo
F O
Ġu rwanya
Ġba shingiye
Ġbwo ba
Ġwi yongera
Ġbiza mini
Me ddy
Af rika
l inga
Ġi yubahirizwa
Ġki vu
ya vuze
Ġbe re
âĢĭ âĢĶ
Ġu shoboye
Ġbi herereye
ĠFi dele
sengi yumva
Ġibye rekeye
bri el
Ġwa ryo
Ġyan giza
Abi korera
Ġkwiba ruka
Ġubu hahirane
tangi we
Ġikin yuranyo
ĠTwa hirwa
ro mani
ĠU p
Aba biligi
Ġcyi tabiriwe
Ġf rw
a kanama
in cuke
Ġumu zi
Ġubu hu
ĠN garambe
Ġyo herezwa
men iya
Ġbiri ndiro
ĠLi fe
cyu ye
Ġi ye
Ġumu rwi
ĠU win
Ġbato ye
roko ye
Mun yan
ĠBona venture
Ġya genze
se tsa
ban de
Ġzi geze
aba kiri
aba zize
ĠUbu shinwa
gejejwe ho
v ani
Ġba ganga
hu tse
iki buga
reme we
Ġkabu hariwe
ĠFami ly
Y ON
Ġa tegeka
ĠA tari
Ġbyo nyine
Uru mva
Ġbahu riza
Ġinda ya
ĠEdi tor
p fana
Ġi gana
Ġibi rebana
Ġcya tuma
le a
Ġmi lli
Ġaha magara
ĠUm wuka
ĠI sirayeli
um wanda
RU HAGOYACU
Ġi sesengura
ki gali
si zwe
imi banire
ĠIgi se
Ġbatu ranye
Ġnya mpinga
Ġkuyi koresha
toro tse
in toki
Ġbi yemeza
fa shanya
ĠP GGSS
Ġbata jya
ĠUbwo ngereza
ĠEri trea
Ġb yumvikana
Ġa rongoye
ĠA ho
ama ko
Ġyi yi
Ġbatu nze
ĠGo rilla
Ja y
Ġumu kecuru
komere ze
Ġgukin girwa
ĠSoma liya
Ġmavu riro
c redi
Ġna gira
koreshwa ga
ĠMar c
ĠKayi tare
Ġyahabwa ga
Ġba depite
ĠI wawa
Ġsisite mu
Ġu shingiye
Ġumu ririmbyi
to ne
ĠB lu
Ġri ha
utu gari
ES CO
ĠNel son
Ġbi tangira
rwa riye
gan zwa
ĠC yo
ĠS in
gwa ga
Ġaba turarwanda
do zi
Ya suwe
Ġtwa je
I mbere
Ġbaka ganira
ĠCo gebanque
ĠSa ve
Ġna bonaga
ĠU wera
Ġkwi kura
Mu rakoze
ĠKan ya
kangu riye
b ine
Ġu kan
Ġimi genderanire
Ni ko
Ġivuga butumwa
soro ro
himba zamu
C ar
ba siwe
Ġzi renze
Ġkwi su
RU RA
lon ye
rwani sho
cenge zi
GA BO
Ġservi ce
Ġwa ho
ĠE to
Ġtwa gize
Ġbira vugwa
Ġbwe rekanye
ĠNYA MU
Ġbi buga
Ġaba ho
ĠA DF
Ġibi sanzwe
Ġkuba bara
Ġbyo ngeye
Ġn tsinzi
ga bye
ko riko
Ġni gi
ĠS Ã©nÃ©gal
bura hamu
Ġutu rutse
Ġana ba
ibyi za
M V
Ġba hanga
ge s
Ġaba jijwe
li an
Ġzi komoka
ĠS P
ĠBene di
Ġya ganiraga
Ġgu cyura
ama zina
Ġte kiniki
Ġada shaka
Ġbagi zwe
T R
Ġi shyari
Ġa kore
Ġumu cyo
Ġaba rizwa
Ġban de
Ġibin yujije
ga za
umu fasha
kangu rirwa
dore rwamo
bu tu
Ġhara cyari
ĠFili me
A U
ti ku
Ġbya hise
soho we
ĠMe di
Po sted
ĠPre sident
ĠFAR G
Ġpu la
Ġmure mure
Ġibyo kurya
Ama shusho
bereye mo
aman yarwanda
Ġa korwa
ĠI cye
ĠDe mukarasi
Ma t
koriko ri
tera si
ĠRe publika
sobanu re
kera gutabara
gra y
te n
Ġm fata
Ġbaka bura
rya yo
ĠZ an
ĠAf ghanistan
ent ine
Ġaba pfuye
Ha kizimana
ĠAf ro
Ġbu biri
Ġha vuga
Ġiki baba
Ġaza kora
ic y
yamu lenge
seke je
Ġa hereye
ru we
ĠF ERWA
la de
kwi za
ĠH CR
Ubu ringanire
bana ga
hemu kiye
Ġku taba
hi rira
Ġtu tara
ĠGi sa
Ġbwi gunge
qu eline
zza ville
Ġa fungwa
bi kira
shi mwa
ama hina
shyi riyeho
Ġguhana hana
tungan ye
Ġku ban
In ko
Ġtuza bi
ĠSen tore
Ġkaru banda
Ġgu teke
ĠMa rt
Ġzo ne
Ġryi sumbuye
and re
ĠBuru gumesitiri
Ġkavu kire
ma sa
Ġba tana
Ġki ki
Ġiyi cwa
ĠPro sper
Uwi mana
ĠKame mbe
Ġa ro
haza za
Ġa shyushye
Ġumu sozi
Ġbu sabe
Ġgi hano
Ġka yo
Ġga tanya
a ra
Ġimi sanzu
Aba ganga
Ġbika gera
Ġkwiba girwa
Ġyaku we
ĠBura van
shi r
Ġbata ye
girwa mana
Le a
Ġbumva ga
line s
reman gingo
J A
ba kwa
Ġwa vuga
Ġwa koraga
ĠMa ke
gura ga
tegan yaga
Ġzu zuye
Ġba rana
Ġba fitiye
du saba
Ġtwi tter
Ġbandi ka
O ne
Ama guru
suzu mye
pre ss
Ġha tanzwe
Ġama banki
Ġbya zo
zu ya
im fura
Ġ3 50
Ġkwe mererwa
Ġkuga burira
shingirwa ho
Ġgu komereza
Ġbya korewe
vi s
ibi sanzwe
gaban ye
byu kuri
Ġn yeshyamba
Ġya rangiza
um wu
Ġdi yabete
Ġbakoresha ga
O L
U kuboza
ĠI nge
ĠEs pe
Gi sagara
ro shya
ĠM RCD
vi ye
guru kiye
akaba baro
Is rael
Ġu rya
gi kora
ka r
Ġbu na
aba yoboke
Ġutu ndi
ĠSta te
Ġimizi go
shyingiran ywe
u rwango
Ġu he
so mwe
ĠSu gira
noside ri
ĠAu rore
tu je
Ġbi kize
bera kuri
Ġnka jya
Ibi koresho
gaban ywa
Ġmala riya
x e
bwe ho
Ama somo
ven ue
Ġru garagaza
mbi riye
ĠD U
Ġakaba baro
Ja c
done ziya
ki rira
Ġki guzi
Ġaga tangira
Ġgushyin girwa
ĠMine mbwe
Ġya mbere
shin gi
In ka
jugu jugu
Ġinke ke
Ġu baye
ka ze
Ġgi sirikari
Ġmi cye
Ġmi soro
Ġkumu bona
Ġitu ze
ri mbira
ya l
Ġku zo
Ġba senga
Ġbu saba
kin giza
ĠMu cyo
ĠUmu hanuzi
yon zi
Ġbira ba
Ġumun yu
ĠX a
Ġba cyo
Ġko mini
ke za
Ġtu kana
? .
mu kanwa
ĠR w
shu ko
Ġyara gize
ĠAn toni
ĠNde ra
ĠBwi za
Ġa gere
ubu shyuhe
Ġyi banda
ĠUmu hanzi
ri sha
Ġza kunzwe
Ġwu zuye
ĠSi riya
Ġkudu ha
A nge
gan do
Ġzi yi
kin we
Ġib yamamare
Ġdu korera
ĠUmu ntu
Ġuka yi
Ġo ya
Ġi fitanye
Ġu rangira
shu bije
gere ko
Bira babaje
ga mye
Ġki renze
iki remwamuntu
huriye ho
inzira karengane
Ġba mbara
Ġin yangamugayo
ĠN kun
Ġbari shwe
Ġaga tsiko
U zi
se sa
ĠB ralirwa
nge za
hi je
Ġkubi bona
ous sa
Ġi ze
Ġha gize
H IN
R wi
ï ¿
Ġ va
Ġn zima
Ġya twi
ĠC HOGM
Ġwi she
ĠCo un
ĠÃ ł
Ġbu kora
tanga rijwe
Ġaha hoze
Ġmura koze
Ġmu shaka
Ġbu sesuye
fu ti
M ic
Ġumu tware
ĠN genda
umu ro
misiyo neri
kiran utsi
K w
Ġa size
ĠU mwaka
Ġga ri
Ġntiba bi
ste ur
ĠMU N
Ġimpa mo
ru zi
Ġgu tinyuka
Ġbu mve
Uru pfu
ic yu
Ġiba rizwa
Ġama zamu
Ġki genda
Ġe mail
Ġgute sha
ĠMar k
Ġimp yiko
Ġi sobanura
zi l
Ġumu geni
Ġumu dari
Ġim ya
Ġkwi yunga
ĠCamero on
ĠVa ti
Ġya mbwiye
ĠT an
ĠNta bwo
ma ranye
Ġwan ge
ĠJu nior
ĠEn ter
Ġubw inshi
Ġmu kaba
Ġigitu gu
Ġakanya muneza
yo seze
Ġaba rimo
Ġha tangwa
Ġib wi
ama sa
Ġkune nga
f en
Ġbu ngu
Ġ20 50
ĠJ ane
ĠD ou
uru kingo
Ġto day
Nya ru
Ġmuha bura
S T
Ġgu kiranuka
ubu camanza
IB U
daga scar
ĠNYAMU KURU
Ġya vaga
hi gi
Ġbwo rozi
Ġmwa ba
sobanu we
ĠWa tch
Ġkutu mvikana
Ġal ubumu
SO MA
M WA
ama hame
Ġira saba
ĠDa ily
ĠMuka ru
Ġgusin zira
Ġi vugwa
gan ze
Ġkwi hutira
Ġcya kora
ĠMu la
Ġbyi genga
Ġyara tangiye
Ġwu batse
ĠMo se
Ġzi rwanira
Ġza shyizweho
ubwi sungane
ĠTeradi g
o za
Ġku nyi
ta mbaro
ĠD juma
yin ga
ol u
ĠWe ek
ĠMar cel
f red
Ġk d
I zina
Ġ !!!
Ġn tanga
Ġu rwanda
Ġishyan o
rezidan si
wi za
ĠT al
Ġub wumvikane
Yo hana
i ko
Ġdu ke
Ġyana vuze
y ne
ĠK RISTU
Ġyan yuze
toro ka
ppo sition
ĠV er
Ma y
Em manuel
Ġya mara
Igi tabo
ĠAn ne
Ġwa towe
gi ta
Ġka ta
su di
igi tabo
K we
Ġrwi hishwa
Ka yonza
zere we
Bya ba
ĠIN YARWANDA
6 8
Ġba siga
Ġkwi shima
Ya tanze
Ibya hinduwe
L t
Ġa renze
ĠMa ga
Ġaga rutse
Ġida hwitse
Ġimurika gurisha
M ani
Ġubu biko
Ġkwi tandukanya
Ġaka jagari
Ġri to
ĠRu sororo
Ġpa ra
ĠThe oneste
Di ane
Ġbwumvi kane
ĠCali for
ri can
ĠMa de
Ġbaka genda
ĠMe ghan
ĠAl li
ĠCla risse
Ġbuba ka
rohe rwa
Ġmu kunzi
Ġbi hishe
mi kurire
ama sengesho
ĠUru gwiro
Ġbun ini
Ġi vi
te nant
Ġy ani
Ġama bara
Ġibi vuga
umu remyi
Ġnka bona
KO ME
ĠRuha go
p ini
y d
umu shahara
Ġi shirahamwe
aba gizi
Ġma hano
Ġkwi tanga
menye shwa
Ġicya ba
Ġ9 7
Ġubwi yongere
Ga sabo
ĠA ssi
ĠKa boneka
Igi subizo
ĠRwi butso
Ġn sanganyamatsiko
Ġba shinja
Ġpasi poro
Ġbi shanga
be ya
vi ra
ven ti
Uwa hoze
Ġyasu raga
te ngu
Ġm biri
Ġbya shoboka
ĠRe pubu
ĠIbi ro
I rushanwa
Ġmu nyeshuri
si kopi
Ġubu jurire
ĠT aba
tangi rana
E s
I teka
Ġbamu saba
Ġ8 3
is se
Ġida shobora
ĠKan ye
U ran
Ġaba jya
ĠBa hati
Ġi rondo
Ġya tsinda
bo se
riki ya
rana bitekerezo
soho kera
Ġ13 0
Ġa shinja
Ġbi shimye
Ġmuri bo
Ya shimiye
Igi faransa
huza ga
oni a
Ġkwi fata
ĠC A
ĠS tan
Ġuta vuga
ĠSi mon
Ġinda shyikirwa
Y IMANA
Ġ *
Ġm boneza
ĠA C
kin ga
Ġye gu
gani rwaho
mban ye
Ġba mbwira
ran du
Ġkwi shyuza
im fubyi
Ba za
Ġyu mvikanye
Ga tsibo
Ra dio
U mva
Ġi gendanwa
Ġba byaye
ĠM ONUSCO
Ġbari nda
RE G
Ġtuka jya
ĠÂ» ,
ĠI zina
hi twa
umu vandimwe
Ġyi yemeza
Ġbwa zo
t ti
igi ti
el d
I A
pfu ndi
ï¿ ½
Ġn yaka
Ġna ha
Ġumu yaga
Ġbu hagaze
to s
ĠL abora
Ġibya tsi
Ġbaza bona
ĠTo ttenham
Ġca mera
So siyete
ĠYEGO B
a yandi
Ġya bwo
ti riye
Ġbata gomba
ju rira
Ġbira mbuye
Ġuta za
ĠHo pe
I soko
u fite
Ġu p
Ġba garaga
Ġya simbuye
b yuka
Ġi shuli
Ġa cu
de rs
ĠW in
Ġya tandukanye
Ġbi kanga
Ġkwi hisha
gere ki
Ġkan yanga
tere rana
jugu nywa
ĠMuha dji
Ġba shima
ĠA mba
Ġbiri ho
jira mo
ME N
ĠIN KURU
ĠBuka vu
b yina
Ġdu tuye
PR O
Ġkwandi kisha
isu kura
E ZA
Ġbi huza
me di
Ġha tangijwe
Ġki lo
ubu ziranenge
Ġbatu nguwe
, ...
R RA
m vyi
ga he
si to
Ibi menyetso
bare ba
Ġbaki ran
ric ket
mi ryango
umu gezi
Z ari
mu teye
Ġbi habwa
Ġbi gabanya
Ġri ndi
Ġban yama
gaban yuka
Ġtwi yemeje
ĠAg nes
Ġwa zo
Ġwa gizwe
aba maze
Ġdu tegereje
Ġubu hanuzi
Ġkuba gwa
Ġri hu
Ġdu fitanye
yin gana
Ġguta hura
Ġinyoko muntu
ĠIn tego
Ġya shoboye
aba sohoka
va yi
riki we
ĠV la
hangayi ka
Ġntibya ri
Ġite gamiye
B WA
I nda
to p
fi twe
ĠKa piteni
Ġimyi rondoro
ĠGatu na
U hagarariye
l ini
te mba
te mera
Ġbi shyira
Ġumu ta
Ġyi huta
Ġuka gira
Ġguseze rera
Ġshe buja
Ġu toza
Ġw umve
ĠT we
Ġguto ranya
Nyama gabe
c umura
Ġba jyana
Ġaba wu
ĠN BA
ĠPa rk
Ġbaga hitamo
mara yika
Ġgusubira mo
Ġruke rera
Ġwa tangije
Ġbu mvikanye
Ġry inshi
Ġguhe mbwa
Ibiro ri
Ġku yoborwa
te kini
ha fi
Ġaba gororwa
aba korerabushake
Ġyi rukanye
Iki babaje
ĠHi t
Ġubura mbe
ibinya biziga
ĠAbako rinto
san te
vi c
ĠH ol
Ġrwa hawe
Ġuku menya
ka ro
Ġumu dendezo
Ġaba to
san gwa
shin jwe
Ġmi cungire
Ġri korwa
Aba rimu
la yi
Ġrwa vuze
Ġ9 6
Ġnyira bayazana
cunga mutungo
Ġki kaza
Ġza koze
pan gu
Ġazwi ho
xel les
Ġku yo
Ġiki ruhuko
Ġnta mu
Ġrya shyizwe
Ġyara yi
zande ngo
t wu
Ġu rangiye
Ġkwi heba
Aba shakashatsi
hagara raho
Um wanditsi
Ġbwan gu
v wa
Ġna vuze
Ġwa vukiye
Ġama gana
ĠKi ba
ĠAba gore
bone rwa
ĠSyl ve
B amaze
U rwibutso
Ġu teye
ama rushanwa
Ġigi sobanuro
Ġbwi je
ĠTa riki
Ġgu torerwa
fu ni
Ġbya komeje
Ġcya hawe
Ġgusa mbana
Ġugu kora
Ġguse sa
ze rere
Ġkwi muka
Ġudu koko
daga dura
eu tenant
ngani ye
Ġyazi ze
ye reka
Ġku vanga
gi tugu
shi shi
Ġbo herejwe
th le
Ġabe negihugu
Ġkwama mara
Ġgu komeye
Ġwa byo
Ġyan ganyije
yuza mo
ĠKiri situ
Ã Ń
Ġnde ngakamere
gani rije
Ġiri mbi
ĠSa le
ĠAd dis
muni ty
n yangamugayo
Ġama bati
Ġama segonda
ĠU rwanda
Ġcyan yu
Ġbe rekana
ĠIC C
Ġku gendana
igi tu
Ġwi ca
Ġgute ma
mo ur
dri en
ho go
Ġbu gera
Ġubu he
lo gne
Ġabi tangaza
ĠDe mocra
Ġpe r
Ġba funze
ha bi
yu n
ĠKo miseri
Ġi renze
Ġgusa za
Ġbwi mbitse
Ġikin yarwanda
Ġkira zira
Ġahe rekejwe
i vugabutumwa
ĠI bikorwa
ĠJ or
uru hererekane
twi kira
Ġba kuye
Ġkwi toza
Ġyara je
tegu za
tain ment
ba giza
hi riwe
ubu gingo
Ġkuba sha
Ġbara zi
guye mo
Ġkuvu za
Ġpa radizo
Ġ196 0
Muse veni
Ġgu shushanya
ĠLe s
baru rishamibare
Ġubu muntu
Ġru gira
Ġkwi si
kuru rira
zu zanya
yu m
mo s
Ġaba fata
ĠA D
Ġyi tezweho
Ġimi shyikirano
ĠJe une
kongo mani
Ġb yanditswe
yu ku
Ġaba sigaye
Ġma ko
Ġri sanzwe
igi tero
D an
E L
ri nga
ri kwa
ga to
va ki
rasi yo
ĠSta rs
ĠTi gray
um ble
Ġkubi geraho
himbazamu syi
Ġya ranzwe
co b
Ġ197 3
B WO
Ġmu vandimwe
Ġya boneyeho
ĠI c
Ġibi kenewe
ĠMu ti
.âĢĿ âĢĶ
Ġgusa rura
ĠAl pha
Ġatu nze
Ingo ro
ru ngi
da fi
ku bone
Ġm yambaro
ke reza
ĠHa runa
Ġgusu kura
Ġin yemeza
Ġw injiye
mbo la
sanga mo
suzu mwe
vana ho
Impu guke
Ġubusu gire
ru go
Ġtu kiri
ĠIs ra
Ġya kubiswe
Ġza kozwe
Ġumwi merere
Ġntu za
Aga ce
cungu zi
ĠBib le
e la
Ġn kenerwa
Ġa kwi
Ġzi sa
gwa ri
ĠF ire
mbo nera
Ġrwa tegetse
gani za
er ra
ĠMi lan
ĠIgi ka
Ġubwi korezi
kundi ye
ra ta
ĠA ki
ĠN one
zwa mo
siga zwa
fe atured
ĠTi to
ika wa
Ġya koreshaga
Ġbaga fata
Ġkubi gisha
s tu
yi sha
Ġbi zera
ĠR en
Ġari ryo
Ġibi ki
Ġkuri bwa
imi tekerereze
ĠRwi sumbuye
ĠFo rum
Sin zi
N sabimana
Ġmu saraba
Ġba hangayikishijwe
Ġumu koresha
Ġaba terankunga
Aba yahudi
Ġbamu haye
riya ri
Ġbida hagije
Ġad min
ĠMp anabyaha
u pe
Ġa sohoka
vu gi
Ġbaba bwira
Ġmuke ba
ĠIgiswa yire
Ġi shira
ĠU tu
ĠS han
Ġcya maze
kora mo
Ġtwa maze
Ġata mu
ĠGi twe
kemu ye
mi de
imi gambi
raga mo
Ġkujya yo
je ct
ĠâĢ Ķ
Ġbya du
sanzu ra
Ġntu mbero
bi ye
ti ranya
Ġkubi shyira
Ġaka gu
Ġwi genga
Ġigihe mbwe
tin o
U du
n yura
Ġya remye
san o
ĠGa te
Ġkubera ko
Ġkan tu
kara mentu
shyizwe mo
A lex
c ama
ro rerwa
ĠI d
rere ra
Umu genzuzi
201 0
c Ã©
Ġbihe nze
ĠAb da
ĠAbanya merika
Ġa kenewe
ĠN zi
Ġmwa ra
banu tseho
lo w
Ġikin yabupfura
Bu rera
rusa lemu
Ġba shyirwa
Ġmi rasire
Ġbo ro
ĠHi timana
Ġyaseze ye
hu rwa
Ġyi fashishwa
Ġicyo ngereza
Ġwi yita
ĠPa ra
Ġle a
Ġbaki mara
ubwo ba
ĠCa p
GA LI
Ġumun wa
L M
re z
wo ru
Ġata gi
Im vura
riba yijani
tu manaho
ze ribayijani
Ġibi kubiye
ĠY vonne
Igi tekerezo
sese ro
ĠMala ria
ĠMari na
kiru timana
M ba
Ġbi rushaho
ho ma
Ġcya rangiye
pi lote
In tore
KO L
ĠUni on
i me
tan yahu
ĠR YA
Ġaha bereye
Ġabi ga
ĠTe mple
sasa mana
ku bwiye
shi sha
ĠNyan ja
c hu
Ġha taba
nge r
ubu cukuzi
Ġinyi to
ĠNE WS
tara ganya
ĠSol ange
spa rd
a hazaza
Ġa gura
ĠRa y
Ġba ryo
Ġba shyiraho
ĠUmu byeyi
ic yemezo
hame le
cumbi kiye
ĠVe ne
mwe merera
Ġnti be
sindi sha
u mwarimu
Ġn umu
Ġba huguwe
Ġyi zera
Umu huzabikorwa
ĠT har
Ubu jurire
reka tete
t ting
Ġya tangaga
Ġibi mu
ĠC AN
Nta cyo
ĠUwa cu
Gi tifu
sipan yo
Ġi geragezwa
Ġgu pa
Ġru riya
Ġkubi reka
twara mo
Ġbatu bwiye
Ġbika gira
Ġguhu ngira
ĠCy pri
Ġmu rwi
Ġya gendaga
bo ro
ĠA dol
Ġgi sigaye
Ġtu bone
Ġri korera
Ġbin yu
ĠSe zibera
ĠSand ra
ta mbara
ĠMu genzi
Ġnta ma
tegan yirize
ĠFil m
Ġdu fatanyije
yin ka
ren cy
ĠCo ll
ĠIki mali
manu tse
Ġgi shingiye
umu gambwe
gende kere
Ġada kwiye
ĠDo re
twa ga
aba motari
ubu tayu
Ġwe ekend
Umu shikiranganji
Ġuru zi
Ġuru papuro
Ġaga teka
Ġbaka ha
korana ga
rangi zwa
Ġba mwa
so to
Ġnza jya
ngani za
illa ry
ĠInstitu te
C hi
Z e
Umu shumba
Ġnti baza
man iya
ĠSa wu
abanya gihugu
Ġba so
Ġbu jura
ĠA dam
s sade
Ġwa mbere
Ġumu genzi
ubu sanzwe
ĠSe ka
Ġn kingo
Ġn gufi
ti es
kin giwe
Ġnta ko
ĠRu tanga
IS P
TAN GA
Ġi shyirwaho
Ġbi mera
ne nga
Ġbya shize
ĠS kol
ĠGa tera
Ġbite go
Bi za
mwi she
Ġya byaranye
se kuru
Ġbwa byo
Ġrwa fashe
r yane
ru hame
Ġaba ru
Mu sa
Ġye gereye
reba ga
Ġntiba zi
kini ke
zo ngere
ĠMa thi
Ġdu komeza
Ġbaza yi
Ġbatu yemo
ingo boka
ĠIgipo rutugali
i rya
Â ´
Ġa kurikije
Ġmu giye
Ġku mwo
bu kira
Ġbi hangano
ĠM r
Ġbu zi
tumi za
ĠJuli enne
N gororero
Ġim pe
Ġye go
ji ju
Ġyahamaga ye
pi sikopi
st ina
shyin girwa
Ki liziya
ĠBen in
ĠLo ve
ĠNami bia
i koreshwa
Ġbi garagarira
ku zi
yuku senge
woru jiya
in girakamaro
Ġni mba
Ġyi gira
Ġyi ciwe
ĠBu sasamana
ĠE cono
kemu re
cha t
Ġubu hanzi
tara boneka
Ġata jya
Ġguha mya
Tu maze
ĠCN RD
Ġisho ti
D j
I mvaho
re kani
Ġr yeme
li m
ĠC IP
fun gira
Ġzita gira
Ġumuhanzi kazi
U b
Ġ fu
Ġumu dali
Ġaba yeho
Ġbya garutsweho
Ġ8 2
dege mbya
ĠEl sa
Ġbakiran utsi
sa fari
Ġki gi
aba camanza
Ġkwi yubakira
ngu bu
guri shijwe
con da
T RA
re mwe
Ġc ongo
Ġbu hanga
m vugo
Ġbya ku
ĠRe uters
C he
U kwakira
Ġa funze
bo uti
Ġha gi
ĠMbon yumu
i faranga
ga kwiye
ba mo
Ġumu kiliya
kore ya
umu camanza
Ġmi to
Ġbwi sanzure
ĠUbu kungu
ĠDami en
B YA
ku mbura
ĠMa shami
Ġbata mu
shinga mateka
ĠBan d
Ġbibi liya
n yuka
da ta
Ġbu tangaza
Ġkwi huta
Ġca guwa
Ġaki gera
Ġrye rekeye
ĠYo se
ĠSinga pore
D onald
bi butsa
Ġyi fuje
Aba ta
Ġye pfo
Ġnda yi
amapa wundi
Ġmu zaba
ĠA CP
Ġri banza
Ġri huza
ĠMo to
Ġa rebana
Ġba tutsi
Ġba kinnye
ha rira
Ġbi zana
Ġc lub
ti te
Ġubu tumire
Ġkwi tondera
pi ki
hindu ke
Ġbira mu
ka re
wan i
Ġri haranira
Ġrya garagaje
ĠLi be
Ġkura mba
ĠHen ry
Pi erre
Ġsen tare
m yaka
Ġba byara
wo od
ĠKa te
Ġbaka va
Ġhaba rurwa
ĠTcha d
u shinzwe
Ġa toza
sh wi
Ġba zungu
sha kirwa
twa zo
Ġkubi tsa
Ã¨ ge
n ing
Ġko ngerwa
aba to
ĠS ource
Ġyi rirwa
Ġwu ba
pho sa
Ġyuba ka
Ġhu batswe
Ġuza sanga
Ġ14 0
Ġkuta menya
ĠIkinya zeribayijani
u mva
Ġbi ko
ĠN kunda
Ubu biligi
Ġguseze rerwa
Ġya riye
Ġngo rane
zu kuru
ĠKi garama
Ġt his
Ġmwi jima
Ġibiro metero
Ġnshinga mateka
i tanu
ĠHa tegekimana
Ġahan ganye
ĠDi o
Ġiga banuka
Ye meza
W or
Ġa binjira
be merera
Ġubu genzacyaha
Ġka mara
Ġrwa kiriye
lo tte
Ġsi vile
Ġizi he
ĠNza mwita
Ke ra
ĠJona than
Ġuza bera
ĠHu man
Ġngu bu
I shirahamwe
Ġi kwirakwizwa
Ġa ci
Ġa tangaje
Ġin tangiriro
ĠMu singa
im pa
ĠAir lines
Ġba fashije
Ġbya mamare
Ġkwi vanga
Ġza vuye
Ġwo ngeye
ĠGa briel
Ġkwan duza
Ġyatu miwe
Pre v
bahi rizwa
T ER
ba h
ka ya
si l
Ġri gezweho
ĠBi o
two rk
Ġkungu rana
ĠRutare mara
- âĢľ
I GP
i te
ga r
Ġmu nye
si gye
Ġzi himbaza
Ġma hitamo
imi co
mbe rt
Ġiba ho
Tura shaka
ĠConfe rence
K WI
Ġha beho
ĠIgi kombe
ĠUbu renganzira
ĠIM I
ga burira
Ġba subiye
Ġbya teguwe
ubu tunzi
Ġbamu shinja
Tu giye
Ġ16 0
Ġgucu ra
ĠAF P
ringi yimana
p ong
bu mba
Ġzi taba
Ġye mere
fatan we
Ġihe nze
ĠN ye
ĠBu zima
Ġban yamahanga
Ġtuba she
yita ho
S hampiyona
Ġya shyikirije
Ġma tariki
Ġiki he
Nda shaka
tangiza ga
Ġru gamije
ndi ra
i ry
i rangiza
Ġcya mi
Ġv yose
Ga kenke
Ġba kandida
in kweto
Ġwe mera
ĠJ en
ĠGa biro
gere zwa
Ġkoro ra
Ġmavu ta
i f
n zu
mu kiza
ra ke
Ġku nganya
Umu hanuzi
banu kirwa
Ġkuta vuga
ki zi
Ġwa ma
Ġumu kamo
Ġzi boneka
kin ire
Ġbara za
19 6
komo tse
Ġ 00
da ste
Ġbu meze
ĠMu ra
ĠE ph
raga banutse
ĠMo na
Ġita ha
ĠAga ce
jani sha
Ġumu fana
shyigi kirwa
indu rama
ĠSta dium
rohe we
Ã¨ de
Ġguhe sha
subu kurwa
ĠHabu muremyi
O r
y indi
Ġtu ganira
Ġiki yaga
Ġga hinda
imi deli
Ġkwe merera
Ba bi
Ġkubi menya
den t
Ġiwa yo
intanga rugero
s ya
ĠA imÃ©
Ġkwi hana
bwi rizwa
ingo rane
ĠZi on
ye r
yi rije
ĠKa guta
Ġkuba kirwa
Ġri shyiraho
baye mo
ON U
kundi sha
ĠMusa byimana
jiji sha
Ġu vuka
ru bu
Ġru korera
umu kandida
Ġnta gi
Ġyaha mije
phe n
Ġi bere
be ba
ĠA damu
Ġigi hingwa
Aba shinwa
Ġtuka reba
C ristiano
ru masi
mi higo
shi re
ĠI R
ĠI ri
fu ri
Ġma twi
Ġkwa cu
ib yuma
min g
Ġbida subirwaho
RIM BO
d d
v ine
ana sha
Mu za
ĠBu ll
ĠIn twari
ĠIs ma
ĠMuha zi
B S
i mashini
Ġya kunzwe
Ġbu juje
shu a
mwa ro
Ġdu kwiriye
Ġabi rabura
Ġumunani ro
su kura
ĠL ibiya
Ġrwa mu
Ubu dage
ĠGa tare
Ġk wu
Ġya jyanye
Ġya kinaga
mi shije
Ġin yoni
tsi mbara
Ġcyi ta
ĠBi g
li cation
po li
Ubu menyi
yandi kire
rwan yije
ub wuzuzanye
ĠRi hanna
tandukan yije
N yiri
Ġwa tewe
to ke
ĠRi ghts
indurama twara
. ,
? âĢĻ
Ġgu kemuka
ĠI soko
Ġkwi sanga
ĠMa sa
co u
Ġkiba ya
v ane
Ġn tege
Ġku rokoka
ha gati
Ġgu kubitwa
Uru rimi
ĠNda hindurwa
ĠLu c
kwan ga
Ġa gana
gu mana
Ġri yobowe
Aba senateri
Ġmpu za
Ġkutu bahiriza
Ġmala ria
SHIM I
mi gabane
Ġbya hawe
Ġib yinshi
uru gaga
st her
Gu koresha
Aha gana
ĠJohn ston
ĠPre ss
i riya
Ġba ge
Ġbi ganisha
ĠMu kunzi
Ġbwa cyo
ĠMa dagascar
Ġaga shaka
Ġibya ra
Ġ18 0
E A
N kuru
e ra
ya bo
wan o
ĠN zo
Umu bano
shwa ti
rirwa mo
ĠHar monize
Cla ude
G ANI
Ġi kunda
Ġa rushaho
ke rs
Ġzi korwa
ĠZ I
gende re
Ġgushyirwa mo
Ġa tewe
ce rt
ĠGa z
Ibi runga
Ġnu ku
ĠDieudon nÃ©
ĠKana mugire
k wo
Ġya zamu
Ġbi bangamira
di ka
ana l
Ġm wan
ĠN ka
Ġbata rengeje
ĠUbu rezi
gezwa ho
Ġiki ciro
shyira ga
Ġiza hura
rabu rindi
Ġba sengera
Ġin tyoza
Ġibi buga
ĠPa le
Ġibi bera
ĠS hin
do ho
Ġkun zaho
Ic yemezo
Ġa tanze
Ġku rwanira
Ġba citse
be shaho
ĠA ti
aba hoze
ĠMu hoozi
ci o
s Ã©e
Ġa bera
yuba kiye
ĠSte ven
L K
i vyo
ti ona
ve st
Uru hare
IN KURU
terwa ga
Ġyatu mi
Ġbakorera ga
G er
Ġwa tu
ĠU bwi
cu rane
Ġmyi gire
ĠNyira gongo
ner gy
Ġu sabwa
ru shijeho
RE B
Ġisan duku
D RC
vu mbura
Ġzi gi
Ġbara ha
kani ye
P I
Ġibi ganza
ama yero
Ġuko ngera
tegu riwe
Ru sesabagina
Ġkuzi ba
id ane
ĠJac queline
umu rwa
Ġuku reba
Ġnko mbe
GE N
Ġgusubu kura
U gushyingo
Ġbi shyize
Ġka gali
Ġbya tanze
gerageza ga
yabu tabire
ĠEli zabe
9 9
e ing
ri er
Ġya kubise
ĠB in
ĠB YA
Ġcya gabwe
ĠL ib
Ġaza habwa
ly n
pte mbre
S er
Ġi sanzure
Ġko sa
Ġgu kundwa
aba kene
ĠBu kuru
ĠBa kame
Ġkwandi kira
impu hwe
ubuhu mekero
ĠValen tin
Ġku rongora
Ġwa twaye
Ġzi ca
Ba mu
Ġika gera
Ġze mewe
bwirwa ruhame
Ġi komoka
Ġya garu
ĠRwand anews
I nye
M ANA
ĠA KU
Ġkwi rengagiza
Ġyaba bajwe
Ġira cya
p ing
Ġgu shinja
Ġbu cukuzi
ĠP ho
Ġbaza ha
Ġumwi rondoro
Ġbimu kira
ĠBru xelles
U hereye
Ġumu garagu
ĠB RD
ĠMu lisa
ĠUmu tesi
lo gi
Ġbiga ga
Ġbwe rekana
ĠImi kino
ĠKina zi
ĠEspe rance
n yan
se y
ĠA reruya
ĠS cience
ubu rengerazuba
imi koreshereze
Ġra yon
ISP OC
g ri
Ġi hana
Ġku kwi
Ġkwi haza
Ġwitwa ye
Ġbahu ngira
Ġubwa cu
ĠHar ry
D ani
U n
v ing
Ba ti
ĠYe rusalemu
ĠIgi turu
rengan ura
Ġo pposition
saka ye
ICE F
ĠKani mba
i ca
Ġba bwiwe
te rana
ki ga
mba ba
Ġ9 3
A kanama
i shyamba
ru kundo
ĠB O
pa rt
ca gu
raba ra
Ġbifuza ga
ĠSand rine
ru rema
Ġbi rwa
Ġbi shatse
ĠN ou
ĠGa za
Ġara genda
Ġu rwenya
Ġkwi rirwa
ĠD C
ĠMa yor
In yuma
Ġimba rutso
gere ka
soho kana
ĠKu va
Ġinda hemuka
gwi riye
U bwa
ri ho
Ġwa vu
Ġzi kunze
aba kristu
shyire ho
Tubi butse
bu mbiye
tan gura
Ġgi hingwa
ne ss
Ġkuba tera
im bunda
ĠBa yi
Ġkuyi kora
ubwi genge
ĠZa buri
Ġi kozwe
aba rezi
Ġbara maze
ib yumba
Ġkum bwira
Ġabanyama dini
ĠA burahamu
Ġim byino
Ġmun zu
Uran gurura
Ġ meze
Ġumu shikiranganji
Ġkwi shyu
Ġza tuma
Ġhe pfo
ĠTu mba
ĠMexi que
Ġba rangwa
Ġwa ka
Umu jyanama
ni mana
ĠMo ise
n s
Ġumu singi
umu saraba
Ġza wo
Ġaka boko
im yumbati
Ġiti shoboye
ĠAwa rd
Ġa tana
ru ve
di poloma
Ġkwi vuriza
Ġza cyo
ku rira
Ġru ti
Ġri sobanura
Ġabi fuza
kiye mo
menyi mana
hanu rwa
O li
Ġba jyanywe
ku ki
Ġka baye
su huza
Ġ8 1
ĠMo butu
ram yi
R M
Ġi tora
Ġku c
Ġba tsinzwe
ibyo rezo
ĠJu n
Ġtuta zi
U KO
ĠY anga
ĠSa fari
ĠCalifor nia
K ire
ru mva
ĠKo mine
kubi ra
Ki zi
Sa a
Sh yaka
I mbuto
Ġmu shobora
Ġimi rasire
shimi mana
ĠMi cro
Ġbaki ga
abanya merika
ĠMani shimwe
zi siyo
Ġka da
ĠMa ry
st ry
Ġicya korwa
Ġgutu miza
jan da
Ġi korerwa
ĠMa kuru
ĠGa hanga
ĠIgi ho
tuwe ri
ĠRuju giro
Ġba ci
mi liyoni
Ġaba tanga
Ġzi turutse
Ġkumu baza
Ġkure ga
Ġkw inji
Ġkuzi mya
FA R
rohe jwe
ĠIM ANA
i da
Ġtu gire
Ġbita bye
ĠGi shinzwe
Ġ9 2
aga ce
YI RA
a ti
n uko
z zi
Ġba kanga
Ġr wandiko
Aba roma
Ġkugi rirwa
ĠIki dan
Ġinka mbi
ĠNyaru tarama
for m
ĠUb wanditsi
M BO
Ġba reke
bu riwe
ĠGa r
habwa ga
ĠHe ro
ĠLo s
pamyabu menyi
I co
O ctober
U mwarimu
Ġi rembo
Ġa hindura
Ġbu renze
Ġibi tambo
Ġtu vuge
ĠGa sha
ĠRu shyashya
subi rana
Pa wulo
Ġbitu gu
Umu gaba
ibi runga
ĠE ntry
ĠGa spard
ve ment
ĠHono rable
i vu
ĠUni ty
ph ro
Ġcou p
R T
Ġumu shinjacyaha
to ko
Ġuru kuta
one r
Ko rali
tel li
Ġhazaba ho
ĠArgen tine
ĠCypri en
Ġa tegerejwe
Ġba girwa
Ġya jyanywe
nge ri
ĠBa mwe
Imi renge
riri mbye
shyiki rana
Ġishinga mategeko
ki ranye
sha kwa
Ġru gaga
ĠKi d
Ġamata fari
ĠSal va
Ġn anditse
Ġc hi
ĠU wo
Ġzi saba
Ġbari ri
mbu riye
ĠUmu shinjacyaha
Ġkwa guka
ĠAma foto
Ko miseri
W AN
f ransa
ku rwaho
aba gi
Ġiki gero
Ġyi shimye
ĠRu sumo
Ġaha bwe
iki ganiro
Ġiba fasha
ĠCa pe
ko lo
he l
rere we
tege rezwa
Ġkumu tera
Nti bya
Ġf c
Ġatuye mo
Ġmu karere
Ġwa buze
Ġru garagara
Ġza bi
Aba shinzwe
ĠE lie
Ġnu wo
sipanyo li
ĠI wacu
Ġcyo ngereza
ĠPo wer
Tu raba
Imi bereho
Ġbakorana ga
Ġyaka gombye
ĠReco rds
chno logy
ki jije
Ġyiya huye
Ġa terwa
Ġa kanga
Ġba bangamiwe
bi hu
Ġumu depite
Ġaba rirwa
Ġaba sirikari
Ġbu rere
ĠN k
Ġgusa tira
YO BO
juri rira
? !
Ġa curuza
ĠM banda
Ġumu byibuho
han ge
Ġim buragihe
Ġigi hango
Ya garutse
ikin yarwanda
ĠLu anda
ĠEme ry
E ric
kira ga
ani rana
sobanu rire
Ġimpan ga
c ca
Ġu ze
hu we
ke l
so r
Ġaka va
Ġse ptembre
kwa bu
sin giza
Ġcyi fuzo
Yaba sabye
ĠAMA FOTO
To m
Kire he
mu riwe
ba b
du m
ne li
na de
ibi ryo
yeme reye
Ġingo fero
Ġnyungu ranabitekerezo
ĠRwe go
ĠDieudon ne
ĠRepubu rika
Ġa geza
Ġya ke
li ke
umu ti
Ġbata gi
seze rewe
ĠGu in
Ġyatangira ga
Ġa kurikira
ha tira
Ġbi soza
Ġyo ngereye
fu gani
Ġga caca
Ġle s
Bya tumye
Ġzida fite
hurira mo
Da vid
Ġumu rima
Umu hungu
ĠJ r
Ġgusa hura
ĠPa tient
nd an
Ġkuvu mbura
Ġkuta za
Ġkwi shora
Ġmi fuka
Ġdu tangira
Ġdu shoboye
Ġgiti fu
tia tive
7 0
sa tira
Ġaba mi
men nye
haguru kiye
V B
ku sanya
ban gukira
Ġumu raperi
Ġibi shanga
ĠN an
Ġzi hagije
ĠS tudio
Ġyu mu
Ġyasin ywe
Ġmu rebe
Ġmu tagatifu
Ġku ganiriza
ta is
Ġm y
Ġimpu shya
Ġgato zi
Ġre pubulika
tandukani ye
A ugu
Y ibu
Ġn ana
Ġbi yita
Ġbu tunguranye
ĠUmu tutsi
ĠThar cisse
R GB
in tore
Ġgu shyikiriza
be ndera
bunga bu
Umunyarwanda kazi
Mun yakazi
ĠDji bouti
Nkuru nziza
Ġi reba
di ho
Ġwa za
Ġgi huza
to nga
Ġbya vugwaga
Ġrya je
Ġcyo nyine
ĠUmu kozi
P la
i fungurwa
Ġa twi
Ġaga tu
ĠGi shwati
Ġdi strict
Nyaga sani
to rera
umu rwi
garuka ho
Ġtwe mera
Ġri tanga
sanga ga
Ġziri ho
GE RA
âĤ¬ÂĿ .
Ġn saba
da s
mo teri
aba kirisitu
Ġri kora
hari ke
TAN YI
Ġa tsinze
sa ro
Ġkwi beshya
Ġayi sumbuye
Ġgu kurikizwa
Ġrya tumye
Ġyu mve
Ki cukiro
a vuga
Ġu kore
Ġbi tangiye
wo ndo
Ġm wumva
Ġaba bikora
Ġka maze
nga mubiri
ĠMa gana
ĠUmu toza
kini rwa
hwe mye
A pril
Ġka jagari
Ġza rwo
wuba ha
mani shimwe
ĠRama phosa
se ne
Ġaba hawe
ĠS pa
Ġara ra
ĠNa o
CN LG
Ġi t
Ġa soza
Ġba hindura
Ġbi tan
Ġgu hin
muga ye
Ġmun wa
ĠRwan dan
qui ty
dipoloma te
ya ra
Ġya pfiriye
Aba sore
Ġaha ranira
Ġuza bi
Ġgutu nganywa
Tura shimira
Ġn tandaro
sa tion
Ġru sanzwe
cu ma
Ġiba rirwa
Ġamasa mbu
Ġuburanga re
ĠRugan zu
so siyete
Ġga kabije
Ġgihe ruka
Ibi dukikije
manu ra
Ġa siga
ĠE BM
ĠGa re
iki gega
kemu ke
hangayi tse
Aga tsiko
c teur
go ga
aba tegarugori
Ġimi dali
Ġkubi kurikirana
ver s
i cumi
ro ta
Ġumu tu
ĠS O
Ġcya bi
Ġwi yemeje
Ġuburyo he
tin yaga
rengan urwa
ĠSA DC
ĠDavi do
I cye
Ġi shimishije
Ġi tsindwa
Ġmu bo
ru ganda
Ġya gejejwe
Ġha kunze
Ġbara du
Ġbite ganijwe
ubwi herero
Ja mes
Nyaru genge
di mir
Ġin stagram
Ġki renga
aba shakashatsi
umu tuku
Ġtu byi
Ġyi tiriwe
kode sha
hamele one
A nd
i tabi
ti sha
im pfu
bon wa
vÃ© nal
Ġbi genga
Ġha zwi
Ġubu tasi
ĠMu ganza
Ġrya shyizweho
baba ra
Ru tsiro
Ġa pp
Ġu rwandiko
ro id
Ġri saba
Ġrwa shyiriweho
ĠTu rikiya
dindi ra
Ġpre sident
cama ke
, "
E U
N zi
Ġumu bu
Ġin gen
ĠI gna
to ranyi
ĠB yaba
Ġbahi ze
Af rican
% )
Ã »
ta ma
ro garamu
Ġim yumbati
fu ndi
Ġbya ramu
Umu tungo
gize ho
Ġaga shya
In shuti
Ġbira babaje
ĠRo ber
I ba
Ġb yanditse
Ġba beshya
Ġwa rokotse
shi lingi
san gije
ou dite
Hari ho
i genamigambi
m pamvu
Ġba bwira
Ġba simbu
Ġba kurikije
ka yi
mi t
Ġma banga
Ġaka bura
ĠMa zimpaka
Ġkumu garagaro
Ġicyi tegererezo
Ġgukin wa
ĠVal entine
' s
Ġn yama
Ġumu nyamategeko
Ġzi kana
ĠUmu gaba
Ġata zongera
imi jyi
IN DI
Ġugu komeza
ibin yobwa
Ġmara diyo
ĠApo tre
ĠDja bel
re ta
Ġba r
to ngo
Ġata bona
Ġamu baza
icyu namo
cu s
Ġbwa sabye
ĠT ro
hin g
Ġyari geze
ĠE a
Ġpro te
iba rura
ĠSale h
S am
ĠR on
Ġcyan ditse
Ġyi banze
Ġmi gambi
Ġbara ya
Ġibin ure
b yumvise
Ġuru gaga
Ġtwa fashe
zuba ka
ĠIgi kiri
Ġamado siye
Ġn gendanwa
Ġgi koni
Ġaga fata
Ġlabora twari
Ġgu pimwa
yu mve
Ġzi yobowe
umu rengera
Ġyi bi
Ġaka wu
Umu saruro
Ġmwa bi
inzo ka
Ġc ho
ĠA di
Ġni rwo
Ġibi rango
shu ke
Ġakaba ri
tangira ga
rangi ritse
Ġbamu zi
Ġnko ngi
ikin yoma
Ġicu pa
Ġdutu ranye
Ġa shyigikiye
ga do
Ġmu bwira
bo t
na ri
pa rency
Ġabi tegetse
Tu ba
tegura ga
Ġamado rali
Ġkungu ka
ĠEnter tainment
Ġaba shumba
Ġwe b
Ġimi ziki
uru nya
Ġkwa mburwa
Ġbita gira
ĠMo de
Ġada sanzwe
M pa
y wanyi
su rwa
ubu fasha
Ġbaka tiwe
ĠTe x
Ġgusha kishwa
ziba girana
ek wondo
8 0
mo siyo
Ġbu sitani
Ġigi terane
Ġyi mi
Ġata renze
Ġika bi
d we
Ġi jonjora
Ġba tsinda
Ġwa ko
ĠP ra
Ġri mu
la tion
st ri
ĠHa gati
Ġkubi kemura
Ġnke ke
Ġba gendeye
Ġbu hanzi
ne we
ĠU mwi
Ġrya tangaje
Ġgusa ma
HU GU
Patri ck
ru ngu
ĠM oussa
ĠA ll
Ġika jya
ĠMuka mu
ru ni
ro m
Ġyi shyuye
vi riyemo
can ye
Ġntaki bazo
ĠR CA
byi zi
pera tion
ĠAl fred
E x
R S
Ġmu yi
gi rimana
ta bana
Ġyo ro
Aba yisilamu
er ro
ĠBra zzaville
Ġkwi yemeza
shyu we
Ti mes
C Y
I fite
N shimiyimana
ba kira
Ġgu fungirwa
tse mo
Ġki baye
Umu handa
Ġyan yujije
Ġyageze ho
Ġbakunda ga
ĠIngo ro
mi zwa
Ġaba sa
Ġigi sigaye
RE RE
ĠDo gg
Ġi gere
Ġba tyo
Ġgu suzugura
ĠM pi
Ġbu jurire
Ġuru hinja
ĠDi yoseze
Ġyakomo je
mi th
Ġbu tangwa
Ġha koreshwa
umu turanyi
Ġan yuze
ĠNze yimana
Se ptember
N sengiyumva
Ġ day
Ġku bonera
Ġba kinira
in kuba
Ġbi gana
ubu hanuzi
Ġmwe nda
Ġitu nganya
Ġibita genda
Ġnyaba gendwa
Ġa shyize
Ġumu turanyi
mwe reka
Ġama shyirahamwe
Ġki rageze
Ġikin yabiziga
f wa
Ġku bereka
Ġya kwe
Ġumu nota
Ġgi hagije
Ġkwi shimisha
Ġyi ruka
ĠRu ge
ĠBa se
Ġgusi ba
Ġingen zinyayo
Ġu zongera
ke ba
sho nga
ĠP anorama
ĠL ONI
rana tional
Ġgusa bira
Ġkwa kirwa
sin da
shora mo
tali bani
Ġwa garagaje
Ġaba curuza
ke ri
Ġtu ha
Ama dolari
ol leyball
koro ra
ĠUN ESCO
n ka
Ġ jisho
han zwe
hi we
ubu hamya
Ġkwe ra
seze ye
ĠRe s
ĠNta wu
No vember
t ty
gi nga
ubu ri
cu ranzi
Ġza baga
tege kani
ibi lometero
ĠKi bo
ĠKi buga
TA BA
mpan y
Nya ruguru
ĠAbda llah
N O
Ġb yubaka
Ġye ra
Ha byarimana
ĠO da
ĠFi d
tu rika
ha mijwe
cu ri
ph y
B ri
Ġku bye
Ġbi banza
ĠM bu
Ġaba sivili
ĠA ssociation
mba sa
ĠS mart
ĠPo logne
FD LR
Ġbi hita
Ġgu suzumwa
Ġwa ki
tanga ho
man uko
Ġbata yi
Ma dame
Ġ198 9
Ġsina ri
ĠDavi s
ĠIkinyaru meniya
L O
ti l
Ġari rwo
Ha r
Aga ciro
A sobanura
o s
re ti
ti je
Ġin ge
jwe mo
ĠO IF
Ã©nÃ© ral
tende nt
Ġmuhe zo
Ġb yumvi
Ġni ha
Ġimi bu
Ġuri rimba
ĠKo r
Ġntibi vuze
Sa fi
Ġgutwi ta
N kunda
Ġbya twaye
shu ru
Ġbara sa
ck s
tsindi we
Ġbadu haye
rena de
Ġmuga mbwe
Ġku manuka
te sa
ĠM barushimana
Ġim va
Ġkwi sobanura
Ġcya geze
hindu kira
ĠPi us
S ou
u rw
Ġ zerekana
Ġku doda
Ġba kurikira
go rwa
imba bazi
!!!! !!!!
Ġku garagariza
gu zwa
vu mu
de ra
Ġzi kenewe
Mu jye
Ha rya
HO RO
Inzo bere
L C
g Ã©
Ġgu shyikirizwa
sha kire
Ġbu zira
hi shira
ĠP O
ubu da
Ġbwa rwo
Ku menya
ĠAba kozi
ĠJu vÃ©nal
ĠMala riya
Ġba bandi
in te
ĠU sengimana
Ġyi bye
ci kana
Ġbara giye
tin za
tumi rwa
Ġkumenye ra
Ġa voka
go gwe
ban iya
Ġumu gezi
li se
Ha bimana
ĠO ffi
Ġuka reba
Ġudu kingirizo
poloma si
Jac ques
A binyujije
i fu
ta he
ci le
ĠH illary
ĠSa oudite
Ġpa rike
Ko mite
Ġyaho raga
Ġ198 6
Ndu mva
Ġintu mbero
ĠI koranabuhanga
Ġru gerero
Ġkuba fata
Jye we
yini ya
gan ywe
Ġbya garagaje
Ġkwi subiraho
ubwi tange
sti ce
Ġa si
Ġba c
Ġma gereza
ER O
KO TANYI
ĠEmi le
Ġna gu
Ġma banki
Ġri koreshwa
pa yiniya
Aba di
teke rejwe
Nta we
Tu zi
tel la
Ġyatsinze mo
ĠSha ddy
BE RA
ĠTV ET
Z ab
re mere
Ġba yoboke
Ġbi sobanurwa
hu zwa
Ġkwi shyurira
byo roshye
Ġinda hiro
Ġbagu ze
ziba r
Ġbi bo
Ġwa turutse
ĠGu ar
ĠAban yeshuri
Ġinko ta
risti ya
J YA
gi mbi
in yoni
ĠA ha
hi mbye
ĠMu jawa
do mo
ĠBo ko
ĠCa bo
Ġtuka bona
ibya go
seri doti
Um wanzuro
tungu ru
rema re
Ġnga ha
wa te
Ġba magana
Ġbi garaga
ubu geni
lo gue
Ġan enga
hera ho
ĠRo dri
zungu ra
IS S
Ġihe ze
ĠChar lotte
g he
Ġn tana
Ġba tere
Ġc ha
ĠS ano
ubu ranga
ĠJ MV
Ku bona
sin yanye
ziba girwa
ibiro ri
senye we
ĠPlat ini
Ġumu sa
li c
Ġzi tunganya
giye ho
ĠD al
Ġntibi ba
ĠArt hur
ĠSup ranational
ĠAKU ZWE
Ġn keneye
aba je
Ġyi kurikiranya
taba rutse
pen zi
ba ta
Ġya be
Ġc yeme
umu gambi
ĠRwe ru
ĠFÃ© licien
N shuti
in jije
ki mara
Ġbya bayeho
Ġtu gera
Ġaka rama
Ġnde ba
Ġimi turire
she d
Ku vuga
for ma
T our
Ġa kurikiranweho
Ġibi rwanisho
Ġakaba sha
Na hise
Ġvita min
Ġya fasha
to bo
ce ss
geza ga
Bu keye
Ġbyara baye
g ga
Ġa fungiwe
Ġku yobya
Ġya sanzwe
ki ba
ne ye
vi ya
ĠL E
iki bi
reke zwa
Ġbaga koresha
Ġe rega
Co vid
ĠIra koze
P AC
f rika
ĠI juru
Ġzi kunzwe
Ġara mbye
Ġiba ha
v or
Ġi tangaje
Ġa gwa
ku mu
kin tu
kin giye
tege ra
Ġkumu rongo
Ġbatu nzwe
Ġana saba
ĠChri st
Ġbuno ze
ĠFid Ã¨le
W aba
a hitwa
Ġ terambere
Ġri gi
ĠKo mpanyi
ĠNda yambaje
Ġiha mye
ĠAnge les
i ga
Ġibi rimo
po zisiyo
ĠNe tanyahu
SH IN
Ġbaru muna
Ġku rwego
indi mi
Ġbatu mva
Ġmba rwa
Ġnke ka
isa l
Ġya funze
Ġubu se
umu rage
Ġcya teye
ĠKa gali
ssi oner
Ġbaku we
ĠDel gado
Ġi fashe
Ġ20 30
Ġyi fashisha
ĠL in
Ġwi zihi
Ġali as
P D
Ġya sabaga
ĠKa renzi
Ġyi tabira
Ġbatu miwe
ĠSu Ã¨de
Ġkugu mana
ĠKin yinya
i foto
Ġbi ge
lo s
Ġbakiri we
ĠAde line
B WI
Ġa byara
ru sheho
Ġya mba
Ġigi sasu
Ġbyi tabiriwe
ĠKara te
U riya
i hene
Ġgi hagaze
Ġibi gega
Ġru tari
gen t
Ġyi yongereye
Ġwi th
Ġata bwa
Ga sana
Bya baye
ĠMun yuza
Ġbadu ha
shyu re
Ġkiri ngo
Ġakarama ta
Ġmu rwayi
Ġibi jumba
ĠUmu jyanama
Ġhata bayeho
ĠPS F
J I
n uka
bu ha
Ġzi sigaye
ĠTo go
Ġabe ga
Ġuzwi ho
tumi wemo
ber g
imvu ne
M w
Ġa gizwe
Ġya tanga
Ġna maze
Ġama vugurura
Ġwe meye
menye she
rangi rire
ĠMIN I
Ġikan zu
Ġn gero
Ġi genekerezo
Ġkumu saba
sin yira
Ġyan ya
Ġumwi canyi
Ġbiha banye
YAN GO
bonan kubone
Ġi kwiriye
gu tera
ne sha
Ġnya bwo
ĠFlo yd
ĠRuga gi
Ġmu bazi
Ġba shimira
aba jura
zu tse
le e
ĠT im
ĠJ ama
ĠMar rio
Ġi deni
he ru
Ġigi sa
Ġrwa gize
Ġ9 1
Ġryi swe
Ġuzi ko
Ġ ve
Ġ âĢĻâĢĻ
Ġu bwira
ĠK m
Ġwe ek
Ġwi swe
ĠJe rome
lu baniya
Ġi hazabu
Ġba jyanye
Ġm bwira
umu jyanama
aban duye
In shingano
st ru
Ġ202 5
ĠJa mbo
Ġbashobora ga
ĠRE MA
ĠApp le
te nge
shwa ga
Ġ11 0
Man chester
3 00
u wu
ran dura
Ġkwa we
kwa ga
Ġbe gukanye
ĠHa ra
Na je
Ġnya kubahwa
Imi soro
Ġntiba ra
ĠTi go
Ġbahi tanywe
Ġyavuye mo
ĠBigi rimana
I ya
Ġumu motari
Ġbya gombaga
Ġri fasha
Ġura mutse
mu bayeho
se mbuye
Ġwa du
lo ge
Ġnya we
Yibu kije
Ġaba rangije
Ġibi sa
Aba kristo
Ġbaza za
Ġtwi geze
ĠIki dage
Yo ngeye
isu kari
mer credi
7 7
i ranga
an ye
mu we
Ġu fashe
ru gamba
hu ze
Ġzi he
ĠMu gabane
Ġbari nga
kiri je
tegan yiriza
pp y
Ġyaseze rewe
z inda
he ro
ĠK we
ĠB Y
Ġwe rekeza
Ġimi dari
ĠE jo
Ġara gira
sobanu kirwe
kwe te
ĠNi zzo
Ġbiga ru
e re
Ġa gezweho
ki mwe
aba tara
la ya
Ġaza fasha
Ġnda bizi
Ġwan ze
ĠRwa mu
Ġkwita ho
Ġdi vayi
Ġyata shye
Ġyuba hiriza
p line
Ġa jyana
Ġgu sohoza
ĠM wana
Ġmu byara
Ġba gejeje
Ġgu shishoza
de ba
ĠI tsinda
to u
ĠKa ta
Ġimi tangire
ĠE ddy
fo toza
Ġre ad
Ġruha rwa
Ġmane ko
Ġbi cye
Ġwa mwi
Ġubu shize
ĠKa gi
seze rerwa
KI RA
Ġgu hugurwa
Ġibi renze
men wa
ee e
I zuba
Ġu teganyijwe
Ġwa sabye
ĠR FI
Ġaba korera
Ġbya kwi
ĠP lan
pe tu
Bin yuze
ï ĥ
ri rana
Ġbi gendanye
Ġni buka
aba renga
ama kosa
ĠBa yingana
Iki romani
Ġkuzi tabira
cura bwenge
e st
Ġi fatika
Ġba kome
te o
Ġbi shimishije
ĠU TB
Ġrwa je
tin yutse
Ġimba ta
wuzu kuru
p la
t z
Ġi kenewe
ho ye
Ġc yuma
ĠA drien
Ġim bonankubone
Ġban yura
TI ON
sina h
ĠMara thon
Ġmu ramu
gi rizwa
se rukiramuco
Ġyo roshye
ibi hingwa
RE M
Ġkugu fasha
se li
Ġwa zi
yan g
Ġbye ra
Ġkumvi sha
u me
bi vuze
Ġgi korera
mbo ra
Ġyavuze ko
Ġyara hawe
suwe de
Ġbare kuwe
Umunya merika
gi riwe
Ġkuba korera
Ġza geze
man swa
Ġaza za
van ti
ĠJo han
ĠBe yon
Ġbate merewe
Ġyaku ze
RIM ANA
FU RA
Ġ ja
me sa
ĠPa me
ĠPo litike
Ġuwa yi
Ġbira saba
kurikiran ywe
IM I
Po litiki
ĠTex as
Ġku wi
ku geza
Ġbu korerwa
Ġuru gi
Ġcy ana
ngu ru
Ni we
Ġbuba kiwe
et c
z andi
Ġmu shahara
Ġba sangira
Ġba kurikiye
Ġba fashijwe
Ġbi bereye
Ġgu fungu
ĠR ya
imi hango
Ġabi shwe
Ġkubi kuza
ta bare
he burayo
Ġibya pa
abi shwe
ĠVic tor
Ġbi garagaye
Ġwa shinzwe
Ġkwi cungira
en zwe
Ġib wa
Ġnti bwa
gani rizwa
Ġata gomba
Ġuku biri
Ġira shize
gu sha
Ġko ngererwa
ĠR Y
mba gira
Ġyi hishe
Ġyi rinze
ĠRu t
ngi riya
ĠIki rusiya
Ġkuru hande
Ġguko desha
ibiro metero
an s
li ty
Ġbya hindutse
kwa re
rirwa ga
Ġuba she
ĠBan ya
bangami rwa
2 50
Ġya bwiwe
Ġumu gambwe
ĠI b
Ġki gereranyo
ĠMa sisi
ĠYe go
Uru go
ĠIs sa
Ġkura hira
ssa ge
Ġtwu mvise
Ġu shyira
Ġwa torewe
Ġumu vu
Ġm bwa
ĠI nda
ĠU bald
ĠW E
Ã© v
tangi rijwe
ĠNi shimwe
mara so
ĠLa mbert
Ġruhu rura
B yinshi
U gomba
Ġin to
Ġdu kore
ĠFa isal
Ġbato ranyijwe
Ġguse bya
ĠAn ti
veni ya
Ġbamenye reye
gra ti
aban dura
maze mo
Ġmwa mba
Ġub wanjye
Ġ198 7
K im
Ġmu gwi
ran di
aba rimo
Ġcya vuze
Ġuru hara
menye ro
Ma rie
hira hiro
shinjwa ga
remi ya
ĠMpa yimana
m fashije
Ġya mbitswe
to jwe
20 24
Ġguha gurukira
ĠWi lly
tungan ywa
Ġmboneza mikurire
ĠByaba gamba
i j
Ġba hana
Ġha boneke
ĠI cyi
Ġru papuro
Ġyi cwa
Ġyara pfuye
ĠPe refe
Ġyako ngera
Jose ph
ĠId ris
o re
Ġya shyinguwe
si mu
ĠR S
Ġaba tegura
ĠI da
Ġzi twa
umu ganga
su rance
cu wa
Ġabi ze
Ġnko myi
Ġejo bundi
Bira vugwa
Ġn kun
Ġi guye
wan iya
hi mura
im papuro
ĠV ir
aka ga
Ġn ze
Ġmu rwanda
ki e
Ġin ota
Ġkwi mukira
umu sirikare
IS O
gu te
da l
Ġbu kenewe
ĠI ni
to teza
Ġzi henze
Ġma r
Ġkwi murwa
Ġkuza gira
Ġhi twa
Ġimyi dagaduro
Ġ lisiti
Ġi hohotera
gara ro
Ġcya gize
ĠBo o
ĠBura ya
b be
Ġu vugwa
Ġri zi
man yi
Ka piteni
ĠVe stine
Ä ģ
Ġumu gaba
Ġin donke
hi rije
ĠU mwa
Ġcya mbu
uru da
abi rabura
Ġa kundana
Ġya yoboraga
han nye
Ġigi songa
tsa pp
Ġumunyarwanda kazi
huri ranye
a ch
Ġi kunzwe
mi korere
Ġgi shushanyo
umu nyezamu
im yanya
Ġban yi
Ġuku mu
Ġntibi za
ĠVi sa
yigi shirize
ibiri zi
mene ka
ĠSala h
tegekani jwe
R ul
ge je
Ġbu ciriritse
ĠI P
Ġkwi ma
Ġuba sha
rin tendent
Ġryi tabiriwe
6 7
I baruwa
mi tima
Ġubu cucike
Ibi ciro
Im insi
ĠAni ta
ĠFabi en
M in
Ġa rusha
ye si
tu waniya
Ġbari shimira
ĠSa vio
Ġiz ana
gere nade
âĢ¦ )
Ne rekwa
giri jwe
Ġarya mye
ri go
ri riye
Ġumu zamu
aba citse
Ġbya korwa
Ġkwi fuza
su f
Ġgusa bwa
Ġbata ka
ĠRe d
ĠBi sesero
Ġbada kora
Ġabe shya
Ġyagu zwe
renza ho
D G
Ġn yo
Ġbi kunda
je worujiya
shi tse
Ġbwa ki
ĠGa d
ĠBa ti
Ġiza kira
Ġika vuga
Ġuka menya
Ġakiri ho
VU GA
ĠTimo te
6 3
i genekerezo
u da
ga s
ba la
bi hugu
Ġna kora
nge rwamo
Ġma shyirahamwe
Ġtu biri
ibi taramo
Ġkongera ho
kani shi
Yu ngamo
U fite
u hagarariye
âĢ Ł
gu mye
Ġya renze
Ġuru funguzo
Ġga herereye
ĠJa cob
Ġbakin ana
aba kandida
Ġbya gira
ĠC ricket
ĠL il
Aba rokotse
Ġbabi kesha
ĠVla dimir
I cyaha
Ġi sabwa
ĠI V
ĠI teka
ĠS KOL
ĠE qua
Ġwi baza
Ġbaza ga
Ġnya cyo
ĠIra q
Ġfa cebook
Za buri
shinya guro
U wu
ru ngo
si rÃ©
Ġim yemerere
Ġzi biri
ĠGa hima
ĠRo yal
Ġba fungwa
Ġubu shomeri
umu nyeshuri
ryo shye
Ġri tuma
Ġyaha mijwe
Ġgutu ruka
girwa mo
Ġbuba hiriza
Nya bihu
M TN
Z imbabwe
r yana
Ġa kuramo
Ġka mu
ĠC Y
Ġigi tuma
igi tondo
ĠBo eing
Ġyahe mbwe
janda rume
Ġba sobanura
ĠA KA
Ġni du
aba kiriya
stre ss
Fran k
bangukira gutabara
Ġba shakisha
aba ririmbyi
Ġkwi menyereza
zu ela
Ġri tu
In yubako
teke rereza
c en
rere rwa
Ġyi rinda
Aba curuzi
Ġdu hora
Ġtura saba
ĠUwi zeye
Yana vuze
shyingiran wa
4 00
a son
Ġku bwa
Ġkwa yo
Ġumunya politiki
ibu rengerazuba
tekereje ho
shamikiye ho
i mena
Ã ª
ĠU K
shobo za
subi rwamo
menye shejwe
ho teri
Ġama cupa
aba tishoboye
Ġkwi suzumisha
ĠGa kwaya
mvi sha
Ġbacu mbi
ĠTwi zeyimana
ĠRuko koma
N L
Ġku zongera
si mbi
fi tiwe
ĠC horale
cu ranga
ĠGi r
ĠO dette
Ġwu nganira
Ġnzi tizi
Ġbahu tu
Ġvi a
Ġguse nyuka
Ġyatu nguye
piri mbanyi
ra te
Ġba tora
ru mbuke
ta mbutse
ki d
ĠB W
Ġnti yeme
Ġtwa ha
ĠIgi taliyani
Ġbiri nde
inta gondwa
Ġnki bi
Ic yumweru
umura peri
haguru tse
Ġya magana
Ġibi totsi
aba padiri
Ġkwi shakira
ĠJ i
igi faransa
ĠGa sore
ĠUN I
ubu rundi
ĠH amas
Ġnti gi
ĠDi re
U mwa
ta ge
ne ka
Ġki je
Umu rambo
ĠMa t
Ġura mbye
Ġbigi shijwe
ĠElizabe th
ruve ji
bi be
Ġna shakaga
aba koze
tegu rire
Ġtura mu
ĠGe ne
ĠNyira safari
impan ga
Ġshe ki
Ġwa kiniraga
Ġumu fatanyabikorwa
Ġbu tangaje
Ġbwa mbukiranya
ve tte
ĠIn tare
Ġkuyi rwanya
Ġake meza
Ã¨ s
ĠWa sa
Ġkare mano
boni mpa
Ġkana ka
K ing
M BI
Ġmu menye
Ġaga koko
Ġbaka bu
Ġyara she
Ba geze
ĠTa y
ibikorwa remezo
ĠNico las
$ .
9 0
ku va
hu jwe
Ġaba he
Ġha shyirwa
Ġkwi hesha
ama hoteli
Ġcya giye
tege ye
Imi terere
ly ne
hagaze ho
Co lo
taye zu
ĠDji had
m wanga
ta h
Ġimi dugudu
ibi hangange
ĠRu nda
Ġturi fuza
Ġine nge
Ġmura bizi
kanda ra
chi e
sinyi ye
in yu
je ni
fi ya
ĠO lo
ĠSe y
ĠPro tais
toni ya
Yara vuze
Ġya beraga
Ġin kuba
Ġzi ganjemo
Aba dage
ĠGa shora
ĠJa zz
Ġtuka gira
KO RA
Ġibira rane
S te
n sa
zi game
yi tirira
Ġgu hanwa
Ġtu vuze
tsi ma
ĠIki lu
Ġabari rimbyi
Ġyaseze ranye
gwin o
ĠIcye sipanyoli
Ġu wan
te ho
Ġaba baye
Ġza tewe
banu ra
Ġabi kesha
Nda saba
ĠAbi y
ĠÃ ī
ĠIgipo lonye
ĠAutho rity
ĠAdol phe
j y
Ġ Ã©
Ġbi shyirwa
Ġwa byi
Ġbu be
Ġbya yi
Ġiki rango
Ġaka vuyo
ĠIki giriki
ĠVe daste
ĠSte phen
W il
za mo
li mi
ĠT O
ĠD E
Ġnti b
Ġkubi jyanye
ĠIgi tso
ĠTwagira yezu
Ġsy stem
ĠS um
Ubu hinde
ĠGa hini
Ġiso za
I perereza
Ġi tungo
ze he
go sha
ama shyirahamwe
ĠMu ta
Ġimi fuka
ĠGa tes
Ġbyi banze
swa hili
ĠKU RI
ĠIm berakuri
FI TE
ĠSar pong
, âĢĻ
go we
han gira
Ġtu bu
ĠRu garama
Ġhi rindwa
Ma ri
mpi re
Ã§ a
Ġmazu tu
Rul indo
n ce
Ġ dan
Ġu renga
Ġya mamaye
ĠI nye
Ġbya ma
Ġrya teguwe
raga ruka
ĠIn ka
sin ywa
tin ho
Ġmba bwire
So banukirwa
ĠSylve stre
b yanditse
Ġya fataga
ubu gizi
koze ho
ibyi ciro
Ġbabyi fuza
ĠNiyi tegeka
ĠRwabu giri
ĠIgiho ngiriya
Ġgu shingira
Ġza shyizwe
Ġwi zihizwa
Ġaza yi
Ġugu fasha
Ġgusin yisha
Ġm be
ĠC ul
le tico
ĠL ick
ĠUmu shumba
ĠIgi koreya
ĠMo be
ĠVi tal
ĠDu sabe
zara mba
Ġ feri
Ġumu huzabikorwa
Ġbya shyizwe
Ġdu tekereza
Ġtura yi
ĠGro upe
Ġa tegura
Ġya tangizaga
Ġgu tsemba
Ġzi kaza
Ġbya bi
Ġbya gera
Ġara tangaza
Ġbaha geze
Ġiba sha
Ġubwi tabire
koro wate
mani ka
umunya merika
U shinzwe
mu haye
Ġu to
Ġba gezweho
gu riwe
ibi tangazamakuru
Ku bi
Ġkira mbye
Te le
ĠNko mbo
ĠEph rem
Ġya shinje
ku mbuye
Ġumu zungu
ĠMu ko
Ġiki ro
Ġnde be
ca tego
ĠMa x
ja ra
Ġbwi shingizi
ĠKu ki
Ġke reka
U ka
k ye
Ġku menyana
Ġc la
Umu saza
Ġkubi rwanya
Ġu rwu
Ġgu sangiza
Ġkuba rinda
Ġri bera
Ġara shinjwa
ĠIgi suwede
gaban yiriza
Ġyamu sabye
Ġ196 2
ĠEx po
cul Ã©e
he bye
Ġru san
Ġbaka bikora
ĠAba faransa
van gwa
zabi bu
Ġdi polomasi
o ruveji
Ġa ruko
Ġbi re
Ġin dwi
mba je
su l
Ġyi teze
ĠIgi f
ĠArabi a
j yo
aba terankunga
Ġma do
Ġkwi dagadura
va tion
Ġga tsiko
ve mo
subi jwe
shyu ha
Ġzan durira
Ġya zaga
tu ni
Ġbi fuje
Ġumu kristo
ĠH ong
imi turire
ar t
Ġt wana
van ganzo
ĠDi ana
Ġte kinike
tura l
Ġyavu ganye
Ġyahi ze
B K
vu ta
ĠC uba
cu rity
ĠBu taro
Ġiba she
ĠSe rivisi
Nti ba
ĠCN N
C ha
N TU
Ġa boneraho
Ġba zindu
Ġwa ranzwe
Ġumu kene
ĠK elly
so ft
Ġbyo roheje
ĠKi ru
Ġaga henge
Ġbamu bwiye
RE MA
Ġake mera
ĠCYAN E
ĠZan zibar
c ture
Ġ jo
Ġu shatse
ha bimana
Ġwa hize
Ġama deni
Ġban yuzemo
Ġto tal
ĠMIN EDUC
Ġbahagari tse
u hu
Ġbi cu
Ġwa ya
Ġha banje
Ġni zeye
Ya cu
aga koko
Ġnu kuri
korerwa ga
har ma
ĠIkinyan oruveji
mu bwiye
ĠR CS
wu kere
Ġnda gu
Ġuwa koze
shyigi kire
ĠNa tion
Ġntibi geze
Ġbahabwa ga
ille t
bi ya
Ġgi kristo
Ġibi shushanyo
ĠS we
Ġt ra
Ġabi zeza
Ġahu nga
Ġuka vuga
ĠImi bereho
Ġ198 8
ĠIkinyaru maniya
wukere niya
p ly
ru re
Ġubu ngubu
ne rs
ĠIgi holandi
ĠIgi korowate
ĠCa re
ĠSen deri
Ar senal
Ġali ko
Ġi yan
za gira
Ġya ciwe
han ganisha
fi zer
Ġmi gari
Ġyeme rera
Ġgukorwa ho
m wan
ce ll
im buga
Ġaga hitamo
ĠMi l
ĠMo ses
ĠHabi tegeko
ĠIgisilo veniya
ibye mezo
Ġpoliti que
ĠIkidan wa
Ġibwa mi
R P
ge yo
ge rs
Ġbi kennye
Ġgu ceceka
ĠC DR
Ġuru shaho
pu ta
Ġbaha tuye
Ġbate ze
ĠGera ld
b wana
Ġi tan
Ġi bereye
fa tana
han gwa
fi ri
aba tu
ĠS OS
Ġyi shyurwa
Ġbara shaka
GI YE
ĠGo od
ĠIN ES
ĠIkinya wukereniya
ĠAbi siraheli
n ubwo
Ä ±
Ġu soza
Ġna jyaga
li tuwaniya
Ġma remare
ĠKa banda
co gora
Ġyamu ritse
ibin yamakuru
Ġ somo
Ġi wanyu
Ġa zongera
ĠM Ã©
zo ba
ĠLe one
Ġkumu reba
ĠFe licien
ĠIkinya jeworujiya
iy indi
stan t
Ġbuha mbaye
ĠCard inal
E thiopi
N tekereza
Ġi bo
Ġa hinduka
Ġbyi fuzo
ĠKayi rebwa
Twi shimiye
ĠIkinyan doneziya
ĠCommi ssioner
8 00
s Ã©
Ġka jugujugu
pi ta
ĠZ idane
twi kiriye
ĠPe tro
ti ti
Ġtu wu
ĠMa hanga
Ġaza hita
ĠIgi ti
ĠJo shua
ĠIki yapani
Ġbitu ranye
Ġababi shinzwe
Ġa rangiza
Ġc he
Ġyo ba
Ġbya fashije
Ġkwi kingiza
ĠG rand
ĠBu ri
zama shyirahamwe
ĠIgif inwa
Ġba kani
Ġbira cya
ngere we
ĠKan seri
mpu hwe
d han
ze n
ho rere
hu tiye
Ġaba kunda
Ġin genga
aba kiliya
umu nye
le tte
Ġbaba za
Ama gaju
ĠIn zu
Ġbaga subira
Ġihu riweho
yobe we
ĠMiche lle
Kizi to
I somo
Ġa rongera
Ġku bwirwa
Ġwa byaye
Ġumu babaro
Ġma rs
Ġkwi horera
ĠKa buye
Ġmwa mbaro
ĠPa steur
qu o
Re ta
Ġbitu nguranye
Twagira mungu
N kusi
u ta
Ġi rushaho
Ġya kirwa
Ġibi garagaza
ĠB PR
aba pfuye
she she
she reka
mbu za
Ġkugu rwa
ĠMwa mi
tsemba bwoko
Ġmu nda
Ġba kuba
Ġwa teye
aba kundana
Ġibya vuzwe
ĠSe giteri
Ġnya byo
shigi kira
kusan yirizo
rebere ra
d ane
men taire
Ġbwa bereye
ĠMo mbasa
Ġgusubi rana
Ingo ma
ĠXa vier
ĠIgituru kiya
Ġya garagarije
Ġni twe
la ti
Ya shyizweho
Ġrwa teye
ĠRu gwiro
zama rira
seze reye
Ġsi da
shidi kanywa
mpe ke
ĠCyo ngereza
grati as
tu ba
Ġgu pfusha
Ġaka reba
Ama bwiriza
pfu za
Ġsi mbi
Ġtwi zera
Na bonye
ĠIkinya lubaniya
rize d
Ġyare kuwe
ga sanga
te zimana
Ġbi keneye
Ġza hise
Ġbo hereza
ĠH I
ĠHa bya
raba hizi
Ġaramu subiza
ĠIgice ki
p fe
u bi
Ġ ge
ri mbura
Ġku kubwira
ĠB WA
Ġzi shaje
Ġigi polisi
va yo
zaba ho
Ġbitu mvikana
Ġumuti manama
nan ga
Ro bert
ĠBea ch
ti lle
yan ze
Ġni ze
Ġtu menya
ĠMa sasu
ĠRu swa
ul le
ĠYu da
abe negihugu
Ġabada fite
hiti yemo
Ġku ge
Ġku gurishwa
Ġba gwa
Ġhaza jya
Ġibira ro
Ġn zabi
mo ri
Ġha tara
du c
ĠN gozi
Ġcya yi
Ġyi zihiza
Ġyari ho
Ġbaza gira
tego ry
Ġgutu ramo
Ġbagira ga
Ġvita mine
I rembo
I vanjili
Ġin diri
Ġibi toki
kuru ye
ĠT v
ĠH ama
Ġaga suzuguro
tuma ga
Twa ra
aka maro
ĠMuka mira
Ġyabu riwe
A kazi
Ġi gwingira
Ġa fashwe
Ġa zanye
Ġya sobanuriye
Ġya garagazaga
se zi
Ġka we
ĠS tra
Ġri geze
Bi da
Ġbaki cwa
Ġne mera
ĠKizi guro
Ġa shishikariza
Ġumu tegetsi
Ġza gize
ĠJ in
ĠIgisilo vaki
Ġubu sobanuro
Ġama saka
Ġt rans
Ġan ganya
Ġu ca
Ġba shoramari
ĠR MC
Ġbu mvi
Ya giye
ĠUmu tekano
geza butumwa
hindu ranya
ĠRwa ka
ON A
ĠNyama buye
shimu si
Ġkuro kora
b ble
Ġmu byi
ĠN TI
im vugo
ĠE liya
ĠE sther
Ġbiza bera
Ġrwi yemeje
hunga banye
Ġbiro roshye
8 9
C ou
Ġku yoboka
Ġba gende
Ġya mpaye
Ġaba shobora
ngu fu
20 23
Ġaga totsi
ĠDu shimimana
Ġ shyamba
re zwe
Ġm bega
Ġin kumi
ĠP M
ubu rere
vi ze
Ġbaga bye
yungu ra
Ġmbi li
p in
Ġa vuge
Ġna ramuka
na we
Ġbya korwaga
ĠC hameleone
Ġtu taba
la h
kira ho
Ġubwi rinzi
Ġo ne
ĠPe rezidansi
sesengu ye
Ã¯ se
A d
Ġbi menyerewe
ĠM gr
Ġumu shoramari
Ã© nocide
Ġbati shimiye
Ġaman yanga
lle nge
ĠIkinya lituwaniya
Ġ196 3
Ġba fatanye
ro o
Ġgu shyi
Ġama hoteli
Ġbwa fashe
ĠD MI
ĠKi ir
zan gano
Ġkubu mba
ĠNyaka banda
L F
ko zy
yo tsi
Ġumu gati
li ci
Ġiza tuma
Ġkira mbuye
tungu ra
yahu zi
ĠKAN DI
Ġzi fatika
Ġyi rukanwe
ĠO ya
ĠHa ram
zan yije
Ġyiba rutse
Ġinzi butso
ĠShi kama
catego rized
A geze
ho me
gan we
Ġma i
Ġtu meze
ĠHo s
Ġnaba ga
yoro shya
Ġbahuriye ho
ĠAntoni o
T hi
V e
ga shi
Ġu ke
Ġba rwanira
gu riro
Ġgu kinisha
Ġumu gi
Ġgi ka
Ya soje
aban zi
In sanganyamatsiko
Ġara komeza
Ġira shobora
tangaza ga
suzu guye
Ġabanya furika
ĠRwaga sana
R td
Ġba vugwa
Ġba tange
Ġaba byi
ĠB yimana
Ġkwi girira
su tamo
bye merewe
ĠPa la
Ġbata bashije
bin go
B NR
Ġwa komeje
ĠT on
Ġkan da
Ġkub yu
Ġina raribonye
ĠAt hana
niba mwe
m Ã©
p ingu
s me
Ġku ruka
ĠKa tu
Mu ganga
Ġbwi twa
ĠFD D
ĠBA L
phe t
Ġme ya
ĠRube ngera
ĠIni tiative
Ġya takaje
Ġka sho
aba yisilamu
Ġkwi tangira
Igi tangaje
Ġbato we
Ġbaseze ranye
ĠAza m
Ġb yandi
ban k
kan zu
Ġma shanyarazi
yobo tse
ĠSa rah
ĠIki mala
Ġntiya ba
Ġaku ze
Ġmubu zima
T umu
te kanye
ha rimo
Ġwa koresha
yan duye
Ġama baruwa
Ġni zi
ĠE quity
Ġazi tabira
ĠPe ople
200 8
ĠKwa kira
U shaka
Ġba bwi
Ġba huza
wo le
Ġgi hangayikishije
Ġyabi bwiye
LI TI
Ġbavu kana
Ġya huriyemo
ta bwa
Ġbi ble
Ġama turo
Ġnta kindi
Ġbata bizi
Ġbe rekanye
ĠSa va
mp ama
ĠSi me
Nya mpinga
Ġi shaje
Ġa so
Ġu bizi
gi o
Ġbi hana
Ġwa koresheje
ĠM ira
ĠM wuka
Ġin abi
Ġiki mu
Umu shyikirano
ĠBu gande
ĠMa so
ĠAbi sirayeli
ĠDen mark
ĠLibe ria
i zamuka
s ts
Ġi shyiraho
Ġu terwa
Ġu kurikiranyweho
Ġba tandukana
mi ro
Aba fashwe
hindu zi
Ġyu ngutse
hagari ke
i hindagurika
Ġu fatika
Ġku mpa
Ġba shyikirijwe
Ġgu kanda
ĠI GP
ĠI rene
Ġkwi twaza
Ġtwa hisemo
Ġv yari
Ġguhi tanwa
Ġbatara bona
Ibyi shimo
e ber
Ġk b
bu menyi
Ġbi kurura
ran eza
de ta
Ġama rozi
ĠUmwami kazi
shimu twa
Yabi tangaje
Ġnan ge
Kw injira
furi kan
S HE
W enda
Ġn genda
Ġi garuka
gi li
Ġba wo
Ġgu shya
Ġha korwe
Ġzi tangira
Ġkwi gurira
Ġnk we
ĠSe petu
Ġkiza gera
ĠNta kirutimana
geni mana
shyinguye mo
Ġurwi twazo
f tware
Ġya zamutse
bi tse
be rwa
hi rika
Umu ririmbyi
wu nge
ina raribonye
Ġan ywa
Ġubwi yunge
hanu we
Ira mbuye
ga wa
Ġu komeze
so ye
ĠJ izzo
ib yangombwa
Ġibya ba
Ġnku mu
komo je
ĠIcya rabu
Ġntan go
in tsinzi
Ġumu huza
Ġin singa
Ġbya ran
ĠT anasha
Ġgusa kaza
Ġkan jye
ri rwe
Ġm vuze
umu soro
Mu reke
pa r
ĠUmu camanza
ĠAba polisi
ĠSe le
Ġuza bona
iz kid
Ġitu buza
Ġibin ini
simbu rwa
Uwa mahoro
ĠMIN ALOC
ĠBer na
EN I
taga loge
in dwi
Ġrya keye
ĠGa by
ĠImi ryango
mi bu
tan zani
li sh
Ġubu ki
ĠI sange
mba ti
sho za
shobo ke
ĠKi kwete
ĠE ze
raga ho
ĠAma gaju
lly wood
ingu tu
Mar ch
ĠEA LA
ĠSupe rintendent
B ra
wa ri
go sora
Ġbu garijwe
Ġwi yise
Ġkubi taho
twi tter
fe so
ĠSi erra
ĠBan gui
giran wa
Ġsan tÃ©
gobo tora
A BAN
Ġi gena
ge shi
Ġbi zihiza
vu giwe
ke kwe
ubu su
Ġimi hindagurikire
Ġnda gira
Ġika ri
toza ga
Ġbazi ranye
is ana
ziya remye
Du kurikije
ĠZa ire
Ġnkan jye
Ġi janisha
Ġba byumva
ĠK y
to nzi
Ġibi hombo
ĠS mith
ĠKa mu
Ġga so
Gu tanga
ĠJo el
ĠRwa tubyaye
ster s
Ġimp umuro
abanya politiki
kangu ka
ĠNdi kumana
ĠEcono mic
L U
i shyirwa
Ġba cika
Ġubu jiji
su raga
igi tangaza
Ġbavuga ko
Ġira mu
ĠLa gos
sen ywe
ĠNdo li
Ġa shyikirizwa
Ġwa shyize
sha mba
Ġgi silikare
Ġiki buno
Ġza ho
shu tse
Ya koze
Ġban enga
Ġbaka reka
iki ro
ruhu tse
furikan si
Ġu gire
Ġya zamuye
ku zimu
yan yigisho
Mu nye
Ġyi rukanywe
im yambaro
ĠGi hu
Ġan yura
ĠRwi yemezamirimo
I I
Ġi horaho
Ġbi rukanywe
ĠK enne
Ġbita zongera
Ġizwi ho
Ġba shimye
in yi
Ġaba gira
ne e
aba bu
kome rekeje
ĠMu toni
Ġza zo
siga ro
ĠKo lo
ON E
Ġ pan
to ria
Ġka gizwe
ĠPo gba
ĠYe saya
Ġkugu ha
ĠHi tayezu
IS R
Ġnyi go
Ju ne
Ġci we
F or
Ġ =
Ġku cyi
Ġya fatanyije
Ġbu komeza
Ġigi taraganya
ĠRu yenzi
rwan ywa
ĠLi eutenant
shyikiri zwe
Ġya si
te sheje
Ġgi hanwa
ĠI rembo
sta l
ĠRebe ro
N im
i tangazo
v ril
Ġa kurikirwa
Ġgu kizwa
Ġbu fatika
Ġim wi
aba shyitsi
ĠC anal
ubu tungane
gari we
ĠHa iti
Ġbamu fasha
Ġkubu tegetsi
Ġira mutse
mban yijwe
Nti tu
Â Ĵ
Ġk ano
Ġa cumbi
Ġc ar
Ġama bi
ĠMa l
Ġbaga fatanya
Ġsa ha
Ġyabi vugiye
ĠIkinya furikansi
ĠWor ship
phi e
Ġiwa we
I rakoze
Ġi go
Ġi kurikirana
Ġi wanjye
ro w
Ġga zi
ĠGi an
Ġkumu korera
Ġaza kina
ĠSpor tif
Ġbuha mye
fugani stani
Ġha meze
Ġri hana
ĠBu hari
rezi li
Ġbaha magara
Ġuza huza
Re al
V O
Ġi bonye
Ġaba zaba
ĠP fizer
ĠMu giraneza
renge re
Ibi tekerezo
Ġt hou
Ġbe rekeje
Ġndi zera
Ġimyi fatire
Ġwaba shije
baga baga
ĠMIN AGRI
Ġcyandi tswe
Ġ dini
Ġba zongera
Ġgi terwa
ĠI bin
ĠS HI
Ġiki ganza
Ġri na
Ġata yi
shimi she
mbe ri
RA MA
ĠMo sco
Ġba bwirwa
Ġdu komeje
Ġwi teguye
ubwi sanzure
isa bune
ĠSho w
mw inshi
k yo
Ġu yo
Ġgu shimuta
Ġki vugwa
Ġcya vuye
tuye mo
che r
ĠIzuba rirashe
ĠAMA KURU
Ġa rwanya
Ġbu goye
gore ka
renge ye
Ġbiza gira
Ġpe e
ĠPe tit
mwu nganira
ĠKen zo
ĠVu mbi
I mbaraga
S y
c we
ĠI mp
ĠMu bara
Ġimi semburo
uru hande
pam ya
ĠIgi tagaloge
ĠIkin yesi
Hi rya
ĠIkinyesi toniya
Ġn yu
Ġi boneye
Ġba kurikiranwa
Ġba shyiriweho
ĠB re
aba sivili
Ya shimangiye
ter res
Ġbabi bona
Ġika yi
ID E
ĠTo p
Ġbagera ga
Uwa se
Ġzuba tswe
ĠGuin Ã©e
rwa za
Ġbira shobora
Ġwu juje
ĠKu boza
Ma de
ĠTa i
icya tsi
Turi fuza
Ġrita vuga
Aki mara
ĠGasa sira
g ni
Ġb yubatswe
ĠM wu
ĠA GA
han gu
st le
Ġita zi
sabi rwa
Ġguku rwa
Ne w
Ġkutu bwira
Ġhara vugwa
Ġbabana ga
Ġhati tawe
Char les
ĠMuhadji ri
Oli vier
ka zwa
ta shywe
Ġin tare
Ġnti ra
Ġbamu jyana
âĢ¦ ..
ĠTa ekwondo
ĠAlex andre
Ġrwan zuye
Ġyaseze reye
u rwanda
Ġa kunzwe
ana si
gen cy
po to
ĠMa ze
ĠGi hanga
Abi siraheli
shushan yije
A shobora
S hi
ya bona
Ġa kenera
Ġu re
Ġu renze
Ġba cyi
Ġko za
umu sozi
Ġbiga tera
Ġhi yongereyeho
Ġkubu ranira
ron se
ĠHi gh
Ġntibya mu
Fi lime
Ger main
Ġba reka
Ġbi subizo
Ġbi hutira
Ġaba somyi
du ction
Ġibi ha
men shi
ce wa
wu nga
Ġabi ra
ĠSa i
chel les
Ġavu kira
Ġama kamyo
Ġgi cuku
aba koloni
Ġbwa baga
mbe je
rin giye
Du keneye
ZI MA
Ġadu ha
ĠRut shuru
A hantu
E CO
bu bble
de rasiyo
Ġbwa maze
ca rd
ĠUmu co
Iki ciro
Ġguso mana
Ġguho mba
Ġyahamaga riye
publi c
erro t
c ti
Ġi zima
Ġba generwa
ka ta
ĠM ubu
Ġin ganya
ĠI nga
ubu koloni
Ġbwa bi
Ġaha gari
Ġgusu rwa
ingi mbi
Ġa vugana
si ge
ku ti
Ġubu zira
Ġgi hu
ĠN jye
na m
ĠS indi
Aba zi
Ġdu habwa
ĠUbu tabera
hoho teye
Ġguko sorwa
Ġn je
Ġgu kwirakwira
di an
Ġgi tangira
Ġgi teganyijwe
hanga ha
kwi ca
ĠGa u
ywe ye
ĠEdu cation
T WE
ban ira
ĠB we
aba ye
Aba koresha
ĠRu gerero
Ġmba bwira
ĠSh yira
Ġiro nda
ĠVene zuela
. Â»
A po
bi bona
ĠI vanjili
Ġru kaza
Ġka mpani
ĠKa le
nye zi
imi rwano
Ha za
ĠPo ly
ĠBi menyimana
ir man
imyi garagambyo
Ġ196 1
Ġi jye
Ġaba geze
Ġaba geni
Ġgi hirahiro
hi le
Umu ganura
gera mo
Ġbaka rushaho
Ġe le
ĠJa son
Ġ197 0
I ngero
ze mera
bo o
Ġumu nyama
Ġma gi
Ġkwi bera
gen nye
Ġigi cumbi
ĠE S
Ġnti wi
Ġwan duye
Imi gani
Ġisu ka
riti ki
ĠBenedi ction
ĠIkimali gashi
K ANDA
yu nze
ĠM me
Ġbu boneye
Ġama shuli
Ġru tara
Ġim an
Ġdo ze
tonde rwa
Ġvi sa
ĠAt letico
I byaha
Ġku vanwa
da ye
Ġaba ra
Ġubu tungane
Ġama terasi
gara fu
kome zanya
Ġkuran gura
suru kije
Ġba sobanuriwe
Ġumu gwi
rwa ys
Ġibi hu
Ġiki garagara
Ġyi vuye
Ġrwa maze
bya zwa
tegan yanyigisho
Ġino ze
siti ki
Imp induka
2 000
6 6
N gabo
c enga
Ġa merika
shu mbu
Aba kunzi
Ġata bizi
Ġahu za
mwi hariko
Ġkuza kora
veri ne
Ġkumwe reka
ĠEuro pa
ĠRT LM
K nowless
Ġ gerageza
Ġi bone
yo ka
Ġru jya
Ġzi meze
Ġuru ta
ca go
ve lle
one y
Ġa guye
Ġba wi
Ġbi lometero
ĠI manishimwe
Ġim yambarire
Ġmi riyari
ĠL imi
man ge
ĠUmu ganda
Ġwi buka
ĠBa zi
ĠIki wu
ĠNe twork
Ġbatara menyekana
Ġservi si
ba fasha
Ġmu be
Ġba mbuwe
ze zwa
ĠS se
Ġza fashe
ĠW O
kere wole
cece tse
ĠUn cle
shyami rane
Ã» t
Ġmu te
Ġru gera
Ġru shimishije
Ġyu zuyemo
ĠSala x
ĠMunye shyaka
ĠImyi dagaduro
M y
R YANGO
Ġa rangwa
ro tse
ĠU KURI
ĠGa mbia
fun zo
TE RA
Ġmuru mva
Ġimpa mba
Ġa o
Ġba fatanije
ĠU bwami
Ġtu gamije
Ġuko rana
Ġbaba fasha
Ġbaka byi
Ġahu riye
UN GU
Ġcyu zuye
ĠFo re
Ira dukunda
ĠSul uhu
7 8
g ro
Ġku gisha
Ġba ganire
Ġya sho
Ġbi shaka
ĠMa horo
ĠCa ro
Ġbake nnye
komoka ga
Ġbahe mbwe
gi nze
Ġgi fatika
ĠMu tangana
Ġaga pfa
tangi zwaga
shyire mo
Ġuwu he
Ġbwa je
shaka ho
Ġho nyine
Ġbira mutse
Ġriza bera
Ġa shaje
yi ja
ha mije
sha li
Ġm yemerere
Ġgi habwa
Ġzi yongera
Aba bi
Ġbakorera mo
Bira goye
ĠMIN ISANTE
banji rijwe
ĠImma culÃ©e
Ġi huje
Ġa tinya
Ġgi tari
aba gera
ĠC amara
umu polisi
sobanu ka
Ġuwa ka
ĠSu we
HAN GA
N gira
P U
p Ã´
Ġba sanganywe
te rera
Ġaba kuze
ĠB ol
yobo rwaga
ubu ruru
ryo go
tsa ta
Ġv o
bin gisa
Ġdi yosezi
kumi rwa
ĠKiri ziya
ĠBwa mi
ĠAlli ance
â Ĭķ
ya gu
Ġba shinga
ro ti
Ġaba mo
Ġin yinshi
Ġha zi
Ġzi kiri
Ġbaka wu
mp amagara
ubwi yongere
Ġahe nshi
tekini siye
7 5
Ġi rusha
Ġba rwanye
Ġya garuka
Ġya fatiye
Ġbi rukanwe
si gn
ama rangamutima
ĠT umu
Ku da
ĠMi tuweli
rangi riza
tira mibu
onda siyo
a ta
Ġi hindagurika
Ġku yan
Ġbi bye
Ġubu camanza
Ġgi kozwe
Ġkuba rura
pa pa
twe retse
Ġbaga sa
Ġamu subiza
gabe kazi
Ġagi rana
Ġhu bakwa
ĠRuko ma
e bah
Ġ gerenade
Ġa k
Ġbi ruta
Ġna za
fa ra
ĠRa ila
siga jwe
pho n
ĠBea trice
boho ye
ĠPaki stan
Ġi zu
wa se
Ġu heze
hu nde
ran we
Ġigi shanga
Mu renzi
Umu faransa
imi zi
Ġkuvu rirwa
ĠMana gement
Ġdisi kuru
ro kore
Ġru sa
ĠNya ki
Gu ma
Ġiti geze
ĠIs la
soza ga
Ġikorera mo
Ġbinji za
ĠTimote yo
c ri
mu nd
Ġn tore
Ġi rangira
Ġku namira
Ġibi lometero
cu e
ĠF ar
Ġbaga taha
Ġrwi hariye
yumvi kanye
Ġgukorera mo
Ġ198 1
Ġ07 88
Te kereza
re kanwa
Ġba tsindiye
yi ro
Ġwa kurikiyeho
sha ma
Ġma rembo
Ġguse tsa
Ġju illet
Ġa komereza
Ġmu polisi
Ġku bantu
Ġku ryoherwa
Ġin te
Ġin kombe
Ġki tu
Ġkwi siga
Ġbo rozi
ĠCo o
ĠMuka mana
chi d
ĠChi ldren
Ġbigizwe mo
Jan uary
kigali today
Ġi teza
ye rekana
ĠB yukusenge
su kari
ranga za
Ġyan giritse
rohe rane
Ġabivuga ho
Ġbagenda ga
Ġihu rizo
Ġngororamu co
Ġpara garafu
Ġa rana
ba tware
Ġnti cya
ĠUmu kobwa
ĠAba ba
renga ho
ĠAb ra
Ġbamwi ta
Ġinga bire
L ou
Ġa korerwa
Ġba kurikiranye
ĠM enya
Ġumu tobe
ke s
bere ra
zu lu
vi en
Ġri genda
Ġri hari
Ġubi kora
ĠKari m
T M
ye retse
te jwe
Ġc ol
Ġma funguro
tege kere
Ġdu fatanye
IN G
ĠIbi taro
ĠMuka range
Ġkumvi kanisha
I bye
mu hanga
Ġu t
in yenyeri
gu fwa
Ġaba kundana
Ġubu sitani
Ġgi kwiriye
ĠRu sagara
Ġbara shwe
Ġ4 50
Ġibya we
Ġahu ye
ĠAma teka
Ġamu kunda
Ġbake mera
Ġvi za
ĠIgici cewa
ĠLabora twari
ĠGate nga
ka bya
Ġgu shobora
Ġumu hamagaro
ĠB AN
Ġzi gizwe
umu zungu
Ubu kerarugendo
byi shimiye
Ġiba he
ĠVi a
C C
Ġn tangi
Ġn uburyo
Ġi hura
Ġbi genze
Ġbi runga
Ġbi remereye
Ġka zo
co me
Ġbata zongera
Ġkujya mo
Ġkuyi shyira
TU TSI
roha mye
ĠWilliam s
Ġbya wo
Ġyan gije
ar ra
Ġubwi shyu
kuba ho
Ġaku riye
Ġbahagari tswe
u kwemera
an ne
Ġi rangwa
ge riya
du he
Ġama tangazo
Ġgi fu
Ġki jya
ubu shomeri
Ġmi tangire
Ġbwa koze
ani a
Ġre staurant
Ġbusa mbanyi
A mbasade
Ġ shirahamwe
Ġgi komeza
Ġki kana
Ġyo roheje
zwa ho
Ba mporiki
seze rana
Ġguta mbuka
ĠAt lan
uruda ca
Ġi tewe
ba gabo
me l
Ġwa sa
ĠI shinzwe
ĠKa gere
ĠKa yigi
Ubu taka
lo m
ĠMe d
Ġaku bwira
Ġnyira kuru
nyo ra
kw injira
Ibin yamakuru
C yo
i fungwa
Ġwa shakaga
Ġha sanzwe
du fashe
subi tse
siga sira
Ġnda shimira
Ġbira tu
Si bomana
Ġakamu bwira
A E
Ġi rangi
Ġc yobo
Ġaba minisitiri
ĠKo ronavirusi
Ġiso siyete
Ġtuga kora
Ġare meza
ĠShyo gwe
Ġvye rekeye
I byiza
Ġga bo
MU NGU
Ġub wan
regwa mo
ĠKU BA
Ġkuno zwa
ĠAnge lique
ĠX i
mvu mba
ba bwiye
Ġba sobanukiwe
Ġin gene
ĠA ERG
to rs
Ġki rangiye
Umu rinzi
ĠLe e
ĠBa bu
soho ke
ĠYo bu
Ġne ws
Ġasimbu rwa
ĠVati can
ĠLimi ted
ru nda
man n
ĠNe mba
aka taraboneka
shidikanywa ho
Ġ _
Ġba herereye
Ġgi tangwa
ama shuli
Ġkuri nganiza
Ġtu n
Ġrwa koze
Ġudu pfunyika
ĠShe ma
i bwami
Ġya saga
gan ano
umu curuzi
ĠKu rwanya
Ġuba ho
kari to
ĠNiyon kuru
ĠAi rways
Ġsu r
Ġmvu ruru
Ġya tekereje
Ġbya ho
Ġtu bana
Ġkuba saba
mbere ye
Ġkumu ca
Ġkubo hoza
rea t
ĠUN ICEF
Ġyahu nze
ĠYu hi
yum vo
Ġagatu butse
ĠR P
Ġumu ka
Ġkwi tonda
Umu nyamategeko
wu nganizi
ji za
imi rasire
hindu rira
ĠZa mbiya
Ġzita teguwe
MIN EDUC
Ġh y
Inga mba
Ġamato hoza
A mour
Ġi hagarariye
Ġmu kwiye
Ġgu cye
Ġwa girango
so nera
Ġzi genewe
Ġkuba baza
Mu tesi
Ġ4 000
Ġbwi yongera
GI NGO
Ġnone se
rwan e
ota ry
Ġabanya merika
jan ja
hembe rwa
juri riye
de e
aba faransa
Ġbatu ra
ss y
Yi ze
ge rera
Ġc entre
Ġzi shaka
aba kristo
ĠMu yoboke
Ġcy inshi
ĠGa ta
Ġbyi tiriwe
Ġara mbuye
!! !!!
Ġrugo mero
ĠTo wn
MC T
gu kora
yo ya
ro ga
Ġgu sira
to ranywa
hugu ye
ĠRu ti
Ġibya tangajwe
Ka lisa
Ġ12 00
ĠIki bazo
Ġryi genga
Ġuha mye
Ġn y
ba rira
Ġya ci
te rura
ti er
ban aniye
Ġha vuka
ne ca
na ert
Ġka rengane
Ġzi gendanwa
pa tite
Ġdu hereye
Ġmwa bonye
.. ...
Ġuku ze
Ġahe za
bahi rijwe
Ġkara hava
ĠRama dhan
Ġmisi le
L L
Ġn komeza
Ġba gurisha
Ġbi kenerwa
ĠA le
Ġbya gufasha
ibi subizo
Ġbiza za
Ġtuka mu
Ġagu kunda
Rwan d
A ni
d ric
n nyi
Ġa tangiza
ta weho
Ġaba rwanashyaka
ke y
Ġama ranye
ĠU LK
sho toranyi
ĠC C
ĠRa fiki
ĠGu i
Ġika myo
Ġpa siteri
w umu
Ġmu komeze
bi tyo
ge ranya
Ġgu hangayika
Ġru keneye
Mu nya
Ubu kwe
curu rizwa
tangi mana
ĠIgi kerewole
ĠNiyi bizi
ubura ya
B er
ri mbi
Ġya shyiriweho
Ġr yamaze
Ġumu ze
Ġha sohotse
Ġibi shya
umu gi
Ġri heruka
cye ye
Ġbaku bwira
Ġmyi dagaduro
ĠNyira ma
c ani
Ġa rengera
Ġya so
Ġibi tu
ĠN KURU
aba kuze
ĠUmu shinga
ĠMi sigaro
Co ronavirus
Ġgitu tu
Inge ngo
Ġm babazi
ĠKi goma
ren gwe
Ġaza hura
ĠPro fe
Ġkuha korera
mani tse
Ġvita mini
ĠNao mie
d re
Ġku bin
vu mbuwe
Ġna jya
Ġni ga
Ġtu vugana
shu bi
Ġgihe rutse
Ġiri he
iki ruhuko
ĠZ el
Ġbabi gizemo
Umwami kazi
ĠVicto ria
Ã©v rier
N san
Ġi mara
da r
Ġna bona
Ġy ane
na h
san tere
igi kan
ĠDi a
Ġkuyi ha
garu kiye
herere zanya
ĠRo me
ĠMaga zine
iranga mimerere
za bera
vu mba
Ġwa bu
ban do
tan yije
mba baje
ne bwe
Ġkwi regura
Ġyandi kiwe
Ġ17 0
Ġgushyin giranwa
ĠMari ne
pÃ´ tre
N ku
Ġi ma
Ġbu tara
Ġru kino
Ġkure shya
Na giye
kurikiza ho
ĠPre vious
Ġgusimbu za
Ġaba kire
Ġka bili
shin gwe
ĠIki ma
ĠNa mu
Ġa sigaranye
bu kungu
Umu tima
ĠF ul
geze mo
Ġco mpany
ĠUru kundo
Ġake ka
KU NDO
ĠGe or
haguru kira
M AN
Ġku hi
bu zima
Ġbu kurikira
Ġiki remwamuntu
Ġmi tuweri
ibi zamini
ĠGa kondo
Ġbara hawe
genda ho
Ġntiba shobora
Ġbida shobora
ĠNdayi zeye
Bo bi
Ġyakwi baza
Ġtwara bi
wumvi sha
rou pe
n ganire
Ġku byemera
Ġya fatwaga
Ġwa kunze
ĠM bi
Ġha garagaramo
Ġcya hitanye
shyi ga
Ġmi gi
ĠD y
ibi komere
ĠAba kinnyi
ĠRe gis
Ġ10 1
Ġrwi tabiriye
ire s
Ġnshya shya
ĠZa habu
ĠChi cago
Ġa vutse
me raga
vu mbuye
Ġumu terankunga
no me
st y
rengan ye
Ġkiro mbe
Ġkamara mpaka
Ġa vugira
Ġku vo
Ġna ramu
ĠA pr
ar ch
Ġbagi zweho
phe te
ĠTrans parency
J YE
Ã £
Ġya kurikiyeho
Ġwa garagaye
Ġaba rwaye
Ġbya ko
ĠS hu
Ġtu zamu
Ġyi rukanwa
man che
Ġkwe merwa
tiri zi
Ġyu garijwe
Ġibin ya
ĠMun yanga
ĠUSA ID
Augu st
re sha
Ġba mpa
Ġba motari
Ġbi shakiye
zo n
ĠJ A
Ġye retse
Ġugu ha
ĠTe chnology
Nda gira
u ye
yi landi
Ġha tegerejwe
Ġru shingiye
Umu toni
igi ro
Ġbara tu
Ġabi teganya
MIN I
i buranisha
mu s
Ġba san
Ġya sabwaga
he ka
Ġiki babaje
Ġmi kurire
Ġbara genda
Ġbin o
abi tabiriye
Ġriza jya
Nu mva
ĠEco le
San kara
ĠFire man
Ġbi genewe
Ġha vuzwe
Ġkwi garagambya
zamu bano
ĠBa tutsi
Ġbiza dufasha
Ġira shaka
ĠSi r
huti shwa
S tade
ri rane
ta ry
Ġzi te
Ġaban yamu
Mu gabo
pa si
Ġbaka gombye
Ġcye geranyo
Ġruza jya
ĠPen do
Ġinyongera musaruro
zzi el
mu ke
Ġa soma
ha zi
hi sho
Ġtu basha
Ġkuba teza
Ġza turutse
Ġga ze
garaga yeho
Ġdu sabwa
Ġbara pfuye
baba riye
ĠKagi tumba
Ġn zamu
Ġba zan
ĠA NC
ĠH E
Ni shimiye
kwa mo
In yungu
Ġabi bona
Ġkumu sura
ĠUbu tumwa
Ġbabi gize
baba rire
Ġina ha
Su dani
boneke rwa
6 9
u tse
y ce
ma e
gu kanywe
mi bwa
Ġaba re
ĠI NDI
Ġibi tera
ĠS I
ama kara
Ġcya tewe
ni ga
Ġbara koze
Ġbaga shyira
Ġaza koreshwa
twi butsa
tangwa ga
mwo roheye
tere ranye
ĠIm pamvu
Ġyabu genewe
mon yo
ĠNiyo mugabo
olu tion
ba ruta
mo za
he mukira
Ġtu gu
ĠH umble
rya mye
Ġryi hariye
ĠPi errot
Ġnza ra
isa bukuru
ĠPhili pp
Ġubusu mbane
M yugariro
Ġb en
Ġwa s
he n
shi m
du fashije
ĠS ky
ve ra
ĠMo Ã¯se
Ġrwi teguye
ĠCa ssi
Ġyaku riye
ĠFor bes
Ġino ti
Ġguhamaga rwa
ĠLÃ© on
Ġi wu
ĠM yan
Ġni byiza
ĠN U
ĠE P
lo gie
Ġbyi geze
Ubwo ko
Ġtura bizi
kwirakwi jwe
ĠCyu ve
A handi
Ġba shakashatsi
Ġba teza
ne ws
Ġtwa jyaga
ĠVi rus
Ġubusa bane
ub wumvikane
Me ssi
De cember
Ġkwege ranya
p ton
Ġa sanze
Ġmu rage
Ġaba turiye
Ġha hise
Ġbiga fasha
ĠMU KA
Ġibin yabuzima
ĠEm my
Ġgusha kirwa
ĠMuti mura
ĠWasa fi
Ġu rangwa
bo u
Ġka mba
Ġzi fashishwa
Ġyi yita
Ġri va
ĠIgi ke
HO ZA
ĠMode ste
S ini
U AR
a kanya
ri tswe
Ġn gengabitekerezo
Ġu zo
Ġna ya
Ġna baye
Ġha kinwa
to na
Ġrya mu
Ya tangaje
ĠRu bona
Ġyara buze
Ġhi zihi
Ġnya mwinshi
Ġuza yi
goro rerwa
Ġbimu fasha
Ġiku zimu
Ġyasin ze
Ġgitu mo
Ġi kura
Ġi koresheje
Ġbi tangaza
Ġubu banyi
ĠGa ulle
Ha giye
gisha ga
Ġuga kora
Ġso ya
ĠNo bel
sohoka mo
Ġguka ta
i sho
ra i
Ġba shi
Ġba gendera
Ġgi faransa
ama cumbi
ĠF BI
Ġri kwiye
im fungwa
ĠCo u
Ġguha mwa
ĠBa shir
Ġbagi riwe
ĠHe y
200 9
Ġubuzira herezo
Ġmu kandida
Ġumu saraba
Ġibi maze
Ġbabi genza
wuba kira
Ġf Ã©vrier
Ġ198 2
jugu nye
ĠAka manzi
ĠUN HCR
kenye zi
Ġnyaka tsi
Ġa simbura
tu nda
Ġim inwa
Ġki va
ĠKi bagabaga
Ġrya korewe
Ġitu rutse
Ġare kurwa
umuhanzi kazi
gwin giye
U kwezi
Ġmu jya
Ġya raga
Ġgu tara
Ġtu tabi
men yane
co le
lo me
Imi twe
Ġkiza tangira
V C
Ä ĩ
Ġa tange
ha tanira
Ġha buze
Ġubu jyanama
Ġama duka
Ġkwi yumvisha
Mu hire
pi mishije
Ġizi gera
Ma gingo
ĠJor dan
a k
a we
ze ma
sha ra
Mu tu
men to
ĠAba byeyi
Ġabi fashijwemo
ĠTe s
ĠSey chelles
D J
Ġa se
gu rire
ru mu
Ġwa bonetse
Ġbu tera
Ġbu geze
Ġki zima
Ġma fi
Ġga shobora
Ġdu sa
shinja ga
Ġbati taye
Ġryi mbitse
Ġpro gram
Ġbanga he
ĠLeo nard
Ġsini geze
Ethiopi a
. (
Ġa cibwa
Ġcya koze
Ġtu gere
Ġdu tera
ĠIn kingi
Ġbaza tangira
Ġbatu mye
Ġkwan du
Ta liki
ĠKwi ta
Ġihu manya
ĠMukan tabana
hungaban yije
ĠIgna ce
Thi erry
Ġa de
Ġgu ki
Ġin ani
lo ko
ĠIn de
ĠHa ku
ĠKo ffi
Ġguse nye
Ġaman ga
yujije ho
K enshi
Ġu vu
go za
Ġaba hanuzi
ĠB or
ĠMu rangira
ĠMu gina
Ġt hat
Ġtwi shimiye
Ġkuru hu
Ġana mu
Ġkiza mini
Ġkiba ho
Ġcyu garije
ĠChampi on
ĠSco laire
shege shwe
ĠMul indi
fen se
$ ,
ko n
ta mbuka
Ġbi fashe
Ġbi butse
Ġwa tsindiye
le t
Ġbaka du
Ġ18 9
muri tswe
rindi ra
P hone
Ġ mes
ba bwira
Ġya tinze
Ġbi wu
ku girango
Ġaba ka
ĠA stra
hi rana
Ġki yobowe
Ġwo r
Ġnka bo
Ġutu nze
Ġkiri ho
SA BA
ĠTuni ziya
6 00
M wana
Ġk bs
Ġa kurikirana
Ġha tangira
Ġma damu
ubu rayi
Ġtu rushaho
Ġmi ss
baza ho
RI KA
Ma la
RE BE
Ġatu mva
Ġat ya
inzo zi
Ibya kozwe
ĠMarrio tt
W U
z umuremyi
za ki
mi li
Ġama teraniro
Ġiki mara
Ġata kiri
Ġbara pfa
Ġbaba mo
sobanu raga
Ġyagi riwe
Ġbakiri ya
ĠSalo mo
Ġyatsinda ga
ĠHabya limana
P ar
Ġ qu
Ġmu bizi
Ġbi dufasha
Ġzi je
Ġkwi zerwa
ĠS hari
ĠF O
ste in
Ġtuka yi
Ġkura swa
tya zo
Ġkon sa
sipan ye
Ġao Ã»t
k swa
Ġa gendeye
Ġba kundanye
Ġgu kwa
Ġin yanja
gan nye
aba re
ĠH eza
ĠZ o
rangi rwa
van gira
nyama ra
Ġyahu ngiye
Ġabanyama tegeko
He juru
ĠColl ines
A DEPR
mo k
Ġaba fashwe
Ġibi tari
Ġye ruye
ĠKu bwimana
senge re
Ġabazi tabira
Ġfa rumasi
Ri derman
hangani ye
dina li
ĠMujawa mariya
ĠRodri gue
R ya
i gwingira
ra le
Ġa ranga
Ġu sesuye
ka jwe
Ġgi tangaje
Ġki rangira
Ġka giye
Ġzi teye
yigi nya
iri ndi
shwana ma
BON A
H on
m vwa
yi di
Ġin sina
Ġnta cya
Ġza teye
ĠKu bera
Ġbada huje
Ġaman ywa
ĠCom munity
ĠPro ject
Ġbare bera
ĠIgikiri gizi
F ERWA
Ġn kurikije
Ġba hin
mba re
Ġzi she
ĠCo ol
Be st
ĠEu gÃ¨ne
ra she
ta lo
ha jwe
Ġbi byara
ban gi
Ġru komeza
Ġma rangamutima
Ġnka mu
gaban yirizwa
TE KA
cunga gereza
Ġkwibu mbira
Y andi
Ġgu shinjwa
na li
po sita
ndi ka
no na
teke rezwa
ĠBa d
Iki garagara
ĠRa chid
Ġyaku yeho
dro s
kswa gen
Ġn curo
ĠM C
im byino
Ubu yapani
Ġuku bona
Ġugu kunda
Ġyatu miye
CA F
ĠTuyi shime
Ġumu kire
Ġru zwi
gari zi
ĠSa bin
kiye ho
Ka rekezi
Ġtuba saba
ĠRi kuru
Ġyaku san
Ġbanya politiki
Ġtuda fite
ĠBla ise
ĠAbdu llah
K umu
di ya
Ġbya sabaga
ĠC ye
Ġcya shize
ci l
Ni bura
Ġtwa gira
Ġaza va
tegan yirijwe
Ġkuyi rinda
Ġntibi shoboka
inta mbwe
Ġguhu muriza
Ġingo rabahizi
SS P
gome ka
u sco
Ġbi hungabanya
Ġumu canga
umu nezero
ubu ki
ubu rebure
ni yo
guru ye
rwanya ga
Nti du
ĠMini stre
Ġwabi gize
Ġ197 2
Te ch
ĠKara ke
shikiri jwe
shyingu rwe
J uly
T P
u el
Ġi taka
Ġku gwingira
ran gize
su ri
ni fer
Ubu fatanye
Ġara cyari
ĠRa p
Ġbabi fashijwemo
Re v
ĠNiyon shuti
ĠSawu li
Ġbaka garagaza
Ġnka twe
Igi shushanyo
ĠIn zego
ĠSe beya
Ġbake meza
ĠPau lo
ĠOlo mide
phon sine
Ġ x
Ġa zamara
Ġku ze
Ġya funguwe
Ġgu fashanya
Ama zina
Ġibya cu
ĠSa mia
Ġ: :
riri mbira
Ġmake ya
ĠKaba rondo
y n
Ġaba generwabikorwa
ĠG Ã©ra
Ġbwa gize
Ġ19 30
shyin gira
Ġira tangaza
siye ti
Ġguhe rekeza
inko moko
? ,
Ġba tangire
Ġya kwa
Ġbi hindura
Ġwa haye
Ġm yanda
Ġaba gizi
Ġaba sifuzi
so mera
ĠU KO
Ġcya garagaye
Ġrwa giye
Ġaga sa
Ġbaka gu
Ġamu ziza
rukan ka
Ġguca mo
Ġbabu riwe
Ġbakamu ha
rien d
ĠJohan nes
ĠJin ping
Ġi yoborwa
bu s
se ngo
Ġwa kozwe
Ġw umvise
le ji
ĠL A
rya manye
Ġkubi gira
ĠAma jyambere
ĠBe au
Ġicu raburindi
hamaga we
babi reba
Isa ac
ĠCÃ© lestin
Ġ jan
Ġya gezaga
Ġkwi vana
ubu basha
ĠY vette
Ġbate mera
Ġiko raniro
hebe ye
ĠIgita yilandi
Ze neca
U rakoze
k m
Ġmu rwego
Ġna ku
Ġna hawe
tan gu
Ġigi fu
Ġaka ra
Ġaka mwi
Ġwe meza
bwi shyu
Ġbwa komeje
taba ro
ul u
Ġhi bandwa
Ġnzi ko
Ġkuzi koresha
ĠHo ll
ĠGe nera
Ġbavu ganye
Ġndanga muco
C yane
c la
Ġu rangije
Ġba cururiza
fu r
ĠC G
im yanzuro
ĠRu zi
Ġtwa gombye
lu ndi
FA RDC
Ġnara bi
YU M
tina mu
Ġmurika gurisha
p hani
Ġba kwe
Ġba tekereje
in shuke
sha bitsi
Ġm yuga
Ġbu hanitse
Ġzi banze
Ġkwi cuza
Ġbaga haranira
Ġhi yongeraho
hagara ro
ĠDa te
Ġmyi yerekano
Ġbavu gana
zengu ru
rwani rira
Dan ny
Ġlea gue
Ġi hitana
te x
Ġgu hindurwa
shi rwa
Ġari fuza
ĠA B
ke je
ĠN twari
ĠMu ham
ĠF is
Ġmwa koze
ĠPa rike
Ġbakaba ha
th y
ramu ko
ĠSan tos
byan ze
Ġ stress
re mbera
Ġya mwe
Ġya fatanywe
tan we
kan yaga
ibi da
Ġbaba baye
ĠHa tangimana
Ġurugo mero
Ġiku san
Ġyasin yanye
ĠGatu lika
Ġziha mye
Inko moko
tiona le
ho terwa
Ġumu goroba
Ġru gana
Ġzi shyirwa
Ġma hoteli
ĠMu rwa
Ġnta ka
Ġyaba sha
ĠMi ller
ĠGu shyingo
ic yumba
Ġbandi kiye
Man zi
phi a
Ġgusan wa
igikan to
c ted
k win
in jyana
se le
Ġwa gi
Ġki ruta
Ġbaba jijwe
Ġaza bona
Ġyaha geze
Ġazi ko
ĠKaba ya
cece kera
keka ga
Ch ristophe
E st
[ âĢ¦]
g bo
se minari
ĠK ibi
ĠK ong
Ġbu roko
ĠI RA
Mu li
igi subizo
Ġbin ubira
hamaga riye
ĠIgike cuwa
E tat
y m
Ġmu higo
Ġu shimishije
in d
Ġm vuye
ne tte
ĠMu rekatete
Ġbira kwiye
mban i
sese kaye
Ġbuza komeza
Ġishyan ga
nanga gwa
Ġgu fotora
Ġna fashe
Ġwa kiniye
Ġubu gambanyi
Ġmi koreshereze
Ġbaka ri
Ġnka bi
ĠYe ejo
tare ba
ĠBi eber
Ġamaze mo
Bo mbi
subiri ra
ĠEto ile
ta s
te me
Ġki hariye
Ġkwi ringira
ĠKa wa
riki rwa
Ġri tari
ĠY I
ĠWe nger
Ġyabaye mo
Ġpa ge
Ġkuha va
MIN ISANTE
mpu ndu
Abanye kongo
mbaba rire
I za
Ġya mamaza
bu mbano
Ġin ganzo
Ġbu gingo
ĠB ryan
Ġbita vuze
ĠPo mbe
Ġabandi tsi
rea u
Ġgusin yira
Ġabanye shuli
vanji ri
Ġ ter
Ġba shika
bu ngwa
ho mbya
so l
twa rira
Ġnta bu
Ġyari ze
Ġrwa bi
ĠGa tsata
Ġaga ti
imi biri
Ġaza tangira
Ġaya he
Ġwan yuma
ĠTe a
IC T
Ġyiba siwe
ĠYu bile
An toine
Ġgusubi kwa
Ġu korwa
Ġba binyujije
yi zi
Ġbya teje
Ġyi fitemo
ĠMi li
Ġtwi shimira
Ġabari nzi
cye kwaho
S and
ru fu
Ġni bu
umu gisha
va in
Ġbwi swe
yuba shye
Bi kaba
boneka mo
sumbuye ho
ĠNyiri cyubahiro
A kanya
u te
Ġa vril
Ġya fata
bi sha
Mu shikiwabo
kora li
Ġaha sigaye
ĠCo up
Du shobora
ĠFlo rida
LITI KI
A garuka
G reen
M ou
Ġba jyanama
ru mwe
bu raga
ro s
Ġha bo
men yanye
Ġaka tirwa
Umu vandimwe
ĠKi yaga
ĠE pi
Ġwo ngera
Ibi yaga
ubwa to
ĠBuru seli
done sia
mok rasi
Ġku to
tu r
wo we
Ġiki remwa
va te
Umu rage
Aba jyanama
la ck
Ya shimye
kuba kwa
Ġtuka menya
ibyi fuzo
ĠNyabi mata
ĠMac har
Ġguho sha
hwi hwi
ĠMexi co
ĠBlu e
Ġi hagarariwe
Ġba sho
Ġwa teguye
Ġm ine
ĠA ZA
Ġbya garagaraga
Aba yi
garaga re
mban ywa
Ġabamu kurikira
ĠAF C
A mb
Ġa kubita
Ġmu kunda
Ġu tegerejwe
Ġba hohoterwa
Ġba hinduye
te chni
Ġgu hoza
Ġm wanda
Ġara shwe
Ba riya
gari ya
fati ro
hana gura
Ġca sh
shira ho
ĠBe sigye
ĠKI GALI
ĠSar kozy
Ġku ryo
to zwa
en gwa
pe di
Ġrwo hereza
Ġbaki teza
Ġwitwa je
Ġida kwiye
ĠMIN ISPOC
ĠGol f
ij ing
ĠKatu mbi
a sel
i bere
Ġi shinja
mo u
Ġbu zuye
Ġama pa
Aba mi
vuze ho
ĠBa dege
Ġabi garagambya
ĠMon t
Ġaseze ra
ba mwe
Ġu kurikiyeho
Ġba shimiye
Ġya huriye
Ġr Ã©
Ġama ba
aba saga
umu shikiranganji
ĠMu gunga
ĠPa radizo
Ġse kuru
Ġkumu shyigikira
Ġiza bi
IN DA
guri tse
rabi ka
ĠNgo ga
ĠGer main
ĠGihu ndwe
Q a
Ġubu kire
mba baza
Ġzi huza
Ġnti rwa
ĠIn ya
Ġbikorwa remezo
ĠSi mbi
Ġgutu mira
Ġmura bona
ĠRD I
ĠMana ger
ĠMini stiri
Ġyato ye
a hari
b lo
Ġn yongera
Ġu zan
shi shwa
Ġaka bo
Ġmi yoboro
byi buka
uru zi
Igi tego
Ġada kora
geneke reje
Ġa gende
ko shi
Ġru saba
Ġkwi tegereza
ĠE ver
Ġye rekeranye
Ġmwa limu
ĠSe mu
Ġbira hari
Ma yor
Ġkuru buga
Ġbakiri ho
Ġ genda
mu rije
Ġi funze
ba mbwe
Ġumu shakashatsi
to reza
Ġkuba tizwa
im yuka
Ġgusa ka
Ġguha za
rizwa ga
Twa bonye
Ġyiba sira
tro mae
ĠMathi as
I baze
M bi
l f
Ġa kangurira
Ġya citse
hu rije
Ġbu hanuzi
aba saza
ĠMu rakoze
ngu rana
ĠUbu hinzi
inda ya
quo ise
ĠSHI KAMA
' '
I KI
M icha
i soni
Ġm fungwa
ĠN EC
umu herwe
Ġyi hanganishije
Ġaka ha
mbi je
renge rwa
Ġuti shoboye
fungi sha
ĠFlo rence
ĠSil ver
ĠDemocra tic
U E
m m
s lamu
Ġi pan
vu gishije
Ġkwi tabaza
ibi huha
yama mari
ĠH C
Ġyaha ga
ĠSe ru
ing we
Ġco mp
Nda bona
ĠKan si
ĠIran zi
ĠAthana se
ĠMunyanga ju
in tare
Ġbi gerweho
Mu zi
ĠL T
Ama gare
mwi za
Ġuta mu
Ġbagi riye
Se rivisi
Ġkugaru kwaho
SEN GE
Ġkugezwa ho
ga yo
Ġba sinye
to ranya
fi li
Ġki zo
ĠF NL
Ġga hanga
Ġguto zwa
Ġidu saba
Fe bruary
I tumanaho
M isi
U mwo
n va
Ġ ano
Ġa sohora
ga biro
ma ine
Ġya shi
sha kana
Ġaba sanzwe
Ġru tangira
ĠG Ã©nÃ©ral
va is
kora mutima
Ġaka bikora
pe resi
pa gani
Ġga sutamo
Ba vuze
shiman giwe
Ġbura ya
Pe ter
ĠRuhago Yacu
Ġu koreshwa
Ġama tariki
aban je
Ġmbi bona
Ġgato ya
cia ta
bahi zi
ĠRwe ma
Byi tezwe
ga yin
Ġmu gira
Ġu Rwanda
mo tion
Ġaba yisilamu
Ġbu tumire
aba twara
ĠE ar
rya mira
Ġbaha kana
Nta wa
kubi to
Ġntibi kwiye
Du kwiye
Ġhaza mo
ĠMba ppe
hanan girije
lde phonse
C D
Ġumu herwe
Ġaba bana
Ġin tere
Ġubu nyamwuga
Ġimi si
ĠH O
Ġtwa menye
reke ze
ĠUbu ryo
Ġkuza bona
shishika je
tungu rwa
Ġite mewe
Ġivu nanye
n yobwa
Ġ tike
ri tike
Ġi hererekanya
ka wa
he rera
Ġata bashije
IN GA
rwani ye
g t
Ġba mbuka
za ri
Ġzi komeza
umu tutsi
Ġigi kundiro
Ġdu shyira
ĠDi e
Ġs tory
Ġkiri ziya
danda za
& #
8 7
Ġn andi
Ġu hura
yi ha
Ġaba sora
Ġbya gombye
rangi riye
Ru da
Ġf ran
ĠVir gi
Ġa shakisha
Ġha shyizwe
Ġha tangajwe
Ġha vutse
ĠI mbere
ĠâĢľ âĢ¦
Ġrwa garagaje
Ġnti byoroshye
ĠGa la
tegeka ga
Ġbatara menya
ĠCN L
ĠPetero li
Ge neral
Ġkwiya kira
Ġgusubi ka
N sengimana
ku mba
Ġc han
to tezwa
ĠN ubwo
Ġdu fashe
kwe meza
ĠIgi hili
ĠJe ff
Ġyan ge
ĠBi ryogo
Ġizuba rirashe
Ġbarya mana
Ġmini steri
ĠKame runi
ĠUtu rere
phani e
/ /
Ġbi cara
Ġgu pfu
ran kuru
aba giye
ĠP AR
Ġri baye
pu to
ĠUmu sore
Ġbaba bajwe
ĠAba sirikare
ĠW ol
tanze ho
BA ZO
gwi zaho
IM ERWA
ibya bo
jan gwe
Ġihu mure
Nu mvaga
Ġmpi ri
R ichard
Ġa shinga
Ġu curuza
Ġbi ruka
ho reye
ĠRwanda ir
Ġib yanditswe
Ġmi rambo
Ġbara je
Ġbita shoboka
Ġicya teye
ĠGu terres
dio la
Ġntu ngamubiri
hangayi ko
Ġyaku yemo
ĠAb del
wumvi ra
Ġbazwi ho
qua re
ĠThÃ©o gÃ¨ne
Munyan eza
I mashini
be ye
ĠM wan
ĠI songa
to vu
Ġim ye
tsi bihugu
Ġbo herezwa
Ġdu haranira
Ġnya wo
Ġkin yoma
ĠSto p
Ġku vugwaho
Ġba tuma
bo ye
da yimoni
ĠI shema
Ġimi gati
ĠMa joro
mbu riwe
ĠPa pi
ĠBa gosora
ĠHa ye
Ġs mart
Ġnu wa
ĠBe teli
ĠCon cert
HI RE
ĠHit ler
Ã£ o
awe i
H ana
Ġu ne
in ter
Ġha garagajwe
li ve
ĠA id
Ġtu ne
Ġmi shyikirano
kuriki re
Ġbara hari
Ma jor
ubwi rinzi
ĠTe ri
Ġub wubatsi
ĠAn non
ĠImpu nzi
G L
Ġa kani
Ġu zamuka
gi a
ĠA P
zo sa
Ġrya tewe
ĠBu sogo
Ġbara cyari
moka rate
herere jwe
ĠRo ck
Ġubuhu nzi
gayin oni
ĠIgihili gayinoni
Ġaba menyeshamakuru
ĠCo me
Ġabi gisha
Ġabi butsa
ndu ro
ur g
ĠCon ne
Ġ198 4
ser doti
ĠGol den
Ġn twari
Ġumu horo
du gararo
Ġzi be
Ġbya sabye
san gani
ama shami
shyi riye
nga ho
Ġnti twi
banu ke
ĠAma sezerano
ĠLi bera
Ġmba ga
ĠIbi dukikije
illa ume
Li onel
Ġsta tion
ĠArabi e
k le
Ġa ve
yu ha
Ġaba keneye
Ġibi sindisha
ĠMu re
po zamarira
Iki yaga
Na tional
riri mbire
Ġyaseze ranyije
Ġkwizi gama
Ġbere tswe
i sezerano
tu tse
be nshi
ĠB lo
ĠN im
na k
Ġbya fashe
ĠS onia
vi l
indi shyi
Ni zeyimana
Ġtwa huye
Ġbaba jije
vuye ho
ĠIsi mbi
Ġkuda kora
Ġzita teganyijwe
Ġf an
abanya furika
Ġntibya ba
Ġigitu ntu
ĠUwin eza
ĠINDI RIMBO
Ġi huriye
Ġba gizi
Ġba shyitsi
ki shijwe
Ġumu kunda
Ġbu mvikana
Ġubu sinzi
umu ririmbyi
Ba fite
Ġyaba zwaga
Ġcyi tiriwe
IN O
Ġyabi sobanuye
Ġuki zana
ĠMin naert
Ġjan vier
Ã ®
ko zwa
Ġba padiri
Ġumu padiri
Ġin d
so tho
gara sha
ni bwo
ca t
ĠMa sudi
Ba r
Ġpe refegitura
curuza ga
Nti mu
US T
ĠUn categorized
Ġtere foni
ta pe
Ġgi kunze
Ġkuba shakira
Ġmi tiwe
Ġri tara
yama gana
ĠNi c
shira mo
ĠKan yan
Ġtwo ngere
Ġruri ho
Ġ197 9
Yaba bwiye
Ġimpa garara
ĠOn line
Ġi re
ye we
Ġku guri
da d
Ġbi su
Ġha ko
Ġka zwi
aba hi
Umu kandida
uru sobe
Ġnda ya
Ġbakaba ye
Ġugu tanga
burani shijwe
ibihe mbo
gaje ga
Ġpula sitiki
Lea ve
N P
ku mvikana
Ġri je
nda y
ĠRe venue
ĠSa ke
pfa soni
nyama swa
Ġbazi rikana
Ġnaba bwira
ĠAb do
Ġhu mvikana
sso u
Ġporo mosiyo
ĠTheo phi
ri kingi
Ġi ruta
Ġa furika
Ġya va
ku bona
Ġaba du
zo ga
Ġgi saba
ĠN KU
ĠC u
Ġbari rimbyi
ĠRu n
uru zinduko
no t
riko ko
Ġbaga ha
subira yo
Ġntu shobora
Nya kwigendera
inko rano
ice ster
Umwi hariko
Ġshi tani
ĠMicro soft
Ġntangi ro
Ġi do
Ġu reke
Ġba mwo
Ġba rebye
si gwa
ĠI ta
ĠC H
Ubu vuzi
ĠE sipanye
iki ciro
Uru gamba
taba riza
RI YE
fatanya ga
Ġtura bona
Ġura bizi
Kuba ka
A A
ka tiye
mi kwa
Ġaba rwanya
ĠI tangazamakuru
Ġkuba sura
shu ndura
gani rira
Ġtwa baga
GI RAN
Ġuga komeza
Ġgutu ka
Ġiga hita
ĠZa za
thi a
ĠKU KO
ĠDani yeli
ĠIcya mu
ya hura
Ġa sura
Ġku yin
ĠA thle
ĠN danga
teke ra
ĠYe remiya
RI YA
ĠLa gue
igihe mbo
Ġntibi ra
Ġbiro mbe
ĠHi rwa
Ġi vyi
Ġu twara
Ġha rya
Ġari ra
Aba vandimwe
ĠNo wa
ĠBru no
sina la
ĠSuwe de
N inde
R VB
a saga
ya gize
Ġa zan
Ġim yuzure
aba tangabuhamya
la l
bya kiriye
Ġbaga tera
Ġkubi koresha
ĠKu gira
Ġugu shyira
Ġdore ko
ĠColo mbia
Ġguka tirwa
Ġet c
ĠMp yisi
ĠKata uti
Ġi hindura
mba ho
Ġbya byo
Ġkwi kinisha
Ġaka ru
ĠIn du
ss ina
Ġiya ba
pp Ã©
RW f
SHA KA
ĠHar ris
Ġyahamaga we
supu supu
F IN
Ġi zan
wan gavu
du tangarije
Mu keshimana
Ġaka garuka
Ġaka menyero
Ġmi cro
Aba motari
Ġrya sohowe
ĠMa soro
aga kiza
garu ye
Ġate mera
ĠIcyamu harike
D HO
n in
Ġmu curuzi
ma ko
Ġgu fu
Ġna menye
sa l
Ġin yenyeri
Ġha menyekanye
Ġbaha siga
Ġkur yi
ĠSte ve
Ġbam bwiye
umunyarwanda kazi
Ġbi hora
Ġama gufa
Ġma shuli
Ġwe mewe
Ġrya giye
nde reza
Ġura shobora
ĠMuka ma
ĠAga ciro
ĠMozambi ke
Ġbanyu zwe
din and
p por
Ġzi huriye
Ku rya
ĠRu bingisa
imi shahara
Ġbaha taniye
Ġhe mejwe
ĠGu y
aga shinyaguro
Ġitu bwira
Bira garagara
ĠAga thon
Ġuburi bwe
Ġhate raniye
ĠNgenda himana
Ġi tsinzwe
Ġwa ganiriye
Ġbu tatu
Ġubu ryarya
ĠA si
ĠN zaba
Ġimi horo
Ġri tangira
ibi hangano
Ġbaka ru
Ġde pite
Ġita zongera
tumi zwa
Niyon zima
gu shaka
bu mbe
Ġgu shyikirana
be ro
Ġbya kunze
Ġyi bwira
Ġbaka mwi
Ba ka
Ġabi shaka
Ġbaga fungwa
ID I
ron to
sana mu
Ġun yuze
ĠBer t
tezi ryayo
c ongo
gu riza
di ra
sa ge
Ġbu gwate
kin ze
umu koresha
ĠS wi
Ġimi babaro
Ġbwa tanze
ĠO mbo
Ġgute ganya
ĠTo kyo
Ġuga hita
Ġ198 5
Ġtwaba shije
Ġbiha mbaye
S isi
Ġi funguye
Ġbi banda
Ġru gizwe
Ġki reba
Ġbya gabwe
umu saza
im yanda
ĠW DA
cya hana
hindu riwe
ĠSa udi
Gu fata
Ġv yinshi
ĠIki zosa
Ġbada shoboye
Ġura mu
Ġbakomoka mo
ĠKha li
vugi mana
T ony
Ġba bonetse
Ġbu muga
Ġzi vugwa
Ġzi rebana
san za
Ġza hoze
ĠRu li
Ġzo herejwe
ĠIgi sinala
Ġnda saba
zere ze
Ġbibu jijwe
viye tinamu
u ga
Ġ ou
Ġa shobore
ĠR ic
han yuma
Ġuru bozo
Aba maze
igi hombo
Ġbwi zewe
SH YI
ĠLa bel
Ġziba fasha
ĠFi tina
nta in
Ara gira
et nam
Ġahamaga rira
nee ring
C e
Ġi hagarikwa
Ġi vugururwa
Ġin dan
ĠH y
ĠSa lim
Ġbate rankunga
Iri nde
ĠKwi bohora
F LN
a za
Ġi rye
Ġmu gire
Ġba mpaye
ĠM W
ĠU wan
Ġyi gishije
ĠH EC
ĠE nergy
Ġtwa gerageje
Ġbwe meza
Ġbaki ca
Icyo rezo
Ġkugaragara mo
f y
i bara
j imye
Ġ teka
Ġu ge
ĠR otary
Ġama jana
ĠKa bo
Ġbira cyari
Ġ25 00
vo mo
Ġkuya bona
Ġto mbola
Ġbuta ziguye
Ġguto teza
Ġakamu ha
sani sha
oo d
cue il
M babazi
s kuti
Ġi kore
Ġa gena
Ġgu verineri
Ġka byiniro
Ġbya kabaye
san gano
ĠMu kanda
ĠKa remera
riye ri
Ġse na
ĠV Ã©
Ġgusi gara
ĠTri bune
Ġkumwa kira
mpama gaye
ĠJohannes burg
A man
N giye
re k
Ġya reze
go r
di es
Ġaba rizwamo
ĠI turi
Ġkwi hagararaho
ĠP E
Ġcya hise
ubu faransa
ca re
Ġbata bwa
ĠIki loko
Ġbihe rutse
Ġze rekeza
ĠAka gera
Ġgisa ta
hindi ro
ĠMahama t
ĠHami sa
I buka
Ġa mba
Ġa ciye
Ġmu bana
Ġin yenzi
Ġbya teza
Ġkwi huza
Ġcyan ya
Ama hirwe
Ġkumu ta
giti re
Com ments
ĠServi ce
- -
6 5
R YA
Ġya fungu
Ġwa jyaga
Ġbu rebure
Ġubu gira
Ġiki twa
Ġrya shinzwe
ĠAba gabo
zaba yo
Na tangiye
yungu kiramo
Ġan ti
Ġana fite
Ġmubi sha
Ġguho rana
Ġtugeze mo
Ġi ganisha
Ġumu nyamahanga
Ġbu gi
Ġru hagaze
ibi sasu
ĠGa tsinzi
Ġmpu guke
ĠNi ko
renze ho
Ġziba rirwa
Ġbyu mwihariko
Ġkuga mbanira
Te am
Ġshe ne
Ġkubya rana
ĠHos pital
I PRC
se d
yu ranya
Ġha hurira
kin e
Umu ganga
Ġbyo herezwa
Ġwi rinde
ĠIn vest
min ota
Ġuwa bi
Ġyamu bajije
Ġ24 0
cyi baruta
Ġkwandi kwa
Ġabu rana
ĠShyo rongi
I CA
i kinamico
Ġn sanzwe
ga de
Ġgi kubiyemo
Umu nye
fati raho
Ġbigo rana
Ġrye rekana
Ġbimu tera
au x
ĠAfrican s
Ġaraba bwira
tengu ha
Ã ¶
Ġ ]
Ġba genewe
Ġya yobowe
Ġya shikirije
Ġm byi
Ġaba sivile
fu lu
ĠT oni
ĠO x
Ġ12 5
Ġizo ngera
igihe mbwe
pho re
te bbe
ro kora
Ġbari rimbye
uru toki
ĠMar s
Ġguka bya
nest y
Ġtwuba ke
e li
n yana
Ġa buze
Ġba tinze
ĠA fuganistani
Ġni shimiye
Ġmi gezi
ĠT y
Bi ba
Ġyato ranyijwe
ubuhu nzi
7 9
u bwe
ro ro
Ġwa wo
hu kana
ran yama
Ġgi kurikira
Ġbari fuza
cya fite
Ma li
Ġuda shaka
Ġryu zuye
Ġi funga
Ġku biri
ho mbye
ban ganya
Ġin tungane
Ġzi shoboka
kin girwa
ĠG on
Mu da
ĠE van
Ġiri nda
ĠWe ma
hwe mo
YO SE
ĠTwa girimana
Ndi buka
ĠRwan gombwa
bora h
y z
ga rira
Ġba jura
Ġya gurishije
Ġin jiji
Ġni teguye
Ġgi fata
Ġki bera
Ġma dolari
ama pfa
Umu kecuru
ĠT here
00 19
kuriki ze
Ġuku jya
ĠIgi ki
kere rwa
ĠCy ril
Ġwandi ka
ĠBayi senge
A reruya
f Ã©
Ġa shyiramo
Ġba ranga
ku ma
ĠR ick
du kira
hi mbi
kin ama
Ġza ha
Ġyara zi
Ġyara fite
ĠUbu jyanama
Ġkubu rizamo
ĠIki zulu
Ġkuta jya
ĠGÃ©ra rd
P rince
Ġa ye
gu ngira
di manche
ku raga
Ġwa fashije
Ġama rangi
Ġzi fatwa
Ġib yuka
ĠS wa
Ġrya sohotse
Ġkwa hariwe
Ġkumu jyana
Ġbamu sanze
ĠJu stice
ramu co
ĠBe ijing
Su per
forma tion
Ġi yubakwa
Ġmu bya
me hutu
Ġaba bwiriza
Ġubu gizi
Ġgi soza
ĠU M
Ġkwi gomwa
ĠC el
ĠF ro
Ġsi m
hagara re
ĠIki viyetinamu
Ġababi koze
ĠKari ndwi
ĠJuli us
imvu ruru
Ġriki jyana
E SE
t mund
Ġ ),
in kingi
Ġbi garagambya
Ġwa shatse
Ġki swe
ĠMu yango
ĠMu tsinzi
Ġkuba shimira
ĠW izkid
zaba sha
Ma j
Ġp ri
ĠMU KE
Ġnjye nyine
ĠAn tho
Ġihe ma
Ġba shishika
Ġgu hanura
hu ma
Ġzi bera
Ġkuri rimbira
tsi ka
ibi toke
Ġpe rereza
Ġkuvana ho
cie ty
I riya
W HO
Ġba fatanywe
bi ranya
Ġbi vu
ĠR win
yan imari
Ġngo yi
Umu nyeshuri
Ġz ana
mbo ye
ĠBu sh
ĠNya mvumba
Ha kaba
ĠO ka
Ġze merewe
ĠFa zil
Ġkuzamu rwa
ĠNdayi shimye
You ng
Ġrusan gi
S ura
Ġku bandi
ro mo
Ġgu sobanurirwa
ti metero
Ġwa huye
sha mo
Ġka rande
su hu
Ġiki lo
Ġbara gize
ĠSe ra
Ġuta bona
hawe nimana
wuba hiriza
kini ka
ZI RA
ĠMukaba lisa
d redi
gi que
zi z
zi gama
Ġbi we
Ġbi zima
Ġibi canwa
ĠU mwarimu
ĠY ES
Ġtwa jya
dwa rd
ĠDi s
ĠCa leb
Ġkuya koresha
Da ta
Ġmazu ru
U gu
Ġa sengera
Ġkwi mika
Ġrya byo
ĠNya gi
amavu riro
Ġate merewe
ĠOli ve
Ġbitwa za
ĠTP IR
Wor ld
g wanya
Ġ shusho
Ġya mbuwe
si rimu
Ġaba hi
Ġha kurikiyeho
Ġgi koreshwa
aba sa
mbi ro
mbu rira
ĠAba yisilamu
vuye kure
ĠAl phonsine
Nti twa
Ġyasinyi shije
Ġya koresha
Ġbi canyi
Ġbi shaje
Ġna bantu
Ġumu vumo
ĠA kanama
Ġgi koresho
Ġbwa hise
ĠO pen
tabi raga
Ġicya tuma
Ġbamu fata
SH IMANA
Ġimyi gire
Ġguse banya
Ko reya
Ġkuda ha
siri like
Ġagu ma
Ġsan tere
Ġkubya kira
c yan
f rey
l me
Ġn yoni
mi s
ĠM nangagwa
Ġbu kware
Ġuru hererekane
ĠMa xi
Ġara sa
ĠBa l
Ġbaha gurutse
ĠBi gogwe
RI ZA
Ġita renze
Ġtuba ha
ĠUni que
Ġdi s
ĠMoni que
A hari
B YE
S hare
U L
bu wano
Ġbi beshya
Ġbya banje
gen zereze
im an
Ġkumu subiza
soho rwa
Ġira bi
Ġicyi twa
ĠRo ll
ĠCom pa
Ġhara cya
sen ywa
Ġakomoka mo
ðŁ ĺ
Ġyere tswe
ĠTal ent
G ANDA
I biri
Ġi jyana
Ġa sigaje
Ġu bana
ki jijwe
tan g
Ġdu kurikije
Ġye mwe
ĠBa llon
Ġaza garuka
rangi rana
sore sore
Ġira cyari
can da
lu gariya
Ġgusu surutsa
ĠRw f
uburi ganya
Ġ ).
Ġi Phone
tu mvikana
wi mana
Ġubu fatanyacyaha
hi bi
Aba rwanyi
igi hangange
Ġgusa ranganya
Ġabi twa
sin ywe
Ġpo ritiki
ĠTo yota
Ġbake ya
ĠRU D
Ġyatumi wemo
Ġu soma
ye n
Ġba rengeje
Ġba sohoye
me z
je nje
Ġbu ze
Ġru tare
Ġcya gombaga
ibi rego
ranga ga
Ġye mererwa
shyin giwe
ĠJu lie
bara sa
Ġyata mbutse
ĠIgihe burayo
Ndayi shimiye
m wumva
Ġmu padiri
Ġku zu
ma ganye
Ġya pfa
yi ca
Ġbi yaga
Ġc h
Ġigi kwiye
Ġicya mu
herere zwa
mban iye
komo ra
Ġbyana tumye
ĠAntho ny
Ġa merewe
ga di
Ġba ve
Ġc hurch
Ġha bera
Ġama rondo
ubu twererane
Ġtu bizi
Ġuru nuka
Aba za
Ya vutse
Ya boneyeho
ou l
Ġkumu gira
ĠÂ ·
ĠIki ganiro
Ġazaba fasha
PA M
ĠIngo ma
Ac cueil
Ġu kurikira
in cuti
Ġya sabiwe
mi lle
Ġbu cya
nge rere
Ġka je
Ġnta wundi
Ġaka rima
Ġuru senda
Ġgusa biriza
Ġyaba fashije
Ġyan ye
fungu rira
BI RE
Ġnku bwire
Ġtwo ngera
ĠPla cide
Ġumwu nganizi
ĠSime on
Ġu twe
Ġku goboka
mo re
de mokarate
Ġw umvi
aba bo
ĠMu te
Ġri jyanye
ibi ba
Ubu taliyani
Ġdu tangiye
iki tegererezo
Na mu
ĠAr ts
Ġf rom
Ġabaha tuye
ĠAstra Zeneca
Ġba kangu
yo ga
ro up
Ġgu curuzwa
Ġwa hisemo
Ġumu hesha
ĠK uko
Ġim fu
Aba hagarariye
ĠPo pu
Ġkuva ho
Ġ' '
Ġyasa vye
Ch ris
i hangu
Ġn tuye
Ġmu soro
gu a
gu rana
Ġya shishikarije
Ġbu yi
mwe mera
Ġcya byo
Ġaka bu
Ġnti byi
âĢĻâĢĻ ,
bonan ye
ĠIgise pedi
N ina
bu basha
Ġwa kinnye
Ġzi ko
Ġgute zwa
Ġiza tanga
Ġbamu fashe
ĠPro gram
Ġguhi shira
Ġre fe
ĠAr sene
Ġbyara kozwe
Kwi rinda
Ġbwan du
Ġmwo bo
U RA
c re
u we
Ġa kurikiranwa
Ġba kwa
Ġba hohotewe
so mere
ĠMa puto
igi hano
Ġyaba fasha
ĠIki rundi
MA R
rÃ© sil
Ġbagu ma
Ġikiri ngo
ĠEx press
ĠCP C
Ndu hungirehe
SHO BO
Micha el
Ġn diri
ba girwe
Ġin timba
so da
Ġbya hitanye
umu shoferi
korwa ho
gani riro
ĠRe mezo
Ġuta shatse
Ġun yura
Ġ198 3
199 0
Ġingenga bihe
) .âĢĿ
O n
Ġn korera
Ġya sigaye
Ġya shakanye
tu ngani
Ġwa menye
Ġm byino
Ġma duka
Ġbya sobanuwe
ce ngera
Ġkumu bera
Bi tandukanye
Ġyamu teye
Ġtuka za
Ġkuya tanga
Yo h
Ġbibu kijwe
stan ce
ĠCHU B
verine ma
A s
i curuzwa
Ġmu kazi
Ġu jyanye
ke reye
Ġru shaka
Ġbya ga
ĠKa ban
Ġdu fate
Ġbaba saba
mbe ye
Ġikin ya
Ġbabi shaka
yiri gira
ĠEn tebbe
tandukan ywa
ĠEgi puta
ĠVo ice
ĠKabe za
ĠMasa mba
ĠCassi en
Yandi twe
K ama
T rans
ba rizwa
Ġu gerageza
te bo
tu na
Ġigi hangano
ĠH el
aban yamu
uru sengero
Ġkumu kubita
Ġan gahe
ĠBo ris
Ġike mezo
ĠIgice buwano
V incent
Ġa ge
Ġya beshye
ze rimana
me yang
Ġwa teguwe
Ġumu rinzi
Ġm basha
Ġm bizi
Ġin yanya
Ġni mwi
shyi tse
Ġza koreshejwe
ibi mera
ĠBu yoya
ĠRu ku
fatan wa
ĠMi lle
Ma c
NZI ZA
ganiza tion
ĠTheophi le
x o
Ġi fa
Ġba kurikiranweho
Ġgu hohoterwa
Ġbu ranga
Ġha teguwe
kin jira
Ġkuba subiza
Ġwi caye
Ġkwa mbika
imi genderanire
Gu shyira
taba ruka
Ġitegeko nshinga
ĠCent ral
Ġ197 5
ĠAga tsiko
An ne
ĠMbon yin
A lain
c in
f on
u k
Ġ .âĢĿ
vu gire
Ġwa gu
Ġdu sangiye
Ġuku baka
Iki buga
Ġmili metero
Ġ10 2
ĠAban yamakuru
Ġuza komeza
âĢľ .
Ġbagi teri
ĠGato rika
doho ka
Â ·
Ġ !!!!
Ġn shoboye
Ġu cu
ye ra
Ġba soma
Ġba pfiriye
Ġba rangajwe
ha te
Ġki du
umu rwayi
Ġimi tego
Ġyara ri
zama teka
Ġkujya ho
Ġmun zira
Ġguse ka
Ġmubi he
Ġbafata ga
Ġhu bahirizwa
in yangamugayo
yi ti
be at
to no
ĠMu nsi
Ġtu kumva
Ġrwo ngeye
Ġnama ra
ota l
ry stal
buza ga
The o
Ġli ve
Ja ck
ĠAc tive
re kuwe
gi rirwa
ĠS tella
Ġyi koreye
ĠL and
Aba rwayi
Ġbaza kina
ĠUbu genzacyaha
Ġkugi kemura
Ġitu we
Ġyahu raga
Kin shasa
Q ue
i yobokamana
mu li
ba ji
yu lu
Ġwa tangijwe
Ġumu guzi
Ġin kwano
Ġcya korwa
Mu kaba
ĠO TAN
ĠAma shuri
Ġkubu rira
Ġbwe ruye
Ġruza komeza
kwan giza
murika gurisha
ri zwe
si tara
Ġubu nyangamugayo
aba pfakazi
Ġigi faransa
Ġza komeje
Ġimi genzo
mye nda
ĠSe kibi
Ġbiga teza
rambo na
ĠPla y
cece kesha
Ġyakira ga
ĠEuro pe
ĠTur quoise
M c
Ġmu maze
Ġu ran
Ġbi o
Ġgu keka
yan tege
Ġzi hu
Ġbya tsinzwe
do do
ĠUmu vunyi
shimi raga
banu re
zan kano
Ġira hari
Ġibyi tso
Ġtuzi rikana
Ġbuza tuma
ĠRwabu gili
ĠRebe cca
ĠPale stine
D en
s yo
Ġya kanguriye
Ġru ngana
na ba
aba ya
Ġkuba kurikirana
Ġiza rangira
Ġyaha gurutse
Ġbika jya
kandi ka
Ġ197 6
Ġg Ã©nocide
ĠThÃ© oneste
ĠBose babireba
M BU
S C
p imye
Ġn g
vu re
Ġkwi suzuma
ibi tangaza
Ġdu tatu
ĠE llen
Ġata ka
ĠRe ka
Ġbaza hura
ĠJa li
Ko perative
Kwi ta
Ġbuta gira
Ġab yumva
pÃ© rance
ĠSil va
ĠDor tmund
homa munwa
V ic
ya li
Ġgu twarwa
Ġha jya
Ġama sha
Ġibi mera
Ġaka garagaza
igi tego
Ġara hari
yungu rura
Ġbaki zi
shinja byaha
ĠIki gega
KU N
Ġ197 8
M on
c ker
ka pa
yan o
ĠK W
Ġki vuye
ĠMu rama
le ra
Ġmi ssi
ĠGa cinya
Ġaga himbazamusyi
Ġwi gaga
Ġkure mera
Ġte am
Ġkuyi bona
ĠCa iro
Ġ[ ...
ĠZa yire
tere ta
pho nie
Ġakana ba
ĠLo pe
ĠMoni tor
ĠAbdo ul
C anada
I sezerano
R we
Ã ī
Ġa rwariye
Ġu tan
Ġba gerwaho
Ġna kubwira
ĠK anada
Ġha raba
Ġma vugurura
Ġrya cyo
um wanzuro
ĠZ u
gere kaho
ĠDi arra
shyan kwano
riri mvyi
ĠUwi tonze
genzura mikorere
Ġumwi ryane
shimu se
ĠYES U
J O
tu riki
ke ti
Ġama ramuko
Ġno t
ĠBu gingo
ngu zamateka
GI J
ĠNi geriya
ĠIbi za
Ã´ me
U kwi
Ġn koresha
Ġi sese
Ġa hin
Ġa hangaha
te mbera
Ġc ard
ran si
Ġkwi rara
Umu kunzi
igi hango
ĠPo liti
Ġ10 5
Nda gijimana
ĠWa ter
ikin yabupfura
ĠStar Times
PRO F
Ġi kennye
se ro
Ġgu kurikiraho
Ġaka ku
Ġnti bana
Ka ri
Ġbuza fasha
Ib yanditswe
LA K
Sha ddy
impe shyi
Ġnkun ganire
Ġu fitiye
bo hoza
Ġbi shimangira
Ġw injira
Ġim in
Ġkwi ra
Ġtwa geze
Ġata kwi
Imi ti
Ġkuda hana
Ġgushyin gurwa
ĠFor ce
Ġiranga mimerere
ĠTay lor
Colo nel
ĠGata gara
Ġi r
Ġku genza
yo ruba
ru gu
Ġya geragezaga
ku weho
Ġni zindi
Ġbya huje
no za
ĠTo ronto
ron g
ĠBri dge
shege she
ĠAmba ssa
Ġnyo ko
Q u
e mail
Ġku renganurwa
ru shije
ha tana
ban anira
Ġim yubakire
ubu kode
Umu ti
pe rs
im yuzure
Ġbara bizi
ngi riza
Ġgutu ngurwa
ĠNyaru buye
Ġbura ruko
ĠBert rand
8 6
f fa
bu gabo
ĠR F
Ġaba vuye
ĠU shobora
aba giraneza
kan gwa
san wa
ĠS inema
ĠKa garama
Ġcyo ngeye
yamama je
Ġbyara tumye
iro nda
ĠNou velle
8 5
u ni
Ġmu byukuri
Ġwa zanye
umu yoboro
ĠKa rusi
Ġrwa kozwe
Ġbwo nyine
Ġtwa ya
Ġbaba haye
ĠNya m
Ġibya mubayeho
ĠVi runga
Ġyate raniye
Ġg renade
Y IN
f ti
i or
z induka
ga ge
Ġmu canga
Ġba li
Ġin i
Ġzi heruka
Ġbya menyekanye
Ġban gavu
ĠIn tambara
Ġaza gera
tangi rwamo
Ġbana mu
ĠPatri ce
Sa mu
Mar tin
A hamya
Ġmu tangabuhamya
Ġku deta
in goro
tu rirwa
Ġbi dindiza
Ġgi fatwa
ĠN anone
ĠMu hirwa
Ġnta gire
Ġrwo hereje
Ġyaba gamo
ss port
Ġrwi haye
hani sha
ubusa bane
Ge rageza
publi ca
ĠFis ton
Ġwa hi
Ġin garagu
Ġha kana
Ġama hwemo
ĠU P
do niya
le ne
ĠKi geme
Ġnti bo
ĠGa ko
subi ka
ĠUmu huzabikorwa
Ġnko moko
Ġbana bi
Imi shinga
Ġyamu fashije
mwo rohera
sso r
nani ye
Muka mu
N U
u zi
Ġ menye
Ġu jejwe
Ġwa tangira
ĠA da
Ġama hane
Ġata shye
kiri nda
pan ze
Ġsa lon
rongo rwa
Imi g
TE K
ĠHi lls
byini ra
Ibya hishuwe
She ikh
Tuyi senge
O A
e x
in kondo
ta hana
Ġna ga
Ġaba ti
ĠK NC
ĠI ldephonse
sho reke
Ġza tangaje
ca le
uru muri
Ġyan gijwe
ĠAban yama
Ġbiza tangira
genzu ye
ĠNda daye
ĠGe o
Ġbare kurwa
Ġkugaru za
Ġyasinyi ye
IBU KA
N kaba
m yumvire
Ġn girango
Ġi shyize
Ġba gejejwe
Ġya tangazaga
sa i
Ġha genda
Ġgi sivili
ĠKa zungu
Ġimi tako
Ġban k
In kunga
zamu we
ĠMun ini
Ġbaseze rewe
Haba yeho
ploma te
gi tsina
Ġba kuramo
Ġc hampi
Ġna ka
Ġha tangizwaga
ĠA gency
Ġibi komeye
Ġri genewe
Ku ta
Ġyara tanze
rongo we
can ira
Ġbika genda
Ġbayi rimo
Ġana bi
umwe nda
Ã¨ me
ĠAka gali
ĠFin land
Ġinge mwe
Sou th
ĠPhilipp ines
f ra
ra be
Ġna buze
sha ko
Ġaba tware
ĠK har
fa busa
na bi
Ġyi bereye
ĠF DA
Ġnti bin
ĠRe ne
ĠSa ra
taba je
ĠNe t
gwi riwe
tungan yirize
mene tse
ganyi ka
Ġkunyura mo
vie w
Ġa shyikiriza
te ta
ze nze
se arch
Ġgu shwana
Ġgi keneye
ĠN tu
ĠN zu
rika zi
le mpike
Ġbari cwa
ĠGu sa
Ġbika jyana
ĠVi etnam
ĠGen til
Ġabu mva
Ġkum fasha
gwan isho
[...]
