{"<|endoftext|>":0,"<|pad|>":1,"<|unk|>":2,"!":3,"\"":4,"#":5,"$":6,"%":7,"&":8,"'":9,"(":10,")":11,"*":12,"+":13,",":14,"-":15,".":16,"/":17,"0":18,"1":19,"2":20,"3":21,"4":22,"5":23,"6":24,"7":25,"8":26,"9":27,":":28,";":29,"<":30,"=":31,">":32,"?":33,"@":34,"A":35,"B":36,"C":37,"D":38,"E":39,"F":40,"G":41,"H":42,"I":43,"J":44,"K":45,"L":46,"M":47,"N":48,"O":49,"P":50,"Q":51,"R":52,"S":53,"T":54,"U":55,"V":56,"W":57,"X":58,"Y":59,"Z":60,"[":61,"\\":62,"]":63,"^":64,"_":65,"`":66,"a":67,"b":68,"c":69,"d":70,"e":71,"f":72,"g":73,"h":74,"i":75,"j":76,"k":77,"l":78,"m":79,"n":80,"o":81,"p":82,"q":83,"r":84,"s":85,"t":86,"u":87,"v":88,"w":89,"x":90,"y":91,"z":92,"{":93,"|":94,"}":95,"~":96,"¡":97,"¢":98,"£":99,"¤":100,"¥":101,"¦":102,"§":103,"¨":104,"©":105,"ª":106,"«":107,"¬":108,"®":109,"¯":110,"°":111,"±":112,"²":113,"³":114,"´":115,"µ":116,"¶":117,"·":118,"¸":119,"¹":120,"º":121,"»":122,"¼":123,"½":124,"¾":125,"¿":126,"À":127,"Á":128,"Â":129,"Ã":130,"Ä":131,"Å":132,"Æ":133,"Ç":134,"È":135,"É":136,"Ê":137,"Ë":138,"Ì":139,"Í":140,"Î":141,"Ï":142,"Ð":143,"Ñ":144,"Ò":145,"Ó":146,"Ô":147,"Õ":148,"Ö":149,"×":150,"Ø":151,"Ù":152,"Ú":153,"Û":154,"Ü":155,"Ý":156,"Þ":157,"ß":158,"à":159,"á":160,"â":161,"ã":162,"ä":163,"å":164,"æ":165,"ç":166,"è":167,"é":168,"ê":169,"ë":170,"ì":171,"í":172,"î":173,"ï":174,"ð":175,"ñ":176,"ò":177,"ó":178,"ô":179,"õ":180,"ö":181,"÷":182,"ø":183,"ù":184,"ú":185,"û":186,"ü":187,"ý":188,"þ":189,"ÿ":190,"Ā":191,"ā":192,"Ă":193,"ă":194,"Ą":195,"ą":196,"Ć":197,"ć":198,"Ĉ":199,"ĉ":200,"Ċ":201,"ċ":202,"Č":203,"č":204,"Ď":205,"ď":206,"Đ":207,"đ":208,"Ē":209,"ē":210,"Ĕ":211,"ĕ":212,"Ė":213,"ė":214,"Ę":215,"ę":216,"Ě":217,"ě":218,"Ĝ":219,"ĝ":220,"Ğ":221,"ğ":222,"Ġ":223,"ġ":224,"Ģ":225,"ģ":226,"Ĥ":227,"ĥ":228,"Ħ":229,"ħ":230,"Ĩ":231,"ĩ":232,"Ī":233,"ī":234,"Ĭ":235,"ĭ":236,"Į":237,"į":238,"İ":239,"ı":240,"Ĳ":241,"ĳ":242,"Ĵ":243,"ĵ":244,"Ķ":245,"ķ":246,"ĸ":247,"Ĺ":248,"ĺ":249,"Ļ":250,"ļ":251,"Ľ":252,"ľ":253,"Ŀ":254,"ŀ":255,"Ł":256,"ł":257,"Ń":258,"an":259,"Ġb":260,"Ġk":261,"ri":262,"mu":263,"Ġn":264,"ra":265,"ya":266,"Ġi":267,"Ġa":268,"âĢ":269,"ga":270,"wa":271,"ba":272,"âĢĻ":273,"Ġmu":274,"re":275,"Ġu":276,"sh":277,"ye":278,"Ġku":279,"ko":280,"ma":281,"gi":282,"Ġba":283,"we":284,"za":285,"in":286,"ka":287,"gu":288,"yo":289,"ru":290,"zi":291,"Ġya":292,"bi":293,"ta":294,"ge":295,"te":296,"yi":297,"tu":298,"bu":299,"ha":300,"ze":301,"bo":302,"da":303,"go":304,"se":305,"ki":306,"Ġbi":307,"si":308,"wi":309,"ro":310,"ho":311,"Ġko":312,"Ġgu":313,"me":314,"di":315,"ku":316,"Ġc":317,"ana":318,"ti":319,"mi":320,"vu":321,"Ġna":322,"yu":323,"Ġwa":324,"ban":325,"wo":326,"hu":327,"Ġy":328,"je":329,"tan":330,"Ġr":331,"be":332,"mo":333,"sha":334,"wan":335,"he":336,"ĠR":337,"sa":338,"ĠM":339,"Ġumu":340,"Ġm":341,"yan":342,"ran":343,"shi":344,"Ġmuri":345,"Ġaba":346,"Ġin":347,"ĠK":348,"Ġbu":349,"rwa":350,"de":351,"Ġha":352,"Ġari":353,"fa":354,"li":355,"Ġubu":356,"du":357,"mwe":358,"ĠA":359,"zo":360,"ke":361,"han":362,"Ġama":363,"Ġni":364,"wanda":365,"tse":366,"Ġgi":367,"ĠI":368,"gan":369,"to":370,"Ġibi":371,"Ġ2":372,"ĠB":373,"ĠN":374,"so":375,"Ġw":376,"fi":377,"gira":378,"mba":379,"ne":380,"Ġru":381,"nge":382,"andi":383,"hi":384,"Ġngo":385,"na":386,"Ġim":387,"Ġki":388,"bere":389,"ĠU":390,"bwo":391,"vuga":392,"Ġka":393,"Ġzi":394,"sho":395,"ĠRwanda":396,"twa":397,"kin":398,"Ġ1":399,"aba":400,"kore":401,"Ġyo":402,"fu":403,"gara":404,"hugu":405,"ĠâĢ":406,"kan":407,"Ġma":408,"Ġbya":409,"Ġno":410,"zwe":411,"Ġkwi":412,"ĠP":413,"ĠC":414,"en":415,"Ġcyan":416,"kuru":417,"Ġib":418,"san":419,"umu":420,"ĠS":421,"Ġ20":422,"ĠG":423,"shin":424,"fite":425,"ama":426,"gen":427,"Ġkandi":428,"Ġcya":429,"Ġkuri":430,"Ġigi":431,"su":432,"kome":433,"gwa":434,"yobo":435,"ubu":436,"zu":437,"Ġaban":438,"giye":439,"cu":440,"ĠMu":441,"bwa":442,"Ġtu":443,"Ġiki":444,"Ġnta":445,"ĠKa":446,"Ġkuba":447,"rere":448,"tanga":449,"do":450,"Mu":451,"va":452,"kun":453,"men":454,"âĢĿ":455,"shyi":456,"Ġ(":457,"kora":458,"Ġza":459,"Ġyi":460,"Ġaka":461,"ts":462,"Ġwe":463,"Ġby":464,"shu":465,"ĠâĢľ":466,"Ġic":467,"Ġkuko":468,"shobo":469,"ryo":470,"rimo":471,"rika":472,"Ġnde":473,"Umu":474,"le":475,"ĠF":476,"Ġuru":477,"pe":478,"yuma":479,"Ġmi":480,"mana":481,"bwi":482,"Ġz":483,"ĠT":484,"nga":485,"riki":486,"Ġimi":487,"Ġariko":488,"korwa":489,"mbi":490,"vi":491,"Ġaho":492,"tege":493,"ci":494,"on":495,"ĠJ":496,"Ġbwa":497,"Ġndetse":498,"Ġri":499,"tsi":500,"pa":501,"rage":502,"Ġcyane":503,"jya":504,"yobozi":505,"jwe":506,"ce":507,"ĠL":508,"ĠD":509,"ini":510,"Ġbo":511,"mbo":512,"riye":513,"yaka":514,"Ġga":515,"Ġcy":516,"nda":517,"Ġbw":518,"Ġnk":519,"Ġbyo":520,"po":521,"ibi":522,"bye":523,"Ġgihe":524,"ira":525,"Ġ201":526,"yama":527,"hin":528,"she":529,"ĠKi":530,"Aba":531,"Ġhari":532,"ni":533,"Ġbari":534,"Ġati":535,"bera":536,"bona":537,"ntu":538,"ndi":539,"vuze":540,"ca":541,"Ġrya":542,"ĠBu":543,"indi":544,"bazo":545,"Ġuko":546,"Ġuyu":547,"zwa":548,"yango":549,"garaga":550,"ĠMa":551,"Ku":552,"la":553,"mwa":554,"kaba":555,"gize":556,"Ġyari":557,"rwanda":558,"Ġry":559,"turage":560,"biri":561,"hanga":562,"kwi":563,"rezi":564,"kanye":565,"ngu":566,"rana":567,"shaka":568,"uko":569,"eza":570,"Ġkugira":571,"00":572,"im":573,"Ya":574,"ĠH":575,"ryango":576,"shobora":577,"Ġrwa":578,"ngo":579,"Ġmbere":580,"tera":581,"gera":582,"Ġabantu":583,"yarwanda":584,"Ubu":585,"igi":586,"bana":587,"Ġdu":588,"aban":589,"ĠE":590,"gabo":591,"yin":592,"Ġavuga":593,"kana":594,"maze":595,"co":596,"ranga":597,"Ġcyangwa":598,"tsin":599,"Ġye":600,"Ġnyuma":601,"bya":602,"Ġnti":603,"kira":604,"wu":605,"tara":606,"Ġneza":607,"Ġibyo":608,"Ġwo":609,"ĠGa":610,"man":611,"rira":612,"Ġbwo":613,"shya":614,"fasha":615,"rezida":616,"Ġcyo":617,"zima":618,"ve":619,"shuri":620,"tandu":621,"Ġiyo":622,"Ġrw":623,"ngera":624,"ĠRu":625,"byi":626,"uru":627,"Ni":628,"gani":629,"ĠY":630,"jye":631,"Ġum":632,"pi":633,".âĢĿ":634,"Ġubwo":635,"Ġicyo":636,"20":637,"ji":638,"pu":639,"mbu":640,"gore":641,"saba":642,"Ġaga":643,"Ġban":644,"Ġmwa":645,"byo":646,"Ġtwa":647,"reza":648,"ruka":649,"baye":650,"riza":651,"Ġ3":652,"nye":653,"nsi":654,"erezida":655,"subi":656,"Ġburyo":657,"geze":658,"gana":659,"ĠLe":660,"menye":661,"Ġiyi":662,"gali":663,"mva":664,"twe":665,"ĠUmu":666,"Ġwi":667,"Ġata":668,"kino":669,"wana":670,"gomba":671,"tandukanye":672,"Ġgusa":673,"Ġzo":674,"kuriki":675,"rwe":676,"fo":677,"faranga":678,"ren":679,"ĠPa":680,"gura":681,"bwe":682,"..":683,"ciro":684,"cyo":685,"shimi":686,"Ġyavuze":687,"ja":688,"komeye":689,"wanya":690,"ani":691,"Ġbara":692,"tegeko":693,"shyira":694,"Ġkwa":695,"Ġimbere":696,"Ġigihe":697,"rero":698,"enshi":699,"renge":700,"Ġburi":701,"Ġse":702,"tariki":703,"no":704,"imi":705,"sanzwe":706,"komeza":707,"ĠKigali":708,"ranye":709,"Ġbata":710,"tuma":711,"ina":712,"Ġbaba":713,"Ġbaka":714,"Ġkubera":715,"nyi":716,"geza":717,"Ġgihugu":718,"Ġiri":719,"Ġmwaka":720,"kwa":721,"Ama":722,"sanga":723,"mye":724,"Ġbita":725,"zira":726,"Ġaha":727,"Ġnka":728,"ganda":729,"shinzwe":730,"korera":731,"inisi":732,"Ġakaba":733,"banu":734,"Ġrwe":735,"intu":736,"In":737,"lo":738,"Ġhan":739,"shwa":740,"ĠAba":741,"side":742,"koresha":743,"ĠW":744,"bone":745,"Ġ19":746,"kiri":747,"ĠLeta":748,"Ġgukora":749,"Ibi":750,"ĠNya":751,"koze":752,"shan":753,"zaba":754,"guru":755,"iki":756,"teke":757,"game":758,"komeje":759,"Ġt":760,"ubwo":761,"fata":762,"Ġbenshi":763,"curu":764,"ine":765,"raga":766,"cya":767,"Ġumuntu":768,"ĠV":769,"ĠPerezida":770,"ĠGi":771,"Ġbyi":772,"Ġrwo":773,"fatan":774,"Ġ-":775,"jyan":776,"mbe":777,"ĠCo":778,"Ġbe":779,"Ha":780,"Ġyara":781,"pam":782,"gati":783,"kobwa":784,"Ati":785,"bura":786,"shinga":787,"Ġmunsi":788,"Ġkwe":789,"yeme":790,"ĠKagame":791,"Ġabaturage":792,"furika":793,"Ġara":794,"Ġumwe":795,"igihugu":796,"rezo":797,"gami":798,"rya":799,"Igi":800,"Ba":801,"sobanu":802,"st":803,"garagaza":804,"Ġ5":805,"zamu":806,"bwira":807,"ĠO":808,"ĠâĢĺ":809,"Ġuku":810,"tangiye":811,"um":812,"ou":813,"shije":814,"tiri":815,"Ġ4":816,"inshi":817,"kene":818,"teka":819,"ib":820,"ĠIn":821,"er":822,"Ġguha":823,"eno":824,"ĠImana":825,"genda":826,"Ġuwo":827,"shize":828,"zama":829,"pamvu":830,"Ã©":831,"lisi":832,"seze":833,"Ġbyose":834,"riko":835,"Ġrwego":836,"mbere":837,"ĠPo":838,"diri":839,"reke":840,"Ġabana":841,"ngi":842,"hindu":843,"Ġbose":844,"hunda":845,"ĠBa":846,"enoside":847,"Ġyu":848,"insi":849,"Ġbafite":850,"PR":851,"Ġabi":852,"Ġtariki":853,"el":854,"tutsi":855,"kura":856,"Ġbaga":857,"kunda":858,"kwiye":859,"ĠJenoside":860,"merika":861,"pfu":862,"Ġbite":863,"rutse":864,"Ġbaha":865,"gari":866,"genzi":867,"korana":868,"jyi":869,"AN":870,"pan":871,"âĢĿ.":872,"shyu":873,"ĠRe":874,"Ġyaba":875,"Ġibya":876,"hanzi":877,"Ġamafaranga":878,"menya":879,"ganiro":880,"tsinda":881,"Ġhamwe":882,"nze":883,"teri":884,"mvi":885,"Ġbaza":886,"Ġimyaka":887,"Iki":888,"Ġahu":889,"Aban":890,"ĠHa":891,"Ġafite":892,"Ġkumu":893,"Ġgahunda":894,"buga":895,"ĠMi":896,"Ġabo":897,"ter":898,"kinnyi":899,"jyanye":900,"Ġaza":901,"Ġ,":902,"Ġkure":903,"Ġe":904,"19":905,"Ġabandi":906,"Ġsi":907,"tangira":908,"Ġmili":909,"Muri":910,"jo":911,"Ġuburyo":912,"kano":913,"sin":914,"tangi":915,"Ġgute":916,"Ġ202":917,"yoni":918,"Ġwari":919,"dwa":920,"Ġkugeza":921,"inisitiri":922,"Uyu":923,"ane":924,"yamakuru":925,"Ġbwi":926,"tin":927,"byeyi":928,"Ġhagati":929,"kiko":930,"garagara":931,"Ġkuva":932,"tego":933,"tangaje":934,"hora":935,"Ġbikorwa":936,"renga":937,"Ġho":938,"tekano":939,"Ġniba":940,"Ġkubi":941,"hita":942,"mera":943,"gisha":944,"tegetsi":945,"ĠSa":946,"ĠRa":947,"zego":948,"tabi":949,"ris":950,"Gu":951,"zuba":952,"bonye":953,"ĠYe":954,"tora":955,"kozi":956,"Ġbamwe":957,"ju":958,"karere":959,"kwe":960,"bwiye":961,"GI":962,"siga":963,"imyaka":964,"reye":965,"rusha":966,"tatu":967,"shwe":968,"yon":969,"abandi":970,"nde":971,"ĠAfurika":972,"banza":973,"mari":974,"Ġahubwo":975,"Ġharimo":976,"tswe":977,"Ġrero":978,"Ġ6":979,").":980,"),":981,"sirika":982,"ĠIgi":983,"rasi":984,"horo":985,"Ġbyinshi":986,"guye":987,"vuye":988,"nya":989,"Ġikibazo":990,"Ġibikorwa":991,"Ġigihugu":992,"ruko":993,"zan":994,"ĠZ":995,"hare":996,"Ġibintu":997,"tanu":998,"twara":999,"Ġiza":1000,"rundi":1001,"rengan":1002,"Ġbavuga":1003,"Ġkarere":1004,"mweru":1005,"por":1006,"yana":1007,"dirimbo":1008,"rije":1009,"kiye":1010,"ĠUbu":1011,"Ġimba":1012,"garuka":1013,"rano":1014,"tari":1015,"ham":1016,"tumwa":1017,"com":1018,"Ġgutanga":1019,"yuba":1020,"Ã¢":1021,"âĤ":1022,"âĤ¬":1023,"mwaka":1024,"Ġikin":1025,"Uru":1026,"ĠJe":1027,"Ġpo":1028,"hise":1029,"Ġ\"":1030,"bare":1031,"nzi":1032,"sirikare":1033,"Ġkabiri":1034,"riro":1035,"yumweru":1036,"Ġkujya":1037,"ndo":1038,"fuza":1039,"Ġntabwo":1040,"Ġhe":1041,"rangi":1042,"Ġkubona":1043,"tegan":1044,"yije":1045,"byiruko":1046,"Ġkimwe":1047,"gano":1048,"Ġ10":1049,"gendo":1050,"ll":1051,"Ġnawe":1052,"Ġahan":1053,"Ġuri":1054,"tyo":1055,"Ġmpu":1056,"humbi":1057,"rera":1058,"yinshi":1059,"Ġbatu":1060,"ĠNi":1061,"Ġ7":1062,"HE":1063,"fashe":1064,"sabye":1065,"Ġ0":1066,"Ġyakore":1067,"Ġiz":1068,"taba":1069,"ĠKo":1070,"ywa":1071,"mbwa":1072,"rinda":1073,"Ġyan":1074,"rwanya":1075,"abantu":1076,"ĠFC":1077,"Ġmaze":1078,"Ġyabo":1079,"tion":1080,"ul":1081,"Yagize":1082,"Bi":1083,"Ġicya":1084,"tare":1085,"gaban":1086,"Ġcyi":1087,"Ġyaha":1088,"min":1089,"...":1090,"meza":1091,"201":1092,"Ġkw":1093,"Ġmiliyoni":1094,"terambere":1095,"Ġbabi":1096,"tero":1097,"liti":1098,"rane":1099,"Ġbin":1100,"ĠBi":1101,"Ġbamu":1102,"Imana":1103,"ĠGu":1104,"Ġsa":1105,"Ġkugi":1106,"rani":1107,"ibindi":1108,"ganira":1109,"sange":1110,"Ġyose":1111,"curuzi":1112,"Ġuruhare":1113,"Ġubuzima":1114,"rire":1115,"âĦ":1116,"gero":1117,"soko":1118,"âĦ¢":1119,"Ġyagize":1120,"âĤ¬âĦ¢":1121,"ss":1122,"ic":1123,"sanze":1124,"moka":1125,"ĠâĢĵ":1126,"ĠUganda":1127,"000":1128,"Ġisi":1129,"ongo":1130,"ĠAmerika":1131,"jyana":1132,"qu":1133,"tso":1134,"Ġbiri":1135,"tima":1136,"Ġwese":1137,"vugwa":1138,"handa":1139,"Ġamakuru":1140,"RA":1141,"taka":1142,"Ġbihugu":1143,"nd":1144,"ĠKarere":1145,"aho":1146,"sezerano":1147,"mbye":1148,"Ġumwana":1149,"ar":1150,"ĠJean":1151,"kina":1152,"van":1153,"sore":1154,"Ġnda":1155,"Ġ8":1156,"Ġbakaba":1157,"Ġhafi":1158,"yandi":1159,"Ġnko":1160,"Ġibibazo":1161,"Ġiba":1162,"mbara":1163,"ĠSe":1164,"gamba":1165,"mwi":1166,"gere":1167,"banga":1168,"Ġhanze":1169,"Ġikipe":1170,"tumye":1171,"ĠAma":1172,"tekerezo":1173,"ywe":1174,"gende":1175,"Ġbiba":1176,"ĠAban":1177,"GIHE":1178,"tanda":1179,"Ġuwa":1180,"shanwa":1181,"Ġbiza":1182,"Umuyobozi":1183,"doka":1184,"uza":1185,"saru":1186,"Ġ2019":1187,"fati":1188,"Hari":1189,"Igihugu":1190,"ĠSpor":1191,"hinzi":1192,"pfo":1193,"ano":1194,"modoka":1195,"Nyuma":1196,"Ġinama":1197,"retse":1198,"shye":1199,"riwe":1200,"teye":1201,"Ġmwi":1202,"al":1203,"shyize":1204,"huza":1205,"zwi":1206,"Ġika":1207,"ranya":1208,"Ġbiga":1209,"toza":1210,"Ġ:":1211,"or":1212,"yiza":1213,"twi":1214,"Ġ199":1215,"abaturage":1216,"gingo":1217,"Nta":1218,"Ġnone":1219,"rw":1220,"Ġmuntu":1221,"shimira":1222,"Ġnaho":1223,"rango":1224,"Ġbira":1225,"Ġtwi":1226,"Ġ2020":1227,"Ġufite":1228,"Iyo":1229,"soho":1230,"Ġrusange":1231,"gizi":1232,"ĠAbatutsi":1233,"Ġmyaka":1234,"bereye":1235,"hura":1236,"ĠIGIHE":1237,"zweho":1238,"buhanga":1239,"juru":1240,"mp":1241,"tungo":1242,"Ġkibazo":1243,"kubi":1244,"Ġryo":1245,"fashi":1246,"fun":1247,"Ġbitandukanye":1248,"ĠDi":1249,"Ġkuza":1250,"Ġde":1251,"dan":1252,"foto":1253,"saruro":1254,"Ġbarimo":1255,"Ġbagiye":1256,"shyin":1257,"Ġhi":1258,"ĠJo":1259,"lika":1260,"Ġkubu":1261,"Ġbana":1262,"Perezida":1263,"Ġ15":1264,"swa":1265,"Ġira":1266,"yobora":1267,"reba":1268,"Tu":1269,"dwara":1270,"minuza":1271,"reka":1272,"Ġaya":1273,"Ġle":1274,"buka":1275,"kundo":1276,"gene":1277,"shobozi":1278,"ransa":1279,"Ġyakorewe":1280,"riya":1281,"Ġkugera":1282,"Ġatari":1283,"IN":1284,"Ġbamaze":1285,"ĠSports":1286,"ranira":1287,"âĢ¦":1288,"Na":1289,"renganzira":1290,"taramo":1291,"Ġakazi":1292,"Ġ9":1293,"rirwa":1294,"jambo":1295,"fungu":1296,"mere":1297,"koranabuhanga":1298,"kazi":1299,"Ġifite":1300,"zamahanga":1301,"Ġ200":1302,"Ġgushyira":1303,"rongo":1304,"shyaka":1305,"hana":1306,"can":1307,"kozwe":1308,"!!":1309,"baza":1310,"tandatu":1311,"faransa":1312,"garagaje":1313,"rwan":1314,"gerage":1315,"Ġ.":1316,"kungu":1317,"shuro":1318,"tuye":1319,"tanze":1320,"Iyi":1321,"hirwe":1322,"rwo":1323,"Ġsaa":1324,"mbuye":1325,"yeshuri":1326,"mira":1327,"koresho":1328,"Ġnama":1329,"ĠÂ":1330,"Ġamu":1331,"Ġ2017":1332,"ota":1333,"shimiye":1334,"cyaha":1335,"Ġ2018":1336,"gamije":1337,"koreshe":1338,"Ġmpamvu":1339,"Ġwu":1340,"Ġyandi":1341,"aga":1342,"BA":1343,"menyi":1344,"veri":1345,"Ġamaze":1346,"yungu":1347,"koreshwa":1348,"Ġbwe":1349,"que":1350,"ngan":1351,"poro":1352,"kunga":1353,"Ġnya":1354,"ĠMo":1355,"YA":1356,"Ġbaki":1357,"mara":1358,"ĠPolisi":1359,"Ġumutekano":1360,"Ġnabi":1361,"fe":1362,"Ġuza":1363,"goro":1364,"Ġrwi":1365,"RI":1366,"rizwa":1367,"Ġan":1368,"haye":1369,"ry":1370,"kunze":1371,"ID":1372,"Ġayo":1373,"hari":1374,"nal":1375,"bikorwa":1376,"Ġte":1377,"pfa":1378,"Ġumugore":1379,"Ġkurusha":1380,"shyirwa":1381,"shinja":1382,"Ubwo":1383,"Ġnyinshi":1384,"Ġagira":1385,"ĠDe":1386,"Ġbantu":1387,"Ka":1388,"Ġuta":1389,"nyama":1390,"Ġuka":1391,"Ġbityo":1392,"fatanya":1393,"Ġkuyi":1394,"uyu":1395,"zere":1396,"ganga":1397,"tangaza":1398,"Ġ12":1399,"hoze":1400,"hamwe":1401,"Ġnabo":1402,"Ġs":1403,"ĠMe":1404,"siyo":1405,"Ġbirimo":1406,"ngeye":1407,"Ġmukuru":1408,"Ġimbaraga":1409,"wandi":1410,"Ġbazi":1411,"Ġmuryango":1412,"hango":1413,"kombe":1414,"Ariko":1415,"Ġcye":1416,"rt":1417,"Ġbabo":1418,"litiki":1419,"ĠPaul":1420,"Ġubwi":1421,"gambo":1422,"meze":1423,"Ġyabi":1424,"Ġindirimbo":1425,"Ġinyuma":1426,"tsa":1427,"keneye":1428,"Ġbakora":1429,"kemu":1430,"Ġizi":1431,"inisiteri":1432,"rivi":1433,"il":1434,"Ġhaba":1435,"hamya":1436,"shami":1437,"rushanwa":1438,"shatsi":1439,"pira":1440,"shingano":1441,"Ġwitwa":1442,"Ġkin":1443,"ngereza":1444,"ĠRayon":1445,"Ġleta":1446,"sira":1447,"Ġnzi":1448,"Ġkumenya":1449,"Ġbyari":1450,"Ġrimwe":1451,"enya":1452,"ĠKu":1453,"âĢľ":1454,"shakashatsi":1455,"Ġimwe":1456,"Ġbahu":1457,"Ma":1458,"shoboka":1459,"habwa":1460,"Ġv":1461,"Ġ2021":1462,"shingiye":1463,"garu":1464,"hagara":1465,"Ġibihumbi":1466,"ĠMinisitiri":1467,"shoboye":1468,"Ġkurwanya":1469,"Ġyatangaje":1470,"siye":1471,"pera":1472,"hera":1473,"Ġ2016":1474,"ibyo":1475,"ĠBurundi":1476,"liya":1477,"kuko":1478,"Ġrugo":1479,"yuze":1480,"ol":1481,"yijwe":1482,"WA":1483,"Ġbuzima":1484,"herere":1485,"Ġdo":1486,"Ġumwanya":1487,"ire":1488,"ĠAf":1489,"yumba":1490,"Kuri":1491,"Ġuba":1492,"Ġbikaba":1493,"ck":1494,"Ġ30":1495,"torero":1496,"bwenge":1497,"Ġicyi":1498,"mbwe":1499,"Ġpe":1500,"iz":1501,"tegu":1502,"Ġiminsi":1503,"shyura":1504,"kuri":1505,"yemezo":1506,"oni":1507,"ĠIki":1508,"gije":1509,"Ġumusaruro":1510,"ĠSi":1511,"Ġserivi":1512,"mbaga":1513,"MA":1514,"Ġmukino":1515,"tekereza":1516,"ĠBo":1517,"Ġagaciro":1518,"ĠRo":1519,"Ġkubaka":1520,"th":1521,"Ġbika":1522,"reje":1523,"Ġ11":1524,"paka":1525,"Ġitariki":1526,"Ġimpamvu":1527,"rd":1528,"Ġtwe":1529,"shyigi":1530,"fatanye":1531,"Ġmpuzamahanga":1532,"Ġnubwo":1533,"jije":1534,"Ġizo":1535,"mezi":1536,"Ġwan":1537,"nshi":1538,"Ġbada":1539,"yongera":1540,"Akarere":1541,"fatwa":1542,"ĠDr":1543,"Ġkwezi":1544,"rwego":1545,"ĠCongo":1546,"senge":1547,"isi":1548,"Ġushinzwe":1549,"Ġgukomeza":1550,"RE":1551,"sigaye":1552,"banda":1553,"tewe":1554,"Ġo":1555,"abana":1556,"genga":1557,"Ġubwa":1558,"fashwe":1559,"Ġkugirango":1560,"Ġbijyanye":1561,"Imi":1562,"Ġbitewe":1563,"ĠCa":1564,"Ġkuvuga":1565,"Im":1566,"Ġgukoresha":1567,"ĠNa":1568,"Ibyo":1569,"Ġnu":1570,"terwa":1571,"bwiriza":1572,"Ġminsi":1573,"ĠJa":1574,"teko":1575,"Ġibiri":1576,"ĠAbanyarwanda":1577,"zamakuru":1578,"Ġgufata":1579,"ĠWe":1580,"jira":1581,"saga":1582,"shuti":1583,"sura":1584,"is":1585,"Ġmo":1586,"baba":1587,"Ġbihe":1588,"uka":1589,"tangazamakuru":1590,"mbura":1591,"ĠTo":1592,"ĠNe":1593,"Ġusanga":1594,"Ġimpan":1595,"Ġtura":1596,"Ġimpu":1597,"Ġ25":1598,"Ġikaba":1599,"zani":1600,"hariko":1601,"Ġzose":1602,"kipe":1603,"Ġugu":1604,"yiri":1605,"jwi":1606,"Ġumuryango":1607,"Ġgufasha":1608,"Ġp":1609,"ziki":1610,"Ġumugabo":1611,"rekana":1612,"yine":1613,"yira":1614,"suzu":1615,"Ġibyaha":1616,"umwi":1617,"Ġca":1618,"kunzi":1619,"Ġkwirinda":1620,"Ġgushaka":1621,"Ġamazi":1622,"dugu":1623,"Ġyabwiye":1624,"Ġ18":1625,"gire":1626,"tsinze":1627,"ch":1628,"Ġuga":1629,"banze":1630,"Ġumuyobozi":1631,"saha":1632,"Ġita":1633,"menyetso":1634,"vid":1635,"giza":1636,"genzu":1637,"Ġnibwo":1638,"SH":1639,"ent":1640,"sabwa":1641,"dege":1642,"renze":1643,"bereho":1644,"shora":1645,"somo":1646,"indu":1647,"Ġbituma":1648,"Ġ[":1649,"Ġmen":1650,"ĠSu":1651,"hande":1652,"Ġkongera":1653,"rin":1654,"Ġkun":1655,"ibihugu":1656,"Ġkuvu":1657,"gambi":1658,"Ġuburenganzira":1659,"twaye":1660,"Ġyamu":1661,"MU":1662,"dugudu":1663,"Ġiterambere":1664,"Ġbati":1665,"lu":1666,"mpi":1667,"subira":1668,"boneka":1669,"nyamabanga":1670,"Ġbyiza":1671,"Ġgutu":1672,"abi":1673,"Icyo":1674,"Ġumwaka":1675,"yaga":1676,"shusho":1677,"Ġserivisi":1678,"ĠFPR":1679,"Ġivuga":1680,"rwayi":1681,"Ġhejuru":1682,"Ikin":1683,"Ġubushobozi":1684,"Ġze":1685,"reme":1686,"pite":1687,"ĠGicu":1688,"Ġmenshi":1689,"mban":1690,"Ġbimwe":1691,"Ġabayobozi":1692,"Ġkiganiro":1693,"Ġashobora":1694,"Ġamahirwe":1695,"pubu":1696,"Ġndi":1697,"Ġisoko":1698,"Ġada":1699,"Ġ14":1700,"Ġubuyobozi":1701,"Ġgutera":1702,"Ġabanyarwanda":1703,"tsina":1704,"muga":1705,"kije":1706,"Ġgito":1707,"GA":1708,"kire":1709,"Ġmwanya":1710,"Ġumun":1711,"inji":1712,"Ġntiba":1713,"Ru":1714,"Ġâ":1715,"Ġabari":1716,"Ġhano":1717,"yari":1718,"rusi":1719,"Ġkumwe":1720,"Ġagiye":1721,"Ġkigo":1722,"kuba":1723,"Ġ13":1724,"gufu":1725,"Ġbida":1726,"yumvi":1727,"Ġbaturage":1728,"subiza":1729,"Ġyabaye":1730,"Ġishuri":1731,"ĠDa":1732,"Ġgatatu":1733,"hano":1734,"abo":1735,"kurikirana":1736,"tanye":1737,"Ġtele":1738,"hawe":1739,"ven":1740,"Ġimyi":1741,"Ġzitandukanye":1742,"kanga":1743,"Ġahantu":1744,"yona":1745,"haga":1746,"ubuzima":1747,"kirwa":1748,"Bu":1749,"ĠKenya":1750,"tabo":1751,"Ġmun":1752,"ruguru":1753,"ty":1754,"teza":1755,"Ġizina":1756,"Ġbagomba":1757,"ndu":1758,"Abanyarwanda":1759,"hangana":1760,"Ġkwiga":1761,"yemo":1762,"tegura":1763,"ĠBan":1764,"Ġnayo":1765,"zera":1766,"Ġaki":1767,"korerwa":1768,"sobanura":1769,"Ġbye":1770,"noma":1771,"Ġimirimo":1772,"hindura":1773,"Ġmyiza":1774,"ĠAl":1775,"Ġ16":1776,"kanya":1777,"Ġkuzi":1778,"Ġinta":1779,"verinoma":1780,"Ġyaje":1781,"icyo":1782,"pubulika":1783,"Ġyombi":1784,"Ġinda":1785,"one":1786,"shanya":1787,"rayi":1788,"Ġnkuru":1789,"Ġabagore":1790,"zuro":1791,"Ġurubyiruko":1792,"mena":1793,"Ġguteza":1794,"Ġra":1795,"girwa":1796,"Ġgikorwa":1797,"bin":1798,"Ġamategeko":1799,"ur":1800,"tabera":1801,"guri":1802,"Ġbagenzi":1803,"iyi":1804,"joro":1805,"Ġkuwa":1806,"razi":1807,"shika":1808,"Ġkoko":1809,"Ġmujyi":1810,"ubwi":1811,"maro":1812,"Ġke":1813,"Ġako":1814,"yamara":1815,"Ġhose":1816,"mwami":1817,"ria":1818,"Ġyagiye":1819,"Ġyagi":1820,"here":1821,"ĠCO":1822,"ĠAPR":1823,"vugizi":1824,"bavu":1825,"Ġcyumweru":1826,"amategeko":1827,"ĠFa":1828,"Ġutu":1829,"teguye":1830,"Ġyakoze":1831,"zana":1832,"Ġazi":1833,"kani":1834,"bon":1835,"ĠIsi":1836,"ment":1837,"hereza":1838,"Ġ17":1839,"umuntu":1840,"Ġkan":1841,"anzani":1842,"mini":1843,"Ġingaruka":1844,"vo":1845,"Ġfi":1846,"Ġbato":1847,"iyo":1848,"ĠMinisiteri":1849,"hungu":1850,"ing":1851,"misiyo":1852,"Ġinzu":1853,"horaho":1854,"umuryango":1855,"ĠJu":1856,"Ġyitwa":1857,"Ġpa":1858,"Ġzabo":1859,"Ġmurenge":1860,"Ġturi":1861,"ĠRepubulika":1862,"ĠMurenge":1863,"ĠTe":1864,"ĠPe":1865,"Ġryi":1866,"Ġkiri":1867,"Ġwabo":1868,"pfuye":1869,"Minisitiri":1870,"Ġbigo":1871,"Umuryango":1872,"tonde":1873,"cye":1874,"hunga":1875,"Ġnziza":1876,"shira":1877,"Ġbake":1878,"shyamba":1879,"ĠLi":1880,"Ġcyose":1881,"Ġ1994":1882,"tabira":1883,"Ġibindi":1884,"Ġmugabo":1885,"Ġindi":1886,"ziya":1887,"ram":1888,"hutu":1889,"amafaranga":1890,"kera":1891,"Ġbabiri":1892,"Pa":1893,"Ġbyaba":1894,"Ġijambo":1895,"tiye":1896,"rus":1897,"che":1898,"rangira":1899,"kara":1900,"Ġndirimbo":1901,"ĠYa":1902,"Ġyatangiye":1903,"yandiko":1904,"ĠThe":1905,"Ġamasezerano":1906,"Ġubutumwa":1907,"ver":1908,"zina":1909,"Ġbajya":1910,"vura":1911,"Ġumunsi":1912,"VID":1913,"Ġyahise":1914,"Ġbikomeye":1915,"ir":1916,"kwira":1917,"Ġnzu":1918,"Ġiga":1919,"Ġsha":1920,"gabane":1921,"day":1922,"wuga":1923,"Ġundi":1924,"Gusa":1925,"Ġmwiza":1926,"subizo":1927,"Ġiby":1928,"ĠMata":1929,"Ġvi":1930,"Ġbashobora":1931,"tarama":1932,"Ġngombwa":1933,"yeho":1934,"ngabo":1935,"BC":1936,"kurikira":1937,"SA":1938,"les":1939,"Ġyasabye":1940,"Ġura":1941,"Twa":1942,"yamu":1943,"Ġinkunga":1944,"buze":1945,"Ġbagi":1946,"ste":1947,"DA":1948,"umutekano":1949,"Ġnzego":1950,"Ġubundi":1951,"rozi":1952,"ĠNda":1953,"Ġabakinnyi":1954,"tebe":1955,"ĠTanzani":1956,"fana":1957,"Ġguso":1958,"basha":1959,"Ġyanditse":1960,"Ġguse":1961,"tangwa":1962,"imari":1963,"twari":1964,"risto":1965,"rica":1966,"ĠHu":1967,"Ġikoranabuhanga":1968,"Ġkumva":1969,"rie":1970,"injira":1971,"Ġaman":1972,"umwihariko":1973,"Ġkuru":1974,"Ġco":1975,"ĠRwa":1976,"ON":1977,"Ġyeme":1978,"fungwa":1979,"Ġbayi":1980,"Ġimaze":1981,"Ġabe":1982,"herutse":1983,"Ġbishobora":1984,"Re":1985,"Ġrwose":1986,"Ġibihugu":1987,"buye":1988,"Ġimodoka":1989,"Ġpolitiki":1990,"zuye":1991,"Ġumukino":1992,"tive":1993,"Ġida":1994,"Ġkwita":1995,"rona":1996,"Ġdore":1997,"haranira":1998,"ĠLa":1999,"tana":2000,"maga":2001,"koresheje":2002,"ĠFrw":2003,"polisi":2004,"vandi":2005,"korere":2006,"hova":2007,"FA":2008,"Ġntacyo":2009,"ĠFran":2010,"canyi":2011,"ĠTu":2012,"Ġnkuko":2013,"Yavuze":2014,"bizi":2015,"shyan":2016,"yamama":2017,"ranyije":2018,"ĠYesu":2019,"ĠKaminuza":2020,"Ġnuko":2021,"bano":2022,"Ġzirimo":2023,"igihe":2024,"son":2025,"Ġntibi":2026,"Ġkazi":2027,"Ġ24":2028,"Ġana":2029,"Ki":2030,"rereza":2031,"vandimwe":2032,"izindi":2033,"Ġdufite":2034,"Ġbiro":2035,"yenda":2036,"Ġicyaha":2037,"Ġkiza":2038,"Ġishize":2039,"KA":2040,"Avuga":2041,"Ġukuri":2042,"RU":2043,"shinwa":2044,"Ġindwara":2045,"bazi":2046,"dio":2047,"Ġamahoro":2048,"mbaye":2049,"Ġababyeyi":2050,"ganye":2051,"Ġruhande":2052,"riri":2053,"Ġukun":2054,"Ġtuza":2055,"hagije":2056,"Ġkureba":2057,"sta":2058,"rwaho":2059,"shinjacyaha":2060,"ramu":2061,"wuka":2062,"yimana":2063,"Ġabakozi":2064,"ĠCom":2065,"ĠMU":2066,"Ġbibazo":2067,"Ġmbi":2068,"shijwe":2069,"Ġkipe":2070,"Ġmutwe":2071,"Ġikintu":2072,"shanyarazi":2073,"ĠMar":2074,"Ġbacu":2075,"roko":2076,"Ġinshingano":2077,"goma":2078,"twaro":2079,"Ġinzego":2080,"tanyi":2081,"ĠCovid":2082,"Ġburu":2083,"Ġvu":2084,"hoho":2085,"tabiriye":2086,"Ġamateka":2087,"shiman":2088,"ĠUwi":2089,"Ġbashaka":2090,"yumva":2091,"gerageza":2092,"Ġmba":2093,"Ġbwabo":2094,"rangiza":2095,"ĠUru":2096,"Ġziri":2097,"heruka":2098,"dana":2099,"giro":2100,"Ġubutegetsi":2101,"sozi":2102,"Nda":2103,"umugore":2104,"gendera":2105,"manu":2106,"soro":2107,"by":2108,"kisha":2109,"rengera":2110,"Ġ21":2111,"gwi":2112,"hame":2113,"akarere":2114,"Abi":2115,"yoboye":2116,"inga":2117,"Ġake":2118,"Ġiryo":2119,"Ġatu":2120,"onal":2121,"Ġshampi":2122,"ĠCOVID":2123,"hagarariye":2124,"Ġiti":2125,"rimu":2126,"Ġguta":2127,"Ġtuba":2128,"rebe":2129,"rekeza":2130,"jeje":2131,"ibanze":2132,"Ġitsinda":2133,"gurira":2134,"Yakomeje":2135,"ĠHo":2136,"Ġbagera":2137,"hariye":2138,"banje":2139,"wabo":2140,"kurikiran":2141,"shishika":2142,"kotanyi":2143,"bayeho":2144,"Ġshampiyona":2145,"swe":2146,"tte":2147,"yina":2148,"ĠMukuru":2149,"Ġinyungu":2150,"Ġnshya":2151,"metero":2152,"uburyo":2153,"byara":2154,"Ġgukorera":2155,"Ġyacu":2156,"Ġagomba":2157,"gaga":2158,"ĠYehova":2159,"Aha":2160,"umwaka":2161,"Ġkwica":2162,"yobya":2163,"hugurwa":2164,"garagaye":2165,"ganwa":2166,"roshye":2167,"sumbuye":2168,"hitamo":2169,"ĠIkin":2170,"tura":2171,"Ġmashuri":2172,"ĠUbumwe":2173,"kosa":2174,"Ga":2175,"dy":2176,"Ġkwan":2177,"ĠUmuyobozi":2178,"kandi":2179,"Ġgace":2180,"Ġvuba":2181,"nama":2182,"Ġniyo":2183,"ĠNyakanga":2184,"Ġje":2185,"raso":2186,"Ġibikoresho":2187,"ronavi":2188,"Ġ2015":2189,"yabu":2190,"hinda":2191,"tali":2192,"anama":2193,"sade":2194,"Ġimikino":2195,"Nk":2196,"Ġiya":2197,"Ġso":2198,"rangije":2199,"uwa":2200,"nyine":2201,"ĠMusanze":2202,"mvikana":2203,"Ġ23":2204,"gabanya":2205,"Ġbagize":2206,"IM":2207,"Ġnshuro":2208,"ĠVi":2209,"Ġumubare":2210,"Ġ22":2211,"shake":2212,"ĠBe":2213,"Ġudu":2214,"Ġamashuri":2215,"KU":2216,"higo":2217,"ĠGo":2218,"Ġmikino":2219,"tira":2220,"abagore":2221,"dini":2222,"rimana":2223,"ĠBufaransa":2224,"Ġntara":2225,"Ġrumwe":2226,"komoka":2227,"ĠSo":2228,"mpa":2229,"Ġakora":2230,"Ġabanyeshuri":2231,"ĠGicurasi":2232,"Ġkuta":2233,"rangiye":2234,"kwiriye":2235,"rump":2236,"Ġnzira":2237,"Ġkuzamu":2238,"fashije":2239,"yuranye":2240,"Ġtuka":2241,"Ġingabo":2242,"DC":2243,"sera":2244,"rangwa":2245,"sabi":2246,"ssi":2247,"yubahi":2248,"Bamwe":2249,"Ġnari":2250,"Ġushize":2251,"Ġbitaro":2252,"sanzu":2253,"Ġrye":2254,"ly":2255,"lice":2256,"Niba":2257,"Ġibiro":2258,"ĠMuse":2259,"uwo":2260,"Ese":2261,"rs":2262,"shyingo":2263,"Ġmwe":2264,"Ġbyabo":2265,"ĠGe":2266,"mero":2267,"ruwa":2268,"ton":2269,"Ġ100":2270,"Ġhin":2271,"Ġumukobwa":2272,"genge":2273,"Ġhasi":2274,"kwezi":2275,"rimi":2276,"Ġitu":2277,"Ġhirya":2278,"Ġgato":2279,"yemeje":2280,"Ġibyi":2281,"Ġigikorwa":2282,"Ġinzira":2283,"ĠNze":2284,"aka":2285,"noside":2286,"ĠKamena":2287,"genzura":2288,"perereza":2289,"ĠCla":2290,"shima":2291,"Ġibin":2292,"rurwe":2293,"Ġimiryango":2294,"ws":2295,"fitanye":2296,"ciye":2297,"ndwi":2298,"tani":2299,"byiri":2300,"Ġwanjye":2301,"ĠDu":2302,"zihi":2303,"Ko":2304,"Ġicyizere":2305,"unze":2306,"lle":2307,"ER":2308,"Ġurwo":2309,"AC":2310,"Ġguku":2311,"Ġmuhanda":2312,"Ikindi":2313,"yura":2314,"Ġbitu":2315,"Ġmugi":2316,"tic":2317,"ĠMiss":2318,"ĠFD":2319,"kwakira":2320,"Ġof":2321,"gereza":2322,"Ġbwiza":2323,"ronavirus":2324,"shiki":2325,"Ġman":2326,"Du":2327,"tanzwe":2328,"Amerika":2329,"Ġruswa":2330,"shatse":2331,"ĠMujyi":2332,"genewe":2333,"ikipe":2334,"mbasade":2335,"Ġumwi":2336,"Ġbinyuze":2337,"inzego":2338,"Ye":2339,"Ġkaminuza":2340,"ngere":2341,"fitiye":2342,"Ġirimo":2343,"umwe":2344,"Ġyamaze":2345,"kemura":2346,"boko":2347,"hinduka":2348,"nganya":2349,"ingabo":2350,"rali":2351,"Amakuru":2352,"ĠMan":2353,"gezweho":2354,"Ġinshuro":2355,"Epfo":2356,"wanzuro":2357,"Ġhino":2358,"gesera":2359,"Ġushobora":2360,"perative":2361,"hara":2362,"Ġkibuga":2363,"shyantare":2364,"Ġbahawe":2365,"Ġkurya":2366,"boza":2367,"kenewe":2368,"jyanama":2369,"teganya":2370,"ĠWerurwe":2371,"Ġyahawe":2372,"depite":2373,"Ġguhangana":2374,"and":2375,"Ġinkuru":2376,"10":2377,"amashuri":2378,"ngirije":2379,"YE":2380,"Ġyuko":2381,"mwo":2382,"tri":2383,"hinga":2384,"ron":2385,"Ġmiliyari":2386,"Ġ?":2387,"Ġkuya":2388,"Ġitatu":2389,"gushyingo":2390,"ĠPro":2391,"KO":2392,"nyarwanda":2393,"ĠUni":2394,"Ġubumenyi":2395,"ĠNo":2396,"kikije":2397,"curuzwa":2398,"manza":2399,"Ġinzo":2400,"kuye":2401,"yobyabwenge":2402,"buza":2403,"ĠGashyantare":2404,"rusiya":2405,"tore":2406,"Ġwawe":2407,"bili":2408,"Ġashaka":2409,"Ġubusa":2410,"ubuyobozi":2411,"Ġwaba":2412,"rimbo":2413,"ĠÂ«":2414,"buto":2415,"Ġkwishyura":2416,"Ġuda":2417,"toki":2418,"Ġubumuga":2419,"Ġbyatumye":2420,"Ġfili":2421,"fatanyije":2422,"Ġburundu":2423,"bunga":2424,"ibya":2425,"Ġgukina":2426,"Ġmakuru":2427,"Ġhaza":2428,"hanu":2429,"gwe":2430,"shingwa":2431,"Icya":2432,"Ġguhi":2433,"ĠEm":2434,"ĠRubavu":2435,"ĠToday":2436,"bije":2437,"Ġgitaramo":2438,"merewe":2439,"Ġbintu":2440,"ibiliya":2441,"bangami":2442,"Ġmafaranga":2443,"Ġyakomeje":2444,"anditswe":2445,"Ġguhabwa":2446,"ĠMutarama":2447,"Ġ27":2448,"Ġyatu":2449,"Ġ28":2450,"Ġasaba":2451,"Ġajya":2452,"tangazo":2453,"koro":2454,"Ġnoneho":2455,"ĠAu":2456,"Ġnjye":2457,"kaza":2458,"Ġjenoside":2459,"Ġbakoze":2460,"ZA":2461,"amaguru":2462,"Ġkubaho":2463,"yanya":2464,"ĠTrump":2465,"ĠKanama":2466,"mes":2467,"Ġarimo":2468,"Ġ26":2469,"Ġ50":2470,"yemeza":2471,"shoramari":2472,"shyirahamwe":2473,"Ġibiganiro":2474,"ranyi":2475,"Ġmwana":2476,"\".":2477,"kiza":2478,"Nubwo":2479,"ric":2480,"Ġre":2481,"Ġinka":2482,"Ġyayo":2483,"sheje":2484,"Ġzari":2485,"ĠTanzania":2486,"mama":2487,"kingo":2488,"Ġbaje":2489,"tel":2490,"siyete":2491,"taro":2492,"hani":2493,"huye":2494,"raba":2495,"Ġkwakira":2496,"Ntabwo":2497,"Ġnyamara":2498,"ĠFe":2499,"ĠÂ»":2500,"zimana":2501,"ĠnÃ¢":2502,"wongereza":2503,"jijwe":2504,"rwi":2505,"Ġingamba":2506,"curuza":2507,"Ġibihe":2508,"Ġubwoba":2509,"ster":2510,"Ġhanyuma":2511,"IB":2512,"Kuva":2513,"ĠAr":2514,"Rwanda":2515,"kane":2516,"Ġubumwe":2517,"Ġkugu":2518,"har":2519,"hira":2520,"Ġisu":2521,"teganyijwe":2522,"rura":2523,"ĠâĨ":2524,"kwaho":2525,"manuel":2526,"ĠUgushyingo":2527,"magana":2528,"Ġgisirikare":2529,"Abantu":2530,"jyaruguru":2531,"mokarasi":2532,"CO":2533,"zeye":2534,"liziya":2535,"Ġntu":2536,"shimye":2537,"Ġkane":2538,"shyizwe":2539,"Ġbatandukanye":2540,"rwana":2541,"menyesha":2542,"Ġyavu":2543,"Po":2544,"Ġakamaro":2545,"TA":2546,"jyepfo":2547,"kuboza":2548,"Ġbifite":2549,"SE":2550,"induka":2551,"Ġmubi":2552,"Ġuretse":2553,"abayobozi":2554,"Ġizindi":2555,"herereye":2556,"Ġnke":2557,"vuzi":2558,"ukuri":2559,"Ġcyari":2560,"Ġbitabi":2561,"ĠâĨĴ":2562,"cwa":2563,"jwa":2564,"Ġbibiri":2565,"yubako":2566,"gombaga":2567,"Ġkuyobora":2568,"Ġicyemezo":2569,"am":2570,"tozo":2571,"yuka":2572,"Ġkwibuka":2573,"Ġitegeko":2574,"Ġyashyize":2575,"ĠBwongereza":2576,"hereye":2577,"ball":2578,"Ġibitekerezo":2579,"Ġkenshi":2580,"anjye":2581,"ĠSta":2582,"ĠNyama":2583,"kesha":2584,"kiriye":2585,"lin":2586,"Ġntiya":2587,"rego":2588,"ĠYo":2589,"jana":2590,"iterambere":2591,"âĢĻâĢĻ":2592,"tegereje":2593,"Ġnabyo":2594,"mewe":2595,"wuba":2596,"ĠUkwakira":2597,"Ġamagambo":2598,"Ġibitego":2599,"camanza":2600,"shyigikira":2601,"LR":2602,"Abo":2603,"Ġurukundo":2604,"Ġ2022":2605,"Ġurugero":2606,"Ġabatutsi":2607,"WE":2608,"my":2609,"DE":2610,"subize":2611,"Ġimu":2612,"Ġigikombe":2613,"Ikigo":2614,"Ġub":2615,"ĠLea":2616,"Ġumutwe":2617,"gue":2618,"cumbi":2619,"stin":2620,"Ġgusaba":2621,"Ġumuco":2622,"amavu":2623,"Ġziba":2624,"bert":2625,"dura":2626,"dukikije":2627,"giwe":2628,"Ġishobora":2629,"ĠIs":2630,"zabi":2631,"Ġniko":2632,"gizwe":2633,"Ngo":2634,"gurisha":2635,"Ġabagabo":2636,"shinjwa":2637,"sobanuye":2638,"zungu":2639,"Ġmake":2640,"rabu":2641,"Ġbuba":2642,"Ġisa":2643,"hiriza":2644,"ĠGuverinoma":2645,"Ġgukorana":2646,".\"":2647,"Ġimp":2648,"Ġmatora":2649,"umugabo":2650,"ĠZa":2651,"yangombwa":2652,"Ġumaze":2653,"Ġto":2654,"Ġuzi":2655,"Ho":2656,"Ġimbabazi":2657,"Ne":2658,"Ġmugenzi":2659,"Ġwacu":2660,"goroba":2661,"yigi":2662,"Ġkugenda":2663,"Ġmahanga":2664,"Ġcyiciro":2665,"Ġraporo":2666,"ĠAfrica":2667,"ĠAn":2668,"kari":2669,"Ġbaku":2670,"Ġgutuma":2671,"Ġyagaragaje":2672,"Ġibigo":2673,"ANA":2674,"genza":2675,"kini":2676,"Ġbabona":2677,"Ġbagira":2678,"sohoka":2679,"Ġiso":2680,"rimba":2681,"ĠBBC":2682,"Ġmukobwa":2683,"Ġbivugwa":2684,"rasira":2685,"Ġ!":2686,"ous":2687,"butso":2688,"Ã¨":2689,"ranyambaga":2690,"Ġamanota":2691,"Uko":2692,"ub":2693,"ĠHuye":2694,"Ġruna":2695,"Ġkurushaho":2696,"ĠNtara":2697,"ĠZunze":2698,"shimwe":2699,"Ġd":2700,"Ġbice":2701,"ĠKomisiyo":2702,"ĠNyan":2703,"Ġbakiri":2704,"Ġimibereho":2705,"Ġbutumwa":2706,"Ġdi":2707,"Ġnaba":2708,"Ġebyiri":2709,"saza":2710,"huje":2711,"ĠKan":2712,"ph":2713,"ĠUkuboza":2714,"Ġgutwara":2715,"Ġnyarwanda":2716,"ĠNyaga":2717,"rushaho":2718,"Ġbyan":2719,"ĠTa":2720,"Ġbatatu":2721,"23":2722,"garutse":2723,"biligi":2724,"ĠNta":2725,"Ġhakaba":2726,"suye":2727,"Ġmbona":2728,"Ġikindi":2729,"ĠEmmanuel":2730,"Umwe":2731,"shyizweho":2732,"Ġngingo":2733,"Ġayi":2734,"Ġirushanwa":2735,"Yo":2736,"gihugu":2737,"mber":2738,"cyi":2739,"tangajwe":2740,"gena":2741,"Ġamatora":2742,"Ġmugore":2743,"Nti":2744,"komere":2745,"ted":2746,"huriro":2747,"ĠBibiliya":2748,"tsiko":2749,"GO":2750,"ĠKin":2751,"Ġintego":2752,"ruhu":2753,"Ġbatuye":2754,"Abaturage":2755,"Ġikigo":2756,"ĠCh":2757,"kinira":2758,"Uwo":2759,"Ġmyi":2760,"ĠNzeri":2761,"Ġbindi":2762,"seke":2763,"seri":2764,"kiwe":2765,"Ġitanu":2766,"BU":2767,"Ġbyara":2768,"Ġbandi":2769,"tere":2770,"Ġyita":2771,"rugendo":2772,"Ġbatangiye":2773,"Ġnkoranyambaga":2774,"Ġkuda":2775,"kondo":2776,"regwa":2777,"sizi":2778,"Ġukuntu":2779,"Ġar":2780,"ganya":2781,"Ġgikomeye":2782,"ĠWa":2783,"Ġabakobwa":2784,"ĠBen":2785,"Ġtwari":2786,"Ġejo":2787,"ĠDo":2788,"ikin":2789,"Ġbayobozi":2790,"Ra":2791,"Ġubi":2792,"zanyo":2793,"ĠYezu":2794,"kundana":2795,"âĢĻ,":2796,"sagara":2797,"Ġiperereza":2798,"beshya":2799,"mura":2800,"inota":2801,"Ġmiryango":2802,"Ġabanya":2803,"moko":2804,"rwaye":2805,"veni":2806,"Ġrunaka":2807,"umwana":2808,"Ġbakwiye":2809,"Ġumutima":2810,"Ġgukura":2811,"Kuba":2812,"Ġimpano":2813,"hn":2814,"Ġkugaragaza":2815,"vugo":2816,"ĠIbi":2817,"bwoba":2818,"Ġyawe":2819,"amazi":2820,"Ġguhera":2821,"ubucuruzi":2822,"pho":2823,"Ġyaho":2824,"kangura":2825,"ubutegetsi":2826,"Ġperezida":2827,"Ġukaba":2828,"abanyarwanda":2829,"Ġgukorwa":2830,"ĠCoronavirus":2831,"indege":2832,"abakobwa":2833,"hagaze":2834,"Ġ29":2835,"ĠFDLR":2836,"ĠNyaru":2837,"ikoranabuhanga":2838,"Ġmibi":2839,"Ġgutangira":2840,"rokotse":2841,"Ġamasomo":2842,"ĠPi":2843,"shingwabikorwa":2844,"TE":2845,"Ġariyo":2846,"Ġikomeye":2847,"Ġgitondo":2848,"komeze":2849,"ristu":2850,"shimo":2851,"Ġbimu":2852,"Ġ'":2853,"Ġamabwiriza":2854,"12":2855,"gufi":2856,"giri":2857,"Ġzimwe":2858,"zanye":2859,"Ġkinini":2860,"ZI":2861,"Ġmasezerano":2862,"Ġyatanze":2863,"Le":2864,"âĢĻ.":2865,"Ġmuganga":2866,"remezo":2867,"kerarugendo":2868,"bara":2869,"ingenzi":2870,"mya":2871,"Ġkera":2872,"genze":2873,"Ġbigaragara":2874,"Ġbayo":2875,"Ġbutegetsi":2876,"yubahiro":2877,"tangarije":2878,"Ġwowe":2879,"Ġinko":2880,"den":2881,"ibikorwa":2882,"gaho":2883,"Ġfilime":2884,"Umunyamabanga":2885,"Ġigitego":2886,"Ġamaso":2887,"Ġingu":2888,"Ġgucu":2889,"yanga":2890,"Ġaku":2891,"hampi":2892,"tsindi":2893,"vuza":2894,"Ġmushinga":2895,"Ġzu":2896,"Dr":2897,"tor":2898,"ĠNkuru":2899,"Ġbitabiriye":2900,"daga":2901,"Ġnibura":2902,"vier":2903,"cent":2904,"Ġtubi":2905,"myi":2906,"Ġgutegura":2907,"Ubuyobozi":2908,"ahan":2909,"11":2910,"Ġmfite":2911,"Ġmagambo":2912,"Ġwungirije":2913,"GE":2914,"Ġumupira":2915,"Ġkwinjira":2916,"simbu":2917,"Ġmateka":2918,"Ġigiye":2919,"Ġkwiba":2920,"Ġyagiranye":2921,"menyekana":2922,"Ġitangazamakuru":2923,"Ġyongeye":2924,"koreye":2925,"burasira":2926,"senga":2927,"Ġintwaro":2928,"Ġkura":2929,"Ġbate":2930,"Ġbakuru":2931,"ĠRwi":2932,"vuguru":2933,"Ġahi":2934,"Ġkwandi":2935,"pimo":2936,"Ġmpera":2937,"sana":2938,"Ġyana":2939,"Ġkira":2940,"Ġbyombi":2941,"burasirazuba":2942,"Ġbageze":2943,"Ġziza":2944,"Ġazaba":2945,"Ġnza":2946,"âĢĿ,":2947,"ĠBurayi":2948,"ĠBugesera":2949,"AR":2950,"bonera":2951,"ĠCon":2952,"gombye":2953,"OT":2954,"Ġamezi":2955,"ĠGen":2956,"lari":2957,"Ġurugendo":2958,"suzuma":2959,"ĠRi":2960,"Ġbakomeje":2961,"kiro":2962,"None":2963,"Ġ2014":2964,"ken":2965,"Ġmyinshi":2966,"Ġguhindura":2967,"neri":2968,"yamuryango":2969,"terabwoba":2970,"Isi":2971,"ĠMusubize":2972,"Ġumushinga":2973,"geria":2974,"rengerazuba":2975,"bire":2976,"Ġmpan":2977,"cika":2978,"Ġariwe":2979,"Ġamakipe":2980,"Ġmbuga":2981,"damu":2982,"Ġurukiko":2983,"Ġ#":2984,"sabo":2985,"Ġmuhanzi":2986,"Ġ40":2987,"kangurambaga":2988,"yamba":2989,"butsa":2990,"mite":2991,"bumbye":2992,"shimangira":2993,"Ġgishinzwe":2994,"Ġgusha":2995,"Ġgutsinda":2996,"Ta":2997,"korewe":2998,"Ġmusore":2999,"rohe":3000,"iminsi":3001,"%.":3002,"shyikiri":3003,"Ġmuzi":3004,"tegeka":3005,"sese":3006,"Ġturere":3007,"ĠPolice":3008,"ld":3009,"geraho":3010,"Ġgatanu":3011,"zongera":3012,"kubita":3013,"Ġbombi":3014,"Ġmw":3015,"Iri":3016,"ĠKayi":3017,"byarimana":3018,"bonetse":3019,"Ġbatari":3020,"iri":3021,"Kugeza":3022,"yobowe":3023,"Ġubucuruzi":3024,"muri":3025,"shyiraho":3026,"bonano":3027,"gabe":3028,"our":3029,"muka":3030,"ibigo":3031,"inta":3032,"Ġubukungu":3033,"Ġigaragaza":3034,"Ġguhu":3035,"muntu":3036,"Ġmodoka":3037,"Ġkintu":3038,"imwe":3039,"xt":3040,"Ġabona":3041,"puro":3042,"Ġintambara":3043,"size":3044,"Ġugasanga":3045,"Ġbwoko":3046,"Ġbakoresha":3047,"Kwi":3048,"Ġmeza":3049,"Afurika":3050,"Ġbasa":3051,"hwa":3052,"anone":3053,"Uwa":3054,"net":3055,"yoborere":3056,"Si":3057,"Ġumuziki":3058,"twarire":3059,"Ġmuto":3060,"amavuko":3061,"ble":3062,"Ġbigatuma":3063,"ubundi":3064,"rukan":3065,"Agira":3066,"Bya":3067,"Ġibijyanye":3068,"Ġukwi":3069,"tter":3070,"Ġbwose":3071,"Ġabiri":3072,"Ġuzwi":3073,"Ġgiti":3074,"lly":3075,"Ġumwanzuro":3076,"Ġkugura":3077,"Ġibimenyetso":3078,"ngenge":3079,"suwe":3080,"ikigo":3081,"YI":3082,"teguwe":3083,"jejwe":3084,"amado":3085,"thi":3086,"Ġicu":3087,"Ġintege":3088,"Ġbufatanye":3089,"iya":3090,"hagari":3091,"Ġzita":3092,"Inama":3093,"rekeye":3094,"Home":3095,"girira":3096,"umukobwa":3097,"ĠGatanu":3098,"ĠKiliziya":3099,"Ġkiba":3100,"vuka":3101,"sco":3102,"Ġkuzamura":3103,"nota":3104,"papuro":3105,"Ġgifite":3106,"Ġumurimo":3107,"Ġakarere":3108,"up":3109,"jemo":3110,"Ġcyabo":3111,"tabazi":3112,"ngereye":3113,"ĠTi":3114,"Ġizaba":3115,"Ġguca":3116,"shyigikiye":3117,"Ġ2012":3118,"tangiza":3119,"Ġurubanza":3120,"ganiriye":3121,"TU":3122,"Do":3123,"garagaro":3124,"Ġrubuga":3125,"Ġinshuti":3126,"rasirazuba":3127,"ibibazo":3128,"Ġf":3129,"rari":3130,"foni":3131,"Ġbarenga":3132,"imikino":3133,"Ġyata":3134,"Ġ2013":3135,"mbasaderi":3136,"rwamo":3137,"shishikariza":3138,"Ġingufu":3139,"dage":3140,"tional":3141,"Ġyuba":3142,"Ġniwe":3143,"sengero":3144,"fatiwe":3145,"NC":3146,"kimbi":3147,"ĠHi":3148,"Ġumukinnyi":3149,"Ġurwego":3150,"banya":3151,"Ġtw":3152,"gukanye":3153,"Pre":3154,"Ġbahabwa":3155,"Uretse":3156,"Ġimiti":3157,"Ġbiganiro":3158,"Ġicyorezo":3159,"Ġahita":3160,"sse":3161,"Ġamashusho":3162,"IS":3163,"yumvire":3164,"Ġingo":3165,"SHYA":3166,"Ġnatwe":3167,"utu":3168,"Ġbuta":3169,"cy":3170,"Ġbibi":3171,"fatanyabikorwa":3172,"gejeje":3173,"Ġyise":3174,"Ġkuki":3175,"ranire":3176,"ticle":3177,"amahanga":3178,"Ġakana":3179,"Ġbura":3180,"inda":3181,"Ġkita":3182,"ĠClau":3183,"Ġatatu":3184,"hwe":3185,"2017":3186,"ĠMuhanga":3187,"ME":3188,"ĠJohn":3189,"tsinzwe":3190,"Ġkwigisha":3191,"kimbirane":3192,"Ġamazina":3193,"Um":3194,"gina":3195,"Ġahandi":3196,"Ġigice":3197,"jura":3198,"HO":3199,"gamijwe":3200,"herero":3201,"gamizi":3202,"Se":3203,"50":3204,"Ġkari":3205,"Ġwayo":3206,"Ġndwara":3207,"ganire":3208,"Ġnumva":3209,"Ġgukurikirana":3210,"Ġumuti":3211,"Urukiko":3212,"Ġmuhango":3213,"garika":3214,"tinya":3215,"Ġbakorera":3216,"Ġyumva":3217,"ĠJose":3218,"Ġabafite":3219,"Ġishyaka":3220,"Ġugere":3221,"Ġbazaba":3222,"ĠâĢĻ":3223,"Ġukomeye":3224,"21":3225,"imba":3226,"ĠMun":3227,"Ġrushanwa":3228,"Aho":3229,"Ġkugaragara":3230,"gengo":3231,"ND":3232,"urubyiruko":3233,"nyeri":3234,"ĠMuseveni":3235,"Ġnyina":3236,"aman":3237,"Ġbuda":3238,"as":3239,"Ġbifuza":3240,"Uwi":3241,"KI":3242,"sasu":3243,"ĠHabyarimana":3244,"ngabunga":3245,"Ġukuvuga":3246,"Ġwabaye":3247,"Ġgice":3248,"Ġat":3249,"Ġcg":3250,"Ġakomeza":3251,"mond":3252,"vamo":3253,"Ġkare":3254,"hohoterwa":3255,"menyekanye":3256,"win":3257,"Ġbatara":3258,"vugaga":3259,"teganyo":3260,"Ġumunani":3261,"ubukungu":3262,"hama":3263,"Ġuti":3264,"Ġkutu":3265,"for":3266,"Ġagaragaza":3267,"Ġakenshi":3268,"yigisho":3269,"gamo":3270,"huti":3271,"Mi":3272,"un":3273,"huriye":3274,"Ġagera":3275,"Ġgereza":3276,"BI":3277,"Ġyageze":3278,"Ġine":3279,"dri":3280,"abakozi":3281,"Ġbyaha":3282,"Ġitandukanye":3283,"ĠMbere":3284,"Ġubwe":3285,"Ġiwabo":3286,"Ġahanini":3287,"Ġyifuza":3288,"Intebe":3289,"Ġamaraso":3290,"Ġwara":3291,"Igihe":3292,"Ġushaka":3293,"lan":3294,"rebana":3295,"ĠNyiri":3296,"ĠMuka":3297,"ee":3298,"Ġkub":3299,"Ġam":3300,"ĠRU":3301,"agaciro":3302,"Ġmushya":3303,"Ubuzima":3304,"Ġbahise":3305,"vubi":3306,"Ġyabonye":3307,"ĠAkarere":3308,"Ġtuga":3309,"kwirakwi":3310,"Ġabanza":3311,"funga":3312,"ĠTwi":3313,"Ġryari":3314,"Ġbimeze":3315,"rengane":3316,"Â»":3317,"ababyeyi":3318,"kandida":3319,"Ġyatsinze":3320,"Ġnabwo":3321,"Ġbwan":3322,"shini":3323,"Ġumutungo":3324,"Ġimpunzi":3325,"Ġyafashe":3326,"tangiriro":3327,"shatu":3328,"Ġpolisi":3329,"hoza":3330,"fashisha":3331,"Ġatandukanye":3332,"tumi":3333,"erre":3334,"ber":3335,"Ġgukemura":3336,"Ġrukiko":3337,"jyanwa":3338,"Ġumubyeyi":3339,"Ġumubano":3340,"Ġabahanzi":3341,"lla":3342,"reze":3343,"Ġbahanzi":3344,"ĠGatatu":3345,"vutse":3346,"Ġbyabaye":3347,"ĠLu":3348,"vana":3349,"pp":3350,"Ġimbo":3351,"CA":3352,"impu":3353,"Ġguhura":3354,"banyi":3355,"duye":3356,"Ġabasirikare":3357,"Ġmura":3358,"guzi":3359,"Ġmugaragaro":3360,"Ġmaso":3361,"fone":3362,"Ġnku":3363,"Ikipe":3364,"Ġand":3365,"yoma":3366,"ĠGatandatu":3367,"Ġumuriro":3368,"amahoro":3369,"Ġmuyobozi":3370,"Ġbwari":3371,"nziza":3372,"Ġbakinnyi":3373,"urukundo":3374,"Umuvugizi":3375,"Ġbabonye":3376,"tangazwa":3377,"zamuka":3378,"??":3379,"Ġwamu":3380,"Ġumubiri":3381,"Ġtugomba":3382,"taha":3383,"Ġubushakashatsi":3384,"ĠKwi":3385,"yani":3386,"nyamakuru":3387,"ĠKU":3388,"baga":3389,"funzwe":3390,"ERWA":3391,"sti":3392,"Ġumutoza":3393,"shimishije":3394,"Ġumuhanzi":3395,"Ġihe":3396,"Ġtwese":3397,"shinze":3398,"ture":3399,"Ġkuha":3400,"Ġumunya":3401,"Ġal":3402,"Ġbutaka":3403,"ĠMarie":3404,"ĠFi":3405,"Ġkubungabunga":3406,"ĠBushinwa":3407,"Ġmutima":3408,"ĠInter":3409,"Ġsin":3410,"Ġitorero":3411,"byaye":3412,"Ġkire":3413,"Ġubutaka":3414,"Ġahari":3415,"Ġgukumira":3416,"Ġtwo":3417,"zara":3418,"Ġatara":3419,"ĠKabiri":3420,"gurwa":3421,"gukana":3422,"shyiki":3423,"ĠBA":3424,"Ġigitaramo":3425,"rebye":3426,"rewe":3427,"Ġnibyo":3428,"gishwa":3429,"ise":3430,"Ġzin":3431,"Ġmirimo":3432,"Ġbasanzwe":3433,"ĠAmakuru":3434,"Ġurugo":3435,"Ġyemeza":3436,"ĠRadio":3437,"Ġbadu":3438,"mpan":3439,"Ġbyu":3440,"shakanye":3441,"dani":3442,"hamaga":3443,"Ġkurinda":3444,"Ġyahi":3445,"zindu":3446,"agateganyo":3447,"Ġmunota":3448,"Aya":3449,"Ġvya":3450,"burani":3451,"Ingabo":3452,"Ġkigero":3453,"Ġuvuga":3454,"garagam":3455,"juje":3456,"Ġkugabanya":3457,"Ġyanjye":3458,"Ġrubanda":3459,"Ġ31":3460,"Ġasanzwe":3461,"ĠUwiteka":3462,"ahandi":3463,"Ġzifite":3464,"rima":3465,"koraga":3466,"Bira":3467,"keye":3468,"Ġgushyiraho":3469,"hangayi":3470,"Aka":3471,"gh":3472,"Ġcyacu":3473,"icya":3474,"gare":3475,"Ġbisanzwe":3476,"Ġbikwiye":3477,"Ġukora":3478,"turutse":3479,"ĠUwa":3480,"tungu":3481,"Ġnshingano":3482,"Ġkuga":3483,"Ġbatanga":3484,"ANDA":3485,"fungura":3486,"ĠEs":3487,"2018":3488,"turanyi":3489,"Umurenge":3490,"zihiza":3491,"Ġusanzwe":3492,"vious":3493,"Ġbavuze":3494,"Ġibyiza":3495,"Ġishami":3496,"Ġubutabera":3497,"ĠDemokarasi":3498,"ĠNyanza":3499,"Ġnanjye":3500,"tsinzi":3501,"ĠHe":3502,"nti":3503,"ley":3504,"ciwe":3505,"rijwe":3506,"Ġugomba":3507,"tsindwa":3508,"Ġibiyobyabwenge":3509,"Ġmategeko":3510,"kangurira":3511,"gatifu":3512,"amond":3513,"sengi":3514,"Ġbun":3515,"koreshejwe":3516,"ĠRusizi":3517,"yamahanga":3518,"ramo":3519,"ddy":3520,"Ġbagore":3521,"Ġkwitabira":3522,"ĠIM":3523,"Ġamashanyarazi":3524,"merera":3525,"ket":3526,"terere":3527,"ĠKongo":3528,"Ġagi":3529,"hanuzi":3530,"gerageje":3531,"bukuru":3532,"Ġzikomeye":3533,"Ġmugabane":3534,"Ġakiri":3535,"Ġbane":3536,"Mbere":3537,"indirimbo":3538,"ruta":3539,"Ġrufite":3540,"ĠIN":3541,"Ġkubura":3542,"undi":3543,"Me":3544,"ura":3545,"gega":3546,"kurikije":3547,"kunzwe":3548,"Ġubona":3549,"biriwe":3550,"Ġguto":3551,"imyi":3552,"Ġigira":3553,"kundi":3554,"ĠKane":3555,"Ġaribo":3556,"ĠyÃ¢":3557,"us":3558,"Ġyisumbuye":3559,"Ġisan":3560,"Ġtelefoni":3561,"Ġruri":3562,"Ġhagamijwe":3563,"Akomeza":3564,"Ġumwuka":3565,"30":3566,"mije":3567,"Ġimishinga":3568,"Ġcyorezo":3569,"Ġrubyiruko":3570,"Ġcyaha":3571,"ziyo":3572,"Ġbene":3573,"ĠNyira":3574,"sobanuro":3575,"Ġrutonde":3576,"shumba":3577,"ĠPatri":3578,"Ġyako":3579,"Ġkudu":3580,"YO":3581,"Ġguhe":3582,"RW":3583,"Ġimyenda":3584,"ĠLt":3585,"Ġabenshi":3586,"DEPR":3587,"Ġibyangombwa":3588,"Ġgatandatu":3589,"HA":3590,"tangije":3591,"lub":3592,"Ġarticle":3593,"Abanya":3594,"Ġtuzi":3595,"nes":3596,"Ġ2024":3597,"Ġimpinduka":3598,"teli":3599,"Ġsiporo":3600,"Ġsosiyete":3601,"Ġgusura":3602,"the":3603,"soma":3604,"Ġnibo":3605,"zamini":3606,"sibye":3607,"bitekerezo":3608,"inya":3609,"Ġ60":3610,"cukiro":3611,"ys":3612,"amezi":3613,"Ġabakiri":3614,"cha":3615,"Ġuki":3616,"fashishwa":3617,"Ġijoro":3618,"ngabire":3619,"Ġkwandika":3620,"Ġmp":3621,"Ġyayi":3622,"ĠRE":3623,"ssa":3624,"vuzwe":3625,"kristo":3626,"injiza":3627,"siteri":3628,"citse":3629,"ĠImi":3630,"abagabo":3631,"umukino":3632,"goye":3633,"Ġinyandiko":3634,"kurwa":3635,"Ġbwite":3636,"Ġintambwe":3637,"Sa":3638,"shanyo":3639,"Ġrugendo":3640,"Iburasirazuba":3641,"Ġindege":3642,"Ġubufatanye":3643,"zabitsina":3644,"mani":3645,"geni":3646,"Ġmuda":3647,"shakaga":3648,"fungo":3649,"Ġandi":3650,"tre":3651,"viziyo":3652,"Ġuwi":3653,"Ġbako":3654,"Ġgusubira":3655,"tal":3656,"Ġmazi":3657,"umuyobozi":3658,"ĠEric":3659,"Ġubufasha":3660,"Ġrubanza":3661,"haza":3662,"Ġbanki":3663,"diyo":3664,"Ġbagabo":3665,"Ġgakondo":3666,"ĠAS":3667,"KE":3668,"Ġumuturage":3669,"Next":3670,"Ġimpungenge":3671,"Ġ2011":3672,"verineri":3673,"Wa":3674,"Ġriri":3675,"umupira":3676,"Ġguhuza":3677,"Ġnyandiko":3678,"Ġugiye":3679,"Ġbakomeye":3680,"tiwe":3681,"ĠKA":3682,"Ġmpuzabitsina":3683,"ĠYanditswe":3684,"Ġruta":3685,"Ġngufu":3686,"Ġumukozi":3687,"Ġbwinshi":3688,"ĠUMU":3689,"ĠUnited":3690,"Ġisuku":3691,"rambo":3692,"yita":3693,"rwanyi":3694,"tabara":3695,"Ġyadu":3696,"terahamwe":3697,"ĠKivu":3698,"uburezi":3699,"hingwa":3700,"Ġyasoho":3701,"Ġhara":3702,"Ġmuba":3703,"ngiro":3704,"Ġasanga":3705,"Ġababa":3706,"ĠClaude":3707,"Ġzira":3708,"Ġimpanuka":3709,"mbuka":3710,"Dore":3711,"ĠBanki":3712,"shahara":3713,"Ġbakunda":3714,"taliki":3715,"eu":3716,"Icyakora":3717,"ĠTwa":3718,"Tura":3719,"Ġimyitozo":3720,"ĠCi":3721,"imiryango":3722,"Ġsita":3723,"Ġmunini":3724,"VA":3725,"ibihumbi":3726,"Kubera":3727,"phe":3728,"Ġbitatu":3729,"mutse":3730,"Ġguhagarika":3731,"abanya":3732,"Ġzida":3733,"ganjemo":3734,"ard":3735,"Ġimikorere":3736,"ukwezi":3737,"Previous":3738,"sengesho":3739,"soza":3740,"Ġamasaha":3741,"Ġyaku":3742,"Ġingingo":3743,"ĠNshingwabikorwa":3744,"ĠSan":3745,"Ġ(...":3746,"2020":3747,"zeza":3748,"Ġzombi":3749,"ĠBwana":3750,"herezwa":3751,"duko":3752,"2019":3753,"Ġumwuga":3754,"ĠâĢĿ":3755,"Ġkirekire":3756,"ngira":3757,"simbura":3758,"igice":3759,"ĠIm":3760,"Ġate":3761,"Ġhakiri":3762,"Ġnyi":3763,"Gi":3764,"hindutse":3765,"Ġthe":3766,"Ġruza":3767,"Ġimbuto":3768,"lex":3769,"rekezo":3770,"bikora":3771,"Ġabanyamakuru":3772,"ĠNyagatare":3773,"ĠNyarugenge":3774,"Ġbishwe":3775,"es":3776,"2016":3777,"yunge":3778,"banye":3779,"ĠGicumbi":3780,"Ġrika":3781,"Ġmubiri":3782,"hubwo":3783,"Ġikiganiro":3784,"Ġnyira":3785,"Ġabivuga":3786,"funze":3787,"Ġyahaye":3788,"meye":3789,"Ġbisaba":3790,"rondo":3791,"Ġbuza":3792,"tegereza":3793,"Umujyi":3794,"ĠNigeria":3795,"Ġamakosa":3796,"ĠChar":3797,"Ġ;":3798,"yoboke":3799,"Ġinguzanyo":3800,"Ġiy":3801,"Kandi":3802,"Ġbasaba":3803,"ĠRD":3804,"Ġriza":3805,"Ġbaru":3806,"ĠAb":3807,"RO":3808,"duro":3809,"ĠBubiligi":3810,"nera":3811,"ĠADEPR":3812,"Ġibidukikije":3813,"risti":3814,"nt":3815,"kingi":3816,"ĠUhoraho":3817,"mbyi":3818,"Ġmezi":3819,"injiye":3820,"Ġubwenge":3821,"mar":3822,"jyaga":3823,"urukiko":3824,"Ġmuke":3825,"Ġ2023":3826,"tandukana":3827,"Ġikora":3828,"yujije":3829,"der":3830,"fungi":3831,"Ġbirori":3832,"ĠMpu":3833,"fuzo":3834,"Ġukomoka":3835,"ĠBar":3836,"yamamaza":3837,"Ġgusoma":3838,"Co":3839,"Ġngu":3840,"Ġmoto":3841,"Ġbahi":3842,"Ġun":3843,"mbaza":3844,"Amafoto":3845,"ĠNdayi":3846,"Ġakaza":3847,"ĠNews":3848,"vyo":3849,"kere":3850,"amashanyarazi":3851,"Ġ198":3852,"Ġkindi":3853,"Ġmirongo":3854,"ĠYasuwe":3855,"ĠPierre":3856,"ny":3857,"sesaba":3858,"Ġbaya":3859,"Ġibihano":3860,"per":3861,"akazi":3862,"bari":3863,"Ġibice":3864,"Ġbazajya":3865,"%,":3866,"zanya":3867,"icyi":3868,"tunga":3869,"soje":3870,"ĠLeague":3871,"bira":3872,"Ġbimaze":3873,"sesabagina":3874,"SS":3875,"ngane":3876,"Ġmakipe":3877,"Ġbizaba":3878,"ĠGasabo":3879,"Ġkubana":3880,"ngura":3881,"Ġare":3882,"fashwa":3883,"AMA":3884,"GU":3885,"lamu":3886,"jugu":3887,"ibu":3888,"Ġkuganira":3889,"Ġkubo":3890,"situ":3891,"Ġbitegan":3892,"ĠOli":3893,"nganira":3894,"Ĭķ":3895,"ng":3896,"Ġubwoko":3897,"yongereye":3898,"Ġmudugudu":3899,"ĠCyumweru":3900,"BO":3901,"Ġbabu":3902,"yubaka":3903,"Ġigisubizo":3904,"Ġmuru":3905,"Ġnyungu":3906,"rwaga":3907,"âĢ¦]":3908,"siri":3909,"Ġatanga":3910,"Ġuhagarariye":3911,"Ġyagu":3912,"gereye":3913,"ĠAmategeko":3914,"ĠInkotanyi":3915,"rongi":3916,"Ġwose":3917,"Ġkwivuza":3918,"ĠYou":3919,"mun":3920,"bwire":3921,"shema":3922,"Amajyepfo":3923,"yweho":3924,"Ġhashize":3925,"Ġgutangaza":3926,"yamaswa":3927,"ĠNew":3928,"Ġgishize":3929,"kure":3930,"rukira":3931,"Ġbakana":3932,"Ġnako":3933,"Ġgushyirwa":3934,"Ġhata":3935,"ranze":3936,"gezi":3937,"Umuhanzi":3938,"ubuhinzi":3939,"Ġtuta":3940,"Ġakomeye":3941,"Nyamara":3942,"Ġabu":3943,"Ġamajwi":3944,"Ġumugambi":3945,"Abibumbye":3946,"anza":3947,"Ġntibya":3948,"nta":3949,"monyi":3950,"shakira":3951,"Ġmuziki":3952,"Ġagu":3953,"Ġzika":3954,"Ġbuka":3955,"dagaduro":3956,"yovu":3957,"weho":3958,"Ġbumva":3959,"wanditsi":3960,"Ġbavuye":3961,"Ġbitari":3962,"ĠJoseph":3963,"rikana":3964,"wumva":3965,"Ġwenyine":3966,"Ġingendo":3967,"Buri":3968,"ĠKicukiro":3969,"Ġbanjye":3970,"Ġwenda":3971,"riweho":3972,"butse":3973,"tagatifu":3974,"Ġntaho":3975,"byaza":3976,"Leta":3977,"rehe":3978,"Ġkose":3979,"Ġbakobwa":3980,"Ġgitabo":3981,"kanda":3982,"rama":3983,"ĠIkinya":3984,"Ġabafana":3985,"Ġkunywa":3986,"kono":3987,"izi":3988,"Twi":3989,"ngiye":3990,"yisi":3991,"line":3992,"Ġijana":3993,"Ġutuye":3994,"Ġugereranyije":3995,"15":3996,"kubahwa":3997,"Ġtaliki":3998,"Ġahe":3999,"ments":4000,"Ġbahe":4001,"caro":4002,"banuka":4003,"itangazamakuru":4004,"ĠLo":4005,"Ib":4006,"Ġbare":4007,"kinnye":4008,"kurikiza":4009,"Ġbyiciro":4010,"teze":4011,"Ġ500":4012,"Ġon":4013,"saka":4014,"Ġabagenzi":4015,"Nya":4016,"Ġwahoze":4017,"ĠNyiringabo":4018,"Urwego":4019,"IDA":4020,"jan":4021,"Ġkikaba":4022,"Ġinzoga":4023,"Ġnki":4024,"Ġimibare":4025,"bum":4026,"ishuri":4027,"Ġeshatu":4028,"Ġkuno":4029,"abanyamakuru":4030,"Bo":4031,"mbanyi":4032,"yose":4033,"mukira":4034,"ngani":4035,"wacu":4036,"yanzuro":4037,"Ġrukundo":4038,"Polisi":4039,"ngeraho":4040,"two":4041,"Ġremezo":4042,"rekanye":4043,"gora":4044,"ĠQ":4045,"Ġuyobora":4046,"raho":4047,"tesi":4048,"ĠRwamagana":4049,"tware":4050,"uba":4051,"inama":4052,"Umukuru":4053,"kra":4054,"shingiro":4055,"Ġyigeze":4056,"iterabwoba":4057,"bandi":4058,"feri":4059,"ĠUmuryango":4060,"shimisha":4061,"ngerera":4062,"mashini":4063,"kanisha":4064,"Ġamahugurwa":4065,"Ġntawe":4066,"sobwa":4067,"ikibazo":4068,"ĠUmunyamabanga":4069,"inshuti":4070,"ibyi":4071,"Ġgupfa":4072,"IC":4073,"Ġrira":4074,"ejo":4075,"cide":4076,"Ġigihembo":4077,"intambara":4078,"deo":4079,"Ġbyamu":4080,"gome":4081,"gezeho":4082,"hakana":4083,"ariko":4084,"Ġrugamba":4085,"UMU":4086,"ĠKiyovu":4087,"Ġcu":4088,"Ġkumwi":4089,"muna":4090,"ĠKaba":4091,"Ġahitwa":4092,"Ġinter":4093,"Ġyatumye":4094,"Naho":4095,"liyoni":4096,"Ġyashimiye":4097,"ĠDiamond":4098,"bonaga":4099,"Ġmanda":4100,"rÃ©":4101,"VU":4102,"Ġwundi":4103,"Ġbakeneye":4104,"Ġniho":4105,"Ġntego":4106,"danga":4107,"Ġbagu":4108,"abakinnyi":4109,"So":4110,"rael":4111,"sheke":4112,"Ġnimu":4113,"Ġbivuze":4114,"yuho":4115,"ranyo":4116,"heli":4117,"Ġla":4118,"ĠRDC":4119,"Ġicumi":4120,"ĠNkurunziza":4121,"Ġitari":4122,"sen":4123,"Ġgusu":4124,"ĠMIN":4125,"Ġmetero":4126,"Ġumuhanda":4127,"Ġaherutse":4128,"Umuntu":4129,"umunsi":4130,"shanga":4131,"ons":4132,"mure":4133,"Ġbakunze":4134,"Ġbushya":4135,"ĠYA":4136,"Ġisanzwe":4137,"shyizeho":4138,"tange":4139,"HU":4140,"babaje":4141,"Ġkuwu":4142,"ubutabera":4143,"Ġumukunzi":4144,"18":4145,"bese":4146,"kenera":4147,"Ġbutandukanye":4148,"sabe":4149,"hungabanya":4150,"Ġbakajya":4151,"Ġbushakashatsi":4152,"Ġumukuru":4153,"Ġubukwe":4154,"ĠIzuba":4155,"ĠIshinga":4156,"Ġamwe":4157,"Ġuruhu":4158,"gram":4159,"24":4160,"mamaza":4161,"zinduko":4162,"zura":4163,"chester":4164,"ĠâĬķ":4165,"Ġntambara":4166,"Ġkuburyo":4167,"Ġahagaragara":4168,"Ġyemeje":4169,"yoboro":4170,"Ġ[âĢ¦]":4171,"taye":4172,"ĠSha":4173,"Ġkugenzura":4174,"ZE":4175,"Ġibisubizo":4176,"Ġakamu":4177,"DI":4178,"Ġbigize":4179,"Ġrwari":4180,"Ġkoro":4181,"huse":4182,"Ġbigaragaza":4183,"ruru":4184,"Ġbigeze":4185,"hanganye":4186,"ĠClub":4187,"fatika":4188,"cho":4189,"Ġavuye":4190,"16":4191,"koko":4192,"garura":4193,"ruhuko":4194,"Ġuzaba":4195,"anada":4196,"ĠJeanne":4197,"funguro":4198,"ĠKayumba":4199,"Kuya":4200,"opi":4201,"Ġibicuruzwa":4202,"ĠIra":4203,"fashishije":4204,"chi":4205,"byaha":4206,"LI":4207,"kurikiranwa":4208,"sani":4209,"Ġumusore":4210,"cuti":4211,"Ġbatangira":4212,"Ġmarushanwa":4213,"tinda":4214,"Ġumwa":4215,"yuga":4216,"ĠPre":4217,"jyambere":4218,"Ġkwiyongera":4219,"tinze":4220,"Ġpm":4221,"abari":4222,"âĢĺ":4223,"ĠRIB":4224,"twite":4225,"Ġbaturutse":4226,"WI":4227,"ĠNgoma":4228,"mungu":4229,"bwaho":4230,"Ġbavu":4231,"giran":4232,"Ġmurongo":4233,"Ġahabwa":4234,"amateka":4235,"Frw":4236,"Ġabagize":4237,"Ġbusanzwe":4238,"22":4239,"Ġubuhinzi":4240,"merere":4241,"dufasha":4242,"Ġumwami":4243,"Ġtelefone":4244,"Ġziga":4245,"sora":4246,"mvise":4247,"Ġigomba":4248,"PA":4249,"koranire":4250,"Ġbafata":4251,"Ġimvura":4252,"Abayobozi":4253,"Ġimibonano":4254,"amatora":4255,"amadolari":4256,"Ġguverinoma":4257,"Ġmike":4258,"genzacyaha":4259,"Ġageze":4260,"hinde":4261,"giraho":4262,"inzo":4263,"Ġyabereye":4264,"08":4265,"Ġcyiza":4266,"pima":4267,"!!!":4268,"Ġbagaragaje":4269,"Ġgufungwa":4270,"Ġkwerekana":4271,"Ġmuzika":4272,"vuduko":4273,"isu":4274,"cuku":4275,"ĠBurusiya":4276,"ĠRusesabagina":4277,"Ġyafashwe":4278,"manaho":4279,"thiopi":4280,"Ġbyeme":4281,"remye":4282,"Intara":4283,"Ġmugihe":4284,"biziga":4285,"Amajyaruguru":4286,"rize":4287,"mirimo":4288,"Ġhu":4289,"Ġamata":4290,"SI":4291,"Ġ/":4292,"Ġbagenda":4293,"Ġutari":4294,"mpinga":4295,"Ġubuhamya":4296,"Ġrwabo":4297,"Ġbihumbi":4298,"hombo":4299,"The":4300,"ĠMana":4301,"ĠAfrika":4302,"rea":4303,"Ġpro":4304,"ĠIngabire":4305,"Ġgukunda":4306,"pamyabu":4307,"Ġbike":4308,"ĠBer":4309,"Ġbugufi":4310,"kuramo":4311,"Ġbakabi":4312,"Ġgutekereza":4313,"Ġmudasobwa":4314,"Ġgushyigikira":4315,"ĠJames":4316,"Ġikomeje":4317,"Ġbuvuga":4318,"ĠPapa":4319,"Ġibyishimo":4320,"ĠTwitter":4321,"rega":4322,"Ġabahinzi":4323,"hurira":4324,"Ġibiciro":4325,"umukuru":4326,"Ġngaruka":4327,"ney":4328,"Ġmubu":4329,"Ġruganda":4330,"ĠAka":4331,"Ġumusanzu":4332,"rukana":4333,"Ġigamije":4334,"hisha":4335,"gengabitekerezo":4336,"TI":4337,"Ġikorera":4338,"turuka":4339,"Ġmirenge":4340,"Ġababi":4341,"ĠMpuzamahanga":4342,"cal":4343,"rabuzima":4344,"zuza":4345,"ĠSudani":4346,"Ġgufatanya":4347,"sangan":4348,"Ġen":4349,"litike":4350,"nini":4351,"Ġzunze":4352,"ĠCent":4353,"Ġab":4354,"nko":4355,"ingo":4356,"tho":4357,"Ġ80":4358,"ĠMini":4359,"Ġmuza":4360,"zero":4361,"17":4362,"Ġhato":4363,"umunya":4364,"Ġikoreshwa":4365,"inzu":4366,"Aga":4367,"yire":4368,"Ġntangiriro":4369,"ĠBosco":4370,"mbera":4371,"sabwe":4372,"mbira":4373,"bangamira":4374,"ziba":4375,"ubutaka":4376,"Kigali":4377,"ĠKristo":4378,"De":4379,"kangu":4380,"Ġbamenye":4381,"Ġakunda":4382,"tegetse":4383,"umubiri":4384,"hagarika":4385,"sangira":4386,"impan":4387,"ĠPadiri":4388,"Ġiha":4389,"Ġakavuga":4390,"shyurwa":4391,"Ġbakozi":4392,"Ġbigira":4393,"bunda":4394,"ibin":4395,"rejwe":4396,"Ġbanyarwanda":4397,"mbire":4398,"ĠVisi":4399,"abanyeshuri":4400,"gerwaho":4401,"Ġamafoto":4402,"nateri":4403,"ĠRNC":4404,"Ġdukesha":4405,"mb":4406,"Ġbuyobozi":4407,"Ġuburezi":4408,"Ġbanyeshuri":4409,"Ġgusin":4410,"ĠRira":4411,"beho":4412,"yamamare":4413,"Ġite":4414,"Ġakwiye":4415,"Ġyabu":4416,"neza":4417,"Ġkubahiriza":4418,"renza":4419,"byini":4420,"Ġmasaha":4421,"Ġnanone":4422,".âĢĻâĢĻ":4423,"kurikiranyweho":4424,"urupfu":4425,"hishe":4426,"gne":4427,"garama":4428,"Ġhabaye":4429,"ÃĤ":4430,"AF":4431,"icyumweru":4432,"Ġzikaba":4433,"Ġuyi":4434,"itegeko":4435,"Ġyavuye":4436,"uku":4437,"Ġguko":4438,"Ġbuhinzi":4439,"Ġamavu":4440,"toni":4441,"ĠHotel":4442,"Ġumunyamakuru":4443,"Ndi":4444,"peri":4445,"hesha":4446,"Ġbasaga":4447,"Ġmugoroba":4448,"Ġkwemera":4449,"ĠAlex":4450,"14":4451,"Ġcumi":4452,"sobanukirwa":4453,"gezaho":4454,"shirahamwe":4455,"Ġgutaha":4456,"Ġiteka":4457,"ĠJan":4458,"nan":4459,"Ġisano":4460,"Ġitangazo":4461,"Ġ70":4462,"ĠKe":4463,"minisitiri":4464,"taho":4465,"soni":4466,"Ġngabo":4467,"icyorezo":4468,"Izi":4469,"kraine":4470,"umuco":4471,"beshye":4472,"Ġtugiye":4473,"Ġakajya":4474,"MI":4475,"henge":4476,"Ġibu":4477,"ĠNyabi":4478,"Ġkuririmba":4479,"Ġabarwayi":4480,"ijoro":4481,"Ġbishoboka":4482,"rengeje":4483,"Ġbubi":4484,"Ġwabi":4485,"gal":4486,"ranenge":4487,"Ġububasha":4488,"Ġgusi":4489,"fashishijwe":4490,"Tariki":4491,"vunyi":4492,"Ġatangira":4493,"lix":4494,"gaba":4495,"ĠNA":4496,"Ġbemeza":4497,"yemezamirimo":4498,"ĠRirashe":4499,"rekeje":4500,"Urugero":4501,"rita":4502,"Ġimihanda":4503,"Ġumunye":4504,"ruwasi":4505,"Ġ35":4506,"Ġ2010":4507,"ĠPla":4508,"âĢĶ":4509,"RC":4510,"wemo":4511,"Ġimari":4512,"Ġyasubi":4513,"Njye":4514,"gihe":4515,"ĠGato":4516,"lisa":4517,"Ġamakimbirane":4518,"Ġigitekerezo":4519,"Ġurupfu":4520,"tangijwe":4521,"zengu":4522,"Ġnara":4523,"kenke":4524,"Ġzayo":4525,"mon":4526,"Ġkubaha":4527,"yonza":4528,"IP":4529,"Ġishinzwe":4530,"RD":4531,"garagambyo":4532,"duka":4533,"Ġijuru":4534,"ĠSIDA":4535,"Ġaribyo":4536,"rerwa":4537,"kwirakwiza":4538,"07":4539,"umvi":4540,"meje":4541,"Ġkubyara":4542,"Ibya":4543,"Ġkunoza":4544,"Inteko":4545,"ff":4546,"national":4547,"Ġbakaza":4548,"Ġguseze":4549,"Ġzishobora":4550,"ziranenge":4551,"Uhoraho":4552,"Ġ000":4553,"ĠBru":4554,"09":4555,"Ġgufatwa":4556,"Ikibazo":4557,"abahanzi":4558,"girango":4559,"Ġnyubako":4560,"Ġubushake":4561,"cyari":4562,"ĠOlivier":4563,"Ġutaha":4564,"Ġ197":4565,"Ġabakunzi":4566,"Ġtwaba":4567,"tÃ©":4568,"Ġtukaba":4569,"Ġbatanu":4570,"Ġabarimu":4571,"ĠComment":4572,"res":4573,"Ġyindi":4574,"boneye":4575,"tseho":4576,"OTO":4577,"Yanditswe":4578,"kristu":4579,"shidi":4580,"Ġatandatu":4581,"Ġrundi":4582,"imodoka":4583,"KURU":4584,"Ġkum":4585,"13":4586,"Ġbitwa":4587,"Ġbakamu":4588,"Inkotanyi":4589,"Ġyerekana":4590,"senal":4591,"ong":4592,"ger":4593,"Ġbatazi":4594,"Ġrwan":4595,"Ġina":4596,"id":4597,"ĠUmurenge":4598,"pani":4599,"hangano":4600,"hire":4601,"pfuka":4602,"Ġkirere":4603,"toro":4604,"ERWAFA":4605,"Ġguharanira":4606,"Ġrivuga":4607,"Ġbashya":4608,"Ġ300":4609,"05":4610,"Ġkugaruka":4611,"kongo":4612,"Ġyate":4613,"Ġinternet":4614,"Ġgukoreshwa":4615,"ĠMisiri":4616,"onald":4617,"hinduye":4618,"shyirwaho":4619,"Ġukwezi":4620,"oo":4621,"Ġbagaragaza":4622,"shuli":4623,"Ġyakwi":4624,"ganza":4625,"Ġkurengera":4626,"Ġbumwe":4627,"fura":4628,"Ġuruganda":4629,":âĢĿ":4630,"kwigendera":4631,"Ġbwacu":4632,"ngwa":4633,"Ġbigomba":4634,"ishyaka":4635,"Ġyakozwe":4636,"Ġkubyi":4637,"vanga":4638,"04":4639,"don":4640,"Ġbikoresho":4641,"ĠPhi":4642,"Ġtwara":4643,"izo":4644,"mbitse":4645,"ĠManchester":4646,"indwara":4647,"kize":4648,"motari":4649,"gongo":4650,"ĠCity":4651,"Ġava":4652,"Ġ(...)":4653,"Ġumuhungu":4654,"Ġkida":4655,"Yi":4656,"ngeyeho":4657,"Ġbasanga":4658,"Ġibitero":4659,"sket":4660,"Ġago":4661,"rwara":4662,"politiki":4663,"yeshyamba":4664,"ary":4665,"Ġgutunganya":4666,"ibihe":4667,"ĠIharanira":4668,"06":4669,"kuza":4670,"Ġisaha":4671,"zeyimana":4672,"ayo":4673,"iro":4674,"Ġisura":4675,"Ġgukin":4676,"ĠAnge":4677,"Ġ$":4678,"Ġbafashe":4679,"cto":4680,"ĠRwan":4681,"Ġndege":4682,"Ġkanya":4683,"Ġbigamije":4684,"ĠEthiopi":4685,"ĠUrukiko":4686,"01":4687,"tade":4688,"Ġazajya":4689,"ĠUN":4690,"Ġitike":4691,"Ġyambaye":4692,"Ġvy":4693,"aniwe":4694,"Ġibihembo":4695,"genzuzi":4696,"hh":4697,"Ġyagombaga":4698,"No":4699,"shoferi":4700,"Ġasa":4701,"ĠIsrael":4702,"Ġumugisha":4703,"Ġmahugurwa":4704,"Ġhabaho":4705,"Ġ196":4706,"giriye":4707,"Ġshuri":4708,"Kugira":4709,"ĠUkraine":4710,"Ġigifungo":4711,"ct":4712,"Urubyiruko":4713,"padiri":4714,"Ġmuco":4715,"hampiyona":4716,"Ġme":4717,"yapani":4718,"BE":4719,"Ġcyemezo":4720,"Ġibiti":4721,"ĠVic":4722,"ganisha":4723,"Ġmukinnyi":4724,"ĠPS":4725,"tsibo":4726,"drid":4727,"shingizi":4728,"Ġbakorana":4729,"ĠChi":4730,"ĠMala":4731,"raniye":4732,"Ġariho":4733,"Ġbukomeye":4734,"Ġumukono":4735,"Ġigera":4736,"Ġiminota":4737,"tabiriwe":4738,"umurenge":4739,"Ġyaka":4740,"Ġmyanya":4741,"Umunya":4742,"guruka":4743,"Ġdukora":4744,"Nkuko":4745,"wandu":4746,"Ġitera":4747,"Ġgusenga":4748,"Ġimyumvire":4749,"Ġrikomeye":4750,"sobanurira":4751,"rangan":4752,"senyi":4753,"ĠMukura":4754,"rwano":4755,"ubumwe":4756,"byaro":4757,"Ġibirori":4758,"Ġabahutu":4759,"reya":4760,"Ġbiteganyijwe":4761,"Ġbwawe":4762,"Ġgusubiza":4763,"shyitsi":4764,"fatira":4765,"03":4766,"Ġibanga":4767,"umuhanzi":4768,"loni":4769,"Ġrishinzwe":4770,"ĠTV":4771,"hindagu":4772,"200":4773,"kuta":4774,"deli":4775,"Ġatuye":4776,"ibiri":4777,"Ibihugu":4778,"Ġibyemezo":4779,"vangura":4780,"Ġumurongo":4781,"zwaga":4782,"tya":4783,"boneza":4784,"Jo":4785,"runga":4786,"Ġyagarutse":4787,"kurikiye":4788,"Ġikinyamakuru":4789,"negihugu":4790,"abafite":4791,"ĠMadrid":4792,"ĠAbanya":4793,"Ġimisoro":4794,"Abana":4795,"Je":4796,"Abatutsi":4797,"rembo":4798,"Ġbisa":4799,"Ġane":4800,"Ġadu":4801,"ĠBy":4802,"tsindiye":4803,"miye":4804,"Ġibishoboka":4805,"ction":4806,"tuwe":4807,"25":4808,"Ġiku":4809,"ĠCanada":4810,"con":4811,"Ġne":4812,"FOTO":4813,"Ġkurangiza":4814,"hangan":4815,"ĠChe":4816,"Ġaramu":4817,"Ġabayi":4818,"Ġururimi":4819,"Ġgutyo":4820,"dia":4821,"hizamu":4822,"Di":4823,"ari":4824,"huta":4825,"pri":4826,"iza":4827,"mve":4828,"Ġiru":4829,"uro":4830,"Ġigihano":4831,"ĠMartin":4832,"gagaciro":4833,"Ġyasobanuye":4834,"ĠAga":4835,"yabiziga":4836,"koma":4837,"Ġico":4838,"Ġzan":4839,"Ġmuli":4840,"Ġcyumba":4841,"ibintu":4842,"ĠStade":4843,"caye":4844,"dou":4845,"Ġubwicanyi":4846,"ĠCol":4847,"Ġimbogamizi":4848,"ĠSy":4849,"Ġkumi":4850,"02":4851,"huka":4852,"Ġicyenda":4853,"Ġurubuga":4854,"Ġbabyi":4855,"Ġkagari":4856,"Ġturimo":4857,"ĠGuma":4858,"Ġabamu":4859,"ibiro":4860,"vugira":4861,"imibereho":4862,"Ġihohoterwa":4863,"Ġimibiri":4864,"Ġyasin":4865,"Ġ07":4866,"lia":4867,"butumwa":4868,"Ġamazu":4869,"Minisiteri":4870,"ĠUmwami":4871,"Ġwumva":4872,"hangayiki":4873,"imbere":4874,"ĠVol":4875,"tangire":4876,"Ahubwo":4877,"Umwami":4878,"Ġndu":4879,"yahu":4880,"Af":4881,"Ġyegukanye":4882,"tes":4883,"ĠShe":4884,"Ġubusanzwe":4885,"Ġitanga":4886,"tandukanya":4887,"Ġafata":4888,"mutima":4889,"Ġbigenda":4890,"Ġkoperative":4891,"fise":4892,"tanira":4893,"ĠRuhango":4894,"gurura":4895,"enga":4896,"Ġmihanda":4897,"ĠKarongi":4898,"geri":4899,"gaze":4900,"umutima":4901,"Ġburya":4902,"Ġibyago":4903,"ĠInno":4904,"port":4905,"Ġkirimo":4906,"ĠUm":4907,"Ġhantu":4908,"garariye":4909,"Ġzara":4910,"Ġyemeye":4911,"tunganya":4912,"Ġkwitwara":4913,"hisemo":4914,"au":4915,"Ġute":4916,"ĠVal":4917,"pfi":4918,"Ġgutangiza":4919,"Ġabatuye":4920,"aya":4921,"Ġkubafasha":4922,"Ġg":4923,"Ġimyitwarire":4924,"Ġtsinda":4925,"rds":4926,"Ġabata":4927,"IMANA":4928,"ibikoresho":4929,"Ġli":4930,"kubiri":4931,"dangagaciro":4932,"Ġyapfuye":4933,"Ġbyagenze":4934,"ĠInama":4935,"Ġtubona":4936,"ĠCha":4937,"Be":4938,"burira":4939,"nje":4940,"Ġyiba":4941,"shoboraga":4942,"wulo":4943,"ĠBurera":4944,"ĠBudage":4945,"Ġkwihan":4946,"fungiye":4947,"Ġutara":4948,"ĠAfri":4949,"Umugore":4950,"ringanire":4951,"Ġimpamyabu":4952,"ritse":4953,"kiliya":4954,"mbia":4955,"ĠNiyon":4956,"ĠFre":4957,"Ġurugamba":4958,"Ġatangaza":4959,"Ġbamwi":4960,"fumbire":4961,"sso":4962,"gezwa":4963,"ĠTour":4964,"Ġnyiri":4965,"sinzi":4966,"kuraho":4967,"kurura":4968,"Ġyabanje":4969,"Ġbucuruzi":4970,"yere":4971,"Ġkohereza":4972,"yoro":4973,"Ġnibi":4974,"guke":4975,"Indi":4976,"stagram":4977,"Ġnin":4978,"Ġyemera":4979,"Ġubukangurambaga":4980,"Te":4981,"Ġitara":4982,"ĠIgihugu":4983,"ĠAbi":4984,"misha":4985,"girana":4986,"Ã©e":4987,"abasirikare":4988,"las":4989,"raribonye":4990,"enne":4991,"Ġabazi":4992,"Miss":4993,"Ġasobanura":4994,"Ġmabwiriza":4995,"lometero":4996,"Ġubwabo":4997,"Ġimitungo":4998,"Ġbafashwe":4999,"mererwa":5000,"nzwe":5001,"TN":5002,"incent":5003,"mpanyi":5004,"shyiramo":5005,"taliyani":5006,"Ġmashya":5007,"ĠGro":5008,"EN":5009,"Uburundi":5010,"byin":5011,"Impamvu":5012,"Ġigitu":5013,"Ġabaganga":5014,"2012":5015,"deri":5016,"zamura":5017,"Twe":5018,"zaga":5019,"bwami":5020,"Ã§":5021,"Ġnazo":5022,"tsiro":5023,"ĠPas":5024,"fungurwa":5025,"riritse":5026,"ĠGatolika":5027,"landi":5028,"ĠKagari":5029,"Ġreka":5030,"celo":5031,"HON":5032,"Ġakan":5033,"Ġbiterwa":5034,"Ġimanza":5035,"Ġkwizihiza":5036,"Ġbahuriye":5037,"ĠInternational":5038,"Ġporo":5039,"Ja":5040,"Ġnini":5041,"ĠGisagara":5042,"ĠNyu":5043,"Ġkumenye":5044,"Ġbatanze":5045,"simbuye":5046,"bangamiye":5047,"Ġamabuye":5048,"ĠNgoro":5049,"Ġnyamu":5050,"icha":5051,"Ġbava":5052,"Ġbakomeza":5053,"Ġkwitegura":5054,"Ġgitsina":5055,"Ġiriya":5056,"imbo":5057,"koperative":5058,"Ġishinga":5059,"Ġmuka":5060,"Ġagahinda":5061,"ngire":5062,"land":5063,"Undi":5064,"ĠSen":5065,"Ġkanseri":5066,"nezero":5067,"Ġtegeko":5068,"ĠParis":5069,"Ġro":5070,"ĠNsengi":5071,"Ġyanyu":5072,"Ġhifashishijwe":5073,"ĠRuta":5074,"Uburezi":5075,"Ġifoto":5076,"Ġabagera":5077,"ĠArsenal":5078,"Ġ90":5079,"Itegeko":5080,"Ġimitwe":5081,"mas":5082,"ĠDieu":5083,"Ġbasanze":5084,"199":5085,"Ġgushyin":5086,"Ġkwambara":5087,"ĠCharles":5088,"Abandi":5089,"Yaba":5090,"!!!!":5091,"MIN":5092,"jisho":5093,"Ġabaza":5094,"ĠON":5095,"Ġuha":5096,"shushanyo":5097,"rema":5098,"Ġfor":5099,"ĠKamonyi":5100,"Ġinganda":5101,"ĠPatrick":5102,"sanzure":5103,"Ġbadafite":5104,"ranwa":5105,"sohotse":5106,"ĠLtd":5107,"mine":5108,"Ġagenda":5109,"manzi":5110,"komera":5111,"ĠHabi":5112,"rena":5113,"Ġzindi":5114,"Ġbakoresheje":5115,"Ġkwigira":5116,"rwibutso":5117,"Umugabo":5118,"ĠTanzaniya":5119,"ĠPolitiki":5120,"Ġkur":5121,"Ġkubakwa":5122,"Ifoto":5123,"zambi":5124,"ranywa":5125,"Ubumwe":5126,"kekwaho":5127,"Ġakorera":5128,"wanzi":5129,"Ġyuzuye":5130,"Ġrwiyemezamirimo":5131,"ĠNyamagabe":5132,"cece":5133,"ĠAi":5134,"Ġirenga":5135,"ĠKirehe":5136,"Ġabakora":5137,"ques":5138,"vuge":5139,"ĠBanyarwanda":5140,"Nuko":5141,"Ġyabaga":5142,"Ġzacu":5143,"bwirwa":5144,"Ġkwiteza":5145,"Ġbaramu":5146,"UN":5147,"Ġyakiriye":5148,"Ġamatwi":5149,"ves":5150,"Ġcyaba":5151,"funguye":5152,"Ġbiha":5153,"Rayon":5154,"Ġnderabuzima":5155,"kundaga":5156,"gufasha":5157,"Ġigizwe":5158,"ES":5159,"Niyo":5160,"Ġurutonde":5161,"cia":5162,"ĠAnd":5163,"pte":5164,"sketball":5165,"Ġzibi":5166,"sheho":5167,"Ġcom":5168,"Ġuburwayi":5169,"ĠFAR":5170,"HAN":5171,"Ġzigera":5172,"Ġabapolisi":5173,"Ġituma":5174,"Ġirindwi":5175,"MS":5176,"Ġbasigaye":5177,"ngero":5178,"shimu":5179,"raniro":5180,"moso":5181,"Ġhaga":5182,"Ġagamije":5183,"keka":5184,"Ġzaba":5185,"kumi":5186,"Ġgishobora":5187,"ĠKristu":5188,"Ġurimo":5189,"Ġnyine":5190,"yane":5191,"sivi":5192,"ubworozi":5193,"Ġngoro":5194,"ubuvuzi":5195,"ĠRemera":5196,"shaje":5197,"Ġbibaye":5198,"Ġikamba":5199,"tega":5200,"Ġmibereho":5201,"vugana":5202,"mbanya":5203,"urwego":5204,"Ġuriya":5205,"Ġyato":5206,"VAHON":5207,"VAHONSHYA":5208,"Ġisonga":5209,"Ġcyu":5210,"Ġ45":5211,"Ġgitero":5212,"generwa":5213,"Ġkubikora":5214,"ration":5215,"Ġjye":5216,"Ubushinjacyaha":5217,"Ġgushakisha":5218,"fari":5219,"mina":5220,"Kuko":5221,"ĠBizimana":5222,"sine":5223,"Ġnga":5224,"Ubutegetsi":5225,"aa":5226,"Ġbito":5227,"Ġmubyeyi":5228,"ingaruka":5229,"fashijwe":5230,"temewe":5231,"Ġbariya":5232,"umutwe":5233,"Ġyavugaga":5234,"ĠTele":5235,"Ġhazaza":5236,"rekezi":5237,"gendan":5238,"bukije":5239,"Ġbihagije":5240,"Ġdemokarasi":5241,"koni":5242,"spe":5243,"Ġzirenga":5244,"Ġtwabi":5245,"Ġnamwe":5246,"Ġrukomeye":5247,"Ġbahita":5248,"yanda":5249,"ĠEthiopia":5250,"Ġguhinga":5251,"Ġbuke":5252,"Ġguhanga":5253,"tiriwe":5254,"mirambo":5255,"Ġumwihariko":5256,"mogi":5257,"Ayo":5258,"Ubusanzwe":5259,"Ġihu":5260,"Ġ2000":5261,"zaho":5262,"Ġijwi":5263,"Ġbinyuranye":5264,"ence":5265,"amanota":5266,"Ġriti":5267,"Ġsina":5268,"Ro":5269,"ĠUSA":5270,"Ġyiteguye":5271,"ĠMac":5272,"kanwa":5273,"Ġamarushanwa":5274,"ubwiyunge":5275,"tete":5276,"Ġbise":5277,"Ġikimenyetso":5278,"Ġnkaba":5279,"cunga":5280,"sekedi":5281,"cis":5282,"guma":5283,"Imyi":5284,"yambaro":5285,"ĠWA":5286,"giraga":5287,"sabimana":5288,"ĠEAC":5289,"sifu":5290,"Ġyize":5291,"aha":5292,"shyire":5293,"DU":5294,"Ġgutora":5295,"Ġumujyi":5296,"Ġakabi":5297,"Ġntiyi":5298,"fatiye":5299,"Ġkwiyamamaza":5300,"ĠSh":5301,"buranisha":5302,"Ġnkambi":5303,"mbwira":5304,"cisha":5305,"ruye":5306,"Ġabanyamuryango":5307,"ĠTshi":5308,"herejwe":5309,"nani":5310,"Ġkaga":5311,"ĠKomite":5312,"Ġguhagara":5313,"LA":5314,"gy":5315,"baho":5316,"Ġyitabiriye":5317,"Ġrishingiye":5318,"byu":5319,"muco":5320,"wumvi":5321,"ĠNyakubahwa":5322,"Ġnacyo":5323,"fuje":5324,"Ġbyoroshye":5325,"Mo":5326,"roc":5327,"ĠAmbasaderi":5328,"ĠAugu":5329,"ĠNyarwanda":5330,"shidikanya":5331,"Ġkumara":5332,"âĢĵ":5333,"Ġaribwo":5334,"Ġda":5335,"HI":5336,"Ġkuzana":5337,"Ġgikombe":5338,"ĠInnocent":5339,"Ġbashinzwe":5340,"Ġumuhango":5341,"Ġbusa":5342,"Ġinyubako":5343,"ĠKayonza":5344,"Ġvirusi":5345,"SO":5346,"ĠMiliyoni":5347,"imbabwe":5348,"tori":5349,"Ġbyakozwe":5350,"rwanira":5351,"Ġkubanza":5352,"duha":5353,"ĠAli":5354,"hengeri":5355,"Ġujya":5356,"tezwe":5357,"sigara":5358,"Ġbasabwa":5359,"Ġmpa":5360,"Ġbufite":5361,"Ġabwira":5362,"ĠII":5363,"shakisha":5364,"Ġkimaze":5365,"ĠGra":5366,"garamu":5367,"shasa":5368,"Ubundi":5369,"Ibikorwa":5370,"komereza":5371,"2021":5372,"Ca":5373,"twaza":5374,"Kuki":5375,"ĠDonald":5376,"ĠAir":5377,"Ġyiga":5378,"ĠFERWAFA":5379,"Ġicyumweru":5380,"TO":5381,"bajije":5382,"tar":5383,"garagu":5384,"ĠWi":5385,"Ġrurimi":5386,"ĠWil":5387,"Ġrura":5388,"ĠInteko":5389,"ĠChampi":5390,"vin":5391,"Ġizwi":5392,"yobwa":5393,"Ġwaje":5394,"anga":5395,"Ġyaseze":5396,"ĠShampiyona":5397,"Ġisomo":5398,"inka":5399,"Ġise":5400,"Ġmupira":5401,"Yari":5402,"ranganji":5403,"ĠAmavubi":5404,"ue":5405,"tt":5406,"mpala":5407,"Ġakomeje":5408,"ĠX":5409,"Ġbwayo":5410,"ĠNyamasheke":5411,"Ġheza":5412,"cira":5413,"Muka":5414,"shanu":5415,"kuze":5416,"Ġukwiye":5417,"amas":5418,"ĠDani":5419,"Ġuwari":5420,"Ġkibi":5421,"tike":5422,"tekereje":5423,"Ġ2009":5424,"xi":5425,"Ġyahu":5426,"yanja":5427,"Ġakaya":5428,"Ġcane":5429,"shikiranganji":5430,"Ġkiga":5431,"itu":5432,"sabira":5433,"hereje":5434,"illa":5435,"Ġbigiye":5436,"Ġzimaze":5437,"ĠMali":5438,"Ġigeze":5439,"Ġbahura":5440,"ubufatanye":5441,"shejwe":5442,"ĠNyaruguru":5443,"byiniro":5444,"ĠNteko":5445,"ĠMudugudu":5446,"Ġugira":5447,"Ġangana":5448,"hohotera":5449,"sengera":5450,"abata":5451,"ubushobozi":5452,"Ġbanya":5453,"hirwa":5454,"Ġmurimo":5455,"Ġyitabye":5456,"Ġibitabo":5457,"Ġkomisiyo":5458,"Ġmishinga":5459,"lon":5460,"takaza":5461,"int":5462,"ĠNde":5463,"Ġgusoza":5464,"ceri":5465,"Ġibaruwa":5466,"ĠVincent":5467,"teguro":5468,"umuriro":5469,"Reka":5470,"Ġhagiye":5471,"Reba":5472,"Inkuru":5473,"leyball":5474,"ĠLoni":5475,"urugo":5476,"die":5477,"Ġizamu":5478,"Ġkuboneka":5479,"ĠBri":5480,"umuziki":5481,"Ġimbunda":5482,"Abadepite":5483,"ĠSena":5484,"Ġyanze":5485,"Ġfa":5486,"ĠCe":5487,"kubiyemo":5488,"ĠMuha":5489,"Ġgucunga":5490,"Ġkonti":5491,"Ġigitabo":5492,"ĠBarcelo":5493,"yosezi":5494,"Ġhakoreshejwe":5495,"Ġntera":5496,"Ġkamere":5497,"Ġbabyeyi":5498,"ĠMari":5499,"refe":5500,"ĠJeannette":5501,"uri":5502,"Ġigitero":5503,"Ġkwegukana":5504,"ok":5505,"ad":5506,"Ġtumaze":5507,"cakubiri":5508,"Yongeyeho":5509,"cer":5510,"Ġbibu":5511,"kuwe":5512,"hamagara":5513,"Ġteleviziyo":5514,"ĠNdi":5515,"Ġzinyuranye":5516,"ĠMusenyeri":5517,"lie":5518,"subizwa":5519,"ibyaha":5520,"bila":5521,"Ġibizamini":5522,"Ġbyatangajwe":5523,"umuhungu":5524,"Ġatazi":5525,"munwa":5526,"zin":5527,"Ġsu":5528,"Ġkiriya":5529,"Ġimashini":5530,"shisho":5531,"Ġdosiye":5532,"Ġrifite":5533,"ĠNyampinga":5534,"guha":5535,"ziza":5536,"Ġubukene":5537,"Ġumunyarwanda":5538,"Abe":5539,"Ġ&":5540,"yoboka":5541,"ndera":5542,"ĠGoma":5543,"ĠBI":5544,"ĠwÃ¢":5545,"reen":5546,"Ġubuhanga":5547,"Ġbigoye":5548,"Ġrushinzwe":5549,"bama":5550,"Ġyatewe":5551,"Ġicye":5552,"Umutoza":5553,"rukanwa":5554,"Ġiwe":5555,"Ġkwemeza":5556,"abikorera":5557,"Ġmupaka":5558,"Ġ08":5559,"Ġagace":5560,"Ġimyanya":5561,"umujyi":5562,"Ġyatangarije":5563,"ĠGatsibo":5564,"ĠUmunyarwanda":5565,"migambi":5566,"ĠReal":5567,"ĠCN":5568,"Ġintumwa":5569,"Ġimpapuro":5570,"Ġmitwe":5571,"Ġngiye":5572,"ĠAna":5573,"Ġivu":5574,"ranyijwe":5575,"ĠTshisekedi":5576,"kwan":5577,"Ġbakavuga":5578,"ĠKoreya":5579,"ĠVicto":5580,"Ishami":5581,"Ġbeza":5582,"ĠComments":5583,"Ġkwicwa":5584,"Ijambo":5585,"Ġireme":5586,"rinzi":5587,"Ġishaka":5588,"Ġakoresheje":5589,"ĠMelo":5590,"AMAFOTO":5591,"hugura":5592,"Ġakoresha":5593,"Ġyaguye":5594,"ĠIkigo":5595,"ĠMozambi":5596,"binyujije":5597,"Ġaru":5598,"Ġnkiko":5599,"giranye":5600,"Ġhamaze":5601,"Ġtumu":5602,"Ġbivuga":5603,"Ġgutandukana":5604,"gishije":5605,"ĠKinyarwanda":5606,"Rw":5607,"banire":5608,"Ġabasore":5609,"Ububanyi":5610,"ĠGisenyi":5611,"gitari":5612,"cibwa":5613,"Ġguhinduka":5614,"Ġabavandimwe":5615,"ctober":5616,"rebwa":5617,"rengero":5618,"garagajwe":5619,"Ġkuruta":5620,"komo":5621,"magara":5622,"ĠYE":5623,"Ġkomite":5624,"Ġinzara":5625,"shingira":5626,"Ġurubyaro":5627,"himana":5628,"kizimana":5629,"vugwaho":5630,"sanya":5631,"ĠReta":5632,"ĠButare":5633,"ĠWor":5634,"ĠKimi":5635,"Ġishema":5636,"yongeraho":5637,"Ġbiyemeje":5638,"Ġubura":5639,"ĠLou":5640,"tta":5641,"Ġicyiciro":5642,"Ġbabaga":5643,"shimangiye":5644,"impunzi":5645,"Ġukorera":5646,"cel":5647,"tangiriye":5648,"Ġbina":5649,"wuzu":5650,"ichard":5651,"Bwana":5652,"Ġbishimiye":5653,"Ġyishwe":5654,"ĠGakenke":5655,"Ġmusi":5656,"hanwa":5657,"Ġingenzi":5658,"gama":5659,"APR":5660,"Ġtuda":5661,"stre":5662,"itsinda":5663,"cungire":5664,"Ġkumvikana":5665,"Ġmatsinda":5666,"2013":5667,"Ġbyayo":5668,"Ġyamenye":5669,"guwe":5670,"tegerejwe":5671,"ĠVe":5672,"Ġruha":5673,"Ġinzi":5674,"Ġibisabwa":5675,"Ġintsinzi":5676,"baka":5677,"ĠPawulo":5678,"Ġaje":5679,"Ġmaboko":5680,"Ġbakwi":5681,"Ġusibye":5682,"gye":5683,"songa":5684,"Ġbifasha":5685,"Ġkubwira":5686,"genamigambi":5687,"amakipe":5688,"umukunzi":5689,"Ġishyamba":5690,"Ġamado":5691,"Ġguhana":5692,"Ġgusiga":5693,"hagaritse":5694,"Ġaravuga":5695,"Ġ09":5696,"Ġuwitwa":5697,"Vi":5698,"Ġbiru":5699,"ĠONU":5700,"mbiye":5701,"Ġimiterere":5702,"Ġduce":5703,"Ġimipaka":5704,"ĠParuwasi":5705,"ĠCy":5706,"Ġbaho":5707,"Ubushakashatsi":5708,"Ġbyacu":5709,"iy":5710,"geso":5711,"kubwira":5712,".âĢĻ":5713,"remwa":5714,"jurire":5715,"Ġibiribwa":5716,"Ġyahoze":5717,"Ġbyagiye":5718,"kwemera":5719,"Ġbirebana":5720,"bahi":5721,"Ġyashimye":5722,"Ġicumu":5723,"Ġbiki":5724,"Ġyakoreye":5725,"Ġkivuga":5726,"ĠLeave":5727,"Ġguhora":5728,"Ġkika":5729,"Ġbize":5730,"Ġishoramari":5731,"Ġbitanga":5732,"Ġyinjiye":5733,"BAN":5734,"Ġ)":5735,"Kagame":5736,"holandi":5737,"Abagore":5738,"imvura":5739,"Ġukunda":5740,"mariya":5741,"shyikiriza":5742,"Ġmuturage":5743,"Ġeshanu":5744,"Ġkuti":5745,"Ubwi":5746,"Ġmama":5747,"tishoboye":5748,"raf":5749,"ndwa":5750,"Ġ195":5751,"ĠNdu":5752,"Ġdushobora":5753,"Ġbiturutse":5754,"gavu":5755,"Rwa":5756,"Ġyatanzwe":5757,"yuza":5758,"Ġgufungura":5759,"mbika":5760,"ĠSer":5761,"moni":5762,"ĠIcyo":5763,"sia":5764,"Umunsi":5765,"Ġyateye":5766,"Ġmuma":5767,"amaraso":5768,"Fi":5769,"hagarara":5770,"Ġyashyizeho":5771,"ĠJac":5772,"âĢ¢":5773,"ĠAwa":5774,"Ġbiteguye":5775,"uburenganzira":5776,"Ġarenga":5777,"Uganda":5778,"Ġbundi":5779,"Ġnto":5780,"kurikiyeho":5781,"ubusa":5782,"uwi":5783,"pfobya":5784,"ĠInstagram":5785,"yakazi":5786,"Ġifasha":5787,"Ġguhita":5788,"ĠNI":5789,"Ġnyamukuru":5790,"Ġinyigisho":5791,"wn":5792,"Ġbafitanye":5793,"ubumenyi":5794,"Ġbasabwe":5795,"Ban":5796,"Imari":5797,"Ġbabone":5798,"kubiye":5799,"huha":5800,"Ġigitsina":5801,"Ġ400":5802,"Ġbishya":5803,"Ġnteko":5804,"Ġbuhoro":5805,"fate":5806,"gendeye":5807,"Ġcyabaye":5808,"Amahanga":5809,"ĠNyamirambo":5810,"Ġyasohoye":5811,"ingu":5812,"ĠMuri":5813,"Ġbabaye":5814,"Ġbwanjye":5815,"Abakinnyi":5816,"ĠDusin":5817,"fuka":5818,"ĠTheo":5819,"Ġnzo":5820,"gra":5821,"sea":5822,"tegurwa":5823,"byumva":5824,"Ġidasanzwe":5825,"Ġcon":5826,"Ġahagana":5827,"Ġkuvura":5828,"Ġrunini":5829,"ĠRutsiro":5830,"Ġuwu":5831,"Ġkabo":5832,"Ġ36":5833,"buhamya":5834,"muha":5835,"ĠCup":5836,"tungan":5837,"menyo":5838,"Ġyihariye":5839,"vember":5840,"Ġalbum":5841,"ĠGU":5842,"jima":5843,"ĠMadamu":5844,"phone":5845,"Ġashinjwa":5846,"ĠFou":5847,"Ġazwi":5848,"garagariza":5849,"tekerere":5850,"nard":5851,"rabi":5852,"Ġmunani":5853,"Da":5854,"yoborwa":5855,"ĠMusa":5856,"amabuye":5857,"itorero":5858,"bazwa":5859,"ĠNyabihu":5860,"ndation":5861,"DF":5862,"Ġinkingo":5863,"Ġ32":5864,"shobore":5865,"Ġ33":5866,"ĠDan":5867,"ĠSamu":5868,"byemera":5869,"ĠBiden":5870,"cial":5871,"ĠKabila":5872,"Ġguterwa":5873,"icyaha":5874,"jumbura":5875,"Ġingengabitekerezo":5876,"shimiyimana":5877,"stine":5878,"tunzi":5879,"Ġyishimiye":5880,"Ġnicyo":5881,"Ġmashusho":5882,"tegerere":5883,"cana":5884,"Ġingoma":5885,"ĠKinshasa":5886,"ĠRW":5887,"intebe":5888,"ĠAMA":5889,"Ġmahoro":5890,"umutungo":5891,"Ġcyitwa":5892,"gande":5893,"Ġnshinga":5894,"habu":5895,"ugu":5896,"ĠRonal":5897,"Li":5898,"yugari":5899,"yuranyije":5900,"mer":5901,"Ġhabayeho":5902,"Ġbuga":5903,"Ġbitanu":5904,"Ġl":5905,"girika":5906,"ĠNshinga":5907,"yeli":5908,"gogo":5909,"Ġakanya":5910,"Ġamasoko":5911,"Ġcyara":5912,"piteni":5913,"ĠRuda":5914,"abafana":5915,"Umwana":5916,"Ġntitu":5917,"ĠMukan":5918,"Ġuw":5919,"yeri":5920,"bure":5921,"Ġkugirana":5922,"ĠSoma":5923,"lbert":5924,"ĠNti":5925,"ĠFrancis":5926,"mwuga":5927,"hungiro":5928,"enter":5929,"Bimwe":5930,"Ġ34":5931,"mbana":5932,"Ġbigera":5933,"ĠRA":5934,"shingiwe":5935,"ije":5936,"Ġkuvugana":5937,"rege":5938,"ĠRwe":5939,"Ġbakina":5940,"sungane":5941,"Ġbukungu":5942,"Ġtuki":5943,"Ġbabana":5944,"Ġhaka":5945,"Ar":5946,"toine":5947,"garurira":5948,"Ġasaga":5949,"dindi":5950,"Ġgucuruza":5951,"Ġkwagura":5952,"Ġamahanga":5953,"Ingingo":5954,"mamaye":5955,"Ġ>":5956,"kiriwe":5957,"Impu":5958,"mbaro":5959,"garagazwa":5960,"ĠSiporo":5961,"ranije":5962,"myo":5963,"Ġngamba":5964,"Ġmuga":5965,"less":5966,"gizimana":5967,"shimana":5968,"Ġbasabye":5969,"Ġibye":5970,"TAN":5971,"rankunga":5972,"Ġwasanga":5973,"Ġrusengero":5974,"ĠKizi":5975,"gwin":5976,"lli":5977,"Ġbukaba":5978,"senye":5979,"ntumwa":5980,"Ġyerekeza":5981,"ĠMariya":5982,"ĠPetero":5983,"hiro":5984,"Ġburiya":5985,"Ġmugambi":5986,"Ġbyatuma":5987,"Ġmazu":5988,"Ġmbese":5989,"Ġbikunze":5990,"Ġryose":5991,"kwirakwira":5992,"Â°":5993,"FI":5994,"ĠEr":5995,"ĠKuya":5996,"Ġyama":5997,"Ġkugerageza":5998,"ĠRemy":5999,"Ġbarangije":6000,"yiriza":6001,"hutisha":6002,"Ġizuba":6003,"Ġyaga":6004,"Ġajyanye":6005,"Ġimyanzuro":6006,"rabura":6007,"Ġwabereye":6008,"shaki":6009,"ĠChampions":6010,"Ġikirego":6011,"Ġiko":6012,"ĠKampala":6013,"ganiriza":6014,"ab":6015,"bashije":6016,"Izo":6017,"erry":6018,"rengagiza":6019,"ĠPost":6020,"furiza":6021,"Ġ2008":6022,"dore":6023,"Ġbwicanyi":6024,"Ġingano":6025,"kundwa":6026,"abaganga":6027,"Ġndende":6028,"Ġibitaramo":6029,"2015":6030,"Ġisaba":6031,"Umunyamakuru":6032,"fatirwa":6033,"Ġamavuta":6034,"ĠBasketball":6035,"Ġabacuruzi":6036,"ustin":6037,"Ġayobora":6038,"Ġibitaro":6039,"Ã¨ne":6040,"Ġkwamamaza":6041,"ĠTwagira":6042,"sirikari":6043,"ĠTou":6044,"Ġgushinga":6045,"Ġisabukuru":6046,"Ġamaboko":6047,"kubise":6048,"rakoze":6049,"Ġbajye":6050,"Ġurebye":6051,"ĠZimbabwe":6052,"tegererezo":6053,"Ġmurwa":6054,"Ġubuziranenge":6055,"rwango":6056,"Ġgusuzuma":6057,"Ġruba":6058,"Ġnjya":6059,"Ġhegitari":6060,"Ġ...":6061,"Ġbahuye":6062,"Ġkwibaza":6063,"shyikirizwa":6064,"Uburusiya":6065,"ĠYu":6066,"ZU":6067,"Ġabanye":6068,"hariwe":6069,"Ġenye":6070,"Ġmpanuka":6071,"meka":6072,"bwiraga":6073,"satsi":6074,"Ġmwuga":6075,"Ibiro":6076,"Ġmwinshi":6077,"bola":6078,"Ġinyo":6079,"ciriritse":6080,"Ġwakoze":6081,"ĠREG":6082,"igikombe":6083,"Ġrikaba":6084,"Ġbushobozi":6085,"Ġakeneye":6086,"Ġkugarura":6087,"PF":6088,"meri":6089,"gozi":6090,"abafatanyabikorwa":6091,"Jean":6092,"ĠNza":6093,"sifuzi":6094,"Ic":6095,"Ġbishingiye":6096,"Ġbizatuma":6097,"Kan":6098,"Ġishyirwa":6099,"nel":6100,"Ġyiyemeje":6101,"cara":6102,"Ġyongera":6103,"Ġimitima":6104,"Ġitandatu":6105,"Ġurwa":6106,"Ġyasanze":6107,"mbuzi":6108,"Ġyatawe":6109,"Amavubi":6110,"ries":6111,"Ġbashoboye":6112,"SHA":6113,"YU":6114,"ĠRwigara":6115,"ĠHar":6116,"Pro":6117,"shyuhe":6118,"tekerereze":6119,"hembwa":6120,"ĠObama":6121,"Ġpolitike":6122,"huru":6123,"Ġriba":6124,"ĠAmahoro":6125,"Umunyarwanda":6126,"ami":6127,"zenguruka":6128,"Ġbwakozwe":6129,"Ġimvugo":6130,"bel":6131,"nse":6132,"Ġigenda":6133,"Umuco":6134,"Ġwigeze":6135,"gororwa":6136,"peta":6137,"ek":6138,"ĠDiane":6139,"gereranya":6140,"Ġbakomoka":6141,"pti":6142,"Bara":6143,"kweto":6144,"Ġimpamyabumenyi":6145,"caca":6146,"umura":6147,"ĠBujumbura":6148,"ille":6149,"Ġrwiza":6150,"ĠDiyosezi":6151,"ĠFoundation":6152,"mwasa":6153,"ĠMA":6154,"Ge":6155,"nÃ©":6156,"Ġrutahizamu":6157,"Ġimihigo":6158,"ĠKomini":6159,"Amahoro":6160,"Ġyashize":6161,"Ġmagana":6162,"Ġkuzamuka":6163,"inzira":6164,"ĠDusingizimana":6165,"tro":6166,"tambo":6167,"Ġbikomeje":6168,"Ġkwizera":6169,"hungabana":6170,"Ġyashyizwe":6171,"ĠMozambique":6172,"Ġnkunga":6173,"Ġbawu":6174,"Ġrukaba":6175,"buri":6176,"RIB":6177,"Ġkitari":6178,"alth":6179,"teje":6180,"Ġbimenyetso":6181,"Ġicyubahiro":6182,"Ġ38":6183,"Ġumurenge":6184,"Ġnimero":6185,"Ġimvu":6186,"Ġ1000":6187,"mbya":6188,"izuba":6189,"Ġkizaba":6190,"vye":6191,"umurimo":6192,"yuzemo":6193,"ranzwe":6194,"Ġigiciro":6195,"ino":6196,"Ġ1990":6197,"Ġtoni":6198,"Ġkugeraho":6199,"ork":6200,"Ġguhitamo":6201,"Ġmpande":6202,"bati":6203,"Ġbidasanzwe":6204,"Ġirengero":6205,"Ġ37":6206,"subiye":6207,"miwe":6208,"rangamutima":6209,"Itorero":6210,"umwami":6211,"ĠFo":6212,"isa":6213,"bane":6214,"Ġbakundana":6215,"Ġ01":6216,"Ġubanza":6217,"Ã§o":6218,"ĠBuhinde":6219,"Ġinyama":6220,"Ġyakoresheje":6221,"dwi":6222,"tabirwa":6223,"pfukamunwa":6224,"Ibu":6225,"hutira":6226,"Icyi":6227,"umubyeyi":6228,"Ġnyakwigendera":6229,"Ġkabu":6230,"ĠSte":6231,"Ġbapfuye":6232,"ĠRichard":6233,"sabaga":6234,"Ġagenga":6235,"mpo":6236,"Ġingengo":6237,"makuru":6238,"Ġzisaga":6239,"gugu":6240,"yugariro":6241,"ngwe":6242,"ptember":6243,"anirwa":6244,"Ġyabitangaje":6245,"Turi":6246,"ĠDavid":6247,"Ġkuvugwa":6248,"Ġese":6249,"baha":6250,"\",":6251,"umukinnyi":6252,"Ġukiri":6253,"mburwa":6254,"gayi":6255,"Kuwa":6256,"ĠGuverineri":6257,"Ġzina":6258,"yamatsiko":6259,"ĠRobert":6260,"Ġkwandura":6261,"tandaro":6262,"Ġ04":6263,"Imibare":6264,"ĠNku":6265,"ens":6266,"ĠFor":6267,"Ġatanu":6268,"Ġuherutse":6269,"shyuza":6270,"ristophe":6271,"Ġyaru":6272,"Ġbine":6273,"Ġiherereye":6274,"Ġkugurisha":6275,"SEKE":6276,"GB":6277,"ĠColo":6278,"shop":6279,"ĠTho":6280,"Ġmumu":6281,"Ġkugwa":6282,"Ġkuzaba":6283,"Ġryabo":6284,"neti":6285,"ĠHari":6286,"ĠNgororero":6287,"Ġkinyamakuru":6288,"Su":6289,"Ġyahuye":6290,"umwuka":6291,"Ġgufunga":6292,"ĠSport":6293,"Ikinyamakuru":6294,"RWA":6295,"mereye":6296,"sesengura":6297,"Ġguho":6298,"Ġurukingo":6299,"zamutse":6300,"ishami":6301,"ikirere":6302,"Ġyazi":6303,"....":6304,"Ġnshingwabikorwa":6305,"sohora":6306,"rizwamo":6307,"Ġbyagaragaye":6308,"Nanone":6309,"ĠMTN":6310,"vugurura":6311,"MO":6312,"ĠCar":6313,"pool":6314,"ĠVolleyball":6315,"Ġhariya":6316,"Ġyahagari":6317,"tha":6318,"tiro":6319,"iryo":6320,"Ġkureka":6321,"abagize":6322,"RAN":6323,"inkiko":6324,"Ġminisiteri":6325,"Guverineri":6326,"buke":6327,"Ġgushishikariza":6328,"yoboraga":6329,"Ġizajya":6330,"Ġayoboye":6331,"Ġidini":6332,"versi":6333,"ĠPu":6334,"gejejwe":6335,"Ambasaderi":6336,"baru":6337,"renzi":6338,"ĠUmujyi":6339,"ĠAfrican":6340,"Ġkwanga":6341,"ĠIC":6342,"kurikiranye":6343,"tugu":6344,"Ġgusanga":6345,"Ġimana":6346,"gendana":6347,"Ġumuvugizi":6348,"ika":6349,"?âĢĿ":6350,"Ġmusaza":6351,"Ġubuvugizi":6352,"sanganyamatsiko":6353,"gijwe":6354,"yanditswe":6355,"verpool":6356,"Ġikiri":6357,"ĠEl":6358,"Ġikosa":6359,"Ġgukorerwa":6360,"ĠSamuel":6361,"Ġcan":6362,"Ġmasoko":6363,"vugaho":6364,"ĠCamero":6365,"Kimwe":6366,"abatutsi":6367,"Umukino":6368,"Ġmikorere":6369,"rukiramuco":6370,"yisilamu":6371,"bindi":6372,"ono":6373,"Ġuhereye":6374,"kiya":6375,"Ġimpande":6376,"sina":6377,"ibiza":6378,"Ġbabashe":6379,"imbuto":6380,"Ġbiriya":6381,"enda":6382,"ting":6383,"kemuka":6384,"Uburyo":6385,"Ġbiti":6386,"RwOT":6387,"Ġbyaje":6388,"cukuzi":6389,"mijwe":6390,"Ġrita":6391,"Ġtwifuza":6392,"Ġumuvuduko":6393,"now":6394,"Ġgushora":6395,"tasi":6396,"Ġmijyi":6397,"Ġinyi":6398,"ĠDen":6399,"Ġbasore":6400,"Ġishingiye":6401,"randa":6402,"bibi":6403,"banki":6404,"Ġburimo":6405,"Ġkuguma":6406,"Ġkumenyekana":6407,"hiye":6408,"ĠChan":6409,"ĠMutagatifu":6410,"ĠEx":6411,"US":6412,"Ġwita":6413,"YAN":6414,"Ġkwinjiza":6415,"Ġbarabi":6416,"tabaza":6417,"lsea":6418,"Ġmasomo":6419,"umutoza":6420,"rikire":6421,"28":6422,"ĠDaniel":6423,"ĠCAF":6424,"Ġikwiye":6425,"Ġgutoza":6426,"Ġgusohora":6427,"isuku":6428,"Ġkurwana":6429,"Iterambere":6430,"Ġbagamije":6431,"Ġdushaka":6432,"Ġyahisemo":6433,"viramo":6434,"mail":6435,"chel":6436,"tangabuhamya":6437,"ĠBruce":6438,"We":6439,"Ġh":6440,"ĠRuhengeri":6441,"Ġaganira":6442,"Ġguhungabanya":6443,"shyuye":6444,"Nde":6445,"Ġiharanira":6446,"amatungo":6447,"ĠMaroc":6448,"Ġgakomeye":6449,"ĠNyamwasa":6450,"Ġruhame":6451,"yabuzima":6452,"Ġvyo":6453,"ĠMon":6454,"gonda":6455,"Ġngoma":6456,"Ġikizere":6457,"Ġubure":6458,"ĠFranco":6459,"ĠProf":6460,"shyikirano":6461,"Biteganyijwe":6462,"komeretsa":6463,"Ġruka":6464,"rindi":6465,"senateri":6466,"herukaga":6467,"nararibonye":6468,"Pe":6469,"Ġkumurika":6470,"Ġaheruka":6471,"ĠKara":6472,"Ġishusho":6473,"shikiwabo":6474,"Ġwifuza":6475,"Ġinteko":6476,"bohora":6477,"Ġzituma":6478,"Ġuvuye":6479,"med":6480,"Ġintera":6481,"ĠEli":6482,"ĠYork":6483,"Ġguka":6484,"Ġbyatangiye":6485,"bwiwe":6486,"Ġrumaze":6487,"Ġporogaramu":6488,"makaza":6489,"ĠDamas":6490,"ĠKigo":6491,"Ġserivise":6492,"Ġzikora":6493,"ririmbyi":6494,"tabire":6495,"Ġbaganiriye":6496,"Ġsan":6497,"ryi":6498,"haguru":6499,"Ġamatungo":6500,"hitana":6501,"Ġibiryo":6502,"Ġrugero":6503,"ĠKabuga":6504,"Yesu":6505,"dukunda":6506,"ast":6507,"Ġiheruka":6508,"Ġbatandatu":6509,"Ġbikaza":6510,"Ġumunyamabanga":6511,"jiji":6512,"Ġimirire":6513,"Ġmwene":6514,"terane":6515,"Ġminisitiri":6516,"ner":6517,"ppe":6518,"Ġmabi":6519,"shyiriweho":6520,"Abakozi":6521,"abanyamahanga":6522,"guze":6523,"Ġmuta":6524,"ĠKano":6525,"Ġabashinzwe":6526,"Ġmpunzi":6527,"bile":6528,"ght":6529,"rk":6530,"Ubufaransa":6531,"kirisitu":6532,"Ġruzinduko":6533,"gwiro":6534,"pub":6535,"muriza":6536,"kecuru":6537,"Ġikirere":6538,"Hi":6539,"ĠBara":6540,"Abanyeshuri":6541,"yamamariza":6542,"ĠPariki":6543,"Ġyavutse":6544,"Ġbam":6545,"Ġbon":6546,"Ġbishimira":6547,"liki":6548,"Ġkara":6549,"Ġbushingiye":6550,"Ġihuriro":6551,"babazi":6552,"ac":6553,"karengane":6554,"Ġino":6555,"Ġntiha":6556,"Ġimiyoborere":6557,"Ġnijoro":6558,"tinyuka":6559,"yandikisha":6560,"26":6561,"SP":6562,"Ġisoni":6563,"ĠOctober":6564,"twika":6565,"orge":6566,"Ġabasaba":6567,"inema":6568,"rans":6569,"ĠJay":6570,"Ġkuro":6571,"Ġbanga":6572,"gobo":6573,"Ġkuvugurura":6574,"Ġbukene":6575,"rance":6576,"Ġhoteli":6577,"NA":6578,"Ġ06":6579,"val":6580,"tra":6581,"rekejwe":6582,"Ġibinyabiziga":6583,"ĠKoperative":6584,"hwi":6585,"40":6586,"mpu":6587,"Ġyakoraga":6588,"Ġyasuye":6589,"pis":6590,"Iryo":6591,"hur":6592,"uturere":6593,"koloni":6594,"ĠUrwego":6595,"Ġibyuma":6596,"ĠTuyi":6597,"roheje":6598,"terineti":6599,"sesengu":6600,"rine":6601,"neral":6602,"kopi":6603,"ĠBla":6604,"ganijwe":6605,"Ã´":6606,"tandukani":6607,"siraheli":6608,"sobanutse":6609,"od":6610,"gizemo":6611,"27":6612,"Hu":6613,"ĠFaustin":6614,"Ġiwacu":6615,"Ġ@":6616,"ĠNyagasani":6617,"Ġivyo":6618,"Ġcyenda":6619,"Ġbitarenze":6620,"gamiye":6621,"Ju":6622,"Ġgukangurira":6623,"ĠRonaldo":6624,"op":6625,"shuye":6626,"ĠGasana":6627,"Ġgusohoka":6628,"Ġabayoboke":6629,"hanganira":6630,"Ġyigisha":6631,"Ġatigeze":6632,"Ġbigi":6633,"Ġmajwi":6634,"ĠEbola":6635,"ĠMessi":6636,"iminota":6637,"Ġbasirikare":6638,"Ġngira":6639,"Ġndanga":6640,"Ġbushake":6641,"Ġhazaba":6642,"Ġmibare":6643,"tizi":6644,"tifu":6645,"Ġabaha":6646,"Ġbambaye":6647,"inganda":6648,"bungo":6649,"Ġkwiya":6650,"Ġimpa":6651,"herezo":6652,"terankunga":6653,"Ġhana":6654,"Ġbiteye":6655,"Ġyashakaga":6656,"baje":6657,"impamvu":6658,"Ġabarwanyi":6659,"Ġbaravuga":6660,"hondo":6661,"Ġtuzaba":6662,"Ġmutu":6663,"Ġumupaka":6664,"Ġingana":6665,"Ġyakoranye":6666,"Ġgukwirakwiza":6667,"kabaye":6668,"Ġ03":6669,"Ġbumenyi":6670,"Ġruhare":6671,"Ġumwenda":6672,"Ara":6673,"Abaminisitiri":6674,"Ġibiza":6675,"ingengo":6676,"radi":6677,"curo":6678,"ĠAntoine":6679,"bra":6680,"intara":6681,"EC":6682,"vya":6683,"hima":6684,"Ġyahe":6685,"shyurira":6686,"ĠRulin":6687,"zamara":6688,"Ġkubaza":6689,"shyikirwa":6690,"Ġkutagira":6691,"kurya":6692,"iby":6693,"Ġrwibutso":6694,"Ġci":6695,"Ġbitera":6696,"Ġbizwi":6697,"subije":6698,"mwita":6699,"ĠItorero":6700,"imp":6701,"yahudi":6702,"Ġgutsindwa":6703,"Ġubwiza":6704,"izina":6705,"Ġameze":6706,"amashusho":6707,"Yasabye":6708,"kurikiraho":6709,"garije":6710,"Ġyashyizweho":6711,"ĠKing":6712,"Ġryayo":6713,"mbuwe":6714,"Ġbakin":6715,"yongere":6716,"rebera":6717,"kiriya":6718,"amakuru":6719,"genera":6720,"Ġmafoto":6721,"Ġbukangurambaga":6722,"tsweho":6723,"imiyoborere":6724,"tuza":6725,"Ġgukira":6726,"Ġakomoka":6727,"RWANDA":6728,"Ġwatangiye":6729,"ĠABA":6730,"ĠMugisha":6731,"Ubutabera":6732,"Ġbinji":6733,"Ġumurambo":6734,"Ġmbo":6735,"abe":6736,"zanira":6737,"mvikanye":6738,"garagaramo":6739,"ĠBurasirazuba":6740,"ngola":6741,"pagne":6742,"Ġzuba":6743,"Ġbapfa":6744,"ĠCle":6745,"Ġicy":6746,"rwenya":6747,"Ġijisho":6748,"Benshi":6749,"uma":6750,"amasezerano":6751,"Ġkumvi":6752,"Ġ150":6753,"mpike":6754,"Ġnabonye":6755,"et":6756,"Ġyishe":6757,"ĠCenter":6758,"Ġcyayo":6759,"Ġbagiranye":6760,"sangiye":6761,"kenerwa":6762,"rekeranye":6763,"Ġkurenga":6764,"lam":6765,"Ġabategetsi":6766,"Ġburezi":6767,"hane":6768,"rence":6769,"Ġkurangira":6770,"Ġ48":6771,"Ġbarya":6772,"Ġabonye":6773,"Mwa":6774,"towe":6775,"Ġzishinzwe":6776,"umushinga":6777,"Ġasigaye":6778,"Ġyafatiwe":6779,"Ġibyabaye":6780,"Ġgusobanukirwa":6781,"Ġubushinjacyaha":6782,"bora":6783,"kuriye":6784,"Ġyatwaye":6785,"Ġabitabiriye":6786,"ngerwa":6787,"gwate":6788,"Han":6789,"bri":6790,"Ri":6791,"henze":6792,"Ġkwegera":6793,"guro":6794,"Ġntiwa":6795,"Ġmwiherero":6796,"Ġdes":6797,"Ġabakiriya":6798,"ĠPlat":6799,"Ġyagaragaye":6800,"reru":6801,"koreraga":6802,"Ġukuriye":6803,"Ġ2007":6804,"bozo":6805,"Ġbyatewe":6806,"cation":6807,"Ġuna":6808,"ĠAd":6809,"Ġntawa":6810,"rand":6811,"hererekanya":6812,"Ġbakekwaho":6813,"Ġubuvuzi":6814,"Ġkuran":6815,"Ġhariho":6816,"sic":6817,"Hagati":6818,"Ġabahanga":6819,"Ġamubwira":6820,"kaye":6821,"Ġmvugo":6822,"Ġibyumba":6823,"ĠGrace":6824,"Mar":6825,"loma":6826,"boneke":6827,"jor":6828,"Ġhaki":6829,"Ġawu":6830,"hite":6831,"mene":6832,"Ġimbuga":6833,"Ġabakuru":6834,"ĠNovember":6835,"ĠItegeko":6836,"Ġsoko":6837,"Ġmajyaruguru":6838,"manuka":6839,"shyimbo":6840,"ĠFlo":6841,"Ġrukora":6842,"Ġgushimira":6843,"Ġcyabereye":6844,"Ġubw":6845,"Hashize":6846,"ĠUMUSEKE":6847,"ĠRulindo":6848,"Ġbwaba":6849,"site":6850,"Ġakayabo":6851,"umwuga":6852,"yaba":6853,"mpe":6854,"byaranye":6855,"Ġtwebwe":6856,"vuyemo":6857,"Ġibisobanuro":6858,"Ġimpaka":6859,"sohoye":6860,"Ġidu":6861,"Ġimikoranire":6862,"Ã¯":6863,"PRC":6864,"bineza":6865,"Ġmuti":6866,"Ġyiswe":6867,"Ġstade":6868,"torewe":6869,"Ġumushahara":6870,"ragera":6871,"douard":6872,"mirwa":6873,"Imikino":6874,"fitemo":6875,"amajwi":6876,"Ġwagize":6877,"Ġharuguru":6878,"Ġaricyo":6879,"ĠIkinyarwanda":6880,"Ġbitaramo":6881,"ristiano":6882,"Ġryita":6883,"Ġubwandu":6884,"Ġbukabije":6885,"pen":6886,"fungiwe":6887,"ĠRDB":6888,"kode":6889,"ship":6890,"Ġ75":6891,"menyerewe":6892,"ĠFrank":6893,"Ġwayi":6894,"kh":6895,"ĠData":6896,"Ġay":6897,"ĠGroup":6898,"ubwa":6899,"Ġazira":6900,"ĠThomas":6901,"Ġyakinnye":6902,"Ġinzozi":6903,"bonamo":6904,"Ġabanyama":6905,"Ġyica":6906,"Ġyitwaje":6907,"vukiye":6908,"Ġbangana":6909,"ĠSou":6910,"Ġibikombe":6911,"icyiciro":6912,"Umwaka":6913,"Ġubutwari":6914,"giramo":6915,"ony":6916,"nu":6917,"Ġkuku":6918,"Ġbushobora":6919,"ĠHakizimana":6920,"ews":6921,"somye":6922,"Ġbyabereye":6923,"yanditse":6924,"CP":6925,"inko":6926,"ĠMou":6927,"rinde":6928,"gwan":6929,"biko":6930,"Ġbiyi":6931,"hindagurikire":6932,"Ġgusobanura":6933,"ĠNgi":6934,"garagarira":6935,"Ġbabanje":6936,"Ġabarokotse":6937,"Ġnamu":6938,"ĠGhana":6939,"Ġbwana":6940,"mezwa":6941,"amahirwe":6942,"rimbye":6943,"haha":6944,"rongera":6945,"Ġtuti":6946,"MBA":6947,"Ġyaza":6948,"kiran":6949,"Ġudushya":6950,"Â«":6951,"Abarundi":6952,"Ġbashyize":6953,"Ġmpe":6954,"ĠFI":6955,"Umukobwa":6956,"Ġikorwa":6957,"Ġ600":6958,"banji":6959,"ubushakashatsi":6960,"Ġali":6961,"MC":6962,"itumanaho":6963,"RDC":6964,"Musanze":6965,"banutse":6966,"Ġ05":6967,"Ġyatangije":6968,"Ġnjyewe":6969,"ĠBarcelona":6970,"Ġinga":6971,"Ġgutya":6972,"Ġabikorera":6973,"Ġataza":6974,"chool":6975,"Ġruga":6976,"Ġmwarimu":6977,"Ġbategereje":6978,"hitanye":6979,"Yabi":6980,"Ġukundi":6981,"Ġijya":6982,"Ġbyerekana":6983,"ĠHA":6984,"komeretse":6985,"Ġmwanzuro":6986,"ĠAkagari":6987,"munsi":6988,"Man":6989,"senyeri":6990,"Ġradiyo":6991,"urundi":6992,"ibiribwa":6993,"Ġintoki":6994,"ĠIngabo":6995,"rezwa":6996,"Ġabatishoboye":6997,"Ġbwu":6998,"ĠNdayishimiye":6999,"giraneza":7000,"Ġiyobowe":7001,"mbutse":7002,"ĠMacron":7003,"voma":7004,"Ġmusozi":7005,"Ġumwarimu":7006,"ikinyamakuru":7007,"Ġbifitanye":7008,"bantu":7009,"ĠNyi":7010,"Ġcyaro":7011,"gamira":7012,"By":7013,"Ġbama":7014,"ĠSAC":7015,"ĠKanombe":7016,"ĠArusha":7017,"kurikirwa":7018,"35":7019,"ganyi":7020,"Ġikomeza":7021,"ĠNsan":7022,"Ġurumva":7023,"mburo":7024,"ĠWorld":7025,"yutse":7026,"umugoroba":7027,"kongera":7028,"koreshereze":7029,"Ġbanyu":7030,"Ġbitwaje":7031,"ĠChelsea":7032,"Ġyare":7033,"senya":7034,"ptiste":7035,"You":7036,"Ġkamwe":7037,"abahungu":7038,"teur":7039,"Ġbwagaragaje":7040,"29":7041,"CR":7042,"Ġzivuga":7043,"Ġikaza":7044,"Ġnshaka":7045,"ANO":7046,"Ġabarenga":7047,"sobanukiwe":7048,"voka":7049,"umvise":7050,"Ġinkomoko":7051,"pril":7052,"ĠBuyapani":7053,"Ġkwitabwaho":7054,"abakuru":7055,"ibiganiro":7056,"Ġgutura":7057,"ĠNsabimana":7058,"Ġashimira":7059,"Ġkwerekeza":7060,"ĠLiverpool":7061,"LN":7062,"vanye":7063,"din":7064,"Ġkunye":7065,"siwe":7066,"Ġbagakora":7067,"Ġturebe":7068,"Ġnyakuri":7069,"ĠIMVAHONSHYA":7070,"Ġmuzima":7071,"ĠStar":7072,"Nu":7073,"Ġtuyi":7074,"semburo":7075,"Ġibihangano":7076,"Ġrida":7077,"dine":7078,"sion":7079,"rikira":7080,"UBU":7081,"ibitaro":7082,"ibiyobyabwenge":7083,"ĠZi":7084,"Ishyirahamwe":7085,"ĠKI":7086,"wubatsi":7087,"Ġbitekerezo":7088,"cike":7089,"phonse":7090,"Ġkumuha":7091,"Ġito":7092,"Ġbitaba":7093,"Ġifumbire":7094,"Ġiterabwoba":7095,"Ġreta":7096,"Nyira":7097,"udu":7098,"ww":7099,"jyanywe":7100,"mezo":7101,"tirwa":7102,"Ġ02":7103,"cle":7104,"ona":7105,"ĠSala":7106,"rerezi":7107,"kurikijwe":7108,"gurube":7109,"shyikirijwe":7110,"Ã§ois":7111,"rara":7112,"Ġruda":7113,"silika":7114,"abavandimwe":7115,"mateka":7116,"banzi":7117,"fashanyo":7118,"ĠCyan":7119,"ĠZambia":7120,"car":7121,"Ġisaga":7122,"ĠOle":7123,"ĠChristophe":7124,"Ġkitwa":7125,"pfura":7126,"ĠBU":7127,"OC":7128,"Ġrishya":7129,"dari":7130,"Ġnan":7131,"Ġmin":7132,"Ġ2003":7133,"Ġyagizwe":7134,"dehe":7135,"Ġwavuze":7136,"Ġicyari":7137,"Ġbazo":7138,"Ġicyuho":7139,"himba":7140,"nest":7141,"komereka":7142,"Ġakarengane":7143,"rasire":7144,"BAVU":7145,"saraba":7146,"tswa":7147,"2014":7148,"Sha":7149,"ĠâĢ¦":7150,"Ġyajyaga":7151,"Ġbitangazwa":7152,"Ġrupfu":7153,"rty":7154,"Ġyewe":7155,"Ġyaravuze":7156,"ĠAt":7157,"riraho":7158,"ssan":7159,"Ġmbonera":7160,"Ġkigeze":7161,"pora":7162,"Ġukuba":7163,"remi":7164,"Ubwongereza":7165,"Ġbuntu":7166,"Ġtwavuga":7167,"Ġnyir":7168,"Ġbitara":7169,"Ġkwishimira":7170,"Ġikarita":7171,"ĠMwa":7172,"Ġbireba":7173,"Ġabanyamahanga":7174,"Ġavu":7175,"Ġibitangaza":7176,"Ġruhu":7177,"He":7178,"Ġugi":7179,"rent":7180,"DR":7181,"Usibye":7182,"Ġfilimi":7183,"gitura":7184,"hutirwa":7185,"Itangazo":7186,"guza":7187,"ĠAnasta":7188,"Ġnganda":7189,"ĠFARDC":7190,"Ġkune":7191,"Ġyajya":7192,"ĠEu":7193,"nowless":7194,"yejana":7195,"ĠVC":7196,"Ġbaturuka":7197,"vugabutumwa":7198,"mugayo":7199,"singa":7200,"ristian":7201,"ĠAwards":7202,"Iburengerazuba":7203,"Ġigu":7204,"Yana":7205,"Ġifata":7206,"kiranya":7207,"Ġgukuraho":7208,"45":7209,"gs":7210,"Ababyeyi":7211,"ports":7212,"Ġtangazo":7213,"bika":7214,"babaro":7215,"tsindira":7216,"batse":7217,"Ġamasa":7218,"stan":7219,"IGIHE":7220,"kindi":7221,"IR":7222,"Ġyonyine":7223,"Ġshe":7224,"geneye":7225,"ĠIjambo":7226,"Ġbakayi":7227,"Ġnkora":7228,"isoko":7229,"hÃ©":7230,"Ġashyira":7231,"ikirenga":7232,"rique":7233,"rugero":7234,"jimana":7235,"Ġiriho":7236,"kiniye":7237,"imiti":7238,"irobi":7239,"basiye":7240,"Ġmahirwe":7241,"teganywa":7242,"Bityo":7243,"Ġashimangira":7244,"Ġbaran":7245,"imikorere":7246,"Ġahamya":7247,"Ġbabasha":7248,"Ġnjyana":7249,"Ġimizi":7250,"Ibintu":7251,"Ġbica":7252,"Ġkujyana":7253,"rohereza":7254,"nder":7255,"Ġbagombaga":7256,"uti":7257,"Ġhasigaye":7258,"abahutu":7259,"Ġbazize":7260,"cra":7261,"Ġbatewe":7262,"ĠIsa":7263,"hembe":7264,"Ġigihombo":7265,"La":7266,"ĠMwi":7267,"Ġabaye":7268,"guka":7269,"buja":7270,"uruganda":7271,"Ġubuda":7272,"Ġgushize":7273,"Ġyin":7274,"yange":7275,"ĠKO":7276,"Ġgucika":7277,"rwani":7278,"torial":7279,"versity":7280,"Ġibe":7281,"ĠGreen":7282,"Ġntago":7283,"giti":7284,"âĤ¬Â":7285,"Ġshingiro":7286,"Ġgishya":7287,"Ġabakoresha":7288,"ĠBank":7289,"Ġ2006":7290,"bani":7291,"Ġbashyira":7292,"ĠSol":7293,"geraga":7294,"segonda":7295,"Ġibikomere":7296,"shuka":7297,"Inzego":7298,"Sin":7299,"Ġbazwi":7300,"Ġyandikiye":7301,"Ġgusenya":7302,"jon":7303,"Ġndumva":7304,"Ġyerekanye":7305,"Ġikira":7306,"Ġzawe":7307,"kuntu":7308,"ĠBro":7309,"Ġukina":7310,"ubwoko":7311,"Ġbatekereza":7312,"Ġgipimo":7313,"epfo":7314,"Ġakurikiranyweho":7315,"Ġuyoboye":7316,"Ġbahora":7317,"Ġbemerewe":7318,"Ġajye":7319,"ubukerarugendo":7320,"Ġ39":7321,"Ġumunyeshuri":7322,"ababa":7323,"hazabu":7324,"girizo":7325,"ces":7326,"abibumbye":7327,"tudio":7328,"Ġgusambanya":7329,"timana":7330,"seka":7331,"Ġakayi":7332,"Ġkubohora":7333,"Ġyibukije":7334,"zuka":7335,"âĢ¦.":7336,"yiringiro":7337,"Ġbyana":7338,"umuturage":7339,"Ġtwumva":7340,"Ġubwigenge":7341,"Ġkuzuza":7342,"Ġwakwi":7343,"ĠUmukuru":7344,"imirimo":7345,"Ġwana":7346,"Air":7347,"Ġaraba":7348,"ĠEva":7349,"ĠCentre":7350,"Ġ55":7351,"it":7352,"garagarije":7353,"sident":7354,"cco":7355,"Ġadashobora":7356,"Ġbateye":7357,"Ġitangwa":7358,"Ġyacyo":7359,"Ġyateguwe":7360,"ĠMushikiwabo":7361,"Ġintara":7362,"suzugura":7363,"refegitura":7364,"ace":7365,"Ġwandi":7366,"Ĺı":7367,"Ġkdi":7368,"Ġgaciro":7369,"Nimu":7370,"Ġbahisemo":7371,"ĠMay":7372,"Ġaturuka":7373,"hagaritswe":7374,"Ġyabuze":7375,"cember":7376,"Rubavu":7377,"ĠSACCO":7378,"shen":7379,"Ġikana":7380,"Ġmyugariro":7381,"Ikirenga":7382,"ĠTwagiramungu":7383,"Ġbabe":7384,"ĠDar":7385,"munara":7386,"Ġkompanyi":7387,"dge":7388,"ĠMugabe":7389,"Ġbyerekeye":7390,"rambwira":7391,"hangange":7392,"Ġkwiyubaka":7393,"39":7394,"Gen":7395,"yezu":7396,"Ġdukwiye":7397,"Ġbakagira":7398,"Ġbafatanyije":7399,"yangamugayo":7400,"Ġkigaragaza":7401,"umuhanda":7402,"umunyamakuru":7403,"ĠFla":7404,"Ġgushakira":7405,"korezi":7406,"Ġbaseze":7407,"Ġimyambaro":7408,"foro":7409,"gambwe":7410,"ĠSeptember":7411,"Ġyarabi":7412,"Ġbiganjemo":7413,"umunyarwanda":7414,"Ġtwu":7415,"Ġibyumweru":7416,"Ġaregwa":7417,"yenzi":7418,"Ġkuboneza":7419,"ĠCE":7420,"Ġrwacu":7421,"tubwira":7422,"Ġrwanda":7423,"hindurwa":7424,"JE":7425,"fatanije":7426,"abarimu":7427,"Padiri":7428,"ure":7429,"Ġbwara":7430,"imbaraga":7431,"Ġyaciye":7432,"ĠEn":7433,"yobe":7434,"ikindi":7435,"Ġrwu":7436,"bune":7437,"Ġwagiye":7438,"Ubucuruzi":7439,"ĠNiyi":7440,"],":7441,"pha":7442,"jora":7443,"Ġbatishoboye":7444,"Ġbataza":7445,"gure":7446,"Ġgupima":7447,"Ġrimaze":7448,"ubwicanyi":7449,"âĨ":7450,"umusaruro":7451,"ĠBaptiste":7452,"yangwa":7453,"ĠNairobi":7454,"rn":7455,"amagambo":7456,"sitani":7457,"Ġukugira":7458,"ser":7459,"Ġumwanzi":7460,"ĠMunyan":7461,"nika":7462,"Ġyinjira":7463,"bagirwa":7464,"Ġumucamanza":7465,"ĠCND":7466,"voire":7467,"Ġngi":7468,"Ġhakenewe":7469,"Ġibinyoma":7470,"Ġicyerekezo":7471,"Ġkigiye":7472,"ĠMunyakazi":7473,"Ġbuha":7474,"ĠThi":7475,"Ġinterineti":7476,"rampaka":7477,"ditse":7478,"ĠSatani":7479,"rambi":7480,"Ġzigamije":7481,"Ġyahamaga":7482,"geno":7483,"Ġyemerewe":7484,"imitwe":7485,"Imyidagaduro":7486,"ĠAmbasade":7487,"ĠGA":7488,"Ġsinzi":7489,"giritse":7490,"poir":7491,"gema":7492,"ĠAngola":7493,"karita":7494,"Ġitangira":7495,"tus":7496,"abatuye":7497,"Ġyabyo":7498,"ĠCal":7499,"rye":7500,"Ġyizeye":7501,"cuza":7502,"Ġmyitozo":7503,"Ġzigomba":7504,"gurishwa":7505,"Ġabashaka":7506,"hemu":7507,"hagararira":7508,"abapolisi":7509,"hungiye":7510,"tsemba":7511,"Mwi":7512,"dame":7513,"Al":7514,"ĠSaint":7515,"Ġkumenyekanisha":7516,"Ġishingiro":7517,"rizo":7518,"kingirizo":7519,"Ġmusaruro":7520,"Ġgukubita":7521,"37":7522,"tanya":7523,"book":7524,"ĠRWANDA":7525,"Ġbudasanzwe":7526,"Ġrubyiniro":7527,"Ġkuzirikana":7528,"Gahunda":7529,"mpaye":7530,"Ndetse":7531,"ĠMbo":7532,"cyu":7533,"Ġakina":7534,"Ġcoronavirus":7535,"umusore":7536,"ndiro":7537,"ds":7538,"Ġbawe":7539,"Ġdukeneye":7540,"Ġburenganzira":7541,"uly":7542,"Ushobora":7543,"herwe":7544,"ĠEspagne":7545,"Ġmushiki":7546,"siness":7547,"Ġgushimangira":7548,"Madamu":7549,"ĠPasiteri":7550,"Ġbemera":7551,"Ġndimi":7552,"Ġbitero":7553,"Ġuruhushya":7554,"Ġkato":7555,"Ġkaba":7556,"Ġyatsinzwe":7557,"ramya":7558,"ĠMeddy":7559,"Menya":7560,"Ġgutunga":7561,"Ġtugira":7562,"Ġabakiliya":7563,"abaturanyi":7564,"Ġamoko":7565,"Ġkiyaga":7566,"lain":7567,"Ġbahagarariye":7568,"Ġkungu":7569,"anditse":7570,"ruza":7571,"âĨĲ":7572,"Ġashingiye":7573,"Ġyakira":7574,"Ġugeze":7575,"ĠKari":7576,"Ġtujya":7577,"dyo":7578,"hando":7579,"Ġbakabona":7580,"Ġbazira":7581,"wundi":7582,"Ġgukuramo":7583,"raperi":7584,"ĠKabera":7585,"nerali":7586,"igitsina":7587,"wer":7588,"Ġababo":7589,"enze":7590,"merica":7591,"Ġitabi":7592,"ĠJacques":7593,"liam":7594,"Utu":7595,"Ġbahungiye":7596,"Ġyahuje":7597,"kurikiranira":7598,"uruza":7599,"Ġhenshi":7600,"rwanye":7601,"Ġumukandida":7602,"Ġbakan":7603,"hinduwe":7604,"Guverinoma":7605,"ĠRwand":7606,"Kenya":7607,"Ġbatabi":7608,"bgayi":7609,"riyemo":7610,"Ġ65":7611,"Ġnubu":7612,"ĠFranÃ§ois":7613,"ĠButaliyani":7614,"ĠGeneral":7615,"koman":7616,"Ġta":7617,"ĠKizito":7618,"Ġwahawe":7619,"Ġyaramu":7620,"Ġmwese":7621,"gendanwa":7622,"tezweho":7623,"gendu":7624,"Ġmashyamba":7625,"Paul":7626,"ĠJack":7627,"sto":7628,"Ġbahoze":7629,"kumbi":7630,"ĠGatu":7631,"muryango":7632,"Ġgutangwa":7633,"Ġntimu":7634,"Ġbatagira":7635,"baze":7636,"rukanye":7637,"Ġatabi":7638,"Cya":7639,"Ġabashoramari":7640,"none":7641,"Ġbarebe":7642,"nywa":7643,"vanze":7644,"ĠKwizera":7645,"mic":7646,"tions":7647,"uary":7648,"Ġbitwaye":7649,"ĠRuguru":7650,"Ġbabuze":7651,"igisirikare":7652,"ls":7653,"bereka":7654,"nis":7655,"CU":7656,"Ġumurwayi":7657,"nyeshuri":7658,"Ġigisirikare":7659,"ngana":7660,"Ġkiciro":7661,"Ġtwabonye":7662,"liyari":7663,"ubw":7664,"ramutse":7665,"ĠIntara":7666,"ĠSafi":7667,"bega":7668,"ĠMin":7669,"Ġiherutse":7670,"mbwiye":7671,"Raporo":7672,"Ġet":7673,"Ihuriro":7674,"geli":7675,"Intumwa":7676,"Itsinda":7677,"Ġukabona":7678,"amasaha":7679,"Ġyasohotse":7680,"Ġ44":7681,"ĠRPF":7682,"Ġ800":7683,"UMUBAVU":7684,"Ġbashakanye":7685,"ĠSida":7686,"bonana":7687,"Ġabone":7688,"tungane":7689,"Ġcyamunara":7690,"Inta":7691,"Bavuga":7692,"Ishyaka":7693,"Ġminota":7694,"Ġamacakubiri":7695,"Ġabahungu":7696,"subu":7697,"Ġakimara":7698,"Ġmunya":7699,"Ġcyawe":7700,"koza":7701,"inzara":7702,"Ġgusangira":7703,"ĠAU":7704,"Ġici":7705,"Ġgihembwe":7706,"gijimana":7707,"anney":7708,"ĠPolly":7709,"nguwe":7710,"ĠPeter":7711,"Ġarwaye":7712,"Ġbirashoboka":7713,"inyungu":7714,"dende":7715,"ffi":7716,"Ġitsinze":7717,"Ġbugaragaza":7718,"jijo":7719,"riste":7720,"ĠBuru":7721,"ĠLon":7722,"Ġmisozi":7723,"ĠGatabazi":7724,"ghan":7725,"tunze":7726,"ĠMani":7727,"bujije":7728,"elle":7729,"ĠMelodie":7730,"cien":7731,"Ġashize":7732,"ĠCro":7733,"yanye":7734,"Ġamashyamba":7735,"Ġzisanzwe":7736,"Ġ46":7737,"Ġakoze":7738,"kunde":7739,"tangirwa":7740,"Ġbizi":7741,"rurwa":7742,"Ġnkaho":7743,"Ġubukerarugendo":7744,"singye":7745,"amata":7746,"Ġkubyaza":7747,"Ġsitasiyo":7748,"Ġkurangwa":7749,"Ġbworoshye":7750,"ĠMeya":7751,"Ġihuza":7752,"Ġadafite":7753,"ĠSun":7754,"ĠIran":7755,"GAME":7756,"ĠâĹı":7757,"ĠÃ":7758,"ĠGeorge":7759,"inyeshyamba":7760,"Ġzigiye":7761,"ĠUBU":7762,"amaso":7763,"Ġyakuye":7764,"ĠSene":7765,"Ivoire":7766,"Ġmidugudu":7767,"ĠTom":7768,"kabije":7769,"Ġigitutu":7770,"Ġkwangiza":7771,"An":7772,"mahoro":7773,"subire":7774,"Ġnkengero":7775,"Ġuturere":7776,"Ġnavuga":7777,"Ġjambo":7778,"Ġimyuga":7779,"kinisha":7780,"abayi":7781,"Ġkurenza":7782,"hato":7783,"Ġkwihutisha":7784,"yongereyeho":7785,"mable":7786,"Ġbirangira":7787,"Abari":7788,"cade":7789,"garagambya":7790,"Ġndaba":7791,"Ġubuntu":7792,"Ġurwibutso":7793,"Ġguhunga":7794,"Ġibira":7795,"Igice":7796,"Ġibaye":7797,"ĠMusic":7798,"UP":7799,"byiza":7800,"kinwa":7801,"Ġkwifatanya":7802,"Ġakagira":7803,"ĠIPRC":7804,"Ġ2005":7805,"ĠRose":7806,"ĠBernard":7807,"Ġamafunguro":7808,"Ġryitwa":7809,"inde":7810,"yumvamo":7811,"33":7812,"Ġbareba":7813,"yororo":7814,"ctor":7815,"mvu":7816,"Ġkubwiriza":7817,"ĠNshya":7818,"ĠSam":7819,"Ġgituma":7820,"ix":7821,"giriza":7822,"ĠAbahutu":7823,"Ġhashingiwe":7824,"Hanyuma":7825,"Ġkwitaba":7826,"ubukwe":7827,"Ġdusanga":7828,"Ġinyamaswa":7829,"franga":7830,"Ġkwihangana":7831,"Ġasabwa":7832,"vyi":7833,"Ġintwari":7834,"Ġkwimakaza":7835,"ĠAbantu":7836,"genderaho":7837,"ĠUmunya":7838,"imirire":7839,"Amafaranga":7840,"akaba":7841,"ĠKabgayi":7842,"ĠEti":7843,"Ntu":7844,"riyoni":7845,"ĠBra":7846,"Uburasirazuba":7847,"Ġkurwara":7848,"Ġbakoraga":7849,"manye":7850,"siganwa":7851,"Ġmon":7852,"ĠLau":7853,"miseri":7854,"mubwira":7855,"Ġziterwa":7856,"Ġtugeze":7857,"Uwiteka":7858,"zindi":7859,"Ġtelephone":7860,"jonjora":7861,"wanye":7862,"Ġbanze":7863,"Ġikaze":7864,",âĢĿ":7865,"shing":7866,"remereye":7867,"Ġgusubi":7868,"Ġziha":7869,"Ġbabikora":7870,"Ġbatera":7871,"urubanza":7872,"iba":7873,"indo":7874,"ĠEdouard":7875,"yumvisha":7876,"ubli":7877,"ĠHabimana":7878,"ĠAnastase":7879,"ZO":7880,"rvi":7881,"Ġngororamu":7882,"Ġabavuga":7883,"jagari":7884,"Ġbiranga":7885,"kumira":7886,"ĠKim":7887,"mubiri":7888,"turiye":7889,"Ġkabari":7890,"baro":7891,"litiro":7892,"kekwa":7893,"ĠHou":7894,"Ġimpeta":7895,"Ġmunyarwanda":7896,"huzabikorwa":7897,"Ġmpi":7898,"Bari":7899,"ĠVianney":7900,"AL":7901,"ĠUniversity":7902,"roha":7903,"subiramo":7904,"Ġkuma":7905,"hemuka":7906,"Abahutu":7907,"fan":7908,"Ġnkana":7909,"Ġugamije":7910,"rondoro":7911,"uruhu":7912,"llah":7913,"ĠFili":7914,"dali":7915,"nganizi":7916,"jyamo":7917,"31":7918,"Ġgeno":7919,"kubitwa":7920,"Ġrukuta":7921,"Ġtuna":7922,"Ġyabivuze":7923,"Ġmutekano":7924,"funguwe":7925,"ĠFrancois":7926,"Ġbashinjwa":7927,"Ġigize":7928,"amaze":7929,"ĠNiyo":7930,"Ġbaganira":7931,"kanama":7932,"Ġisiganwa":7933,"ĠUbwo":7934,"Ġgutabara":7935,"Ġiruhande":7936,"Amatora":7937,"Ġyasa":7938,"sangiza":7939,"naliti":7940,"ĠGihugu":7941,"Ġibara":7942,"bru":7943,"sobe":7944,"Ġcyanjye":7945,"Ġbutayu":7946,"Ingo":7947,"dis":7948,"ĠAbdu":7949,"Ġamwi":7950,"zize":7951,"Maze":7952,"Ġcyatumye":7953,"Ġbabarirwa":7954,"ling":7955,"hirizwa":7956,"king":7957,"Ġbibaza":7958,"Ġzitari":7959,"yumu":7960,"herereza":7961,"ĠUbushinjacyaha":7962,"ĠDay":7963,"Ira":7964,"peti":7965,"vanwa":7966,"Ura":7967,"rekwa":7968,"Ġkubakira":7969,"ĠIgisi":7970,"Ġgushira":7971,"Ġyagiriye":7972,"ĠChri":7973,"Ġyatangira":7974,"Ġhakurikijwe":7975,"Ġkubya":7976,"ĠSuper":7977,"ababi":7978,"vugiye":7979,"duku":7980,"Ġyanga":7981,"Ġcyubahiro":7982,"Ġutazi":7983,"yemera":7984,"Ġkuburani":7985,"niba":7986,"ĠÂ».":7987,"gerero":7988,"Ġbameze":7989,"rban":7990,"ĠJoe":7991,"Ġmbaraga":7992,"ĠVictoire":7993,"Ġbutemewe":7994,"Ġrirambwira":7995,"gendaga":7996,"sigaranye":7997,"Ġyagejeje":7998,"turarwanda":7999,"ĠVa":8000,"Nza":8001,"shimire":8002,"Ġirya":8003,"Ġyashimangiye":8004,"ĠBK":8005,"vaho":8006,"Ġbahuje":8007,"Mbese":8008,"Ġryan":8009,"tuweli":8010,"shaho":8011,"Ġbihuriye":8012,"Ġmagendu":8013,"spel":8014,"To":8015,"Ġimyanda":8016,"Ġyishimira":8017,"âĤ¬ÂĿ":8018,"Ti":8019,"Ġindangagaciro":8020,"roka":8021,"Ġababwira":8022,"Ġbukuru":8023,"Ġmoko":8024,"ĠPhili":8025,"urwa":8026,"ĠAs":8027,"ibiciro":8028,"Ġ54":8029,"red":8030,"Ġimyigaragambyo":8031,"mvaho":8032,"Ġzagiye":8033,"Ġwiga":8034,"ĠAbaturage":8035,"Ġ47":8036,"ĠShi":8037,"Ġujye":8038,"Ġbuhamya":8039,"kenshi":8040,"ririmba":8041,"kirana":8042,"urugendo":8043,"hemba":8044,"Ġgukundana":8045,"Ġintanga":8046,"cururiza":8047,"shyushye":8048,"cebook":8049,"ĠGereza":8050,"Ġukinira":8051,"Ġkwitwa":8052,"500":8053,"taga":8054,"menyin":8055,"shushanya":8056,"ĠOlempike":8057,"Mun":8058,"bomana":8059,"sogi":8060,"umudugudu":8061,"Umukozi":8062,"siti":8063,"ngutse":8064,"Ġbikana":8065,"Ġubwenegihugu":8066,"Ġgo":8067,"Ġubukana":8068,"Ġibipimo":8069,"abadepite":8070,"mbero":8071,"Ġmpinduka":8072,"gizwa":8073,"Ġnawo":8074,"ature":8075,"Ġbwihariye":8076,"Ġkarindwi":8077,"Ġntizi":8078,"koranye":8079,"sirwa":8080,"ganzo":8081,"higa":8082,"ĠTra":8083,"sivili":8084,"pro":8085,"Ġikwirakwira":8086,"Ġyamenyekanye":8087,"Ġkwizi":8088,"yumvikana":8089,"menyingiro":8090,"Ġ250":8091,"Ġurwango":8092,"ĠAF":8093,"ryohe":8094,"burayi":8095,"Ġyasubije":8096,"ĠNsengiyumva":8097,"saku":8098,"Ġbatangaje":8099,"Ġgukurikiza":8100,"Ġyifashishije":8101,"ĠÃ¢":8102,"Ġgukomera":8103,"Ġkingana":8104,"Ġyavukiye":8105,"Ġbonyine":8106,"Ġbugamije":8107,"Ġkurera":8108,"rime":8109,"Byari":8110,"Ġbafatwa":8111,"ububanyi":8112,"Ġyaraye":8113,"gle":8114,"Ġakabona":8115,"ses":8116,"rereye":8117,"Amateka":8118,"Ġbufasha":8119,"ĠNor":8120,"abamu":8121,"Ġukeneye":8122,"ĠNyaka":8123,"ĠGera":8124,"SHI":8125,"phi":8126,"kaga":8127,"garijwe":8128,"Ġbajyaga":8129,"Ġbitabo":8130,"shakiye":8131,"Ġishyirahamwe":8132,"Ġgukusanya":8133,"kenga":8134,"ĠByumba":8135,"boneyeho":8136,"rweho":8137,"ut":8138,"Ġbakazi":8139,"kubitiro":8140,"Ġmishya":8141,"ĠHassan":8142,"gge":8143,"ĠBuholandi":8144,"Ġbavugaga":8145,"baya":8146,"inteko":8147,"kijwe":8148,"uwari":8149,"shyikirije":8150,"Ġyashatse":8151,"pre":8152,"Ġburasirazuba":8153,"mpaka":8154,"Ġbarindwi":8155,"Ġkunyura":8156,"Ġ42":8157,"Ġbarwaye":8158,"Ġkilometero":8159,"regeya":8160,"Ġmubare":8161,"ky":8162,"nyamategeko":8163,"Ġyarimo":8164,"ubukene":8165,"ĠFDU":8166,"rente":8167,"Ġgusiganwa":8168,"Ġwamenyekanye":8169,"wisi":8170,"ĠMicha":8171,"Ġitangaza":8172,"Ġigenzura":8173,"shomeri":8174,"ANI":8175,"umwimerere":8176,"ducer":8177,"ĠHabineza":8178,"Ġijyanye":8179,"Ġtuvuga":8180,"Ubushinwa":8181,"Ke":8182,"Nyaga":8183,"Ġbacye":8184,"amagare":8185,"ditorial":8186,"Ġihari":8187,"Ġbagerageza":8188,"Ġyakunze":8189,"kurire":8190,"ĠFÃ©":8191,"tyoza":8192,"ĠFred":8193,"ĠFIFA":8194,"Ari":8195,"Ġbukwe":8196,"Ġkwifashisha":8197,"gusa":8198,"Ġgukinira":8199,"ĠRama":8200,"bushake":8201,"Ġkongerera":8202,"Ġukoresha":8203,"Ġamara":8204,"YARWANDA":8205,"wanga":8206,"Uku":8207,"mwarimu":8208,"Ġukabije":8209,"ĠMama":8210,"Ġbasuye":8211,"ĠSchool":8212,"ĠJanvier":8213,"Ġgukingira":8214,"Ġgukurikiranwa":8215,"sirayeli":8216,"derman":8217,"Fo":8218,"shywe":8219,"Ġudafite":8220,"Za":8221,"tezwa":8222,"ĠGisozi":8223,"heba":8224,"limu":8225,"strali":8226,"Yezu":8227,"Burundi":8228,"ĠCentraf":8229,"jinya":8230,"Ġbirenga":8231,"miza":8232,"Ġkumufasha":8233,"roheye":8234,"ĠTeleviziyo":8235,"Ġhabonetse":8236,"Ġzizaba":8237,"bruary":8238,"Uwitwa":8239,"kamo":8240,"Ġbirenze":8241,"Ġinkiko":8242,"Ġrirambye":8243,"Ġbanduye":8244,"kennye":8245,"Ġyagerageje":8246,"Ġimbwa":8247,"fubyi":8248,"ĠFLN":8249,"Ġmajyepfo":8250,"cumu":8251,"ingingo":8252,"tine":8253,"hati":8254,"Ġmakosa":8255,"ĠUwimana":8256,"Ġbihu":8257,"Ġahora":8258,"ĠAndre":8259,"Ġami":8260,"hangani":8261,"Ġyaran":8262,"ĠBel":8263,"Ġimico":8264,"ĠRusange":8265,"hine":8266,"abanye":8267,"atured":8268,"ĠGacaca":8269,"Ġbwihuse":8270,"Ġmubano":8271,"Ġikibi":8272,"Abakobwa":8273,"Ġbyibura":8274,"hamed":8275,"Ġngengo":8276,"Haba":8277,"ĠZari":8278,"Ġibibi":8279,"shyinguye":8280,"ĠNgabo":8281,"Ġazo":8282,"menyereye":8283,"und":8284,"Ġabadepite":8285,"Ġibirego":8286,"Ġyahishuye":8287,"Ġbabayeho":8288,"beraga":8289,"ĠUmuseke":8290,"Ġimpuhwe":8291,"banjirije":8292,"Ġlitiro":8293,"ĠChristian":8294,"ĠKenyatta":8295,"karaba":8296,"shikiri":8297,"Ġzanjye":8298,"korwaga":8299,"Ġwamamaye":8300,"deni":8301,"ĠIshimwe":8302,"Ġimirwano":8303,"steri":8304,"Ġbuvuzi":8305,"ĠPasi":8306,"ssion":8307,"Ġmucyo":8308,"vanji":8309,"tina":8310,"Ġagize":8311,"turire":8312,"geneke":8313,"Ġngiro":8314,"Ġntebe":8315,"zewe":8316,"Ġmugu":8317,"geranyo":8318,"Ġmikuru":8319,"ĠParty":8320,"Ġbiribwa":8321,"hangayikishijwe":8322,"ĠNyungwe":8323,"Ġgica":8324,"Ġbatawe":8325,"Ġbirinda":8326,"Abafaransa":8327,"kubiswe":8328,"Ġbaguye":8329,"ĠKibungo":8330,"Ġkabone":8331,"Ġzijyanye":8332,"lemu":8333,"nie":8334,"shimiwe":8335,"tia":8336,"Ġmiti":8337,"Ġugenda":8338,"shigi":8339,"ĠKAGAME":8340,"Nari":8341,"ĠNyamata":8342,"ay":8343,"amoko":8344,"Ġateganya":8345,"kamaro":8346,"Ġmonth":8347,"Ġbyawe":8348,"Ubuhinzi":8349,"ĠWine":8350,"Ġtwose":8351,"umz":8352,"shishozi":8353,"tondo":8354,"34":8355,"ĠGlo":8356,"janye":8357,"urwo":8358,"Ġbatsinze":8359,"fashijwemo":8360,"Ch":8361,"Ġutwa":8362,"Ġkubaba":8363,"pimisha":8364,"shijeho":8365,"Ġihame":8366,"ĠPen":8367,"Ġmazina":8368,"hishu":8369,"cupa":8370,"sinye":8371,"zerwa":8372,"siba":8373,"Ġmihigo":8374,"Intego":8375,"Ġabafatanyabikorwa":8376,"hoteli":8377,"Ġgutakaza":8378,"Ġikizamini":8379,"âĢĭ":8380,"gisho":8381,"mali":8382,"yika":8383,"himbaza":8384,"suzumwa":8385,"led":8386,"Ġruhago":8387,"ĠHer":8388,"Ġbazakomeza":8389,"ĠTouch":8390,"ĠAlexis":8391,"Ġwasangaga":8392,"rubozo":8393,"Ġashinzwe":8394,"rageze":8395,"Ġgisanzwe":8396,"lestin":8397,"wera":8398,"Indirimbo":8399,"manya":8400,"Ġbadashobora":8401,"biro":8402,"tingi":8403,"gwingira":8404,"Inga":8405,"ĠNshimiyimana":8406,"ĠQa":8407,"ĠWilliam":8408,"Ġbigisha":8409,"ville":8410,"umubare":8411,"amara":8412,"heza":8413,"Ġrubi":8414,"Ġurumuri":8415,"Ġivangura":8416,"Ġzimu":8417,"ĠCP":8418,"Ġbazamu":8419,"Ġmini":8420,"Ġcyatangaje":8421,"ĠArena":8422,"Ġatangiye":8423,"Ã©nÃ©":8424,"pfiriye":8425,"rongoye":8426,"suru":8427,"Ġurumogi":8428,"tesha":8429,"abasore":8430,"ĠNoheli":8431,"Ġkabi":8432,"shimirwa":8433,"Ġizabera":8434,"Ġikoresha":8435,"ĠIcya":8436,"Ġkugaru":8437,"ral":8438,"ĠIshami":8439,"ĠVS":8440,"Ġmukerarugendo":8441,"gori":8442,"Ġbafatiwe":8443,"Ġbihari":8444,"Ġubwonko":8445,"36":8446,"ĠIyo":8447,"mier":8448,"imyuga":8449,"Ġnyayo":8450,"Ġbafasha":8451,"gume":8452,"kusan":8453,"yiko":8454,"abakunzi":8455,"Ġ2004":8456,"tunguranye":8457,"USA":8458,"rike":8459,"ĠJuli":8460,"Ġubujura":8461,"Ġmaguru":8462,"Nyama":8463,"mbukiranya":8464,"ramuka":8465,"Ġgenocide":8466,"nyu":8467,"Ġgihari":8468,"rwanashyaka":8469,"Ġhatandukanye":8470,"ther":8471,"Ġnshuti":8472,"Ġntibu":8473,"Ġagahita":8474,"rince":8475,"rebere":8476,"Ġbahanganye":8477,"Ġibiba":8478,"gufuli":8479,"Ġimeze":8480,"menyereza":8481,"Ġkunyereza":8482,"ĠTeam":8483,"Papa":8484,"rise":8485,"teraniro":8486,"merwa":8487,"Ġkugirira":8488,"ĠYEZU":8489,"Ġgiciro":8490,"Ġgitekerezo":8491,"Ġbumaze":8492,"ABA":8493,"Ġmashyaka":8494,"hina":8495,"Ġuhagije":8496,"Ġyasize":8497,"tch":8498,"ĠFc":8499,"Ġgishanga":8500,"ĠSenegal":8501,"Ġkaru":8502,"amadini":8503,"ots":8504,"Ġkugana":8505,"Soma":8506,"ĠThÃ©":8507,"Ġwitwaga":8508,"ibanga":8509,"Ġmurima":8510,"ĠBura":8511,"Ġumwanda":8512,"Ġnagiye":8513,"Ġgafite":8514,"panga":8515,"rohera":8516,"gifite":8517,"hebe":8518,"Ġintebe":8519,"Ġntoki":8520,"ĠBikira":8521,"ĠMalawi":8522,"Ġugera":8523,"lm":8524,"ĠAugust":8525,"ĠAg":8526,"kemurampaka":8527,"Bivugwa":8528,"Ikoranabuhanga":8529,"Ġubwisungane":8530,"ĠNahimana":8531,"iteka":8532,"Umutekano":8533,"Ġumusirikare":8534,"toye":8535,"Ġumuvandimwe":8536,"ĠNyabu":8537,"Cla":8538,"ĠBusingye":8539,"aniye":8540,"inzobere":8541,"at":8542,"ishoramari":8543,"higwa":8544,"koreshaga":8545,"ĠLibya":8546,"Ġyaya":8547,"ĠYves":8548,"Ġservi":8549,"Ġmutoza":8550,"Ġ120":8551,"amabwiriza":8552,"koraho":8553,"Ġhashobora":8554,"Ġkwishyira":8555,"ĠIgihe":8556,"ijambo":8557,"uburwayi":8558,"dewo":8559,"Ġbyavuzwe":8560,"Ubugenzacyaha":8561,"Ġicyakora":8562,"Ġarya":8563,"ĠMajor":8564,"ĠUmuvugizi":8565,"Ġbyibuze":8566,"ĠAimable":8567,"Ġntiyigeze":8568,"zimu":8569,"Ġukumva":8570,"Ġagaragara":8571,"tirira":8572,"hanitse":8573,"Ġguhashya":8574,"bal":8575,"ĠRDF":8576,"WO":8577,"ker":8578,"mbuto":8579,"Ġicyicaro":8580,"ston":8581,"Ġabasha":8582,"agahinda":8583,"ĠWest":8584,"garutseho":8585,"38":8586,"widi":8587,"nia":8588,"danya":8589,"mocra":8590,"Ġyunze":8591,"Ġmuki":8592,"Ġuhuza":8593,"idini":8594,"Ġyabashije":8595,"Ġpapa":8596,"Ġije":8597,"Ġikubitiro":8598,"FD":8599,"qui":8600,"ziga":8601,"suwisi":8602,"Ġmpuzama":8603,"Ġmanza":8604,"singi":8605,"Ġamatsiko":8606,"NR":8607,"Ġtorero":8608,"ĠEspoir":8609,"Ġruvuga":8610,"Ġikibuga":8611,"Ġkuzajya":8612,"Ġmva":8613,"ĠMunye":8614,"ĠMinist":8615,"ĠDj":8616,"Ġindishyi":8617,"AS":8618,"Ġcyatangiye":8619,"].":8620,"Ġamatsinda":8621,"amarenga":8622,"Ġbihembo":8623,"Burya":8624,"riramo":8625,"ĠOMS":8626,"CIP":8627,"Komisiyo":8628,"Ġduto":8629,"ubura":8630,"yerekwa":8631,"Åĵ":8632,"Ġbyanze":8633,"byino":8634,"Ġumuganga":8635,"Ġturaba":8636,"Ġkubw":8637,"ukuntu":8638,"hungi":8639,"Ġbaraba":8640,"Yongeraho":8641,"48":8642,"Ġgutegereza":8643,"Ġguhimbaza":8644,"Ġkwihangira":8645,"hize":8646,"ler":8647,"Ġririmo":8648,"ahantu":8649,"Depite":8650,"Ġimigambi":8651,"Ġzitu":8652,"Imyaka":8653,"Ġhaje":8654,"ĠSA":8655,"Ġshyaka":8656,"wanjye":8657,"PE":8658,"ĠGisirikare":8659,"singwa":8660,"hangarwa":8661,"Umushinga":8662,"kwereka":8663,"Ġyakatiwe":8664,"ĠUbuyobozi":8665,"Ġrwara":8666,"Ġgushyingura":8667,"ef":8668,"hangayikishije":8669,"zy":8670,"Ġyakora":8671,"riyeho":8672,"Ġyazo":8673,"Ġniki":8674,"Ġimbaga":8675,"ĠKibeho":8676,"Ġumusoro":8677,"Ġato":8678,"Ġatwite":8679,"Ġbaherutse":8680,"girakamaro":8681,"Ġakekwaho":8682,"Ġnumvaga":8683,"Ġnkunda":8684,"ĠRuko":8685,"abanyamuryango":8686,"dam":8687,"Ġkiliziya":8688,"Umuvunyi":8689,"del":8690,"date":8691,"ĠKarekezi":8692,"Ġmutungo":8693,"Ġbiciye":8694,"ĠNyafurika":8695,"Ġbyumweru":8696,"Ġakaga":8697,"hamagaye":8698,"ĠNyuma":8699,"ĠErnest":8700,"EFA":8701,"tegetswe":8702,"Ġinkweto":8703,"ĠNsengimana":8704,"Ġyateguye":8705,"abakora":8706,"rwafa":8707,"sozwa":8708,"Ġwaha":8709,"carubozo":8710,"Ġnsanga":8711,"ishyirahamwe":8712,"Ġwamaze":8713,"yansi":8714,"Ġbungana":8715,"ĠWo":8716,"Ġagaruka":8717,"numz":8718,"hizi":8719,"Editorial":8720,"kishije":8721,"ĠMihigo":8722,"ĠIradukunda":8723,"nwe":8724,"abahanga":8725,"Ġaramutse":8726,"ĠDecember":8727,"RIM":8728,"bahiriza":8729,"Ġyumvise":8730,"Fe":8731,"muzi":8732,"Ġbidu":8733,"ĠKnowless":8734,"Ġruhando":8735,"Ġguhagararira":8736,"ĠAirtel":8737,"ĠNYA":8738,"ubutumwa":8739,"Ġcyahoze":8740,"genderwaho":8741,"Ahabanza":8742,"Ġngarukamwaka":8743,"Ġbarushaho":8744,"Ġamahame":8745,"ĠEast":8746,"Ġibyiciro":8747,"sengimana":8748,"Ġabyi":8749,"razil":8750,"ĠNiyonzima":8751,"Ġiburanisha":8752,"imyitwarire":8753,"Ġincuro":8754,"ance":8755,"Ġabaturanyi":8756,"Ġibyabo":8757,"sire":8758,"Ġumuganda":8759,"Ġwanyu":8760,"Ġbamenya":8761,"Ġintandaro":8762,"ĠKama":8763,"umukozi":8764,"Ġapfa":8765,"Ġbibaho":8766,"celles":8767,"gged":8768,"ĠAcade":8769,"ĠAbahamya":8770,"ĠGilbert":8771,"Ġuzajya":8772,"Ġbarokotse":8773,"horera":8774,"ĠOne":8775,"ese":8776,"ĠTuni":8777,"mwu":8778,"Ġbiva":8779,"Ġkuramya":8780,"ĠUn":8781,"Ġ49":8782,"ĠBur":8783,"hunze":8784,"Ġmala":8785,"Ġpenaliti":8786,"Njyewe":8787,"ĠAh":8788,"shyingiran":8789,"Ġmbogamizi":8790,"Ġutanga":8791,"kaho":8792,"Ġmurumuna":8793,"ĠDel":8794,"umwanya":8795,"ĠSt":8796,"ĠKaru":8797,"rokoka":8798,"yororokere":8799,"Ġgiherereye":8800,"shington":8801,"Ġubusu":8802,"Ġkubyo":8803,"pasiteri":8804,"Ġju":8805,"Ġziriya":8806,"ĠBoy":8807,"ĠBwi":8808,"ĠMunezero":8809,"yinya":8810,"Ġgitu":8811,"ĠApril":8812,"iburyo":8813,"ĠCya":8814,"uwitwa":8815,"ĠMichael":8816,"ĠAlphonse":8817,"sy":8818,"ndetse":8819,"Ġudasanzwe":8820,"Ubutumwa":8821,"rengwa":8822,"ĠCameroun":8823,"ayi":8824,"duru":8825,"Ġimbibi":8826,"Ġbikurikira":8827,"Ġagatoki":8828,"mporiki":8829,"Ġcanke":8830,"nyo":8831,"Ġberekeza":8832,"Ġarabi":8833,"Ġgusana":8834,"Guhera":8835,"Ġabazungu":8836,"ingendo":8837,"Ġis":8838,"Ġkeretse":8839,"fuzaga":8840,"Ġzitwara":8841,"Ġndabona":8842,"kamba":8843,"Ġyarwo":8844,"Ġruguru":8845,"yisenga":8846,"Ġubwayo":8847,"huri":8848,"Ġvita":8849,"amatorero":8850,"Ġbuhagije":8851,"Ġamarangamutima":8852,"Ġbahari":8853,"jani":8854,"ĠCyangugu":8855,"Abajijwe":8856,"hili":8857,"47":8858,"biza":8859,"duza":8860,"Ġnizo":8861,"hindagurika":8862,"Ġguhagarara":8863,"Zimwe":8864,"Ġpariki":8865,"Rero":8866,"handi":8867,"Ġkurebera":8868,"danye":8869,"onel":8870,"xy":8871,"Ġipfu":8872,"Ġicyayi":8873,"Ġarangije":8874,"ĠMbabazi":8875,"Ġmvuga":8876,"ĠPascal":8877,"abashinzwe":8878,"gutse":8879,"abahinzi":8880,"ĠPlatnumz":8881,"ĠKevin":8882,"Ġnye":8883,"Umutwe":8884,"bs":8885,"mufasha":8886,"tumba":8887,"Ġamashyaka":8888,"ĠInterahamwe":8889,"Ġ56":8890,"Ġtere":8891,"risi":8892,"Ġbasu":8893,"Ġimboga":8894,"Ġigaragara":8895,"Ġradio":8896,"Ġazamu":8897,"hangane":8898,"Ġnzaba":8899,"âĢº":8900,"ubudehe":8901,"LG":8902,"Ġyafashije":8903,"ĠTri":8904,"ĠPar":8905,"ĠAustrali":8906,"PS":8907,"dier":8908,"Ġabakoze":8909,"cishije":8910,"Ruta":8911,"Ġmavu":8912,"cky":8913,"murwa":8914,"shoro":8915,"Ġafatwa":8916,"Ġyigenga":8917,"ĠConfe":8918,"Tuza":8919,"gie":8920,"uburinganire":8921,"ĠMaj":8922,"tincelles":8923,"ganura":8924,"Abagize":8925,"ĠHANO":8926,"kundira":8927,"zanywe":8928,"mejwe":8929,"Ġbutuma":8930,"Amashuri":8931,"ebyiri":8932,"namo":8933,"Dufite":8934,"Ġgufashwa":8935,"ĠNzeli":8936,"ice":8937,"cura":8938,"32":8939,"Ġaririmba":8940,"Ġyear":8941,"Ġakumva":8942,"Ġubunararibonye":8943,"CE":8944,"tire":8945,"zaza":8946,"bai":8947,"Ġuruzinduko":8948,"ĠNgo":8949,"ande":8950,"redi":8951,"Ġbikenewe":8952,"Ġmufite":8953,"Ġwaru":8954,"Umucamanza":8955,"Ġpetero":8956,"Ġiva":8957,"Ġimigabane":8958,"ters":8959,"tandukan":8960,"ang":8961,"Ġmuha":8962,"Ġigipimo":8963,"cene":8964,"Abahamya":8965,"ĠJuly":8966,"Ġbongeye":8967,"Ġhambere":8968,"ronko":8969,"Abanyamerika":8970,"ĠShyaka":8971,"shinya":8972,"velo":8973,"ibumoso":8974,"44":8975,"Ġataba":8976,"ĠIgishinwa":8977,"fataga":8978,"guriye":8979,"Ġkwigarurira":8980,"Ġamusaba":8981,"Ġakoreshwa":8982,"Ġgusimbu":8983,"Urukundo":8984,"ĠPutin":8985,"Ġmbu":8986,"Ġngomba":8987,"ĠKayibanda":8988,"yanza":8989,"tangirira":8990,"Ġzahabu":8991,"ĠHouse":8992,"rore":8993,"ganyije":8994,"Ġatekereza":8995,"mategeko":8996,"sanganywe":8997,"Ġavuze":8998,"Ġbarenze":8999,"Ġryara":9000,"Ġahagije":9001,"Ġbabwiye":9002,"Ġvideo":9003,"Ġafatanyije":9004,"kumva":9005,"ft":9006,"rinka":9007,"VE":9008,"Ġibita":9009,"silikare":9010,"Ġbabanza":9011,"Ġiyerekwa":9012,"Ġubwami":9013,"Ġguhugura":9014,"Ġ41":9015,"Ġmonths":9016,"ako":9017,"gejejeho":9018,"KIN":9019,"giteri":9020,"Ġkorana":9021,"shimishijwe":9022,"Ġbyihuse":9023,"Imiryango":9024,"Ġambwira":9025,"Akenshi":9026,"Ġuva":9027,"humuriza":9028,"Ġabada":9029,"Ġriga":9030,"Ġnyigisho":9031,"Ġibigori":9032,"gane":9033,"baruwa":9034,"Ġukomeje":9035,"Ġryakozwe":9036,"Ġbiciwe":9037,"korerabushake":9038,"Ġabamaze":9039,"piskopi":9040,"ĠWu":9041,"ingoma":9042,"ĠThierry":9043,"Ġakabariro":9044,"Ġkaburimbo":9045,"Huye":9046,"ĠCHAN":9047,"Ġigiti":9048,"Ġziki":9049,"Ġntan":9050,"Ġihita":9051,"Ġyaki":9052,"Ġingero":9053,"Ġntaki":9054,"Ġgihembo":9055,"Ġbikorerwa":9056,"Umubyeyi":9057,"twereka":9058,"tema":9059,"Ġkwicara":9060,"perezida":9061,"Ġamande":9062,"gunga":9063,"ĠSand":9064,"Video":9065,"Ġmara":9066,"ĠMai":9067,"anabyaha":9068,"Ġyanditswe":9069,"ibyishimo":9070,"hurch":9071,"Ġindyo":9072,"Umukinnyi":9073,"qua":9074,"garutsweho":9075,"ĠPor":9076,"ick":9077,"imyidagaduro":9078,"ĠNE":9079,"Bwa":9080,"Ġisuzuma":9081,"enocide":9082,"meranya":9083,"ĠMagufuli":9084,"Ġigare":9085,"Ġkwaka":9086,"ĠVilla":9087,"Ġbakumva":9088,"ĠMunya":9089,"Ġmane":9090,"Ġkubika":9091,"IBI":9092,"mwana":9093,"Ġkubeshya":9094,"imisoro":9095,"GP":9096,"Ġyatsindiye":9097,"Ġbitangazamakuru":9098,"zzo":9099,"Ġyatangajwe":9100,"ĠIshuri":9101,"Ġrukumbi":9102,"vention":9103,"ĠAmerica":9104,"rageza":9105,"Ġdutandukanye":9106,"piya":9107,"Ġubwishingizi":9108,"tunguye":9109,"ĠzÃ¢":9110,"abu":9111,"mart":9112,"Ġmano":9113,"Ġhaboneka":9114,"mideli":9115,"Ġusa":9116,"kwirakwizwa":9117,"ĠNjyanama":9118,"hoto":9119,"ĠGasogi":9120,"Ġkanwa":9121,"Ġyitabiriwe":9122,"Ġbaregwa":9123,"ĠKini":9124,"mir":9125,"shasha":9126,"taramira":9127,"Ġndabi":9128,"Ġurw":9129,"ĠRRA":9130,"ĠJune":9131,"hererekane":9132,"cyubahiro":9133,"Ġmacye":9134,"ĠKame":9135,"Ġbinyamakuru":9136,"takaje":9137,"ĠWashington":9138,"TC":9139,"anira":9140,"Ġabasaga":9141,"ranaga":9142,"Ġamenyo":9143,"gaju":9144,"ĠMutabazi":9145,"Uburayi":9146,"Ġkwamagana":9147,"resi":9148,"yomo":9149,"roma":9150,"ĠâĢº":9151,"fatizo":9152,"Ġkwiyandikisha":9153,"rukanywe":9154,"Ġntambwe":9155,"Ġtwuba":9156,",âĢ¦":9157,"Ndu":9158,"Ġvs":9159,"Ġaran":9160,"ĠNdo":9161,"Ġbabashije":9162,"gendewe":9163,"Ġifatwa":9164,"Ġbakwiriye":9165,"Ġkigomba":9166,"Ġbwuba":9167,"imbano":9168,"hamagarira":9169,"Ġbahitamo":9170,"intumwa":9171,"Ġkuburana":9172,"ĠYohani":9173,"ĠGer":9174,"Ġashoboye":9175,"tawe":9176,"Ġbicwa":9177,"stival":9178,"Ġgusinya":9179,"Ġyakiriwe":9180,"sigiye":9181,"Ġakanama":9182,"Ġamenye":9183,"mbaraga":9184,"Ġgake":9185,"mbano":9186,"muni":9187,"randasi":9188,"Wi":9189,"hanze":9190,"shyinguwe":9191,"Ġbariye":9192,"ĠMba":9193,"Ġmyigaragambyo":9194,"Ġutwo":9195,"Ġcyicaro":9196,"Ġkawa":9197,"ĠAugustin":9198,"irushanwa":9199,"ĠRukiko":9200,"hagarikwa":9201,"Abenshi":9202,"Ġasubiza":9203,"konje":9204,"des":9205,"shoye":9206,"Ġavuka":9207,"ĠMuhire":9208,"jyane":9209,"zaniye":9210,"ĠMara":9211,"Ġyubatse":9212,"kinyi":9213,"Ġbikabije":9214,"Ġabimukira":9215,"Ġ52":9216,"Bibiliya":9217,"Ġiteye":9218,"Ġyaranze":9219,"Ġumugabane":9220,"Ġgisa":9221,"sobanuriye":9222,"ingufu":9223,"ĠPremier":9224,"utsi":9225,"Ġwatsinze":9226,"Ġabakirisitu":9227,"Ġkoranabuhanga":9228,"lÃ©":9229,"Ġtumwe":9230,"Ġkutabona":9231,"ĠTouchrwanda":9232,"PO":9233,"ĠAcademy":9234,"Ġkigega":9235,"Ġ59":9236,"kurikizwa":9237,"Ġabashe":9238,"ibirayi":9239,"Ġ%":9240,"ganje":9241,"Ġikiza":9242,"ĠNyaba":9243,"Ġbitemewe":9244,"ĠMichel":9245,"Ġbizeye":9246,"hirane":9247,"ĠNgirente":9248,"ĠMwe":9249,"ĠUrban":9250,"ĠSaa":9251,"Ġ1993":9252,"ĠKuwa":9253,"ĠJanuary":9254,"remwamuntu":9255,"ĠDomini":9256,"Ġmato":9257,"Ġmagingo":9258,"ĠMauri":9259,"Yara":9260,"inzoga":9261,"ppo":9262,"yurwa":9263,"uruhare":9264,"yumvise":9265,"Mini":9266,"uw":9267,"Ġbitwara":9268,"ĠPrezida":9269,"vaga":9270,"ZWE":9271,"Ġyongeyeho":9272,"Ġyaryo":9273,"Ġnyafurika":9274,"Kayi":9275,"imana":9276,"Ġguhatanira":9277,"yemerera":9278,"Ġguhamagara":9279,"sesenguzi":9280,"ihohoterwa":9281,"Ġkubara":9282,"tinganyi":9283,"SEN":9284,"Ġrushobora":9285,"taniye":9286,"Ġbikiri":9287,"Ġhakwiye":9288,"ĠSC":9289,"Ġumujyanama":9290,"banziriza":9291,"Ġbakoreye":9292,"amanywa":9293,"Ġyujuje":9294,"icyayi":9295,"tball":9296,"ĠCristiano":9297,"Ġrigenga":9298,"Indege":9299,"Ġabinyujije":9300,"Ġmujye":9301,"vuganye":9302,"ĠMer":9303,"Ġumumaro":9304,"Ġ58":9305,"publi":9306,"ubwenge":9307,"hoo":9308,"Ġmiriyoni":9309,"Ġntitwa":9310,"tekerezaho":9311,"Ġkurasa":9312,"46":9313,"Ġabatari":9314,"Ġmiyoborere":9315,"Ġbiteza":9316,"Ġkugo":9317,"ĠBoys":9318,"ĠNyundo":9319,"ĠCNDD":9320,"Amaze":9321,"shiriza":9322,"Ġkijyanye":9323,"gutabara":9324,"Ġrwatangiye":9325,"ĠNdagijimana":9326,"Ġkugendera":9327,"Ġumuhanga":9328,"ĠSco":9329,"Ibibazo":9330,"ĠMirenge":9331,"ĠSosiyete":9332,"Ġareba":9333,"Ġabakene":9334,"ĠKam":9335,"jamin":9336,"ahubwo":9337,"Ġbisobanuye":9338,"Ġmitima":9339,"Ġtwagiye":9340,"Ġbyihariye":9341,"ubwubatsi":9342,"ikh":9343,"nana":9344,"riba":9345,"ĠAbe":9346,"shakamo":9347,"Ġmanota":9348,"tende":9349,"Ġicyifuzo":9350,"Ġkuruhuka":9351,"muremyi":9352,"Ubwami":9353,"',":9354,"shime":9355,"Inzu":9356,"Ġad":9357,"ĠIterambere":9358,"Ġzatumye":9359,"Ġmugari":9360,"ĠRURA":9361,"ĠIcyongereza":9362,"Ġafitanye":9363,"Ġbumu":9364,"Ġtatu":9365,"Ġbihano":9366,"Ġyarangije":9367,"ĠGospel":9368,"Ġkapiteni":9369,"ĠMuryango":9370,"Ġizakomeza":9371,"ĠNyabugogo":9372,"Ġkugerwaho":9373,"Ġubugingo":9374,"icyubahiro":9375,"than":9376,"Ġbarasaba":9377,"inyuma":9378,"renganya":9379,"ĠRAB":9380,"Ġkuvana":9381,"Ġariya":9382,"Ġiteganya":9383,"vugururwa":9384,"dele":9385,"ĠAlbum":9386,"ĠFrance":9387,"onne":9388,"ihazabu":9389,"ĠYan":9390,"Ġtwakoze":9391,"vode":9392,"Ġngendo":9393,"sesuye":9394,"Ġkitarenze":9395,"Ġbyitezwe":9396,"shakishwa":9397,"canga":9398,"Ġnaje":9399,"batswe":9400,"Ġitumanaho":9401,"Ġguteka":9402,"Ikinyarwanda":9403,"ibigori":9404,"Ġbarayi":9405,"Ġahagarariye":9406,"rwanaho":9407,"zajya":9408,"ĠUnder":9409,"ĠBishop":9410,"Ġindimi":9411,"fatire":9412,"ibidukikije":9413,"kurikiwe":9414,"RND":9415,"Ġukwa":9416,"Abanye":9417,"ĠKiri":9418,"Ġinjyana":9419,"Ġkwirukana":9420,"yumbati":9421,"Ġwatanze":9422,"sazi":9423,"Ġbatwi":9424,"1994":9425,"sk":9426,"zika":9427,"ĠNational":9428,"ĠâĢºâĢº":9429,"!âĢĿ":9430,"Ġbashiki":9431,"Ġahani":9432,"hwema":9433,"ĠRwabu":9434,"ĠPastor":9435,"Ġkinya":9436,"88":9437,"jugunya":9438,"ĠÃĤ":9439,"Ġmaku":9440,"Ġirindi":9441,"Ġamarira":9442,"2022":9443,"Ġmihango":9444,"ubwishingizi":9445,"iwabo":9446,"ingamba":9447,"yuzu":9448,"Ubworozi":9449,"Ġpu":9450,"Ġau":9451,"heze":9452,"ĠKandi":9453,"ĠUS":9454,"buno":9455,"ibinyabuzima":9456,"SSB":9457,"Ġatera":9458,"ĠEuro":9459,"lixte":9460,"Ġuburi":9461,"Ġkigamije":9462,"49":9463,"Ġyamwi":9464,"Ġbahunga":9465,"Ġzibishinzwe":9466,"Ġbiku":9467,"Ġyinji":9468,"vugisha":9469,"Ġgikuru":9470,"Ġbikora":9471,"Ġamadini":9472,"Ġ700":9473,"Ġmirima":9474,"ĠGatete":9475,"yemerere":9476,"Ġubwiherero":9477,"Ġkurandura":9478,"Ġhagomba":9479,"Muhanga":9480,"Ġbakamenya":9481,"sabiye":9482,"ĠTimes":9483,"App":9484,"Ġ43":9485,"cyura":9486,"Ġbahinzi":9487,"furije":9488,"Ġyemereye":9489,"Ġgusigasira":9490,"inyamaswa":9491,"twawe":9492,"via":9493,"tumire":9494,"babi":9495,"Ġrugiye":9496,"Ġmashini":9497,"pfira":9498,"Ġbyemewe":9499,"Ġyabonaga":9500,"Ġkwirukanwa":9501,"rukanwe":9502,"Ġatangwa":9503,"Ġwakora":9504,"urwi":9505,"Ġifunguro":9506,"Ġcou":9507,"kungahaye":9508,"Ġinkoni":9509,"ĠCentrafrique":9510,"Ġumwu":9511,"ĠPerefegitura":9512,");":9513,"Ġmugezi":9514,"ĠEse":9515,"impe":9516,"shyigikiwe":9517,"foromo":9518,"Ġgusezera":9519,"Ġbarasabwa":9520,"wumvikane":9521,"Ġihabwa":9522,"cyiru":9523,"Ġafasha":9524,"tayu":9525,"ĠOr":9526,"ĠQatar":9527,"ĠDÃ©":9528,"dro":9529,"Ġimurika":9530,"Ġyakundaga":9531,"Ġbijya":9532,"him":9533,"ĠUmunyamakuru":9534,"ĠIgifaransa":9535,"Ġbab":9536,"Ġgisagara":9537,"Ġrwaba":9538,"bagiwe":9539,"Ġzigaragaza":9540,"ĠMuda":9541,"Ġahana":9542,"Ġzigezweho":9543,"Ġwegukanye":9544,"yobokamana":9545,"Ġbaruwa":9546,"Ġumuha":9547,"Ġmyitwarire":9548,"tonda":9549,"Ġkwiyamamariza":9550,"Ġyahagaritse":9551,"Ġrigena":9552,"COM":9553,"iperereza":9554,"Ġumeze":9555,"bajwe":9556,"Aki":9557,"pfakazi":9558,"boneraho":9559,"Ġike":9560,"ĠDRC":9561,"Ġbagahabwa":9562,"Ġsiko":9563,"Fran":9564,"turu":9565,"mbona":9566,"byibu":9567,"EO":9568,"ðŁ":9569,"Ġyongeraho":9570,"Ġbinini":9571,"Ġatsinda":9572,"shyo":9573,"inyongera":9574,"Ġhakorwa":9575,"Ġrukuru":9576,"Ejo":9577,"Ġiteganyijwe":9578,"Ġakunze":9579,"ree":9580,"ĠbyÃ¢":9581,"Ġkuryama":9582,"Ġbibe":9583,"Ġbutabera":9584,"ĠSyl":9585,"Ġbafunzwe":9586,"Ġsta":9587,"huguwe":9588,"Ġgare":9589,"Ibindi":9590,"Ġimfungwa":9591,"geragezwa":9592,"Harimo":9593,"basira":9594,"Ġlo":9595,"zamuye":9596,"riti":9597,"Ġmukozi":9598,"twere":9599,"Ġ57":9600,"Ġbituruka":9601,"Ġashima":9602,"ĠAri":9603,"ĠInyarwanda":9604,"Ġcyera":9605,"imyororokere":9606,"Ġmakumya":9607,"cenge":9608,"ĠMiliyari":9609,"Ġmurandasi":9610,"intwari":9611,"Ġntekereza":9612,"ĠPA":9613,"ĠRugo":9614,"shamikiye":9615,"ĠUmwana":9616,"Ġgikwiye":9617,"Ġbaze":9618,"Ġinyota":9619,"dolari":9620,"Ġrishobora":9621,"tangiranye":9622,"cyuho":9623,"ĠBea":9624,"Ġbanye":9625,"ĠGitifu":9626,"ĠIkipe":9627,"Ġbakuze":9628,"ĠClement":9629,"Ġbizajya":9630,"Ġitwara":9631,"Ġyijeje":9632,"abanyama":9633,"Ġbahurira":9634,"ĠMp":9635,"Ġmaraso":9636,"Ġbitegura":9637,"ĠSomalia":9638,"Ġibyan":9639,"Ġmubyo":9640,"ĠTha":9641,"Ġwww":9642,"ĠEvariste":9643,"Ġkwibasira":9644,"tandukaniro":9645,"kw":9646,"ĠbÃ¢":9647,"Ġrizaba":9648,"ĠUEFA":9649,"Ġbikamu":9650,"hohotewe":9651,"Ġurebe":9652,"Ġhatangiye":9653,"Visi":9654,"Ġsinema":9655,"ĠMarch":9656,"Ġbashatse":9657,"Ġnaryo":9658,"Ġngororamubiri":9659,"hanishwa":9660,"Ġyiya":9661,"Wo":9662,"Ġbaca":9663,"Ġbuto":9664,"hinze":9665,"Ġzikoreshwa":9666,"hanirwa":9667,"ĠnkÃ¢":9668,"Ġbikorera":9669,"Ġkwegura":9670,"gendanye":9671,"keshimana":9672,"ĠBrazil":9673,"ĠQue":9674,"Imwe":9675,"Ġbyamaze":9676,"Ġbashakaga":9677,"fungirwa":9678,"Ġrigizwe":9679,"rekera":9680,"Ġyitegura":9681,"Ġaze":9682,"Ġbuti":9683,"Ġbibera":9684,"Ġbataba":9685,"ĠDepite":9686,"stitu":9687,"gombwa":9688,"shaga":9689,"ibiti":9690,"intwaro":9691,"Filed":9692,"Ġbafana":9693,"Ġibisasu":9694,"Ġbakaya":9695,"Ġuno":9696,"menyesheje":9697,"Ġkwari":9698,"GIRA":9699,"Go":9700,"Ġinzobere":9701,"NE":9702,"hwanye":9703,"Ġubutunzi":9704,"imiterere":9705,"ĠWith":9706,"Abagabo":9707,"juri":9708,"Ġmanywa":9709,"ingi":9710,"Ġwamenya":9711,"Ġumuceri":9712,"Ġntazi":9713,"Ġhandi":9714,"Ġabigishwa":9715,"ĠDavi":9716,"Ġvidewo":9717,"yamuremye":9718,"MWE":9719,"Ġmyanzuro":9720,"kanywe":9721,"Ġkorohereza":9722,"ĠColonel":9723,"Ġwayoboye":9724,"somyi":9725,"mage":9726,"rikiye":9727,"menyekane":9728,"eeee":9729,"ption":9730,"ryama":9731,"Ġyasu":9732,"garukira":9733,"Ġinzitizi":9734,"Inge":9735,"Congo":9736,"yoye":9737,"jumba":9738,"pr":9739,"immy":9740,"ĠSal":9741,"Ġisigaye":9742,"Nibyo":9743,"umuhondo":9744,"ĠNkusi":9745,"ibitekerezo":9746,"RIS":9747,"tube":9748,"Ġamabanga":9749,"Ġakinira":9750,"ĠMpa":9751,"urugero":9752,"Ġryaba":9753,"zihizwa":9754,"Ġhuriro":9755,"Ġbahagaze":9756,"ĠRadiyo":9757,"Ġfe":9758,"Ġbikuru":9759,"Musenyeri":9760,"Amakipe":9761,"ĠInkuru":9762,"Ġimyiteguro":9763,"Ġkon":9764,"Ġhabereye":9765,"ĠZe":9766,"Ġarizo":9767,"gn":9768,"Ġamafi":9769,"Ġbizafasha":9770,"Ġabatoza":9771,"tangaga":9772,"Pasiteri":9773,"Akaba":9774,"Ġfo":9775,"vumo":9776,"BBC":9777,"CN":9778,"Aganira":9779,"Ġatuma":9780,"bimana":9781,"ĠUmunsi":9782,"Koko":9783,"dangamuntu":9784,"rebwe":9785,"garikwa":9786,"ĠFelix":9787,"Ġbavandimwe":9788,"Ġingeso":9789,"Ġribi":9790,"She":9791,"serukira":9792,"ubwiza":9793,"Ġruzi":9794,"yuramo":9795,"ĠMRND":9796,"Ġbagana":9797,"sisi":9798,"Ġimfashanyo":9799,"mbiwe":9800,"jeriya":9801,"Ġmwuka":9802,"geragezo":9803,"Ġyataye":9804,"ĠRBC":9805,"Ġbyatanzwe":9806,"Tube":9807,"ĠAustralia":9808,"saya":9809,"vie":9810,"Ġryatangiye":9811,"ĠFestival":9812,"Ġ1959":9813,"Ġmakumyabiri":9814,"menyekanisha":9815,"Ġarasaba":9816,"Foto":9817,"Ġamaguru":9818,"hiriye":9819,"Ġbigu":9820,"Ġkwiha":9821,"ĠClo":9822,"ĠKigeli":9823,"yunga":9824,"imikoranire":9825,"Ġstudio":9826,"Ġifu":9827,"Ġbarwayi":9828,"ĠMc":9829,"seti":9830,"Ġumuhinzi":9831,"Ġiwa":9832,"totsi":9833,"Ġafungiye":9834,"Ġubushyuhe":9835,"cie":9836,"Ġbyitwa":9837,"Ġbaharanira":9838,"Ġmuburyo":9839,"Ġbugiye":9840,"done":9841,"Ġzatangiye":9842,"Tanzani":9843,"cro":9844,"ĠIS":9845,"Ġburiri":9846,"ĠGI":9847,"ĠJustin":9848,"rumvikana":9849,"Ġibyifuzo":9850,"rah":9851,"Ġzitangwa":9852,"Ġrikuru":9853,"ĠBiruta":9854,"Ġabanzi":9855,"ĠDji":9856,"Yabwiye":9857,"Ġ72":9858,"Ġikawa":9859,"buguzi":9860,"imihanda":9861,"Ġbikozwe":9862,"ĠGuine":9863,"Ġubusabe":9864,"zer":9865,"komokaho":9866,"Ġmugongo":9867,"Ġumupolisi":9868,"ĠAmi":9869,"ĠFebruary":9870,"ps":9871,"huriza":9872,"Ġguhitana":9873,"ĠYohana":9874,"Ġitwaye":9875,"Ġbagire":9876,"yor":9877,"Ġwashinze":9878,"sinyi":9879,"Ġgikora":9880,"pfumu":9881,"Ġgusese":9882,"ĠKaregeya":9883,"Ġigenamigambi":9884,"ĠFA":9885,"Interahamwe":9886,"dindiza":9887,"turo":9888,"Ġyabikoze":9889,"SAC":9890,"Ġnguzanyo":9891,"Ġ66":9892,"Ġgusengera":9893,"ĠSerge":9894,"Ġgushika":9895,"ĠMohamed":9896,"ĠRGB":9897,"Ġicyuma":9898,"hinja":9899,"tangizwa":9900,"ishirahamwe":9901,"LE":9902,"ĠMuntu":9903,"Ġngaho":9904,"logy":9905,"shyingurwa":9906,"ĠEtincelles":9907,"imihindagurikire":9908,"Ġyahabwa":9909,"frw":9910,"ĠIjwi":9911,"imirenge":9912,"ĠWha":9913,"ĠCor":9914,"ĠNyabarongo":9915,"Ġbivuye":9916,"Ġumwanditsi":9917,"torwa":9918,"Ġzikomeje":9919,"amashyaka":9920,"Ġagahigo":9921,"babaza":9922,"ĠMine":9923,"Ġbyateye":9924,"Ġyubatswe":9925,"ĠIbra":9926,"59":9927,"ĠIB":9928,"ms":9929,"Ġtwasanze":9930,"impanuka":9931,"Ġ51":9932,"genderanire":9933,"minari":9934,"Ġyazanye":9935,"henda":9936,"ĠInternet":9937,"Ġasimbuye":9938,"ĠTony":9939,"ĠRoho":9940,"mbane":9941,"his":9942,"Ġgashinzwe":9943,"ĠOf":9944,"pfunyi":9945,"ĠTurere":9946,"shinje":9947,"Ġsitade":9948,"ĠKacyiru":9949,"ĠVUP":9950,"Ġndamu":9951,"Ġicyarimwe":9952,"mico":9953,"Ġbongera":9954,"mbure":9955,"ĠUbuzima":9956,"Ġ1998":9957,"Ġkugezwa":9958,"Ġbakurikiranyweho":9959,"range":9960,"twali":9961,"Ġyaguze":9962,"Ġ68":9963,"Ġabanyagihugu":9964,"ĠIGI":9965,"ĠEri":9966,"Ġibyavuye":9967,"ĠLaurent":9968,"Ġamikoro":9969,"garara":9970,"ĠâĢĺâĢĺ":9971,"Ġkinyejana":9972,"zza":9973,"wose":9974,"rande":9975,"ĠValens":9976,"Ġbyarangiye":9977,"Ġfoto":9978,"Ġbishe":9979,"Ġkimu":9980,"ĠDR":9981,"ĠChris":9982,"hiri":9983,"Ubukungu":9984,"ndutse":9985,"Ġabakristu":9986,"ubushinjacyaha":9987,"ibyumweru":9988,"yabupfura":9989,"Ġinzirakarengane":9990,"Ġbakoranye":9991,"vy":9992,"twarwa":9993,"Ġkwabo":9994,"ĠSita":9995,"ĠSibomana":9996,"Ġbatigeze":9997,"abazungu":9998,"Ġumwere":9999,"Abanyamakuru":10000,"zayi":10001,"Ġntiyari":10002,"Ġmpano":10003,"ĠDieudon":10004,"miriza":10005,"ĠAni":10006,"Ikintu":10007,"ĠDubai":10008,"Ġnyanja":10009,"Ġbisobanura":10010,"Abahanga":10011,"Ġkubuza":10012,"zine":10013,"Ġyabitangarije":10014,"Umwi":10015,"Ġuharanira":10016,"josi":10017,"Ġnimugoroba":10018,"Ġyasoje":10019,"ĠFoo":10020,"ĠGikondo":10021,"ĠPeace":10022,"Ġisengesho":10023,"Ġrigiye":10024,":\"":10025,"Âº":10026,"Ġbugaragara":10027,"ĠTU":10028,"Ġnumwe":10029,"Jye":10030,"Ġpi":10031,"gabanyije":10032,"Tugomba":10033,"rusho":10034,"Ġ2002":10035,"gurishije":10036,"Akagari":10037,"ĠRou":10038,"Ġ85":10039,"ĠJohnson":10040,"Ġbacuruzi":10041,"inshingano":10042,"twererane":10043,"Ġkizwi":10044,"Ġyaraba":10045,"ĠSar":10046,"Ġnkeya":10047,"linda":10048,"amadorali":10049,"monwe":10050,"Ġingwate":10051,"ĠKwibuka":10052,"Ġyagira":10053,"hagarariwe":10054,"Ġbingana":10055,"Ġicyangombwa":10056,"kundanye":10057,"Ġagapfukamunwa":10058,"Ġsports":10059,"ĠDawidi":10060,"kishwa":10061,"Ġmur":10062,"Ġbakomeze":10063,"Ġbuhoraho":10064,"vile":10065,"Ġingurane":10066,"ĠPatriots":10067,"Bana":10068,"zefu":10069,"ĠColle":10070,"):":10071,"Ġiterwa":10072,"ĠTagged":10073,"ĠPSG":10074,"anda":10075,"Abahanzi":10076,"Ġazize":10077,"Ġgicamunsi":10078,"Ġinyeshyamba":10079,"Ġwihariye":10080,"OS":10081,"nja":10082,"rou":10083,"ĠRBA":10084,"Ġingorane":10085,"ĠRoma":10086,"Ġamasengesho":10087,"vanjili":10088,"UM":10089,"geye":10090,"Ġntarengwa":10091,"shobotse":10092,"Ġyere":10093,"ihuriro":10094,"Ġukoresheje":10095,"linton":10096,"Ġitaba":10097,"Ġabashyitsi":10098,"Ġkibanza":10099,"Ġmata":10100,"Abafite":10101,"stra":10102,"Ġ53":10103,"bia":10104,"Ġurujijo":10105,"Inyi":10106,"yubakwa":10107,"torerwa":10108,"sinya":10109,"Ġyumvaga":10110,"cine":10111,"tis":10112,"ĠNizeyimana":10113,"monwealth":10114,"TS":10115,"Ġikan":10116,"nyezamu":10117,"Noneho":10118,"Ġibona":10119,"ĠSto":10120,"babarira":10121,"itora":10122,"Ġimihango":10123,"ĠAc":10124,"Ġkiruhuko":10125,"Ġrikorerwa":10126,"Ġrwawe":10127,"Ġahawe":10128,"aspora":10129,"Ġkubangamira":10130,"Mukan":10131,"ĠHen":10132,"rio":10133,"Ġagerageza":10134,"Ġtwamu":10135,"NDA":10136,"Ġibikorwaremezo":10137,"bandanya":10138,"ĠMutesi":10139,"Ġbwato":10140,"Ġguhurira":10141,"babare":10142,"Ġukekwaho":10143,"ĠAmb":10144,"amajyepfo":10145,"ĠBurengerazuba":10146,"ĠPac":10147,"Intwari":10148,"biriza":10149,"yubahirizwa":10150,"ĠConvention":10151,"ĠLouise":10152,"Ġaca":10153,"Ġaseze":10154,"Ġkwereka":10155,"ĠSudan":10156,"ĠAlbert":10157,"Ġpeteroli":10158,"sama":10159,"genzo":10160,"ĠAlain":10161,"Ġmitungo":10162,"danda":10163,"Ġgahoro":10164,"shyingura":10165,"ĠKwa":10166,"Ġhabura":10167,"murira":10168,"zane":10169,"gabanuka":10170,"yambarire":10171,"Inzo":10172,"Ġbikarangira":10173,"yongeye":10174,"Ġibihuha":10175,"Mura":10176,"Ġrigamije":10177,"REBA":10178,"Ġugizwe":10179,"Ġtujye":10180,"ĠBira":10181,"garagayemo":10182,"Ġbatangaza":10183,"hamu":10184,"Ġindabo":10185,"Ġnyamaswa":10186,"Ġifaranga":10187,"cungu":10188,"cakara":10189,"yobera":10190,"hurura":10191,"Ġmbuto":10192,"Ġkagame":10193,"hhhh":10194,"ĠUburusiya":10195,"Ġgukaraba":10196,"Ġbyemejwe":10197,"ĠUshinzwe":10198,"ĠKabarebe":10199,"Kamonyi":10200,"Ġbikekwa":10201,"Ġwayoboraga":10202,"abarwanyi":10203,"ĠTrans":10204,"Ġguhakana":10205,"ĠFerwafa":10206,"vugwaga":10207,"Ġbagifite":10208,"Ġyatubwiye":10209,"Ġbitandatu":10210,"reho":10211,"Ġitaliki":10212,"Ġguhiga":10213,"tonze":10214,"Ġtugize":10215,"Ġtubikesha":10216,"Ġbagerageje":10217,"Ġbikoresha":10218,"Ġryiza":10219,"Ġkwibohora":10220,"nywe":10221,"Ġimipira":10222,"rongora":10223,"IF":10224,"mbre":10225,"Ġubugome":10226,"Ġsport":10227,"ngererwa":10228,"Ġkwiyahura":10229,"Ġubuhungiro":10230,"Rusizi":10231,"geka":10232,"Ġinterahamwe":10233,"Ġibivugwa":10234,"Ġuburemere":10235,"shwana":10236,"Ġhagendewe":10237,"Ġuburere":10238,"garagaze":10239,"rindwa":10240,"Ġguhirika":10241,"indashyikirwa":10242,"Ġgutwi":10243,"ed":10244,"rey":10245,"ford":10246,"ĠLeo":10247,"Ġgushyiramo":10248,"Ġ>>":10249,"Ġgushima":10250,"Ġbateguye":10251,"Amategeko":10252,"kongoro":10253,"Ġyashinzwe":10254,"ĠAlo":10255,"PC":10256,"dina":10257,"ĠRev":10258,"Ġkurema":10259,"Ġsays":10260,"Urwo":10261,"Ġnarwo":10262,"rant":10263,"Erega":10264,"Urwanda":10265,"Ġbafatanya":10266,"ĠFRW":10267,"Ġuya":10268,"Ġkizi":10269,"sheshatu":10270,"nick":10271,"imyenda":10272,"kurikirane":10273,"fatanywe":10274,"Ġbiragoye":10275,"Ġrurimo":10276,"Ġmagare":10277,"sobanurirwa":10278,"Uruganda":10279,"ĠIslam":10280,"kubye":10281,"Ġiherezo":10282,"ĠEgi":10283,"ĠUburundi":10284,"Is":10285,"ila":10286,"Ġbayobora":10287,"seneza":10288,"ĠBlack":10289,"Ġbayoboye":10290,"Ġcovid":10291,"Ġumucuruzi":10292,"rerure":10293,"TV":10294,"ĠLy":10295,"Ġubworozi":10296,"Ġbidakwiye":10297,"Ġwavuye":10298,"Ġryabaye":10299,"Ġumwete":10300,"Yego":10301,"boho":10302,"Ġabagi":10303,"ĠTur":10304,"Ġbanyamakuru":10305,"Ġcyiswe":10306,"Ġyahakanye":10307,"ceceka":10308,"ayisumbuye":10309,"Ġbaterwa":10310,"Ġbasoje":10311,"ĠAziya":10312,"genwe":10313,"Ġzitanga":10314,"Ġmirwano":10315,"Ġ2001":10316,"tuku":10317,"Ġateye":10318,"kemurwa":10319,"NDI":10320,"thon":10321,"Ġbutari":10322,"Ġyitwaye":10323,"Ġmurugo":10324,"kobo":10325,"ĠIgipo":10326,"yirize":10327,"ange":10328,"inkuru":10329,"ĠApo":10330,"ĠLili":10331,"ĠRwandAir":10332,"Ġahanishwa":10333,"robyi":10334,"ĠHon":10335,"zubakwa":10336,"ĠRiderman":10337,"yubakira":10338,"43":10339,"ymar":10340,"ĠIbuka":10341,"Ġakagari":10342,"Ġgushidikanya":10343,"Ġikibanza":10344,"ĠSho":10345,"igikorwa":10346,"Ġburwayi":10347,"Ġniwo":10348,"Ġrurerure":10349,"KURI":10350,"ĠMunyarwanda":10351,"ĠAbarundi":10352,"Ġex":10353,"mfasha":10354,"yise":10355,"ĠUko":10356,"poloma":10357,"oneste":10358,"shirize":10359,"shyizemo":10360,"hungirehe":10361,"ĠUrurimi":10362,"ĠKambanda":10363,"Ġyagenewe":10364,"Ġgicuti":10365,"Ġahura":10366,"Ġinkongi":10367,"ghts":10368,"Ġyaherukaga":10369,"ganirwa":10370,"Ibitaro":10371,"Imodoka":10372,"dji":10373,"hahirane":10374,"Ġwambaye":10375,"Fa":10376,"ubutasi":10377,"ĠAm":10378,"Ġmugihugu":10379,"ĠEU":10380,"sigaje":10381,"Ġyamenyesheje":10382,"ĠArabi":10383,"Ġamashami":10384,"lande":10385,"Ġyahitanye":10386,"tamo":10387,"Ġwaga":10388,"Ġdata":10389,"Ġumuyoboro":10390,"ĠPrince":10391,"Ġbwakorewe":10392,"IMVAHONSHYA":10393,"SHYASHYA":10394,"Ingabire":10395,"Ġyabyaye":10396,"Ġcyerekezo":10397,"ĠDamascene":10398,"Ġhashyizweho":10399,"ĠFer":10400,"elly":10401,"rekura":10402,"Ġhagaragaye":10403,"Ġmwo":10404,"liza":10405,"duhaye":10406,"Ġikirenge":10407,"Ġamasasu":10408,"ĠCHU":10409,"ĠDA":10410,"urumogi":10411,"Ġ1992":10412,"Ġntari":10413,"Ġbataha":10414,"impande":10415,"ĠKar":10416,"Ġabicanyi":10417,"trice":10418,"ĠCallixte":10419,"ĠIgisilo":10420,"Ġngeso":10421,"mie":10422,"laire":10423,"yubatse":10424,"kumwe":10425,"Ġkwiye":10426,"Cyakora":10427,"Ġkube":10428,"wanyu":10429,"pimwa":10430,"tain":10431,"Ġbuso":10432,"venal":10433,"Ġmwari":10434,"Ġyubu":10435,"ĠSankara":10436,"Ġamakenga":10437,"Ġyishyu":10438,"Ġiyicarubozo":10439,"ĠREB":10440,"Hano":10441,"gondwa":10442,"Ġcyamu":10443,"Ġbitoroshye":10444,"Ġimirongo":10445,"rangire":10446,"zererezi":10447,"sitiri":10448,"Ġruzaba":10449,"ring":10450,"ĠVideo":10451,"TWA":10452,"Ġkizabera":10453,"Zi":10454,"cumi":10455,"kubaka":10456,"Ġatubwira":10457,"Ishuri":10458,"korwe":10459,"Ġmoteri":10460,"Ġihene":10461,"Ġkuvamo":10462,"Ġkwigaragaza":10463,"uRwanda":10464,"Ġabahagarariye":10465,"Ġkubyina":10466,"katiwe":10467,"deration":10468,"Ġyitaba":10469,"Ġrwagati":10470,"shyari":10471,"Ġbazabi":10472,"Ġidafite":10473,"mbanira":10474,"ruba":10475,"fuzwa":10476,"tini":10477,"Ġbabya":10478,"Ġ95":10479,"Ġuje":10480,"Ġyatuma":10481,"sebya":10482,"vuna":10483,"Ġumudugudu":10484,"sozo":10485,"Gicumbi":10486,"Ġisezerano":10487,"Ġkigera":10488,"Ġmisa":10489,"SHIM":10490,"ĠBenjamin":10491,"Ġmpuzamakungu":10492,"Abasirikare":10493,"byimba":10494,"ĠRUSHYASHYA":10495,"Ġkoga":10496,"Ġbatwara":10497,"hene":10498,"Ġinkotanyi":10499,"Umusore":10500,"CAFA":10501,"ĠNsanzimana":10502,"amakimbirane":10503,"Ġyerekeje":10504,"Ġbitaza":10505,"gereranywa":10506,"tekerezaga":10507,"dela":10508,"Ġbagasanga":10509,"Ġiranga":10510,"ĠKarangwa":10511,"Ġzabaye":10512,"kurikiranweho":10513,"Ġyasabwe":10514,"ĠUmubavu":10515,"Ġahitamo":10516,"siane":10517,"Ġabatu":10518,"ĠNGO":10519,"ines":10520,"Ġryu":10521,"Ġkwikorera":10522,"ĠHip":10523,"Ġumenye":10524,"ĠBitaro":10525,"sarura":10526,"Ġbiteganywa":10527,"ĠYouTube":10528,"sojwe":10529,"Ġikigega":10530,"...)":10531,"Ġbinjira":10532,"Ġumunyezamu":10533,"gukunda":10534,"Ġgukurikira":10535,"amazu":10536,"ĠBobi":10537,"Ġbisi":10538,"ĠNyamu":10539,"kinaga":10540,"ĠEdi":10541,"Ġagakora":10542,"ĠFacebook":10543,"ĠFil":10544,"ibicuruzwa":10545,"ĠSunrise":10546,"Ġibirayi":10547,"Ġmasa":10548,"Ġyarangiye":10549,"ĠClinton":10550,"Ġimirambo":10551,"Ġikinyoma":10552,"gabwe":10553,"bugenewe":10554,"ĠBusuwisi":10555,"Ġubwato":10556,"tingito":10557,"DO":10558,"gÃ¨ne":10559,"Ġkwangirika":10560,"uwahoze":10561,"ĠAbo":10562,"ĠNyobozi":10563,"Ġmituweli":10564,"Ġbyaranze":10565,"dom":10566,"ĠKamanzi":10567,"Ġrwayo":10568,"Ġbagakomeza":10569,"gaye":10570,"Ġmpapuro":10571,"licien":10572,"ĠÂ½":10573,"ĠEco":10574,"Ġzigize":10575,"sohoza":10576,"ĠBose":10577,"ĠManzi":10578,"ĠYowe":10579,"Com":10580,"rimbyi":10581,"Ġmyumvire":10582,"ĠKen":10583,"Col":10584,"tanywe":10585,"Ġsiyansi":10586,"ali":10587,"ert":10588,"sibo":10589,"vuriza":10590,"ĠIngo":10591,"Ġukamu":10592,"hure":10593,"Ġgikomeje":10594,"abatari":10595,"ii":10596,"boni":10597,"Ġamadolari":10598,"reshya":10599,"remera":10600,"Ġinyu":10601,"Ġgiterane":10602,"ĠBon":10603,"Ġ5000":10604,"Ġishimwe":10605,"amasomo":10606,"Ã¨re":10607,"Ġmukecuru":10608,"Ġcyandi":10609,"ĠKorea":10610,"Ġbaririmba":10611,"bungabunga":10612,"Ġasubira":10613,"Ġkunga":10614,"Ġkwishyurwa":10615,"ita":10616,"ile":10617,"guni":10618,"sie":10619,"ĠMane":10620,"ĠIgice":10621,"Abitabiriye":10622,"Ġbitabira":10623,"Ali":10624,"Ġbakore":10625,"ĠKina":10626,"nguranye":10627,"Ġimvururu":10628,"Ġzijya":10629,"Kwa":10630,"Ġmpaka":10631,"Ġuruhande":10632,"Ġingagi":10633,"Ġkigira":10634,"Ġkwiyi":10635,"tegekwa":10636,"Ġrin":10637,"pment":10638,"kosora":10639,"tondera":10640,"gisi":10641,"inkumi":10642,"kama":10643,"sivile":10644,"rity":10645,"Ġzishingiye":10646,"ibyamamare":10647,"bangamiwe":10648,"ukwa":10649,"Ġagasaba":10650,"Ġuduce":10651,"binjira":10652,"kizwa":10653,"ĠKha":10654,"shinge":10655,"Ġfilm":10656,"Ġbatwite":10657,"ibihano":10658,"shyami":10659,"gereranyo":10660,"rinze":10661,"ĠUmuhoza":10662,"Ġnyabu":10663,"genekerezo":10664,"55":10665,"amajyaruguru":10666,"Ġmugani":10667,"ĠKinigi":10668,"scar":10669,"Ġ+":10670,"gambanyi":10671,"Ġyashinze":10672,"Ġikiguzi":10673,"Ġahagaze":10674,"inguzanyo":10675,"garagaraga":10676,"Ġkwibutsa":10677,"ĠFami":10678,"Ġtwakwi":10679,"Ġyateranye":10680,"Ġbikoreshwa":10681,"Ġgutinya":10682,"Ġurundi":10683,"Abapolisi":10684,"Ġbiyobyabwenge":10685,"Ġabakandida":10686,"42":10687,"Ġriherereye":10688,"(...)":10689,"Ġyabonetse":10690,"pt":10691,"kuruza":10692,"amajyambere":10693,"tangariza":10694,"Uburengerazuba":10695,".)":10696,"sted":10697,"kenya":10698,"Ġamahitamo":10699,"Ġkurira":10700,"Ġkaza":10701,"Ġwera":10702,"ibiyaga":10703,"nguka":10704,"Urubanza":10705,"Ġ1996":10706,"rora":10707,"Jya":10708,"gwaho":10709,"rume":10710,"Meya":10711,"iburasirazuba":10712,"remyi":10713,"bwoko":10714,"Ġagahabwa":10715,"ĠRudasingwa":10716,"caga":10717,"Umwuka":10718,"ramba":10719,"kamyo":10720,"Ġbuzaba":10721,"Ġhagaragara":10722,"ĠTen":10723,"akarengane":10724,"Ġihagaze":10725,"tashye":10726,"ĠRukuru":10727,"fero":10728,"Ġgutegeka":10729,"hanan":10730,"Ġ67":10731,"Tags":10732,"Ġutabi":10733,"subirwaho":10734,"Ġburiho":10735,"tten":10736,"Ġbatwaye":10737,"Ġbifashishije":10738,"ĠNziza":10739,"Ġbukorwa":10740,"Ġkuhira":10741,"Ġagakiza":10742,"ĠGol":10743,"100":10744,"Ġntibaba":10745,"jiya":10746,"Ġyaramaze":10747,"ĠSeba":10748,"kundiro":10749,"Ġumura":10750,"Ġurwi":10751,"Ġziva":10752,"ĠUmugabo":10753,"Ġbatinya":10754,"Ġgahato":10755,"ĠEvode":10756,"kubera":10757,"Ġamafranga":10758,"ĠSimba":10759,"igifungo":10760,"ream":10761,"Ġesheshatu":10762,"icyitegererezo":10763,"Africa":10764,"gis":10765,"Bugesera":10766,"gerweho":10767,"Ġbyishimo":10768,"yandika":10769,"ET":10770,"Ġnumvise":10771,"hat":10772,"Ġyandika":10773,"menyeshamakuru":10774,"biba":10775,"Ġmibonano":10776,"ily":10777,"Sina":10778,"geranye":10779,"yimoni":10780,"ĠMadi":10781,"ĠTuyisenge":10782,"marira":10783,"Ġmvu":10784,"Ġkwiruka":10785,"Ġyishyura":10786,"Ġkomine":10787,"Ġinke":10788,"Ġamaherezo":10789,"ntabwo":10790,"Ġisho":10791,"Ġufata":10792,"tat":10793,"Ġamakoperative":10794,"Ġagasanga":10795,"genzurwa":10796,"yisire":10797,"abarokotse":10798,"mbutsa":10799,"Ġimvune":10800,"tegaru":10801,"imvu":10802,"zanwa":10803,"Ġ1997":10804,"Ġbigari":10805,"Ġyibaza":10806,"ngayire":10807,"Ġrigira":10808,"yubatswe":10809,"Ġsy":10810,"hindi":10811,"Ġbiteze":10812,"Trump":10813,"Ġishyan":10814,"Ġbazima":10815,"Ġbategura":10816,"Ġababu":10817,"Ġntaba":10818,"Inganda":10819,"Ġyababwiye":10820,"zibacyuho":10821,"Ġkwihanganira":10822,"Ġipa":10823,"yero":10824,"yuranyo":10825,"ĠcyÃ¢":10826,"Ġabatavuga":10827,"Ġubudahangarwa":10828,"umweru":10829,"ĠVo":10830,"Ġibyari":10831,"ĠMinistries":10832,"Ġasu":10833,"sita":10834,"Ġryacu":10835,"Ġbakongera":10836,"tabwaho":10837,"Ġuburanga":10838,"ĠFaso":10839,"FU":10840,"yuzwe":10841,"ĠGabon":10842,"ĠIgita":10843,"ĠDona":10844,"Ġibumoso":10845,"Ġguke":10846,"Ġbatavuga":10847,"nk":10848,"Abatuye":10849,"td":10850,"Ġindo":10851,"Ġmoya":10852,"Ġukubera":10853,"Ġkuranga":10854,"ubuhu":10855,"Ġbinjiye":10856,"umuceri":10857,"Ġntaza":10858,"kwaya":10859,"Ġkuvuguru":10860,"Ġkwama":10861,"Ġicumbi":10862,"tif":10863,"Ġgitanga":10864,"Ġnkokora":10865,"Ġkwizigamira":10866,"Ġusaba":10867,"inyubako":10868,"ĠJuvenal":10869,"udi":10870,"Ġzihari":10871,"yabe":10872,"inzi":10873,"ĠMURI":10874,"ĠChantal":10875,"some":10876,"Ġabajyanama":10877,"ĠNko":10878,"mbitswe":10879,"yambaje":10880,"Ġbafungiye":10881,"teganijwe":10882,"Ġbikwiriye":10883,"Ġbuhungiro":10884,"Ġkwambuka":10885,"Itangazamakuru":10886,"ĠNTA":10887,"Ġzifasha":10888,"Ġkabisa":10889,"Mama":10890,"Ġukwemera":10891,"banyarwanda":10892,"ĠNshuti":10893,"Ġicyumba":10894,"Ġimiyoboro":10895,"bandwa":10896,"garambe":10897,"Ġbukwiye":10898,"Ġubwisanzure":10899,"Ġariwo":10900,"Ġbatabona":10901,"Ġungana":10902,"Ġviews":10903,"ĠMuhabura":10904,"hia":10905,"ingengabitekerezo":10906,"Ġnyirizina":10907,"Ġube":10908,"sipan":10909,"ĠQu":10910,"phine":10911,"Ġbukomeje":10912,"Ġzizwi":10913,"amafoto":10914,"ganaga":10915,"Ġgufatira":10916,"desha":10917,"SHO":10918,"Ġutaba":10919,"Ġinde":10920,"abakoresha":10921,"Bose":10922,"ĠKabu":10923,"Ġguhaha":10924,"Ġ1995":10925,"ĠYoung":10926,"radizo":10927,"Uza":10928,"Ġbasi":10929,"Ġyinjiza":10930,"abacuruzi":10931,"Ġmakimbirane":10932,"ubumenyingiro":10933,"ĠKalisa":10934,"gg":10935,"Ġguhohotera":10936,"main":10937,"Ġyashoboraga":10938,"Ġkugirwa":10939,"Ġkorali":10940,"Ġmadini":10941,"Ġbanyamuryango":10942,"yubakire":10943,"Bitewe":10944,"Ġuregwa":10945,"roni":10946,"Ġnibindi":10947,"Ġkijyambere":10948,"ĠMugabo":10949,"shura":10950,"Ġyaririmbye":10951,"Ġubuso":10952,"abarwayi":10953,"Ġabacitse":10954,"Ġyongere":10955,"Ġkuzahura":10956,"Ibyi":10957,"Ġibikomoka":10958,"Ġbemeje":10959,"Ġuwahoze":10960,"py":10961,"Ġikina":10962,"Ġanavuga":10963,"Ġuheruka":10964,"Ġbakira":10965,"ffe":10966,"mutungo":10967,"Ġbarwanyi":10968,"cungira":10969,"Ġbateganya":10970,"Ġnyaba":10971,"cs":10972,"boka":10973,"Ġgitaha":10974,"abatoza":10975,"koreramo":10976,"Ġwishwe":10977,"Ġgucukura":10978,"kanywa":10979,"YACU":10980,"???":10981,"Ġinyigo":10982,"busa":10983,"Ġbicuruzwa":10984,"Ġbarimu":10985,"rg":10986,"ĠAbayobozi":10987,"Ġyine":10988,"Umubare":10989,"kimana":10990,"sobanurwa":10991,"ĠCan":10992,"ĠGitwaza":10993,"ĠMisa":10994,"Ġkuvuka":10995,"Ġinsanganyamatsiko":10996,"ururimi":10997,"gurutse":10998,"Ġnakoze":10999,"velopment":11000,"byanga":11001,"hy":11002,"Ġyawo":11003,"shege":11004,"Ġbemeye":11005,"Ġkiro":11006,"Niyon":11007,"Amasezerano":11008,"Ġguhaguruka":11009,"Ġbahunze":11010,"Ġkirimbuzi":11011,"lima":11012,"haguruka":11013,"tane":11014,"Ġkariya":11015,"stem":11016,"Ġbahinga":11017,"Ġgutega":11018,"Ġyakoreshejwe":11019,"Ġyategetse":11020,"Ġumujinya":11021,"Banki":11022,"hagera":11023,"pfusha":11024,"Ġpost":11025,"Ġukwizera":11026,"Ġateganyijwe":11027,"Ġkidasanzwe":11028,"Ġkanama":11029,"inyandiko":11030,"Ġamagare":11031,"Ġmpimbano":11032,"Ġimfura":11033,"Abarabu":11034,"ĠNico":11035,"ganiraga":11036,"Ġgusimbura":11037,"Ġamato":11038,"imishinga":11039,"ĠIyamuremye":11040,"Ġbahagari":11041,"tegurira":11042,"hereze":11043,"Ġafunzwe":11044,"bundi":11045,"Ġnabandi":11046,"ĠSacco":11047,"ĠAbdul":11048,"'.":11049,"lar":11050,"Ġyadutangarije":11051,"ĠGuinea":11052,"giriki":11053,"gna":11054,"tto":11055,"Ġajyanwa":11056,"Ġgushi":11057,"FC":11058,"kamere":11059,"Ġgutinda":11060,"Pas":11061,"Ġgusesengura":11062,"girire":11063,"Ġyabyi":11064,"Ġgihamya":11065,"ONI":11066,"Ġyayoboye":11067,"Ġmahame":11068,"41":11069,"Ġibitsina":11070,"Intambara":11071,"ĠPasika":11072,"Ġnayi":11073,"Ġugereranije":11074,"Ġigikoresho":11075,"Nanjye":11076,"Ġakorana":11077,"Ġhati":11078,"Ġcyaje":11079,"ĠYunze":11080,"Em":11081,"Ġgutorwa":11082,"ud":11083,"Ġuhu":11084,"Ġyiyongera":11085,"Ġbamubwira":11086,"ĠUwase":11087,"NI":11088,"ijwi":11089,"runa":11090,"Ġipfunwe":11091,"ĠMbon":11092,"Ġhafashwe":11093,"Ġnahise":11094,"Ġbanyuze":11095,"Ġnibaza":11096,"wandika":11097,"Ã«":11098,"abategetsi":11099,"suku":11100,"Ġakwiriye":11101,"gurika":11102,"sansi":11103,"ĠYozefu":11104,"Ġbyuzuye":11105,"Ġzidasanzwe":11106,"Ġkubonana":11107,"kagombye":11108,"komereje":11109,"Ġbirego":11110,"ĠMurambi":11111,"Ġimideli":11112,"Ġkumera":11113,"Ġbafatanyabikorwa":11114,"rasa":11115,"rum":11116,"tuka":11117,"burayo":11118,"herekeza":11119,"Ġimirima":11120,"Ġbakura":11121,"58":11122,"Ġamatara":11123,"ĠNyina":11124,"shyashya":11125,"ĠMadame":11126,"ĠChristopher":11127,"Ġtwaganiriye":11128,"Ġbahereye":11129,"yonga":11130,"Ġkinyarwanda":11131,"Ġbirirwa":11132,"funguzo":11133,"Ġcyahariwe":11134,"ritas":11135,"Ġbifatika":11136,"Ġinyoko":11137,"ĠRWA":11138,"Ġgitego":11139,"Ibigo":11140,"Ġamenya":11141,"Ġhada":11142,"Ġzikoresha":11143,"rirashe":11144,"dendezo":11145,"Ġkwemezwa":11146,"subiraho":11147,"Akagera":11148,"ĠIkinyaru":11149,"komangoma":11150,"mukiye":11151,"Ġgukiza":11152,"Ġarindwi":11153,"Umushinjacyaha":11154,"cifi":11155,"tinye":11156,"Ġbidashoboka":11157,"tanwa":11158,"kingira":11159,"Ġukuboko":11160,"Ġutwite":11161,"amasasu":11162,"Ġinkoko":11163,"RDB":11164,"Yu":11165,"muneza":11166,"kiriza":11167,"Ġamayeri":11168,"remeye":11169,"bihe":11170,"Ġbibangamiye":11171,"ĠIbyo":11172,"fisiye":11173,"wubaka":11174,"Ġnshobora":11175,"ĠFin":11176,"Ġ76":11177,"Ġabura":11178,"Ġbakunzwe":11179,"turi":11180,"hou":11181,"Ġabaje":11182,"Igikorwa":11183,"Ġguhamaga":11184,"Ġumushoferi":11185,"Ġkabuza":11186,"ĠKibuye":11187,"ĠNina":11188,"shyirwamo":11189,"Ġyamuhaye":11190,"llo":11191,"niya":11192,"inal":11193,"ingeri":11194,"lisiti":11195,"Ġibyagezweho":11196,"ĠJudi":11197,"Ġkurushinga":11198,"ĠKabe":11199,"ĠbwÃ¢":11200,"ĠMbonyi":11201,"Ġbicaye":11202,"Ġmvura":11203,"mvira":11204,"Ġaborozi":11205,"Ġyaduhaye":11206,"Mwe":11207,"Ġbyago":11208,"amafi":11209,"cience":11210,"rinho":11211,"Ġyinjije":11212,"isaha":11213,"Ġnyobozi":11214,"Ġbabura":11215,"amasegonda":11216,"ĠMahama":11217,"icye":11218,"gwiza":11219,"Ġrikomeza":11220,"Ġbariho":11221,"ISAN":11222,"ico":11223,"Ġriki":11224,"ĠJosiane":11225,"Ġisukari":11226,"urwibutso":11227,"Ġrugomba":11228,"Ġabangavu":11229,"ssocia":11230,"gereje":11231,"ĠGaho":11232,"mane":11233,"ĠMoney":11234,"Ġkwimura":11235,"Police":11236,"imibonano":11237,"chni":11238,"ĠIbrahim":11239,"murika":11240,"Ġmuganda":11241,"doti":11242,"Ġmizi":11243,"urubuga":11244,"herewe":11245,"Ġyaganiriye":11246,"ĠGS":11247,"mbanyije":11248,"Ġabacamanza":11249,"Umudugudu":11250,"Ġshi":11251,"Ġica":11252,"ĠRPA":11253,"ventus":11254,"ĠBene":11255,"ĠCelestin":11256,"Ġibishyimbo":11257,"tsApp":11258,"ndwe":11259,"Kin":11260,"Ġbashyigikiye":11261,"Ġguhererekanya":11262,"Ġabamotari":11263,"Ġinduru":11264,"piri":11265,"Ġibinyamakuru":11266,"Ġnkingi":11267,"Ġsite":11268,"Nawe":11269,"Ġizamuka":11270,"tayo":11271,"Ġumuhigo":11272,"garagazaga":11273,"Ġes":11274,"zuyemo":11275,"ĠCommonwealth":11276,"Ġnzoga":11277,"tugal":11278,"mirije":11279,"Ġuburinganire":11280,"Ġnyirayo":11281,"kozasoni":11282,"fer":11283,"ĠImvaho":11284,"Ġigishushanyo":11285,"ĠBiro":11286,"Ġifatanyije":11287,"Ġyabajijwe":11288,"ĠLionel":11289,"gengwa":11290,"Ġbyagenda":11291,"Ġcyakozwe":11292,"57":11293,"Ġuzamu":11294,"ĠHop":11295,"Ġbibumbiye":11296,"Ġkwo":11297,"Ġtumenye":11298,"hava":11299,"Ġbyongera":11300,"Ġkubiba":11301,"ĠGirinka":11302,"Ġbunyuranyije":11303,"Ġakantu":11304,"ĠMelody":11305,"Ġbirumvikana":11306,"bre":11307,"Ġitangiye":11308,"heri":11309,"Ġriteganya":11310,"Ġimpuguke":11311,"ĠKayiranga":11312,"ssein":11313,"une":11314,"Ġzifata":11315,"amagara":11316,"koroni":11317,"tindi":11318,"sitora":11319,"rimus":11320,"shishoza":11321,"Ġbahaye":11322,"ia":11323,"Ġuvuze":11324,"Ġbarangiza":11325,"Ġgukurura":11326,"ĠVen":11327,"Ivyo":11328,"rerimana":11329,"Ġdusaba":11330,"gumesitiri":11331,"Ġafashe":11332,"Ġyawu":11333,"durira":11334,"cirwa":11335,"ĠBamporiki":11336,"Ġakandi":11337,"ĠSul":11338,"ĠMajyaruguru":11339,"Ġyagera":11340,"Ġumugani":11341,"Ġzigira":11342,"ubutwari":11343,"Ġzatanzwe":11344,"ĠGahuza":11345,"gereranyije":11346,"nganye":11347,"Ġkoroshya":11348,"Ġmum":11349,"shingirwa":11350,"goboka":11351,"Ġyagombye":11352,"Ġbipimo":11353,"Ġryawe":11354,"Ġwitabiriwe":11355,"Ġguhatana":11356,"Ġpar":11357,"ĠDanny":11358,"ibye":11359,"murage":11360,"lis":11361,"ĠChurch":11362,"ĠMurekezi":11363,"Ġbiboneka":11364,"ĠUR":11365,"Ġkurekura":11366,"Imbo":11367,"ril":11368,"ĠAde":11369,"Ġbaracya":11370,"korerwamo":11371,"Diamond":11372,"Andi":11373,"Ġyohereje":11374,"subiri":11375,"shoje":11376,"GM":11377,"Ġyicaye":11378,"Afite":11379,"umurongo":11380,"ĠMukaba":11381,"Ġabacu":11382,"sorwa":11383,"Ġmubona":11384,"Ġyafunguye":11385,"Ġkavu":11386,"Ġbyugarije":11387,"imbogamizi":11388,"Ġutwatsi":11389,"Nyi":11390,"ĠGitarama":11391,"Ġyabahaye":11392,"ĠSitade":11393,"ĠGlobal":11394,"56":11395,"Ġbaro":11396,"ruro":11397,"nanye":11398,"Ġibura":11399,"Ġturabi":11400,"ant":11401,"inwa":11402,"Ġyaragiye":11403,"Ġ99":11404,"Ġgusezerana":11405,"Ġkundi":11406,"tekereze":11407,"Ġukaza":11408,"Uturere":11409,"Ġnte":11410,"abagenzi":11411,"ĠRSSB":11412,"Ġumusaza":11413,"ĠBwa":11414,"ĠPL":11415,"nior":11416,"Ġpre":11417,"Nka":11418,"Ġnsengero":11419,"gajuru":11420,"Ġbase":11421,"kusi":11422,"Ntibi":11423,"Ġabaregwa":11424,"vel":11425,"kiniraga":11426,"Ġbajyanwa":11427,"kugira":11428,"Ġwavutse":11429,"impuguke":11430,"Ġjya":11431,"Ġahazwi":11432,"Ġvirus":11433,"imboga":11434,"mw":11435,"ogle":11436,"shure":11437,"Prof":11438,"Ġrwinshi":11439,"ĠFree":11440,"dÃ©":11441,"buje":11442,"Ġmuriro":11443,"Abafana":11444,"Ġyabona":11445,"Ġguhemba":11446,"Ġapfuye":11447,"Ġce":11448,"Ġbwatangaje":11449,"Ġumwo":11450,"mukarasi":11451,"Ġisha":11452,"Ġntayo":11453,"Ġyabajije":11454,"Ġbwemewe":11455,"Ġkwipimisha":11456,"âĢ¦âĢ¦":11457,"ĠUwizeyimana":11458,"izamu":11459,"politike":11460,"ibinya":11461,"Ġbizagenda":11462,"ĠMexi":11463,"Ġruke":11464,"Ġimishahara":11465,"Ġkumvira":11466,"ĠMI":11467,"abashakanye":11468,"jyaho":11469,"ĠGikongoro":11470,"Ġasimbu":11471,"Ġufasha":11472,"ĠNtaganda":11473,"generwabikorwa":11474,"Ġkuzura":11475,"bukwa":11476,"genwa":11477,"Ġatagira":11478,"sinzira":11479,"Ġrwisumbuye":11480,"Twari":11481,"BON":11482,"Ġmunyamakuru":11483,"ĠUwamariya":11484,"Ġbutu":11485,"Ġkitara":11486,"umukara":11487,"Tanzania":11488,"tegarugori":11489,"Ġbatan":11490,"Ġwitabiriye":11491,"kaje":11492,"Ġbumvise":11493,"ĠEd":11494,"Ġngeri":11495,"ĠGenocide":11496,"ĠUyu":11497,"shimishwa":11498,"Ġbamara":11499,"Abakuru":11500,"subitswe":11501,"Ġbugezweho":11502,"ĠCyi":11503,"Ġbwavuze":11504,"kame":11505,"ryozwa":11506,"ĠOmar":11507,"Ġyahinduye":11508,"ĠAlice":11509,"Ġamacumbi":11510,"ĠNDA":11511,"amahugurwa":11512,"kiriho":11513,"Ġbagasaba":11514,"ĠIgici":11515,"Ġirangiye":11516,"Ġbifata":11517,"Ġmakoperative":11518,"Ngi":11519,"ijuru":11520,"heto":11521,"Ġumuhutu":11522,"ranzi":11523,"Ġurutoki":11524,"Ġpadiri":11525,"Ibin":11526,"Ġgutangazwa":11527,"dence":11528,"Ġbafashwa":11529,"hakanye":11530,"sis":11531,"Ġkubaga":11532,"Ġbigakorwa":11533,"Ġburambye":11534,"cono":11535,"ĠMadiba":11536,"GWA":11537,"ĠMike":11538,"inkunga":11539,"ĠRuha":11540,"ĠLouis":11541,"Sen":11542,"ubuhanzi":11543,"senyutse":11544,"isha":11545,"Ġkurekurwa":11546,"Ġgaz":11547,"ĠJules":11548,"Ã´te":11549,"garuriye":11550,"yubahiriza":11551,"Ġbazana":11552,"mbirwa":11553,"Ġbakareba":11554,"Ġ1991":11555,"trea":11556,"guta":11557,"Ġmbonye":11558,"hammed":11559,"fatwaga":11560,"Ġikeneye":11561,"rengana":11562,"ĠAline":11563,"Nyagatare":11564,"Ġhakaza":11565,"Ġubucuti":11566,"ĠChief":11567,"Ġyahagaritswe":11568,"Ġjoro":11569,"Ġimyuka":11570,"sus":11571,"ĠMugesera":11572,"ĠGashumba":11573,"aniza":11574,"stau":11575,"Ġhavugwa":11576,"wandiko":11577,"ĠIkinyan":11578,"ibitero":11579,"Ġizatangira":11580,"Ġndimo":11581,"Icyiciro":11582,"Ġigezweho":11583,"Ġbago":11584,"ĠBya":11585,"tswana":11586,"Ġani":11587,"Ġbucye":11588,"ĠYO":11589,"Ġnkawe":11590,"Ġhehe":11591,"Ġnd":11592,"Ġgiteye":11593,"stric":11594,"intanga":11595,"Ġbukeye":11596,"hitira":11597,"yirizwa":11598,"yuzwa":11599,"gendwa":11600,"Yaje":11601,"ĠHan":11602,"Ġkiraro":11603,"DUC":11604,"pÃ©":11605,"Ġbidafite":11606,"ĠIII":11607,"Ġbishyu":11608,"ĠNext":11609,"Ġabereye":11610,"tit":11611,"ĠSil":11612,"Umupira":11613,"rezidan":11614,"Ġ78":11615,"Yan":11616,"yopiya":11617,"Ġbagezeho":11618,"sigiti":11619,"Ġurwaye":11620,"ĠryÃ¢":11621,"ĠRutare":11622,"nganywa":11623,"Ġwanditse":11624,"Ġahera":11625,"Ġbarwanya":11626,"bukwe":11627,"Ġwarangiye":11628,"masi":11629,"ĠAlgeria":11630,"Ġwabonye":11631,"ĠZuma":11632,"Ġbikan":11633,"Ġhateganyijwe":11634,"Ġ(@":11635,"impano":11636,"Ġmpeshyi":11637,"ĠCECAFA":11638,"Ġusigaye":11639,"Ġukurikije":11640,"her":11641,"Ġumututsi":11642,"Ġhita":11643,"Ġatwara":11644,"ĠSE":11645,"cul":11646,"shari":11647,"sure":11648,"Ġiburyo":11649,"ĠChristine":11650,"Ġkwigishwa":11651,"Ġ64":11652,"ĠCroix":11653,"Ġturu":11654,"Ġikiraro":11655,"Isa":11656,"Ġumufasha":11657,"Ġkubivuga":11658,"ĠYoutube":11659,"ĠYouth":11660,"tobe":11661,"Ġbyagaragajwe":11662,"Ġigihumbi":11663,"INE":11664,"meke":11665,"Ġzikwiye":11666,"Ġgasozi":11667,"Ġbyafashwe":11668,"dor":11669,"Ġuhari":11670,"urukiya":11671,"hesheje":11672,"dette":11673,"Ġamakarita":11674,"umve":11675,"ĠMuni":11676,"Ġbugomba":11677,"ĠMuvunyi":11678,"kiramo":11679,"yitse":11680,"ĠNO":11681,"mvaga":11682,"Yehova":11683,"ghanis":11684,"higanwa":11685,"Ġazabi":11686,"âĢĻâĢĻ.":11687,"ĠJackson":11688,"ĠBurkina":11689,"ĠSitasiyo":11690,"Ġgufungurwa":11691,"Ġbwumvi":11692,"Ġwiwe":11693,"Abu":11694,"Ġiyihe":11695,"BUKA":11696,"Ġnjyanama":11697,"gisa":11698,"Tubi":11699,"Birashoboka":11700,"GAN":11701,"buzi":11702,"amasoko":11703,"shishikajwe":11704,"ICE":11705,"Ġwageze":11706,"Ġubushishozi":11707,"ĠIsiraheli":11708,"Ġiravuga":11709,"mamare":11710,"Ġkumenyesha":11711,"VIDEO":11712,"nyuma":11713,"ubugenzacyaha":11714,"riraga":11715,"herereje":11716,"Ġngeze":11717,"abahagarariye":11718,"ibibi":11719,"yirijwe":11720,"kinamico":11721,"ĠKarasira":11722,"Ġyegukana":11723,"seribe":11724,"Ġurugomo":11725,"Ġkugaba":11726,"reruya":11727,"Au":11728,"Pi":11729,"ruke":11730,"Ġbwonko":11731,"pany":11732,"ĠKuri":11733,".'":11734,"non":11735,"Ġivya":11736,"Ġataki":11737,"urugamba":11738,"Ġkumubwira":11739,"Ġbamuha":11740,"ĠKana":11741,"ibitabo":11742,"Ġinkingi":11743,"Ġzafashwe":11744,"rengagije":11745,"remire":11746,"lde":11747,"mala":11748,"nara":11749,"Ġyerekeye":11750,"Ġjyewe":11751,"tele":11752,"zanguni":11753,"rivisi":11754,"Ġgusubu":11755,"Ġbanyuranye":11756,"ĠSadate":11757,"Urugaga":11758,"Ġbakorewe":11759,"Ġntawu":11760,"Ġpla":11761,"Ġugana":11762,"ĠIndi":11763,"imanza":11764,"Ġbahembwa":11765,"mora":11766,"Ġntidu":11767,"Jose":11768,"ux":11769,"Ġntwaro":11770,"Ġakin":11771,"ĠGor":11772,"Ġcyafashwe":11773,"ĠWhite":11774,"Ġimitekerereze":11775,"Abahinzi":11776,"ĠVision":11777,"ĠQueen":11778,"AG":11779,"Ġbabanye":11780,"fotora":11781,"Ġyamubwiye":11782,"Ġkinyamwuga":11783,"Ġwagira":11784,"cyangwa":11785,"NGO":11786,"Ġmyenda":11787,"lympi":11788,"Wowe":11789,"Ġiboneka":11790,"shywa":11791,"Ġbasubira":11792,"hindure":11793,"SSO":11794,"Ġbazanye":11795,"Ġijosi":11796,"ĠIKI":11797,"eline":11798,"simba":11799,"Ġbukoreshwa":11800,"Abanyafurika":11801,"rwu":11802,"tsura":11803,"Ġbavutse":11804,"sogo":11805,"ngakamere":11806,"Ġbatabasha":11807,"ĠLiliane":11808,"ukwi":11809,"Ġnifuza":11810,"Ubwiyunge":11811,"Ġkumwa":11812,"ĠRÃ©":11813,"Ġhagira":11814,"dutse":11815,"Uburenganzira":11816,"Ġtwavuze":11817,"xel":11818,"hanye":11819,"Ġ77":11820,"ĠVillage":11821,"MB":11822,"Ġmumi":11823,"Ġwafashwe":11824,"Ġwahuje":11825,"Ġkubabwira":11826,"Ġmibanire":11827,"Ġbwamu":11828,"Ġataha":11829,"rirwaho":11830,"Ġagire":11831,"Ġgiha":11832,"Ġahazaza":11833,"Ġbagarutse":11834,"Ġ69":11835,"Ġbadakwiye":11836,"Ġumenya":11837,"Ġzizi":11838,"Ġbabonaga":11839,"Ġubonye":11840,"Ġutekereza":11841,"sasa":11842,"ĠDidier":11843,"Ġtukabi":11844,"GG":11845,"Impan":11846,"ĠImpu":11847,"Ġiserukiramuco":11848,"Ġamahano":11849,"shyingu":11850,"TSI":11851,"Ġbiruhuko":11852,"Ġibigwi":11853,"ibikomoka":11854,"Ġndavuga":11855,"ĠWungirije":11856,"rukiye":11857,"ganiye":11858,"Birumvikana":11859,"Ġ1999":11860,"Ġwapfuye":11861,"ĠIgiseribe":11862,"Ġnyene":11863,"Ġkunya":11864,"Ġigishoro":11865,"onda":11866,"Ġgushyirwaho":11867,"ĠTP":11868,"ĠMobile":11869,"Ġzanyu":11870,"byan":11871,"sebe":11872,"Ġsisite":11873,"Ġakura":11874,"Ġatangazwa":11875,"Ġkubazwa":11876,"sper":11877,"mugabo":11878,"Ġkacu":11879,"Ġmipaka":11880,"Ġagakomeza":11881,"ĠKimironko":11882,"sition":11883,"raye":11884,"Ġbavuka":11885,"buranishwa":11886,"ĠGerard":11887,"Ġimisozi":11888,"ĠIgiswa":11889,"twigisha":11890,"Ġkudufasha":11891,"Ġzabyo":11892,"Ġurusaku":11893,"Ġbinyuranyije":11894,"akagari":11895,"ĠRwigema":11896,"tugali":11897,"ĠCamp":11898,"Ġumwambaro":11899,"Nko":11900,"teraga":11901,"Ġrukingo":11902,"ĠDJ":11903,"Yatangiye":11904,"ĠClaver":11905,"Rwose":11906,"Ġbigoranye":11907,"abaha":11908,"ĠHabu":11909,"Ġbidukikije":11910,"doda":11911,"Ġyananiwe":11912,"herereyemo":11913,"ubira":11914,"Ġazakomeza":11915,"Ġbabivuga":11916,"ding":11917,"geban":11918,"Igikombe":11919,"Ġintama":11920,"ĠDon":11921,"Ġbifatwa":11922,"Ġibarura":11923,"itariki":11924,"gishijwe":11925,"ubutabazi":11926,"Urutonde":11927,"Ġyemewe":11928,"Ġbarusheho":11929,"ivangura":11930,"ringi":11931,"guti":11932,"ĠKira":11933,"Ġntabyo":11934,"Ġyihaye":11935,"kemurira":11936,"ĠProducer":11937,"Bru":11938,"Ġbyumba":11939,"lina":11940,"Ġipeti":11941,"Ġbuhe":11942,"Ġkirego":11943,"Ġyeguye":11944,"tandura":11945,"Ġtuzajya":11946,"Ġyanenze":11947,"Ġkuvugisha":11948,"Ġbwanyu":11949,"Ġintunga":11950,"gui":11951,"Ġicyu":11952,"agatsiko":11953,"bonan":11954,"Ġbakeka":11955,"Ġntiru":11956,"Char":11957,"Ġyatangijwe":11958,"Ġgusan":11959,"Ġcyateguwe":11960,"Ġtugi":11961,"ĠLÃ©":11962,"zimungu":11963,"ĠNtarama":11964,"Ġyasinyi":11965,"Ġkurimbura":11966,"ĠEA":11967,"Ġizafasha":11968,"ĠMashya":11969,"Ġbahamaga":11970,"TB":11971,"ah":11972,"rilla":11973,"Ġibera":11974,"Ġuhora":11975,"Ġrushya":11976,"Ġimicungire":11977,"Ġambasade":11978,"sing":11979,"Ġaturutse":11980,"yern":11981,"Ġiyitwa":11982,"Ġuhoraho":11983,"bikoze":11984,"mpani":11985,"ĠClaudine":11986,"Ġukajya":11987,"Ġivuye":11988,"ĠFM":11989,"Ġbakurikirana":11990,"mika":11991,"bw":11992,"mariye":11993,"ĠMusha":11994,"Abategetsi":11995,"imisozi":11996,"Kwibuka":11997,"Ġabakristo":11998,"tegure":11999,"umunani":12000,"Ġabaya":12001,"tirirwa":12002,"cyane":12003,"vÃ©":12004,"Ġndo":12005,"Ġyatorewe":12006,"Ġroho":12007,"ĠWomen":12008,"Ġuwe":12009,"Ġyarana":12010,"tie":12011,"rerero":12012,"Ġtwatangiye":12013,"ĠAbakristo":12014,"Ġambasaderi":12015,"Ġburengerazuba":12016,"Ġmibiri":12017,"Ġgutabwa":12018,"ĠBoyz":12019,"Ġcyatsinzwe":12020,"ĠSahara":12021,"Ġivuriro":12022,"Ġbategetsi":12023,"SU":12024,"ĠApp":12025,"inkoko":12026,"Inter":12027,"Ġnigeze":12028,"Ġbahamya":12029,"Ġsini":12030,"Ġmwebwe":12031,"bintu":12032,"ĠMel":12033,"Ġbatubwira":12034,"zimpaka":12035,"Ġumurage":12036,"Ġhotel":12037,"Tuyi":12038,"ĠArt":12039,"Ġ62":12040,"Ġyatowe":12041,"EDUC":12042,"ubumu":12043,"Ġ3000":12044,"Ġbwuzuye":12045,"ihinga":12046,"Ġavugwa":12047,"Ġyenda":12048,"Ġyumvikana":12049,"Patri":12050,"Ġnkumva":12051,"ĠKimihurura":12052,"ĠJimmy":12053,"Ġbariko":12054,"Ġukabi":12055,"hungaban":12056,"Â».":12057,"Ġumusifuzi":12058,"Ġbyagize":12059,"ĠUmugore":12060,"yanika":12061,"Umuhanzikazi":12062,"Ġmashami":12063,"yumviro":12064,"ĠYoweri":12065,"gishe":12066,"Ġumurego":12067,"Ġamashyi":12068,"Ġpasi":12069,"John":12070,"ĠNama":12071,"cucike":12072,"Ġimibanire":12073,"ĠJenerali":12074,"Oya":12075,"gba":12076,"Ġbayobowe":12077,"Ġbikubiye":12078,"Ġinyuranye":12079,"Ġicyatumye":12080,"GARA":12081,"yabete":12082,"Ġkeza":12083,"Ġikunze":12084,"hema":12085,"Ġhashyirwaho":12086,"Ġikiba":12087,"Ġ94":12088,"utundi":12089,"Ġzituruka":12090,"shingiraho":12091,"ĠSyria":12092,"Ġkandida":12093,"Ġryabereye":12094,"CS":12095,"mme":12096,"ĠKAN":12097,"ingurube":12098,"Ġakagera":12099,"ibice":12100,"ĠNiba":12101,"gunge":12102,"Ġyafunzwe":12103,"dite":12104,"Ġmico":12105,"ĠGahunda":12106,"Ġ61":12107,"FDD":12108,"Ġkugena":12109,"tako":12110,"Ġrugeze":12111,"ngurwa":12112,"ĠHono":12113,"vano":12114,"ĠDeo":12115,"lus":12116,"Ndayi":12117,"ikiyaga":12118,"Ġbazahabwa":12119,"uu":12120,"murirwa":12121,"Ġbibuka":12122,"vurwa":12123,"Ġbacuruza":12124,"kiru":12125,"ubuntu":12126,"Ġzamaze":12127,"ĠOn":12128,"abimukira":12129,"Ġinzoka":12130,"rebure":12131,"kenye":12132,"Hara":12133,"ikintu":12134,"Ġgore":12135,"Ġmuku":12136,"Ġziti":12137,"Ġ63":12138,"Ġtwinshi":12139,"rome":12140,"Ġuburozi":12141,"Ġkubamo":12142,"Icyongereza":12143,"ĠJuventus":12144,"Ġbishyura":12145,"siya":12146,"amaboko":12147,"Ġdute":12148,"ikimenyetso":12149,"NZI":12150,"nshinga":12151,"ĠEme":12152,"ĠOd":12153,"Ġbyabaga":12154,"nza":12155,"inyama":12156,"Ġgusubizwa":12157,"Ġzigenda":12158,"bwiza":12159,"ĠNyami":12160,"garuke":12161,"Ġgucuranga":12162,"bald":12163,"Ġbashinze":12164,"ĠCote":12165,"ĠURU":12166,"byimana":12167,"Ġbyanjye":12168,"ryan":12169,"Ġmuvuga":12170,"face":12171,"Ġyigaga":12172,"ĠButera":12173,"zerekana":12174,"Ġkuzenguruka":12175,"Ġbakunzi":12176,"yota":12177,"yogo":12178,"abaminisitiri":12179,"Mugisha":12180,"Ġsima":12181,"Ġukunzwe":12182,"arifa":12183,"OMS":12184,"ploma":12185,"taire":12186,"kubwa":12187,"tegekimana":12188,"Ġkwesa":12189,"ĠReco":12190,"Ġitaza":12191,"Ġyemejwe":12192,"muye":12193,"ĠMoni":12194,"Ġumubyara":12195,"Ġhatari":12196,"ĠBoni":12197,"Ġmusozo":12198,"zirikana":12199,"ĠMuhoza":12200,"ruzalemu":12201,"umuyaga":12202,"imye":12203,"ĠHand":12204,"Ġgutegurwa":12205,"ĠKorali":12206,"Ġac":12207,"anessa":12208,"hwitse":12209,"Ġbyaturutse":12210,"ĠSina":12211,"Ġntiki":12212,"Ġbashyizwe":12213,"ĠVI":12214,"teguriye":12215,"Ġkanini":12216,"ĠCompany":12217,"dashi":12218,"Ġumunezero":12219,"ĠPer":12220,"Ġdukoresha":12221,"rangingo":12222,"lls":12223,"ĠCommi":12224,"Uri":12225,"Ġikorana":12226,"silamu":12227,"Ġgukomeretsa":12228,"hembwe":12229,"Ġumugongo":12230,"Ġamatorero":12231,"Ġmikoro":12232,"zinga":12233,"rusa":12234,"Ġumushumba":12235,"ĠWar":12236,"Ġubarizwa":12237,"Ġkunganira":12238,"ĠKayitesi":12239,"Ġkugabanuka":12240,"cÃ¨ne":12241,"Ġabashakanye":12242,"Ġkirwa":12243,"ĠHaba":12244,"geragere":12245,"Yewe":12246,"Twese":12247,"publika":12248,"buriye":12249,"Ġimisatsi":12250,"cas":12251,"imitungo":12252,"ĠNyakwigendera":12253,"Ġnzozi":12254,"NYA":12255,"Ġkuntu":12256,"Ġbarakomereka":12257,"ĠPaccy":12258,"FPR":12259,"ziguye":12260,"Ġruto":12261,"anews":12262,"risse":12263,"Ġuburebure":12264,"mutwe":12265,"Ġineza":12266,"ĠMurenzi":12267,"Ġifungwa":12268,"Ġbaciye":12269,"Ġukagera":12270,"zihije":12271,"ĠCollege":12272,"angira":12273,"Ġgukaza":12274,"umubano":12275,"icyamamare":12276,"Ġgukosora":12277,"Ġngenga":12278,"rutugali":12279,"ĠMuhima":12280,"Ġyarabaye":12281,"ĠBari":12282,"ĠHussein":12283,"ĠWhatsApp":12284,"ĠPrimus":12285,"ĠMatayo":12286,"mpano":12287,"Ġumurwa":12288,"urukozasoni":12289,"ĠBona":12290,"Ġibirindiro":12291,"Ġkuvoma":12292,"Ġkwifashishwa":12293,"Ġutuma":12294,"Ġyagiraga":12295,"Ġabahoze":12296,"gurirwa":12297,"Ġwahariwe":12298,"ĠIrani":12299,"ĠIBUKA":12300,"wandikira":12301,"use":12302,"ranywe":12303,"andika":12304,"Ã©ra":12305,"gorofa":12306,"Ġmana":12307,"ĠGitega":12308,"ĠArticle":12309,"gebanque":12310,"CI":12311,"Ġinya":12312,"Ġurabona":12313,"Ġtuzakomeza":12314,"ubujura":12315,"Ġbaturanyi":12316,"pine":12317,"Ġuni":12318,"gukira":12319,"kibi":12320,"sumba":12321,"Ġrizwi":12322,"Ġsiganwa":12323,"Ġuburakari":12324,"Ġntihagire":12325,"Ġbigizwe":12326,"Ġbwami":12327,"ĠLuka":12328,"Ġguhagarikwa":12329,"Ġyaturutse":12330,"Ġbishize":12331,"tique":12332,"limana":12333,"Ġicyiza":12334,"manga":12335,"Ġtubari":12336,"Ġumunyamuryango":12337,"Ġitandukaniro":12338,"huriyemo":12339,"Ġbyangombwa":12340,"Ġihungabana":12341,"Ġatyo":12342,"mentu":12343,"ĠSalaam":12344,"Rimwe":12345,"Ġingoro":12346,"ĠTennis":12347,"ngano":12348,"diko":12349,"kurikiranya":12350,"Ġbagatanga":12351,"Ġnumero":12352,"mark":12353,"Ġbagura":12354,"ĠCYA":12355,"tegereze":12356,"Sh":12357,"Ġtwahawe":12358,"mwica":12359,"stiri":12360,"ĠAbana":12361,"Ġrugi":12362,"Ġruherereye":12363,"Ġyitwara":12364,"Ġbabarizwa":12365,"Ġyabasabye":12366,"Ġ98":12367,"Ġibuye":12368,"Ġbakenera":12369,"dium":12370,"Ġbibafasha":12371,"Byi":12372,"Ġukwiriye":12373,"amakoperative":12374,"ubukangurambaga":12375,"vuguruye":12376,"urugomo":12377,"byibuho":12378,"Ġbizo":12379,"lique":12380,"Ġimirenge":12381,"Ġbarara":12382,"Ġkwege":12383,"ĠAbanyafurika":12384,"Ġatwaye":12385,"Ġbikomoka":12386,"ĠMutara":12387,"Ġyakomo":12388,"tient":12389,"shion":12390,"abarundi":12391,"Ġbashyizeho":12392,"ĠPri":12393,"Ġbanywa":12394,"kurikiranwe":12395,"yerekano":12396,"Ġbizamu":12397,"abada":12398,"imbwa":12399,"Ndaba":12400,"dashian":12401,"Ġbihingwa":12402,"Ġibikorerwa":12403,"Ġdutanga":12404,"yinji":12405,"ĠUwamahoro":12406,"53":12407,"UR":12408,"Ġbije":12409,"hone":12410,"Natwe":12411,"ĠNel":12412,"Ġingurube":12413,"ĠIBI":12414,"lenge":12415,"birigi":12416,"yenyeri":12417,"Ġkubagezaho":12418,"umwijima":12419,"ĠTunisia":12420,"Ġbuki":12421,"Ġbwabaye":12422,"ĠNijeriya":12423,"Ġutagira":12424,"Usanga":12425,"gre":12426,"bigwi":12427,"sigira":12428,"horana":12429,"twaje":12430,"kanwe":12431,"yamaze":12432,"Ġuwamu":12433,"ĠPSD":12434,"Ġwitabye":12435,"kapu":12436,"Ġyabigarutseho":12437,"Ġbateraniye":12438,"Ġmuhanzikazi":12439,"nitse":12440,"Ġbamaranye":12441,"ĠEugene":12442,"ĠFÃ©lix":12443,"Ibanze":12444,"Ġabajura":12445,"Ġmpungenge":12446,"Ġyou":12447,"ĠCyu":12448,"herekeje":12449,"gaciro":12450,"goranye":12451,"sanduku":12452,"Ġzabukuru":12453,"ubwonko":12454,"Ġisambu":12455,"Ġbakirinda":12456,"Ġyizewe":12457,"Inyigisho":12458,"Ġihagije":12459,"tubwiye":12460,"amapa":12461,"ĠRugan":12462,"ĠTru":12463,"Ġwize":12464,"ĠRebe":12465,"ĠArgen":12466,"Ngaho":12467,"umuganda":12468,"Ġahabona":12469,"ringira":12470,"yumvira":12471,"ople":12472,"kiranuka":12473,",,":12474,"Ġigura":12475,"hanna":12476,"ĠNdayisaba":12477,"ĠCho":12478,"ĠSpe":12479,"Ġdukorana":12480,"Nyakubahwa":12481,"60":12482,"lime":12483,"Ġubutabazi":12484,"menyana":12485,"ryamana":12486,"ĠRI":12487,"ĠBuka":12488,"Niyi":12489,"ĠSalo":12490,"Urubuga":12491,"senyuka":12492,"yuzure":12493,"Ġkana":12494,"Ġbigaragazwa":12495,"ĠABAN":12496,"Ġamagi":12497,"ĠPortugal":12498,"EAC":12499,"Ġatan":12500,"mire":12501,"kanira":12502,"tagira":12503,"ĠTurukiya":12504,"Ubuhamya":12505,"ruhuka":12506,"ĠKon":12507,"KAMA":12508,"Ġnyaburanga":12509,"Ġashyiraho":12510,"Ġyageraga":12511,"Ġtuya":12512,"Inkingi":12513,"Ġbahatanira":12514,"byinnyi":12515,"hiti":12516,"Ġdutu":12517,"Ġbirindwi":12518,"vanywe":12519,"ĠBarcelone":12520,"strict":12521,"vision":12522,"Ġkunanirwa":12523,"ĠAbadepite":12524,"ĠVu":12525,"Ġcyizere":12526,"Ġgutoroka":12527,"Ġbukerarugendo":12528,"ĠMutu":12529,"Ġntiza":12530,"mple":12531,"cifique":12532,"shashi":12533,"umunyamabanga":12534,"jyanwe":12535,"tayeho":12536,"ĠTcha":12537,"ĠFabri":12538,"HAGO":12539,"Ġzamu":12540,"gerageze":12541,"ERG":12542,"Ġkuryamana":12543,"imicungire":12544,"INA":12545,"ĠValen":12546,"Ġintungamubiri":12547,"Ġbashobore":12548,"Ġgutwika":12549,"Ġndashaka":12550,"Ġyasubiye":12551,"Ġimpamyabushobozi":12552,"ĠWASAC":12553,"sel":12554,"Jenoside":12555,"njye":12556,"Ġnkemurampaka":12557,"zande":12558,"Ġugushaka":12559,"ronka":12560,"Ġumukoro":12561,"Ġbushoboka":12562,"Ġamagara":12563,"Ġrikomeje":12564,"ranijwe":12565,"Ben":12566,"Publi":12567,"cling":12568,"Ġabatara":12569,"naho":12570,"zumva":12571,"amikoro":12572,"himbano":12573,"Ġkimenyetso":12574,"Ġbyageze":12575,"kwano":12576,"tubyaye":12577,"ĠIshyirahamwe":12578,"dol":12579,"Ġbakagera":12580,"ĠBill":12581,"ĠJona":12582,"wanyi":12583,"ĠUbufaransa":12584,"gambiriye":12585,"Ġbyangiza":12586,"imyitozo":12587,"icyizere":12588,"Ġikurikira":12589,"cisse":12590,"Ġubwitange":12591,"dra":12592,"nnye":12593,"Ġifi":12594,"Ġzahawe":12595,"Ġyavuzwe":12596,"Ġkwibasirwa":12597,"Ġhakiyongeraho":12598,"Njyanwa":12599,"Ġureba":12600,"Ġinsengero":12601,"Ġbapolisi":12602,"Ġrigaragaza":12603,"Ġkwegereza":12604,"ĠMina":12605,"Ġmurika":12606,"Ġnitu":12607,"ganiraho":12608,"Ġbakiriye":12609,"Ġumuhate":12610,"Ġbikomeza":12611,"ĠIhuriro":12612,"Ġcyihariye":12613,"Ġkwitwararika":12614,"sindi":12615,"Ġntumwa":12616,"Ġabagiye":12617,"ĠIyi":12618,"vuzweho":12619,"ĠUhuru":12620,"guzwe":12621,"shamibare":12622,"abicanyi":12623,"ĠCard":12624,"Ġ1500":12625,"rinto":12626,"54":12627,"Ġbani":12628,"BERE":12629,"tien":12630,"ĠBib":12631,"Ġmatorero":12632,"ĠMarines":12633,"ĠUrubyiruko":12634,"Ġmenya":12635,"Ġamenyesha":12636,"198":12637,"Ġmateraniro":12638,"yambaza":12639,"Ġkuli":12640,"Ġtugenda":12641,"ingagi":12642,"Izindi":12643,"ĠBou":12644,"ĠÂ¼":12645,"Ġimikoreshereze":12646,"ĠEle":12647,"Ġlisansi":12648,"TSE":12649,"hezanguni":12650,"Ġbadashaka":12651,"Umuseke":12652,"ĠYeruzalemu":12653,"Ġbatangije":12654,"tezi":12655,"Ġntaramakuru":12656,"Ġwahise":12657,"ĠPubli":12658,"camo":12659,"ĠRwaga":12660,"Ġbunyuranye":12661,"Ġafise":12662,"Nyina":12663,"ĠYi":12664,"subikwa":12665,"Bene":12666,"ĠRouge":12667,"Ġyifuzaga":12668,"Ġtutari":12669,"Ġpolice":12670,"ĠKimisagara":12671,"VI":12672,"Ġamatike":12673,"mbogo":12674,"Yagaragaje":12675,"ĠSheikh":12676,"ghanistan":12677,"Ġguhindu":12678,"kuka":12679,"ĠIshyaka":12680,"ubuhanga":12681,"ĠHam":12682,"ĠIbitekerezo":12683,"Ġabakekwaho":12684,"ĠKWI":12685,"Ġavugako":12686,"Ġkurara":12687,"Ġmutego":12688,"Nigeria":12689,"Ġwigisha":12690,"Ġbazakora":12691,"Ikiganiro":12692,"Ġabazize":12693,"iye":12694,"ĠGasa":12695,"Ġbataki":12696,"llen":12697,"Ġmureke":12698,"Ġmuhungu":12699,"had":12700,"Ġwatumye":12701,"ĠAriko":12702,"Ġbahungu":12703,"ĠRudahigwa":12704,"Ġbyemezo":12705,"musaruro":12706,"Ġyavuga":12707,"ĠrwÃ¢":12708,"ĠIntyoza":12709,"Ġimpfu":12710,"rishamibare":12711,"bujijwe":12712,"kirwe":12713,"Ġmiremire":12714,"kemutse":12715,"Ġturashaka":12716,"intama":12717,"Ġbubiko":12718,"uriya":12719,"Ġbagere":12720,"dirishya":12721,"Ġbidatinze":12722,"HAGOYACU":12723,"Ġmigabane":12724,"mia":12725,"Ġabashakashatsi":12726,"ĠInstitu":12727,"pfushije":12728,"Buriya":12729,"Ġibanza":12730,"chno":12731,"HOGM":12732,"abavuga":12733,"ikira":12734,"Ġfatizo":12735,"Ġbisabwa":12736,"mimerere":12737,"rizamo":12738,"Ġzizajya":12739,"Ġmbumbe":12740,"ziri":12741,"Ġabarundi":12742,"âĢ¦âĢĿ":12743,"Ġudupfukamunwa":12744,"sanzuye":12745,"Ġgatera":12746,"Ġbakize":12747,"Ġryanjye":12748,"52":12749,"Ġkuriya":12750,"Ġntashobora":12751,"Umuturage":12752,"mbuga":12753,"ĠNeymar":12754,"Igenamigambi":12755,"kiniki":12756,"Ġkino":12757,"ubujurire":12758,"ĠAbayahudi":12759,"mfura":12760,"gomwa":12761,"Ġpoliti":12762,"ĠGoogle":12763,"ĠMwiseneza":12764,"Ab":12765,"ijana":12766,"Ġabikora":12767,"ella":12768,"Ġbaturiye":12769,"ryoherwa":12770,"San":12771,"Ġbifashisha":12772,"Ġcyuho":12773,"Ġhakurya":12774,"Ġibibanza":12775,"ĠdÃ©":12776,"ĠFabrice":12777,"aniranye":12778,"Ġbagahita":12779,"yirizo":12780,"aaaa":12781,"hishuwe":12782,"Ġubutaha":12783,"ĠImbuto":12784,"toma":12785,"Ġibihingwa":12786,"ĠBNR":12787,"Ġkamaro":12788,"Ġzitera":12789,"ĠRukundo":12790,"Bavandimwe":12791,"Ġbyemezwa":12792,"rable":12793,"ĠAM":12794,"Ġbyifashishwa":12795,"spa":12796,"Ġrumu":12797,"umuvugizi":12798,"Ġyariri":12799,"Ġdukunda":12800,"nyamahanga":12801,"ĠAloys":12802,"byemeza":12803,"Yahise":12804,"Ġyumvi":12805,"pon":12806,"ubwami":12807,"Ġmatungo":12808,"kiriro":12809,"stro":12810,"Ġvyi":12811,"kend":12812,"ĠNgamije":12813,"URU":12814,"Ġutera":12815,"Ġyahindutse":12816,"habwe":12817,"Ġbyiyongera":12818,"ĠYannick":12819,"GGSS":12820,"Ġzikorera":12821,"Ġtwan":12822,".âĢĶ":12823,"Ġuhagaze":12824,"Ġbasubi":12825,"Ġbijyana":12826,"Ġamaseti":12827,"kol":12828,"giyemo":12829,"Ġurujya":12830,"Ġurusobe":12831,"vuguruza":12832,"ĠKardashian":12833,"fashan":12834,"toje":12835,"venture":12836,"Ġakomeze":12837,"porisi":12838,"sobanuriwe":12839,"Ġgutembera":12840,"ĠFlash":12841,"Ġrinzaho":12842,"Umurimo":12843,"Ġarambwira":12844,"Ġsimu":12845,"reman":12846,"ingano":12847,"ibitego":12848,"cumbikira":12849,"sinziriye":12850,"ĠMunyaneza":12851,"ISANTE":12852,"KAN":12853,"mata":12854,"Ġbigishwa":12855,"ĠUmwe":12856,"Ġtugari":12857,"Ġamuha":12858,"tizwa":12859,"Uni":12860,"Ġarebe":12861,"tation":12862,"Ġibirenge":12863,"Umuhango":12864,"ibimenyetso":12865,"Ġumugozi":12866,"Ġindangamuntu":12867,"mbuke":12868,"Ġbagirana":12869,"gabi":12870,"Ġmasengesho":12871,"mbikwa":12872,"rwandiko":12873,"ĠCNLG":12874,"NGU":12875,"Ġayandi":12876,"Ġagakingirizo":12877,"Amagambo":12878,"Ġbizakomeza":12879,"Baba":12880,"Ġabere":12881,"ĠEmi":12882,"izzo":12883,"suzumisha":12884,"Ġntoya":12885,"Image":12886,"Ġzitara":12887,"ĠMajyepfo":12888,"Ġikubiyemo":12889,"timba":12890,"Ġububabare":12891,"Ġgisubizo":12892,"ĠNyiran":12893,"Ġbasize":12894,"burirwa":12895,"burg":12896,"ĠCÃ´te":12897,"Ġbibabaje":12898,"Ġkizaza":12899,"ins":12900,"kuyemo":12901,"shonje":12902,"Ġicyamamare":12903,"ĠMaria":12904,"Ġimpanuro":12905,"RIN":12906,"Ġufatwa":12907,"ĠRube":12908,"ers":12909,"hamagaro":12910,"Ġyasinye":12911,"Ġsatani":12912,"Ġzingana":12913,"Ġigabanya":12914,"ĠMandela":12915,"Ġumwiherero":12916,"Ġguhumeka":12917,"Ġuherereye":12918,"Ġyasimbu":12919,"Ġbiciro":12920,"gango":12921,"Ġiyindi":12922,"cinya":12923,"ĠNdayisenga":12924,"Ġamavuriro":12925,"gwaneza":12926,"ĠFootball":12927,"yaremye":12928,"tamba":12929,"yuda":12930,"ĠDja":12931,"pore":12932,"mazeyo":12933,"spector":12934,"Ġnge":12935,"Ġhate":12936,"ĠMakuza":12937,"Ġabizi":12938,"Ġkwibanda":12939,"ibijyanye":12940,"Ġbitaga":12941,"ĠRuto":12942,"Ġtwizeye":12943,"bazaga":12944,"Ġisuri":12945,"hini":12946,"Ġbwatumye":12947,"ĠMaster":12948,"Hamwe":12949,"rida":12950,"hageze":12951,"Ġatavuga":12952,"Ġbwenge":12953,"tics":12954,"Ġmanegeka":12955,"Nyanza":12956,"komye":12957,"Ġgutaka":12958,"Ġgutaramira":12959,"Ġgutuza":12960,"ONUS":12961,"Ingaruka":12962,"Ġabafasha":12963,"Ġgifasha":12964,"namira":12965,"imyumvire":12966,"sezeranya":12967,"ĠByiringiro":12968,"ĠNu":12969,"igikoni":12970,"Ġahamaga":12971,"inkongi":12972,"zinya":12973,"Ġhamenyekane":12974,"Ġazana":12975,"hayimana":12976,"Ibiganiro":12977,"Ġbyiganjemo":12978,"Ġincuti":12979,"Ġhakozwe":12980,"Ġamako":12981,"hishwa":12982,"Ġbyibasiye":12983,"zamutseho":12984,"Yabaye":12985,"Ac":12986,"Ġafitiye":12987,"Ġwemerewe":12988,"menyera":12989,"ĠFashion":12990,"ks":12991,"Ġbigezweho":12992,"ĠAbu":12993,"fiki":12994,"umuhanga":12995,"kwavu":12996,"Ġabanyabyaha":12997,"Ġrwanjye":12998,"ĠClose":12999,"Ġmure":13000,"Igitaramo":13001,"ude":13002,"zz":13003,"Ġti":13004,"Ġwabona":13005,"Kayumba":13006,"ĠNami":13007,"51":13008,"mugire":13009,"Ġntangira":13010,"Ġharimwo":13011,"ĠVita":13012,"Ġguhisha":13013,"Ġifitiye":13014,"Ġabashoferi":13015,"Ġbeme":13016,"ĠAhmed":13017,"Con":13018,"Imp":13019,"Ġtanu":13020,"Ġyageneye":13021,"tory":13022,"Ġaracya":13023,"Ġhabaga":13024,"ĠUrwibutso":13025,"pol":13026,"ĠNiger":13027,"ĠAutho":13028,"ĠKayihura":13029,"Rwan":13030,"gr":13031,"Ġuhabwa":13032,"Ġbiganza":13033,"tiza":13034,"Ġwagombaga":13035,"Ġwabonaga":13036,"ĠAbako":13037,"Ġresitora":13038,"ĠRutayisire":13039,"Ġbitangwa":13040,"Ġkwibu":13041,"Ġukubi":13042,"sigarana":13043,"Ġwabaga":13044,"Ġyatunguwe":13045,"Lu":13046,"????":13047,"ubusambanyi":13048,"Ġiyoboye":13049,"Ġgufatirwa":13050,"Ġintore":13051,"imibare":13052,"amavuta":13053,"wuzuzanye":13054,"Ġ79":13055,"ĠJolly":13056,"Ġyamaganye":13057,"interahamwe":13058,"Ġwacyo":13059,"Ġumurindi":13060,"Ġntabi":13061,"ĠHami":13062,"icyaro":13063,"Ishimwe":13064,"Ġaherereye":13065,"Ġimigisha":13066,"Ġicuruzwa":13067,"Ġgucana":13068,"sambanya":13069,"Ġibyu":13070,"Ġubusambanyi":13071,"amashyamba":13072,"Ġakari":13073,"ĠGod":13074,"Uwari":13075,"ĠIsaac":13076,"Ġkigaragara":13077,"ĠRugamba":13078,"Mana":13079,"Ġkina":13080,"Ġbitamu":13081,"Ġabisobanura":13082,"suzuguro":13083,"Ġkuvugira":13084,"Ġbabyaranye":13085,"taza":13086,"Ġkiti":13087,"lor":13088,"Ġcaption":13089,"monize":13090,"Ã©nÃ©gal":13091,"Ġuburiganya":13092,"nwa":13093,"Ġbakorerwa":13094,"hayo":13095,"Ġbirangiye":13096,"ĠARI":13097,"Ġbyifashe":13098,"Ġabapadiri":13099,"Ġhabe":13100,"Ġbyatangaje":13101,"hanura":13102,"homba":13103,"Ġgupfobya":13104,"ĠPl":13105,"Bizimana":13106,"Ġzirindwi":13107,"rekurwa":13108,"Ġzitemewe":13109,"Ġimideri":13110,"Ġyarashwe":13111,"Ġmanini":13112,"vuguruwe":13113,"rutso":13114,"Ġkoherezwa":13115,"sango":13116,"amacakubiri":13117,"ĠCaritas":13118,"Ġahembwa":13119,"Cyangwa":13120,"Ġtundi":13121,"ibira":13122,"teganyije":13123,"Ġryigisha":13124,"ĠViews":13125,"Ako":13126,"Ġabaki":13127,"Ġatabasha":13128,"lote":13129,"yini":13130,"Ġategereje":13131,"Ġbubasha":13132,"Ġzihabwa":13133,"ĠMico":13134,"ĠBizimungu":13135,"Ġumwijima":13136,"ĠLondon":13137,"ĠâĢ¢":13138,"amatsinda":13139,"ĠMuganga":13140,"Ġ73":13141,"Mfite":13142,"vio":13143,"Ġkwambura":13144,"shishikarije":13145,"Ġnkiri":13146,"Ġbiya":13147,"ĠIvan":13148,"somwa":13149,"Ġyibutsa":13150,"ĠHealth":13151,"Ġkumwica":13152,"Ġaramubwira":13153,"tabaye":13154,"Ġamarenga":13155,"Ġzihariye":13156,"Ġtwita":13157,"Ġmukora":13158,"Ġkopi":13159,"cuke":13160,"Ġbwatangiye":13161,"ĠBest":13162,"ĠTaarifa":13163,"ource":13164,"kandagira":13165,"ĠEtienne":13166,"Ġnkan":13167,"Ġmuhe":13168,"Ġkigali":13169,"Ġbyafasha":13170,"igitaramo":13171,"ĠAfrique":13172,"Ġmpita":13173,"Ġmudu":13174,"Ġukana":13175,"Ġbasin":13176,"Ġabagaragu":13177,"kurambere":13178,"wanditse":13179,"ller":13180,"Naba":13181,"intego":13182,"Ġkarimo":13183,"ĠZA":13184,"guwa":13185,"abora":13186,"Ġmubikorwa":13187,"Ġkigizwe":13188,"Ġmisi":13189,"pital":13190,"ĠUmwanditsi":13191,"ishimwe":13192,"Ġor":13193,"Ġigwa":13194,"Ġkumena":13195,"imidugudu":13196,"ĠSenateri":13197,"ĠRwasa":13198,"Ġkuvugururwa":13199,"Ġmirire":13200,"ĠVirusi":13201,"ONUSCO":13202,"ĠRT":13203,"Ġice":13204,"igitugu":13205,"Ġrwanyu":13206,"Ġgusho":13207,"ĠPhilippe":13208,"Ngu":13209,"Ġbiran":13210,"ĠAra":13211,"Ġubwatsi":13212,"syi":13213,"Ġashyirwa":13214,"Ġgitera":13215,"izabukuru":13216,"Twebwe":13217,"EB":13218,"fiteho":13219,"Ġbuhari":13220,"Ġbyatu":13221,"Ġashatse":13222,"Ġkubwo":13223,"Ġgutsindira":13224,"Arongera":13225,"Ġibyiringiro":13226,"suka":13227,"humeka":13228,"ĠLive":13229,"ralirwa":13230,"COVID":13231,"dres":13232,"indangagaciro":13233,"Ġyakabaye":13234,"Ġbagashaka":13235,"Ġuturuka":13236,"Abongereza":13237,"ĠSouth":13238,"Ġmuyoboro":13239,"geme":13240,"Ġbijanye":13241,"Ġingirakamaro":13242,"Ġzaje":13243,"Ġkutumva":13244,"tezeho":13245,"Iby":13246,"RBC":13247,"Ġbasura":13248,"ĠShyo":13249,"Ġihora":13250,"ĠMukeshimana":13251,"Lo":13252,"gorora":13253,"Ġparuwasi":13254,"Ndashimira":13255,"Ġbariyeri":13256,"Umuraperi":13257,"ĠRuga":13258,"Ġbaramutse":13259,"Urugendo":13260,"Bishop":13261,"Ġadahari":13262,"Ġbyanyu":13263,"ĠBarack":13264,"rene":13265,"tanguye":13266,"Ġkwirwanaho":13267,"ĠFund":13268,"Ġnimwe":13269,"nguye":13270,"ĠUmutoni":13271,"Ġarashaka":13272,"Ġ86":13273,"ĠWera":13274,"Ġabanyapolitiki":13275,"ĠNderabuzima":13276,"Ġmagara":13277,"ssociation":13278,"ĠBigi":13279,"Ġukoze":13280,"imihigo":13281,"Ġahakana":13282,"hanuye":13283,"mbabazi":13284,"Ġikinami":13285,"SHU":13286,"ĠMourinho":13287,"Ġhafatwa":13288,"RDF":13289,"FERWAFA":13290,"Ġubyi":13291,"ĠRuju":13292,"horale":13293,"urs":13294,"Ġyitwaga":13295,"Rutahizamu":13296,"Ġ!!":13297,"Ġirwanya":13298,"ĠKali":13299,"ĠNdahiro":13300,"ĠDenis":13301,"Ġikinamico":13302,"zigera":13303,"Ġrutanga":13304,"Ġbabikoze":13305,"Ġitagira":13306,"ĠNyange":13307,"ALOC":13308,"Ġaf":13309,"ĠKC":13310,"ĠKuba":13311,"Nonese":13312,"ĠMunich":13313,"ibura":13314,"Ġnatangiye":13315,"ĠDevelopment":13316,"Ġkibe":13317,"Ġyanyuzemo":13318,"Ġuburaya":13319,"ĠThÃ©o":13320,"Ġnomero":13321,"Ġuwaba":13322,"Ġmoshi":13323,"Ġkuzigama":13324,"Ġyago":13325,"burana":13326,"Ġbabaha":13327,"ĠHoteli":13328,"Amwe":13329,"stani":13330,"ĠMDR":13331,"ĠEdu":13332,"ĠEtiyopiya":13333,"Ġbuzwi":13334,"Ġkwishakamo":13335,"Igisirikare":13336,"inkingo":13337,"Ġguma":13338,"Ġgutandukanya":13339,"shirizwa":13340,"ubushake":13341,"ĠFu":13342,"Ġrwitwa":13343,"ĠGahongayire":13344,"Ġngenderwaho":13345,"abagororwa":13346,"ĠCyanika":13347,"gereho":13348,"ĠYEGO":13349,"ĠRukara":13350,"juma":13351,"star":13352,"ule":13353,"Ġukwe":13354,"humure":13355,"ĠAlly":13356,"hantu":13357,"Ġkaka":13358,"Ġutubari":13359,"ihungabana":13360,"Ġikomeze":13361,"wawa":13362,"Ġububi":13363,"abaza":13364,"Ġigitambo":13365,"ĠMusoni":13366,"leb":13367,"Ġcomment":13368,"Ġutangira":13369,"ĠIbya":13370,"Ġrukwiye":13371,"ibiya":13372,"ĠCorona":13373,"Ġ89":13374,"tumira":13375,"Ġwajya":13376,"Ġrwuba":13377,"vanamo":13378,"iti":13379,"Ġgite":13380,"Ngoma":13381,"ngamo":13382,"shyushya":13383,"KORE":13384,"WS":13385,"kuyeho":13386,"Ġmwashakanye":13387,"ĠOlympi":13388,"Ġyunganira":13389,"Ġrigomba":13390,"imigabane":13391,"Ġbubatse":13392,"DP":13393,"HCR":13394,"ekend":13395,"Ġdisi":13396,"zinyayo":13397,"Ġsho":13398,"Ġbabyo":13399,"ĠBayern":13400,"Ġ:âĢĿ":13401,"ĠDiaspora":13402,"ĠRutabana":13403,"shigikiye":13404,"Ġubone":13405,"ĠAbanye":13406,"sabire":13407,"shimuta":13408,"ĠDASSO":13409,"abazi":13410,"ĠSinga":13411,"Ruhango":13412,"Ġmyiteguro":13413,"Ġninde":13414,"surutsa":13415,"ttenham":13416,"rem":13417,"ĠKT":13418,"ĠPhilbert":13419,"Ġibyakozwe":13420,"rangirira":13421,"Ġ87":13422,"tunguwe":13423,":âĢľ":13424,"Ġyam":13425,"Ġabatwara":13426,"fatwe":13427,"Ġserukiramuco":13428,"shyiriraho":13429,"Ġduha":13430,"Ġbanditse":13431,"ĠIntore":13432,"ĠClaire":13433,"Bruce":13434,"Aza":13435,"Ġbagaragara":13436,"Ġguterana":13437,"bes":13438,"Ġkimeze":13439,"Ġcyatanzwe":13440,"Inzira":13441,"injiriza":13442,"Ġikamu":13443,"amadorari":13444,"senyera":13445,"Ġitegura":13446,"Ġugaragaza":13447,"gement":13448,"toranyijwe":13449,"Ġibendera":13450,"Ġyambara":13451,"today":13452,"umupaka":13453,"ubwandu":13454,"abatavuga":13455,"ĠBrown":13456,"Ġugaragara":13457,"Ġigitangaza":13458,"Ġushinjwa":13459,"Ġbujyanye":13460,"tsinde":13461,"ibinyoma":13462,"wuzure":13463,"ĠNduhungirehe":13464,"Ġmuvuduko":13465,"Ġbongere":13466,"Ġbatashye":13467,"org":13468,"Matayo":13469,"Ġbihaye":13470,"Ġibitangazamakuru":13471,"umugabane":13472,"cukura":13473,"gurukira":13474,"Ġntibari":13475,"Ġiciriritse":13476,"Ġbiyongera":13477,"ĠBongo":13478,"Ġyibuka":13479,"yandikishije":13480,"wandikiye":13481,"Senateri":13482,"staurant":13483,"Ġutwaye":13484,"Ġharebwa":13485,"sumo":13486,"Ġririya":13487,"sezeranyije":13488,"2011":13489,"ĠMedia":13490,"ACP":13491,"sambo":13492,"Ġhakomeje":13493,"Ġniyi":13494,"Ġbyimazeyo":13495,"shikirije":13496,"Ġkubwi":13497,"ĠLeon":13498,"ĠIsezerano":13499,"ĠIntumwa":13500,"ĠCycling":13501,"Mbega":13502,"Ġmusa":13503,"Ġumutwaro":13504,"Ġinkwi":13505,"Ġyabayeho":13506,"Wari":13507,"ĠTheogene":13508,"Ġkuburanishwa":13509,"Ġkubabarira":13510,"Ġbyavuye":13511,"ĠTWA":13512,"Inyandiko":13513,"Ġbagatangira":13514,"ĠMiche":13515,"ĠAime":13516,"Ġkuka":13517,"Ġgucibwa":13518,"tangana":13519,"Ġumusatsi":13520,"Ġumukiriya":13521,"Ġbyahoze":13522,"Mugenzi":13523,"Ġtwagiranye":13524,"ĠPaki":13525,"tekamutwe":13526,"Ġ84":13527,"uters":13528,"Ġwafashe":13529,"Ġabaguzi":13530,"Ġibida":13531,"Ġyohereza":13532,"Ġbyerekeranye":13533,"Ġfirime":13534,"Kwizera":13535,"oze":13536,"ranganya":13537,"byarira":13538,"Imirimo":13539,"gwira":13540,"Ġnakwi":13541,"Ġakato":13542,"ĠFabi":13543,"Ġimijyi":13544,"Ġdusanzwe":13545,"Inkiko":13546,"Ġbyukuri":13547,"byutse":13548,"gwamo":13549,"ĠInspector":13550,"Ġbwiherero":13551,"ĠMohammed":13552,"ĠTeta":13553,"RCD":13554,"ĠImyi":13555,"Ġakagenda":13556,"Ġbabizi":13557,"Ġgatolika":13558,"Ġyakiniye":13559,"vuyo":13560,"ĠCÃ©":13561,"Karongi":13562,"ĠManira":13563,"Ġnubundi":13564,"Ġintu":13565,"ĠKimenyi":13566,"Ġarayi":13567,"sabwaga":13568,"shimangirwa":13569,"Rwamagana":13570,"dja":13571,"supu":13572,"ĠServi":13573,"ĠNÂº":13574,"Ġbyaro":13575,"ndura":13576,"ĠFeatured":13577,"Ġutangiye":13578,"Ġbagaruka":13579,"RAB":13580,"ronavirusi":13581,"Ġmabuye":13582,"Ġrishyira":13583,"Ġbafise":13584,"Ġbuhu":13585,"abashaka":13586,"cucu":13587,"Ġnina":13588,"girije":13589,"Ġmiterere":13590,"Ġagatanga":13591,"Turasaba":13592,"ĠDream":13593,"byose":13594,"tumiye":13595,"Ġikuzo":13596,"Ġrutunganya":13597,"Arc":13598,"AGRI":13599,"Jan":13600,"Ġj":13601,"Ġbyagezweho":13602,"Muse":13603,"Ġkurebwa":13604,"ĠOdinga":13605,"Ġbisigaye":13606,"twaraga":13607,"abatarengeje":13608,"nji":13609,"Ġbaheruka":13610,"ĠKani":13611,"Ġurusengero":13612,"fr":13613,"ubumuga":13614,"Ġbyihutirwa":13615,"ntry":13616,"Ġyibasiye":13617,"Ġshyirahamwe":13618,"Ġndan":13619,"gaya":13620,"inzibacyuho":13621,"Ġgusobanurira":13622,"Ġkubica":13623,"Ġpour":13624,"Ġbibwira":13625,"Ġbwaho":13626,"ĠWal":13627,"shikiriza":13628,"Ġguhimba":13629,"ISI":13630,"Ġterefone":13631,"Ġbifitiye":13632,"hore":13633,"Ġgusabana":13634,"ĠOu":13635,"Ġmugitondo":13636,"len":13637,"rien":13638,"Ġuhita":13639,"shushan":13640,"imÃ©":13641,"Ġduhura":13642,"umwanzi":13643,"Ikigega":13644,"gerejwe":13645,"Ġhabamo":13646,"ĠImma":13647,"donke":13648,"amenyo":13649,"Ġbugira":13650,"Ġrukomeje":13651,"ĠBusiness":13652,"Ġsen":13653,"imperuka":13654,"Ġtwibuka":13655,"rangwamo":13656,"Impunzi":13657,"Ġukunze":13658,"Kaminuza":13659,"ibyabaye":13660,"Ġas":13661,"amabanki":13662,"ĠUmudugudu":13663,"Ġ88":13664,"REN":13665,"hungira":13666,"toire":13667,"uburasirazuba":13668,"sezera":13669,"Ġreba":13670,"Ġisanga":13671,"Ġbarwana":13672,"Ġkwigana":13673,"shyirwe":13674,"ĠRaporo":13675,"ĠJudith":13676,"ĠHandball":13677,"gusaba":13678,"ĠCali":13679,"Byongeye":13680,"MP":13681,"Ġabasaza":13682,"ĠMuzika":13683,"mbiya":13684,"Amazi":13685,"babajwe":13686,"entre":13687,"Ġudashobora":13688,"Ġagifite":13689,"Ġbahera":13690,"tico":13691,"komereye":13692,"Ġiduka":13693,"Ġbagombye":13694,"Ġbishinzwe":13695,"Ġbitangaje":13696,"Ġinyongera":13697,"Ġcomments":13698,"ĠDominique":13699,"Ġamabere":13700,"Ġkwicisha":13701,"Ġtubonye":13702,"rerekana":13703,"Ġmitekerereze":13704,"Ġdukomeze":13705,"Ġ1980":13706,"Urebye":13707,"inyigisho":13708,"ĠJong":13709,"abangavu":13710,"anorama":13711,"Nara":13712,"Ġprezida":13713,"Ġintangarugero":13714,"RISTU":13715,"ĠEgide":13716,"remo":13717,"Ġabanduye":13718,"umwanditsi":13719,"197":13720,"Ġkwin":13721,"ĠTura":13722,"gufa":13723,"Ġyatangiriye":13724,"ĠMul":13725,"Ġakamenya":13726,"ĠMageragere":13727,"riwemo":13728,"Ġikoze":13729,"Ġnkwi":13730,"imbaga":13731,"Ġbatoza":13732,"Ġbisaga":13733,"Ġbuno":13734,"ĠSerena":13735,"ĠWilson":13736,"Ġbyuma":13737,"Ġmucye":13738,"Ġamakara":13739,"Mukura":13740,"Ġizakina":13741,"Ġumusemburo":13742,"manama":13743,"Ġbwagiye":13744,"sezeranye":13745,"ĠHarerimana":13746,"Ġkubyumva":13747,"SAN":13748,"Ġsaba":13749,"sigo":13750,"Ġharebwe":13751,"shishikarizwa":13752,"lingi":13753,"NDO":13754,"Ġlabora":13755,"IGI":13756,"vonne":13757,"ie":13758,"tifi":13759,"Ġabatangabuhamya":13760,"Ġyiganjemo":13761,"ĠLan":13762,"Ġkuvurwa":13763,"ĠAndrÃ©":13764,"bahirije":13765,"ĠAndrew":13766,"hitiramo":13767,"Prezida":13768,"regura":13769,"Ġwabanje":13770,"byemeye":13771,"Ġyanduye":13772,"Ġkizajya":13773,"Ġyakomeza":13774,"seruko":13775,"nyamwuga":13776,"Ġguhuriza":13777,"girwe":13778,"Ġbiryo":13779,"ĠAza":13780,"Ġrwabaye":13781,"ĠSocial":13782,"Ġyaburiye":13783,"zengurutse":13784,"Ġubwabyo":13785,"ĠIkinyamakuru":13786,"pimwe":13787,"ĠSebu":13788,"suzume":13789,"hoozi":13790,"ĠVanessa":13791,"Kanda":13792,"Ġimitsi":13793,"Ġiraba":13794,"canwa":13795,"Ġyashyikirijwe":13796,"Ġbihagaze":13797,"llon":13798,"Ġkandidatire":13799,"Ġshami":13800,"Ġyahereye":13801,"Ġguci":13802,"Abanyama":13803,"Nyamasheke":13804,"Ġagirwa":13805,"Ġumushyitsi":13806,"mbari":13807,"Ġimfubyi":13808,"igiciro":13809,"Ġyarakoze":13810,"Ġvye":13811,"sabiwe":13812,"ĠConfederation":13813,"rangajwe":13814,"Indwara":13815,"ĠBotswana":13816,"ĠYakobo":13817,"simbuza":13818,"pfunyika":13819,"Pastor":13820,"Byose":13821,"teranya":13822,"Ġbutanga":13823,"Ġkumufata":13824,"Photo":13825,"Ġsibyo":13826,"Ġmpanabyaha":13827,"shimuswe":13828,"Ġigerageza":13829,"ĠVan":13830,"ĠCharly":13831,"impinduka":13832,"hanganishije":13833,"Ġmufuka":13834,"inyanja":13835,"gorana":13836,"Ġvisi":13837,"Yunze":13838,"Ġbusiness":13839,"hanwe":13840,"Kugirango":13841,"Ġturacya":13842,"Kiyo":13843,"Ġyaro":13844,"Mugihe":13845,"Ġntiri":13846,"piganwa":13847,"Ġtwayi":13848,"Ġaraza":13849,"tumiwe":13850,"Ġrinini":13851,"ĠOff":13852,"ranirwa":13853,"Asaba":13854,"Ġbafungiwe":13855,"Ġzitandura":13856,"abajyanama":13857,"Ġdufata":13858,"fashaga":13859,"Ġutuntu":13860,"Ġiro":13861,"tembere":13862,"senda":13863,"ĠBDF":13864,"Ġirari":13865,"Ġituruka":13866,"EE":13867,"abashoramari":13868,"Ġbitabaye":13869,"vange":13870,"Imiyoborere":13871,"Ġmuraperi":13872,"Ġigenewe":13873,"Ġagenewe":13874,"gabanutse":13875,"taje":13876,"Ġtube":13877,"Ġyifatanyije":13878,"Ġgutahuka":13879,"Bin":13880,"ĠDro":13881,"mano":13882,"Ġbabaho":13883,"ĠIngingo":13884,"ĠAustin":13885,"ĠDamascÃ¨ne":13886,"Ã³":13887,"Ġmukundana":13888,"gerwa":13889,"ubwikorezi":13890,"fashanyigisho":13891,"muza":13892,"Ġbasangiye":13893,"Ġbisobanuro":13894,"Ġrwatangaje":13895,"haba":13896,"gence":13897,"Ġbwatanzwe":13898,"Ġbyimbitse":13899,"Ġhakabaho":13900,"iwacu":13901,"zingo":13902,"Ġishyira":13903,"Ġnagize":13904,"Ġzigaragara":13905,"ibishyimbo":13906,"Ġ74":13907,"Ġurugwiro":13908,"Ġmikoranire":13909,"Ġburuse":13910,"Ã«l":13911,"icyerekezo":13912,"Ana":13913,"Ġbatege":13914,"Ġ900":13915,"Ġyavugiye":13916,"jugunywe":13917,"Ġndangamurage":13918,"Ġndangagaciro":13919,"Ġbugenda":13920,"Yasobanuye":13921,"Ġbazitabira":13922,"Ġmugomba":13923,"Ġamarembo":13924,"yobore":13925,"ĠFan":13926,"inja":13927,"Ġwarwo":13928,"Ġumuhanuzi":13929,"Ġzikurikira":13930,"Nibwo":13931,"buragihe":13932,"Ġ71":13933,"Ġakongera":13934,"Ġdro":13935,"gos":13936,"byariye":13937,"Ġbagaragaye":13938,"Ġbuteye":13939,"Ġzivuye":13940,"shongo":13941,"Ġbahabwe":13942,"Ġubwawe":13943,
[...]
