{"<|endoftext|>":0,"<|pad|>":1,"<|unk|>":2,"!":3,"\"":4,"#":5,"$":6,"%":7,"&":8,"'":9,"(":10,")":11,"*":12,"+":13,",":14,"-":15,".":16,"/":17,"0":18,"1":19,"2":20,"3":21,"4":22,"5":23,"6":24,"7":25,"8":26,"9":27,":":28,";":29,"<":30,"=":31,">":32,"?":33,"@":34,"A":35,"B":36,"C":37,"D":38,"E":39,"F":40,"G":41,"H":42,"I":43,"J":44,"K":45,"L":46,"M":47,"N":48,"O":49,"P":50,"Q":51,"R":52,"S":53,"T":54,"U":55,"V":56,"W":57,"X":58,"Y":59,"Z":60,"[":61,"\\":62,"]":63,"^":64,"_":65,"`":66,"a":67,"b":68,"c":69,"d":70,"e":71,"f":72,"g":73,"h":74,"i":75,"j":76,"k":77,"l":78,"m":79,"n":80,"o":81,"p":82,"q":83,"r":84,"s":85,"t":86,"u":87,"v":88,"w":89,"x":90,"y":91,"z":92,"{":93,"|":94,"}":95,"~":96,"¡":97,"¢":98,"£":99,"¤":100,"¥":101,"¦":102,"§":103,"¨":104,"©":105,"ª":106,"«":107,"¬":108,"®":109,"¯":110,"°":111,"±":112,"²":113,"³":114,"´":115,"µ":116,"¶":117,"·":118,"¸":119,"¹":120,"º":121,"»":122,"¼":123,"½":124,"¾":125,"¿":126,"À":127,"Á":128,"Â":129,"Ã":130,"Ä":131,"Å":132,"Æ":133,"Ç":134,"È":135,"É":136,"Ê":137,"Ë":138,"Ì":139,"Í":140,"Î":141,"Ï":142,"Ð":143,"Ñ":144,"Ò":145,"Ó":146,"Ô":147,"Õ":148,"Ö":149,"×":150,"Ø":151,"Ù":152,"Ú":153,"Û":154,"Ü":155,"Ý":156,"Þ":157,"ß":158,"à":159,"á":160,"â":161,"ã":162,"ä":163,"å":164,"æ":165,"ç":166,"è":167,"é":168,"ê":169,"ë":170,"ì":171,"í":172,"î":173,"ï":174,"ð":175,"ñ":176,"ò":177,"ó":178,"ô":179,"õ":180,"ö":181,"÷":182,"ø":183,"ù":184,"ú":185,"û":186,"ü":187,"ý":188,"þ":189,"ÿ":190,"Ā":191,"ā":192,"Ă":193,"ă":194,"Ą":195,"ą":196,"Ć":197,"ć":198,"Ĉ":199,"ĉ":200,"Ċ":201,"ċ":202,"Č":203,"č":204,"Ď":205,"ď":206,"Đ":207,"đ":208,"Ē":209,"ē":210,"Ĕ":211,"ĕ":212,"Ė":213,"ė":214,"Ę":215,"ę":216,"Ě":217,"ě":218,"Ĝ":219,"ĝ":220,"Ğ":221,"ğ":222,"Ġ":223,"ġ":224,"Ģ":225,"ģ":226,"Ĥ":227,"ĥ":228,"Ħ":229,"ħ":230,"Ĩ":231,"ĩ":232,"Ī":233,"ī":234,"Ĭ":235,"ĭ":236,"Į":237,"į":238,"İ":239,"ı":240,"Ĳ":241,"ĳ":242,"Ĵ":243,"ĵ":244,"Ķ":245,"ķ":246,"ĸ":247,"Ĺ":248,"ĺ":249,"Ļ":250,"ļ":251,"Ľ":252,"ľ":253,"Ŀ":254,"ŀ":255,"Ł":256,"ł":257,"Ń":258,"an":259,"Ġb":260,"ri":261,"Ġk":262,"mu":263,"ya":264,"âĢ":265,"Ġn":266,"Ġi":267,"ra":268,"âĢĻ":269,"ga":270,"wa":271,"Ġa":272,"Ġmu":273,"ba":274,"Ġu":275,"Ġku":276,"re":277,"sh":278,"ma":279,"ye":280,"gi":281,"ko":282,"ka":283,"in":284,"gu":285,"za":286,"we":287,"Ġba":288,"yo":289,"ru":290,"Ġya":291,"ge":292,"and":293,"te":294,"zi":295,"bi":296,"yi":297,"ha":298,"bu":299,"ta":300,"Ġbi":301,"ze":302,"bo":303,"go":304,"ki":305,"tu":306,"ro":307,"ho":308,"anda":309,"ĠR":310,"se":311,"Ġc":312,"mi":313,"Ġgu":314,"si":315,"Ġko":316,"me":317,"Ġy":318,"wi":319,"ku":320,"hu":321,"ti":322,"ban":323,"wanda":324,"vu":325,"Ġwa":326,"Ġna":327,"wo":328,"be":329,"Ġr":330,"yu":331,"nd":332,"he":333,"mo":334,"anga":335,"ĠM":336,"ana":337,"ĠRwanda":338,"li":339,"Ġha":340,"Ġm":341,"ĠK":342,"sa":343,"Ġbu":344,"je":345,"Ġmuri":346,"rwa":347,"Ġin":348,"sha":349,"Ġ2":350,"Ġgi":351,"ĠA":352,"yan":353,"Ġari":354,"ke":355,"fa":356,"Ġumu":357,"ĠB":358,"Ġubu":359,"shi":360,"zo":361,"Ġ1":362,"Ġibi":363,"ran":364,"ĠI":365,"mwe":366,"tse":367,"Ġama":368,"Ġw":369,"Ġaba":370,"hugu":371,"Ġ20":372,"andi":373,"Ġni":374,"ĠN":375,"bere":376,"mba":377,"de":378,"kin":379,"na":380,"Ġcya":381,"tan":382,"Ġru":383,"Ġki":384,"Ġzi":385,"Ġbya":386,"fu":387,"fi":388,"ĠC":389,"ĠU":390,"da":391,"gira":392,"so":393,"to":394,"zwe":395,"ĠâĢ":396,"bwo":397,"gan":398,"ama":399,"hi":400,"Ġkuri":401,"nge":402,"\"\"":403,"ubu":404,"aba":405,"di":406,"ĠG":407,"Ġim":408,"Ġza":409,"shin":410,"en":411,"ĠS":412,"Ġigi":413,"raga":414,"Ġmi":415,"rika":416,"sho":417,"Ġyo":418,"Ġby":419,"han":420,"kan":421,"twa":422,"ĠP":423,"Ġno":424,"vuga":425,"Mu":426,"giye":427,"ne":428,"ĠF":429,"Ġma":430,"kore":431,"ĠâĢľ":432,"Ġngo":433,"kome":434,"ĠKa":435,"fite":436,"rimo":437,"Ġcyan":438,"ngu":439,"nga":440,"su":441,"ĠMu":442,"du":443,"gwa":444,"riki":445,"nda":446,"zu":447,"shyi":448,"Ġkwi":449,"ci":450,"cu":451,"Ġib":452,"kuru":453,"ryo":454,"bwa":455,"yuma":456,"ni":457,"cyo":458,"vi":459,"Ġaban":460,"Ġ201":461,"ibi":462,"Ġbw":463,"san":464,"Ġz":465,"tanga":466,"umu":467,"ndo":468,"ĠBu":469,"hanga":470,"Ġcy":471,"Ġgihe":472,"Ġimi":473,"Ġbwa":474,"Umu":475,"korwa":476,"Ġkuba":477,"ini":478,"yaka":479,"Ġka":480,"tege":481,"jya":482,"le":483,"Ġnta":484,"Ġiki":485,"mbi":486,"ts":487,"ĠMa":488,"Ġariko":489,"zwa":490,"yobo":491,"Aba":492,"mwa":493,"Ġ(":494,"indi":495,"ĠL":496,"ngo":497,"Ġaho":498,"Ġyi":499,"Ġtu":500,"vuze":501,"ĠKi":502,"pa":503,"Ġri":504,"Ġga":505,"jwe":506,"Ġkandi":507,"shobo":508,"ciro":509,"garaga":510,"Ġrwa":511,"ganda":512,"po":513,"tsi":514,"rere":515,"Ġmbere":516,"im":517,"pi":518,"ce":519,"Ġry":520,"ĠCo":521,"Ġnyuma":522,"bwi":523,"ndi":524,"Ġ-":525,"va":526,"Ġmili":527,"Ġnk":528,"Ġkuko":529,"banya":530,"rw":531,"Ġaka":532,"gendo":533,"rwanda":534,"gera":535,"Ġcyane":536,"Ġbyo":537,"ĠT":538,"Ġyari":539,"Ġ19":540,"kora":541,"Ġrya":542,"00":543,"Ku":544,"nya":545,"Ġnde":546,"yango":547,"anya":548,"ĠJ":549,"ib":550,"mbo":551,"pe":552,"la":553,"ĠH":554,"Ġuru":555,"Ġhari":556,"gihugu":557,"Ubu":558,"ere":559,"ryango":560,"Ġndetse":561,"maze":562,"bera":563,"kanye":564,"Ġwe":565,"riye":566,"kino":567,"Ġabantu":568,"rage":569,"rezo":570,"Ġbari":571,"nye":572,"ĠRu":573,"Ġkugira":574,"shaka":575,"furika":576,"Ġburyo":577,"hin":578,"uko":579,"ranga":580,"ve":581,"rugendo":582,"mana":583,"Ġwo":584,"kera":585,"ira":586,"andu":587,"inisi":588,"Ġuko":589,"shu":590,"bye":591,"Ya":592,"nyi":593,"Ġubwo":594,"ina":595,"ĠUganda":596,"do":597,"Ġicyo":598,"biri":599,"kwi":600,"shya":601,"kira":602,"Ġmwa":603,"Ġ202":604,"zamu":605,"zida":606,"baye":607,"\"\"\"\"":608,"yobozi":609,"kerarugendo":610,"Ġ\"\"\"\"":611,"Ġuyu":612,"Ġrw":613,"shobora":614,"imi":615,"Ġyavuze":616,"erezida":617,"nze":618,"ĠD":619,"ruka":620,"tiri":621,"Ġgihugu":622,"Ġbwo":623,"bona":624,"Ġkwa":625,"komeye":626,"Ġhaga":627,"ĠAfurika":628,"gana":629,"rwe":630,"tandu":631,"geza":632,"Ġmwaka":633,"rana":634,"ĠE":635,"Ġbo":636,"fasha":637,"Ġic":638,"Ġbaka":639,"faranga":640,"ic":641,"yari":642,"yoni":643,"tera":644,"teke":645,"ntu":646,"riza":647,"gura":648,"Ġcyangwa":649,"ĠâĢĺ":650,"tegeko":651,"haga":652,"Ati":653,"tabo":654,"Ni":655,"gize":656,"teka":657,"tariki":658,"ĠIn":659,"shyira":660,"Ġ2020":661,"bandi":662,"ca":663,"Ġ3":664,"Ġzo":665,"ngera":666,"Ġmiliyoni":667,"tandukanye":668,"pu":669,"Ġye":670,"turage":671,"inisitiri":672,"In":673,"reza":674,"ĠGa":675,"Ġhagati":676,"Ġtariki":677,"gabo":678,"Ġaga":679,"she":680,"kana":681,"mbu":682,"rus":683,"ĠPerezida":684,"Ama":685,"eza":686,"Ġati":687,"Ġibyo":688,"ĠLe":689,"fo":690,"Ġbyi":691,"inshi":692,"rona":693,"ĠFrw":694,"virus":695,"ronavirus":696,"ĠY":697,"enshi":698,"bwe":699,"Ã©":700,"bazo":701,"gani":702,"rasi":703,"geze":704,"garagaza":705,"no":706,"nzi":707,"twe":708,"Ġho":709,"Ġban":710,"kuriki":711,"ĠNya":712,"Ġimbere":713,"Ġ2019":714,"lo":715,"zan":716,"tara":717,"banyi":718,"Ġrwo":719,"sanzwe":720,"Ġ5":721,"mwami":722,"mbe":723,"Ġiza":724,"Ġgusa":725,"kinnyi":726,"shinzwe":727,"mw":728,"ĠW":729,"rira":730,"Ġiyi":731,"zama":732,"tatu":733,"merika":734,"ĠCoronavirus":735,"el":736,"ji":737,"ĠPa":738,"igihugu":739,"mbere":740,"Ġinga":741,"Ġt":742,"vuye":743,"Ġwari":744,"subi":745,"Ġiyo":746,"shinga":747,"Iki":748,"sin":749,"Ġbenshi":750,"Ġnka":751,"baga":752,"banu":753,"mye":754,"Ġneza":755,"Ġkubera":756,"kungu":757,"shize":758,"ĠGi":759,"co":760,"yama":761,"komo":762,"kaba":763,"Ġigihugu":764,"banyarwanda":765,"jyan":766,"ĠUmu":767,"nsi":768,"ubwo":769,"gali":770,"ruro":771,"Ġburi":772,"komeje":773,"curu":774,"Ġ4":775,"guru":776,"tel":777,"gore":778,"saruro":779,"ĠAba":780,"Ġibikorwa":781,"Ibi":782,"Ġiri":783,"Ġkugeza":784,"ĠAmerika":785,"zuba":786,"on":787,"Ġaza":788,"ibindi":789,"byo":790,"Ġdu":791,"Ġnti":792,"game":793,"gomba":794,"Ġcyo":795,"Ha":796,"sanga":797,"reye":798,"mari":799,"buga":800,"ranye":801,"Muri":802,"ĠKigali":803,"veri":804,"zina":805,"Ġbaga":806,"Ġamafaranga":807,"tangiye":808,"Ġmiliyari":809,"jyanye":810,"ju":811,"kwa":812,"menye":813,"nde":814,"ĠBa":815,"byi":816,"Ġaha":817,"Ġavuga":818,"tero":819,"zima":820,"noma":821,"verinoma":822,"rutse":823,"Ġ10":824,"Ġimyaka":825,"ĠKagame":826,"pite":827,"ĠLeta":828,"aban":829,"er":830,"man":831,"Ġwi":832,"tegan":833,"zira":834,"fatan":835,"Ġse":836,"Ġumw":837,"Ġkure":838,"teli":839,"kiri":840,"tima":841,"saga":842,"tangira":843,"Ġigihe":844,"jye":845,"Ġbara":846,"tewe":847,"ĠRe":848,"iki":849,"shwa":850,"gero":851,"Ġinama":852,"Ġuburyo":853,"puzama":854,"bya":855,"igi":856,"tin":857,"Ġ7":858,"Ġata":859,"Ġumwe":860,"bura":861,"seze":862,"por":863,"puzamahanga":864,"uverinoma":865,"Ġ8":866,"Ġhan":867,"Ġkw":868,"gami":869,"Ġuku":870,"bone":871,"yura":872,"fashi":873,"Ġ200":874,"paka":875,"ou":876,"Ġtwa":877,"ani":878,"yije":879,"ĠMi":880,"Ġumusaruro":881,"sura":882,"tsin":883,"ngi":884,"Ġ$":885,"ĠV":886,"shan":887,"Ġbafite":888,"ter":889,"hawe":890,"taka":891,"Ġbikorwa":892,"koresha":893,"komeza":894,"ports":895,"ĠZ":896,"yeme":897,"korana":898,"Ġbihe":899,"hunda":900,"Ġrwe":901,"yuba":902,"anama":903,"rano":904,"depite":905,"Ġ6":906,"Ġkuza":907,"Ġcyi":908,"herere":909,"Ġharimo":910,"mbara":911,"kina":912,"tswe":913,"Igihugu":914,"abandi":915,"ja":916,"osi":917,"Ġbaba":918,"gere":919,"teko":920,"hura":921,"zweho":922,"tangaje":923,"Ġakaba":924,"Ġhi":925,"Ġkwe":926,"Ġkubi":927,"Ġbihugu":928,"siga":929,"kene":930,"ĠSports":931,"eru":932,"rya":933,"wu":934,"yin":935,"ĠO":936,"yarwanda":937,"Ġuwo":938,"Ġkuva":939,"intu":940,"habwa":941,"Ġumuntu":942,"Ġabaturage":943,"gamba":944,"Ġmunsi":945,"bare":946,"shyaka":947,"koze":948,"insi":949,"genda":950,"tare":951,"liya":952,"Ġyose":953,"garagara":954,"ĠCongo":955,"tekerezo":956,"il":957,"uru":958,"Ġbe":959,"hari":960,"Ġbiza":961,"kura":962,"saba":963,"terambere":964,"rasira":965,"sezerano":966,"jyi":967,"kanga":968,"pfu":969,"tumwa":970,"Ġgukora":971,"ĠAma":972,"Ġ15":973,"Ġbyinshi":974,"korera":975,"Ġkabiri":976,"Ġgahunda":977,"abantu":978,"rasirazuba":979,"cya":980,"ven":981,"Ġre":982,"Ġnko":983,"Ġbavuga":984,"tegu":985,"tego":986,"tekan":987,"har":988,"hare":989,"Ġgutanga":990,"shije":991,"sobanu":992,"ĠGuverinoma":993,"hango":994,"tegetsi":995,"mwaka":996,"Ġ199":997,"hindu":998,"tekano":999,"Ba":1000,"Ġika":1001,"yonge":1002,"tuma":1003,"ĠKanama":1004,"fungu":1005,"soko":1006,"gano":1007,"enosi":1008,"erurwe":1009,"enoside":1010,"rizwa":1011,"gari":1012,"Ġahu":1013,"Ġahan":1014,"gen":1015,"hoze":1016,"Ġgute":1017,"yungu":1018,"faran":1019,"ĠIsi":1020,"tanu":1021,"tangi":1022,"ĠUbu":1023,"Ġntabwo":1024,"ĠJenoside":1025,"ĠHa":1026,"ĠHo":1027,"Ġrwego":1028,"faransa":1029,"Uru":1030,"Ġe":1031,"ĠRD":1032,"ĠMinisitiri":1033,"Ġmyaka":1034,"Ġmpuzamahanga":1035,"fata":1036,"Ġ18":1037,"rane":1038,"Ġkimwe":1039,"fuza":1040,"tora":1041,"pam":1042,"Ġbyose":1043,"Ġuruhare":1044,"Ġ\"\"\"\".":1045,"Bi":1046,"Imi":1047,"Ġifite":1048,"gaban":1049,"Ġbata":1050,"yijwe":1051,"buhanga":1052,"Ġubukungu":1053,"nal":1054,"ĠKarere":1055,"Ġimikino":1056,"poro":1057,"komoka":1058,"Abanyarwanda":1059,"PR":1060,"ch":1061,"es":1062,"gwi":1063,"mva":1064,"rivi":1065,"Ġafite":1066,"shyura":1067,"kazi":1068,"inji":1069,"guzan":1070,"mere":1071,"cumbi":1072,"ĠBufaransa":1073,"zamutse":1074,"ĠYu":1075,"ĠNyakanga":1076,"Hari":1077,"guzanyo":1078,"ngan":1079,"sta":1080,"riro":1081,"kipe":1082,"mena":1083,"bano":1084,"vugwa":1085,"Ġ100":1086,"mweru":1087,"shyize":1088,"Ġ2018":1089,"bwiriza":1090,"%.":1091,"Minisitiri":1092,"ly":1093,"mbwe":1094,"pan":1095,"rwo":1096,"Ġkuru":1097,"renga":1098,"Ġyabo":1099,"Ġbiri":1100,"Ġbirimo":1101,"yumba":1102,"hera":1103,"liti":1104,"Ġmw":1105,"Ġ12":1106,"soho":1107,"ibihugu":1108,"Umuyobozi":1109,"imyaka":1110,"hagara":1111,"ĠWerurwe":1112,"shanwa":1113,"pamvu":1114,"rivisi":1115,"),":1116,"gambi":1117,"Ġabandi":1118,"kombe":1119,"ham":1120,"horo":1121,"Ġhafi":1122,"sade":1123,"rwaga":1124,"shimi":1125,"Ġabakinnyi":1126,"mbasade":1127,"ĠCyi":1128,"Ġibya":1129,"bwiye":1130,"kwira":1131,"%,":1132,"Ġhe":1133,"Ġikin":1134,"Ġuta":1135,"zaga":1136,"Ġbitandukanye":1137,"kiye":1138,"ĠRa":1139,"Ġgushyira":1140,"kunga":1141,"kunda":1142,"Ġnaho":1143,"sabye":1144,"Ġibihugu":1145,"ranya":1146,"Ġkigero":1147,"hita":1148,"shingiye":1149,"ĠSa":1150,"kwiye":1151,"rwego":1152,"ganiro":1153,"Ġahubwo":1154,"ĠYuhi":1155,"Gu":1156,"Iyi":1157,"Nyuma":1158,"mwi":1159,"or":1160,"tso":1161,"zindi":1162,"Ġme":1163,"Ġindi":1164,"yongera":1165,"rushanwa":1166,"Ġbiba":1167,"Ġbitewe":1168,"kiliya":1169,"shingi":1170,"ĠKamena":1171,"ĠMata":1172,"shuri":1173,"curuzi":1174,"koranabuhanga":1175,"ĠHotel":1176,"litiki":1177,"Igi":1178,"icyo":1179,"mvi":1180,"tyo":1181,"yinshi":1182,"zwi":1183,"Ġizina":1184,"Ġkuvu":1185,"Ġkubona":1186,"renge":1187,"inga":1188,"Ġbaza":1189,"Ġbamwe":1190,"Ġbarimo":1191,"andt":1192,"ĠRwa":1193,"Ġcye":1194,"Ġ25":1195,"ĠSe":1196,"shora":1197,"ĠFa":1198,"Ġserivisi":1199,"GI":1200,"uba":1201,"Ġbwi":1202,"Ġnubwo":1203,"Ġiba":1204,"shwe":1205,"ginya":1206,"kobwa":1207,"kondo":1208,"yon":1209,"gega":1210,"tumye":1211,"kunze":1212,"ĠKandt":1213,"fashe":1214,"Ġibiri":1215,"Ġibiciro":1216,"Ġigitabo":1217,"Ġgatatu":1218,"ĠJe":1219,"Ġkwakira":1220,"Ġhoteli":1221,"yongereye":1222,"mpaka":1223,"Ġ[":1224,"Ġle":1225,"ritse":1226,"rimbo":1227,"Ġkujya":1228,"reke":1229,"teri":1230,"seven":1231,"humbi":1232,"tion":1233,"bana":1234,"yumweru":1235,"Ġgitabo":1236,"ĠBi":1237,"ĠImana":1238,"twara":1239,"ĠFC":1240,"Ġmateka":1241,"Ġagaciro":1242,"banyiginya":1243,"Ikigo":1244,"gamije":1245,"seveni":1246,"ul":1247,"Ġ9":1248,"Ġimwe":1249,"rayi":1250,"âĢĻ,":1251,"garu":1252,"zaba":1253,"runga":1254,"zimpaka":1255,"Ġguha":1256,"sirika":1257,"Ġhamwe":1258,"shatsi":1259,"ranyije":1260,"kini":1261,"bwira":1262,"shuro":1263,"Ġicya":1264,"Ġhanze":1265,"herereye":1266,"sirikare":1267,"HE":1268,"jira":1269,"mbwa":1270,"nshi":1271,"pfo":1272,"subu":1273,"Ġsi":1274,"Ġbabi":1275,"goma":1276,"tuye":1277,"lima":1278,"lika":1279,"Ġibibazo":1280,"Ġamasezerano":1281,"Ġbyari":1282,"ĠLi":1283,"politiki":1284,"shakashatsi":1285,"Ġbose":1286,"fatanye":1287,"gabane":1288,"Ġmwanya":1289,"ĠCyilima":1290,"GIHE":1291,"Ġleta":1292,"ID":1293,"Icyo":1294,"Uyu":1295,"ir":1296,"tanda":1297,"ywe":1298,"ane":1299,"Ġisoko":1300,"ram":1301,"Ġabi":1302,"Ġuwa":1303,"Ġkugera":1304,"Ġbagiye":1305,"Ġyara":1306,"Ġyabaye":1307,"genzi":1308,"ande":1309,"Ġbijyanye":1310,"Ġgufasha":1311,"kurwa":1312,"hunga":1313,"Ġinguzanyo":1314,"Ġ16":1315,"Ġniba":1316,"sozi":1317,"amahanga":1318,"abaturage":1319,"hanzi":1320,"ĠMazimpaka":1321,"lari":1322,"Nta":1323,"OV":1324,"ar":1325,"Ġkumu":1326,"gire":1327,"yovu":1328,"Ġyagiye":1329,"bira":1330,"tambara":1331,"tura":1332,"Ġgusura":1333,"menya":1334,"Ġnama":1335,"hereza":1336,"andika":1337,"fun":1338,"ubukerarugendo":1339,"kani":1340,"ĠMuseveni":1341,"Ġibintu":1342,"Ġabana":1343,"Ġ2017":1344,"yobora":1345,"shobozi":1346,"ibyo":1347,"dolari":1348,"Ġicyorezo":1349,"teganyijwe":1350,"ĠAmategeko":1351,"OVID":1352,"Abanyiginya":1353,"Im":1354,"Umwami":1355,"aho":1356,"danga":1357,"it":1358,"ss":1359,"Ġ/":1360,"Ġyahawe":1361,"yira":1362,"bugi":1363,"Ġbiga":1364,"Ġbita":1365,"ĠRo":1366,"heruka":1367,"herutse":1368,"moka":1369,"ĠAbanyarwanda":1370,"Ġ13":1371,"ganira":1372,"ĠMutara":1373,"pira":1374,"Yavuze":1375,"kurikira":1376,"ĠPaul":1377,"ĠUbumwe":1378,"ĠJean":1379,"tandatu":1380,"handi":1381,"Ġfi":1382,"Ġpa":1383,"riwe":1384,"Ġimaze":1385,"kolo":1386,"injira":1387,"gena":1388,"kubi":1389,"huza":1390,"yuze":1391,"here":1392,"Ġbuzima":1393,"fati":1394,"Ġumutima":1395,"ĠIshinga":1396,"ĠIGIHE":1397,"Ġamateka":1398,"Ġrusan":1399,"ĠCOVID":1400,"korerwa":1401,"les":1402,"Ġgakondo":1403,"inisiteri":1404,"zamuka":1405,"foto":1406,"Ġingaruka":1407,"tsinda":1408,"ĠRDC":1409,"Aban":1410,"ire":1411,"wana":1412,"Ġte":1413,"ano":1414,"Ġbin":1415,"rinda":1416,"mungu":1417,"Ġuza":1418,"ingi":1419,"Ġyakore":1420,"Ġyagize":1421,"haye":1422,"hariye":1423,"taba":1424,"bonye":1425,"goro":1426,"hora":1427,"hoteli":1428,"mera":1429,"Ġmyi":1430,"kemu":1431,"bereho":1432,"Ġrumwe":1433,"ngereza":1434,"Ġabanyarwanda":1435,"Ġicyi":1436,"icanda":1437,"Ġingagi":1438,"Ġtwi":1439,"shoramari":1440,"bugili":1441,"Isi":1442,"Nk":1443,"fe":1444,"jo":1445,"kwe":1446,"ng":1447,"pubu":1448,"swe":1449,"ura":1450,"unze":1451,"ywa":1452,"Ġde":1453,"âĢľ":1454,"Ġnyinshi":1455,"Ġiya":1456,"Ġivuga":1457,"Ġishize":1458,"gabanya":1459,"Ġaya":1460,"kozi":1461,"Ġyatangaje":1462,"bumbe":1463,"Ġbimwe":1464,"meza":1465,"wiza":1466,"Ġhaba":1467,"sabwa":1468,"Ġinkunga":1469,"Ġnibwo":1470,"ĠNi":1471,"ĠUmwami":1472,"soro":1473,"Ġimyi":1474,"Ġngoma":1475,"ngabo":1476,"ĠBurayi":1477,"Ġimirimo":1478,"imiryango":1479,"ĠDr":1480,"Ġbantu":1481,"ĠRepubu":1482,"yubako":1483,"sigaye":1484,"Ġahantu":1485,"Ġfili":1486,"Ġrusange":1487,"ĠRepubulika":1488,"Bu":1489,"Ka":1490,"Nubwo":1491,"abanya":1492,"ck":1493,"is":1494,"pfa":1495,"uro":1496,"wan":1497,"Ġze":1498,"âĢĻ.":1499,"Ġufite":1500,"yona":1501,"gende":1502,"teye":1503,"bili":1504,"Ġbityo":1505,"ĠRic":1506,"banga":1507,"Ġryo":1508,"ranira":1509,"ĠIngo":1510,"Ġcyari":1511,"tanye":1512,"tanze":1513,"Ġkibuga":1514,"son":1515,"toza":1516,"hise":1517,"ngere":1518,"Ġzari":1519,"koreshwa":1520,"Ġibindi":1521,"shoboka":1522,"piyona":1523,"nyama":1524,"ĠDe":1525,"gombaga":1526,"ĠVi":1527,"ĠZunze":1528,"Ġkuzahura":1529,"jambo":1530,"mbasaderi":1531,"koloni":1532,"RD":1533,"iya":1534,"ikoranabuhanga":1535,"lin":1536,"rt":1537,"Ġand":1538,"anki":1539,"yamu":1540,"Ġizi":1541,"gaciro":1542,"Ġayo":1543,"Ġubwi":1544,"Ġusanga":1545,"Ġkugura":1546,"rekana":1547,"girwa":1548,"Ġbamaze":1549,"Ġbashaka":1550,"rundi":1551,"gene":1552,"Ġbida":1553,"boza":1554,"turutse":1555,"mezi":1556,"kuboza":1557,"banza":1558,"banje":1559,"Ġnayo":1560,"Ġbutaka":1561,"Ġinzu":1562,"Ġinyuma":1563,"ĠNa":1564,"ĠNda":1565,"bereye":1566,"Ġzirimo":1567,"Ġzitandukanye":1568,"ĠUru":1569,"ĠUkuboza":1570,"amateka":1571,"ĠGicanda":1572,"ĠSi":1573,"curasi":1574,"Ġ2016":1575,"ĠKige":1576,"Ġrimwe":1577,"rwanya":1578,"hinzi":1579,"Ġzose":1580,"Ġbanki":1581,"ĠGicurasi":1582,"Ġumwanya":1583,"boneka":1584,"keneye":1585,"hard":1586,"Ġtele":1587,").":1588,"Perezida":1589,"Ra":1590,"hana":1591,"qu":1592,"Ġo":1593,"Ġabo":1594,"Ġagiye":1595,"Ġmuryango":1596,"Ġmukerarugendo":1597,"Ġmuntu":1598,"Ġubwa":1599,"Ġushinzwe":1600,"Ġushize":1601,"retse":1602,"shanya":1603,"mama":1604,"gizi":1605,"gizwe":1606,"gingo":1607,"Ġbashobora":1608,"Ġyabwiye":1609,"tebe":1610,"ziza":1611,"zere":1612,"kire":1613,"tutsi":1614,"Ġguhan":1615,"Ġgukoresha":1616,"siyo":1617,"ndwa":1618,"Ġmwiza":1619,"Ġubukerarugendo":1620,"Ġ11":1621,"Ġabagore":1622,"Ġbyaba":1623,"Ġkwishyura":1624,"Ġikibazo":1625,"ĠKiyovu":1626,"hinde":1627,"imikino":1628,"Ġ50":1629,"Ġingamba":1630,"Ġkureba":1631,"hariko":1632,"Ġguteza":1633,"gwiro":1634,"Ġkurusha":1635,"ĠRwabugili":1636,"dangamu":1637,"biligi":1638,"ĠRichard":1639,"ĠKigeli":1640,"imari":1641,"izindi":1642,"nani":1643,"onal":1644,"Ġdo":1645,"Ġpolitiki":1646,"Ġkin":1647,"yaga":1648,"Ġnshya":1649,"Ġmukino":1650,"Ġuba":1651,"Ġumwaka":1652,"shyin":1653,"kozwe":1654,"inka":1655,"indu":1656,"guri":1657,"zajya":1658,"Ġbacu":1659,"Ġbakora":1660,"Ġbakomoka":1661,"rura":1662,"ruguru":1663,"Ġyaje":1664,"genga":1665,"zirane":1666,"kima":1667,"Ġgukomeza":1668,"sifu":1669,"Ġwabo":1670,"Ġrwi":1671,"ĠMinisiteri":1672,"Ġminsi":1673,"Ġ24":1674,"Ġibice":1675,"Ġibihumbi":1676,"ĠIran":1677,"Ġamakuru":1678,"Ġabakiliya":1679,"tangwa":1680,"Ġrugo":1681,"Ġkipe":1682,"soma":1683,"tozo":1684,"shyigi":1685,"Ġkubaka":1686,"Ġbyombi":1687,"ĠRuju":1688,"shyamba":1689,"Ġ30":1690,"curuzwa":1691,"Ġrero":1692,"merewe":1693,"hagarariye":1694,"mwihariko":1695,"ziranenge":1696,"sifuzi":1697,"ĠRujugira":1698,"Iyo":1699,"Ibu":1700,"Ingo":1701,"al":1702,"ia":1703,"mp":1704,"od":1705,"ota":1706,"tter":1707,"anzi":1708,"rim":1709,"Ġndi":1710,"Ġimba":1711,"Ġiherereye":1712,"gambo":1713,"Ġazi":1714,"Ġumwami":1715,"Ġugere":1716,"kara":1717,"Ġbayi":1718,"Ġbaha":1719,"Ġbada":1720,"Ġbagera":1721,"ziga":1722,"ziki":1723,"Ġbikaba":1724,"misiyo":1725,"Ġgushaka":1726,"Ġyandi":1727,"Ġmbumbe":1728,"yanya":1729,"fashwe":1730,"Ġumukino":1731,"Ġumutekano":1732,"Ġ17":1733,"ranyi":1734,"Ġamaze":1735,"Ġnibura":1736,"ĠNe":1737,"mbaga":1738,"tanzwe":1739,"fitanye":1740,"dage":1741,"tore":1742,"amategeko":1743,"amadolari":1744,"Ġimpu":1745,"Ġzabo":1746,"shyirwa":1747,"sanze":1748,"ĠBuhinde":1749,"Ġikipe":1750,"ĠMar":1751,"Ġyitwa":1752,"000":1753,"ĠJu":1754,"shuti":1755,"Yagize":1756,"hagaze":1757,"Ġrwose":1758,"sinyi":1759,"fungura":1760,"icyorezo":1761,"Ġpariki":1762,"ingita":1763,"Ġfilime":1764,"ĠUrugwiro":1765,"Ġtelefo":1766,"Ġguhangana":1767,"FA":1768,"Tu":1769,"agu":1770,"uyu":1771,"ubwi":1772,"umwaka":1773,"yandi":1774,"anzan":1775,"Ġbwe":1776,"Ġbanya":1777,"Ġnziza":1778,"Ġirimo":1779,"Ġiterambere":1780,"gabanu":1781,"Ġara":1782,"Ġuri":1783,"Ġkuha":1784,"reje":1785,"rengan":1786,"yeho":1787,"ing":1788,"gufu":1789,"Ġbake":1790,"Ġbabiri":1791,"Ġyaba":1792,"Ġyashyi":1793,"tezwe":1794,"Ġbira":1795,"Ġbifite":1796,"kirwa":1797,"tungo":1798,"rongo":1799,"sese":1800,"Ġcyumweru":1801,"Ġgutera":1802,"tional":1803,"wongereza":1804,"Ġmpamvu":1805,"ĠKwi":1806,"Ġ26":1807,"ĠAl":1808,"fatwa":1809,"Ġumubano":1810,"ĠBwongereza":1811,"Ġ14":1812,"Ġibigo":1813,"Ġibitekerezo":1814,"ĠII":1815,"Ġamabwiriza":1816,"ĠNteko":1817,"tanyi":1818,"Ġruh":1819,"Ġkiza":1820,"uburyo":1821,"ĠGo":1822,"Ġmikino":1823,"twarwaga":1824,"ĠFPR":1825,"Ġmaze":1826,"ĠKam":1827,"Umukuru":1828,"Umuryango":1829,"Ġgato":1830,"rwan":1831,"ĠTanzan":1832,"ĠJo":1833,"Yakomeje":1834,"hagari":1835,"yamakuru":1836,"ĠAbatutsi":1837,"menyetso":1838,"zamutseho":1839,"mvikana":1840,"yongereyeho":1841,"Ġyakorewe":1842,"Ġmyiza":1843,"Ġugereranyije":1844,"ĠTanzania":1845,"NC":1846,"ach":1847,"by":1848,"cyi":1849,"dwa":1850,"dini":1851,"og":1852,"st":1853,"tsa":1854,"ur":1855,"umwe":1856,"Ġto":1857,"rire":1858,"rirwa":1859,"riritse":1860,"yabu":1861,"Ġnga":1862,"Ġikaba":1863,"Ġijambo":1864,"gara":1865,"wagira":1866,"Ġmugabo":1867,"bal":1868,"Ġusanzwe":1869,"Ġkuyi":1870,"Ġkuvuga":1871,"yete":1872,"kotanyi":1873,"Ġbazi":1874,"Ġyabi":1875,"Ġyabaga":1876,"Ġyashyize":1877,"tegura":1878,"hame":1879,"mira":1880,"migambi":1881,"Ġguhera":1882,"men":1883,"Ġnabyo":1884,"ĠKo":1885,"ĠKen":1886,"Ġinzira":1887,"Ġ21":1888,"Ġgitero":1889,"yankore":1890,"Ġubuzima":1891,"Ġubushobozi":1892,"ĠIs":1893,"Ġamakipe":1894,"Ġwu":1895,"ĠNkuru":1896,"dege":1897,"ĠCa":1898,"ene":1899,"ĠSo":1900,"twaro":1901,"Ġnone":1902,"Ġmafaranga":1903,"koreshe":1904,"ĠMukuru":1905,"ciriritse":1906,"ibiri":1907,"yoboye":1908,"Ġyita":1909,"ĠTwi":1910,"Kuri":1911,"nyarwanda":1912,"pera":1913,"lage":1914,"ver":1915,"kwiriye":1916,"Ġbakaba":1917,"ĠInkotanyi":1918,"mbuye":1919,"ĠLeagu":1920,"Ġbyiza":1921,"komoko":1922,"Ġwitwa":1923,"jyepfo":1924,"Ġatari":1925,"Ġkwandika":1926,"tsinze":1927,"Ġcyiciro":1928,"hererekan":1929,"illage":1930,"pfuye":1931,"cyambwe":1932,"Ġ1994":1933,"ĠHab":1934,"hamya":1935,"subukurwa":1936,"genamigambi":1937,"wanacyambwe":1938,"Ġicyizere":1939,"kwezi":1940,"Iburasirazuba":1941,"wagiramungu":1942,"ĠLeague":1943,"Iri":1944,"abo":1945,"ie":1946,"jana":1947,"lu":1948,"lle":1949,"ngira":1950,"Ġ&":1951,"Ġhin":1952,"Ġsta":1953,"ric":1954,"muka":1955,"Ġiga":1956,"Ġitanga":1957,"Ġigaragaza":1958,"âĢĻâĢĻ":1959,"Ġaki":1960,"Ġuga":1961,"Ġugu":1962,"Ġkuwa":1963,"rebe":1964,"yemo":1965,"ine":1966,"indege":1967,"Ġbamu":1968,"Ġbati":1969,"Ġbavuye":1970,"Ġyagi":1971,"Ġyayo":1972,"Ġyamaze":1973,"Ġyatangiye":1974,"genge":1975,"geni":1976,"buye":1977,"bunga":1978,"Ġbika":1979,"kiki":1980,"kisha":1981,"turuka":1982,"sizi":1983,"Ġkoro":1984,"Ġkongera":1985,"meze":1986,"hungu":1987,"hungi":1988,"vutse":1989,"vugizi":1990,"Ġwabaye":1991,"modo":1992,"Ġmpan":1993,"saa":1994,"sabo":1995,"Ġinka":1996,"Ġinyungu":1997,"shami":1998,"ĠBo":1999,"Ġibitego":2000,"rangi":2001,"rangiye":2002,"naka":2003,"Ġrunaka":2004,"Ġkiri":2005,"Ġbyabo":2006,"Ġbyatumye":2007,"amafaranga":2008,"ubukungu":2009,"Ġiminsi":2010,"hangan":2011,"ĠPo":2012,"ĠMujyi":2013,"zuro":2014,"Ġkwiga":2015,"Ġkwirinda":2016,"jyaruguru":2017,"Ġakazi":2018,"ibya":2019,"ĠRuda":2020,"ĠGasabo":2021,"Ġhose":2022,"kurikirana":2023,"ĠPariki":2024,"subira":2025,"yamama":2026,"Ġcyorezo":2027,"juru":2028,"byiru":2029,"Ġukuvuga":2030,"yemezo":2031,"Ġhirya":2032,"teguye":2033,"genzu":2034,"shimira":2035,"ĠRayon":2036,"ĠIngoma":2037,"ĠTwitter":2038,"modoka":2039,"Aha":2040,"Na":2041,"Ubwo":2042,"iterambere":2043,"jim":2044,"mpo":2045,"rd":2046,"swa":2047,"uwa":2048,"vo":2049,"yana":2050,"Ġtegeko":2051,"Ġbindi":2052,"Ġnzu":2053,"Ġira":2054,"Ġishobora":2055,"Ġikomeye":2056,"Ġitatu":2057,"Ġishyaka":2058,"rara":2059,"razi":2060,"Ġada":2061,"Ġashobora":2062,"Ġatatu":2063,"Ġmutwe":2064,"Ġurwego":2065,"Ġkubo":2066,"rera":2067,"reba":2068,"gijim":2069,"Ġbayo":2070,"Ġbaru":2071,"Ġbagomba":2072,"Ġbatangiye":2073,"Ġbatangira":2074,"zihi":2075,"hara":2076,"hamwe":2077,"bum":2078,"tari":2079,"Ġbigo":2080,"Ġco":2081,"Ġyuba":2082,"huye":2083,"huriro":2084,"Ġnabwo":2085,"ĠMpuzamahanga":2086,"Ġhasi":2087,"Ġburu":2088,"Ġbukerarugendo":2089,"Ġbutegetsi":2090,"rwayi":2091,"Ġgishinzwe":2092,"ĠAf":2093,"ĠAr":2094,"Ġrufite":2095,"Ġziri":2096,"bwoba":2097,"amaguru":2098,"ĠGe":2099,"ĠSta":2100,"hangano":2101,"suzu":2102,"zungu":2103,"ibiciro":2104,"ĠBurasirazuba":2105,"Ġbwabo":2106,"ĠLa":2107,"Ġtubi":2108,"Kuba":2109,"Kugeza":2110,"shusho":2111,"byeyi":2112,"terabwoba":2113,"tekereza":2114,"ĠInka":2115,"Ġyegu":2116,"bwenge":2117,"Ġhotel":2118,"elly":2119,"fatanya":2120,"igihe":2121,"Ġkwezi":2122,"Ġnkoranya":2123,"kwirakwira":2124,"Ġhejuru":2125,"Ġindirimbo":2126,"ingagi":2127,"Ġimyitozo":2128,"shanyarazi":2129,"dangamurage":2130,"Ġdore":2131,"Ġimbaraga":2132,"ĠKenya":2133,"Ġhino":2134,"Ġstade":2135,"byiruko":2136,"mporiki":2137,"gijimana":2138,"Ġnkoranyambaga":2139,"Ikin":2140,"Imana":2141,"Ibyo":2142,"ahandi":2143,"handa":2144,"imwe":2145,"jwa":2146,"mpiyona":2147,"ple":2148,"uza":2149,"van":2150,"Ġsha":2151,"Ġbye":2152,"rie":2153,"Ġnkuru":2154,"Ġimu":2155,"Ġiti":2156,"Ġizindi":2157,"Ġal":2158,"Ġamu":2159,"Ġatanga":2160,"Ġavuye":2161,"baza":2162,"Ġuka":2163,"Ġkuzi":2164,"Ġkuganira":2165,"reme":2166,"mara":2167,"yenda":2168,"gisha":2169,"Ġbasa":2170,"Ġbatege":2171,"Ġbakinnyi":2172,"Ġbabaga":2173,"Ġyakoze":2174,"Ġyapfuye":2175,"haranira":2176,"Ġbiro":2177,"Ġbikomeye":2178,"Ġbigaragara":2179,"Ġbivugwa":2180,"zego":2181,"kiko":2182,"tungan":2183,"ĠRNC":2184,"sengi":2185,"Ġguhi":2186,"menyi":2187,"Ġnawe":2188,"Ġnabi":2189,"Ġnabo":2190,"Ġryi":2191,"ĠMo":2192,"lix":2193,"Ġbushingiye":2194,"Ġintumwa":2195,"Ġinshuro":2196,"Ġingoma":2197,"Ġintambara":2198,"ĠAir":2199,"Ġubundi":2200,"Ġubutaka":2201,"Ġubutumwa":2202,"zobere":2203,"ĠIngabo":2204,"Ġamazina":2205,"Ġamahoro":2206,"Ġ2000":2207,"ĠNyira":2208,"sore":2209,"ton":2210,"abagore":2211,"ĠGen":2212,"shinjwa":2213,"twaye":2214,"ĠFran":2215,"Ġmahanga":2216,"korere":2217,"Ġkwita":2218,"Ġiby":2219,"Ġ2015":2220,"ibikorwa":2221,"sanzu":2222,"sangani":2223,"umuntu":2224,"umutekano":2225,"Ġimiryango":2226,"Ġntacyo":2227,"ĠMateke":2228,"Ġ(@":2229,"ĠLod":2230,"Ġturi":2231,"ĠKisangani":2232,"garagaje":2233,"ĠTe":2234,"Ġwese":2235,"yarimana":2236,"shyirahamwe":2237,"mbura":2238,"Ġbyiciro":2239,"zanye":2240,"jije":2241,"teganya":2242,"Ġhano":2243,"Ġkwinjira":2244,"fashishwa":2245,"ĠMiss":2246,"ĠVillage":2247,"ĠZa":2248,"Ġahanini":2249,"hitamo":2250,"kanisha":2251,"ity":2252,"nyamabanga":2253,"ĠNdagijimana":2254,"Ġtelefoni":2255,"ĠHabyarimana":2256,"Ġshampiyona":2257,"ĠAirtel":2258,"ĠLodge":2259,"Abanya":2260,"BA":2261,"Ga":2262,"Ma":2263,"Pa":2264,"Ru":2265,"Urwego":2266,"banda":2267,"iyi":2268,"tana":2269,"Ġso":2270,"Ġsaa":2271,"Ġbana":2272,"ris":2273,"rimi":2274,"rije":2275,"Ġnteko":2276,"Ġngamba":2277,"Ġiha":2278,"Ġifu":2279,"rame":2280,"Ġagira":2281,"Ġagera":2282,"Ġaherutse":2283,"Ġmugabane":2284,"Ġushobora":2285,"Ġkun":2286,"Ġkugabanya":2287,"shyu":2288,"shyan":2289,"maro":2290,"koraga":2291,"ingabo":2292,"zabera":2293,"Ġbabo":2294,"Ġbaku":2295,"Ġbato":2296,"Ġbakunze":2297,"Ġyamu":2298,"genze":2299,"gezweho":2300,"terwa":2301,"hama":2302,"taza":2303,"gombo":2304,"rozi":2305,"Ġgutangira":2306,"Ġguhabwa":2307,"Ġgufata":2308,"Ġyan":2309,"vugo":2310,"hereye":2311,"Ġhabaga":2312,"ĠKin":2313,"saka":2314,"Ġinganda":2315,"Ġingabo":2316,"Ġ22":2317,"Ġ23":2318,"Ġ28":2319,"Ġgiti":2320,"ĠAm":2321,"kesha":2322,"Ġumuryango":2323,"Ġumutwe":2324,"Ġumukobwa":2325,"Ġubutegetsi":2326,"zon":2327,"Ġibiro":2328,"rangira":2329,"Ġabari":2330,"ĠNze":2331,"Ġkire":2332,"Ġbyara":2333,"tonde":2334,"amahoteli":2335,"Ġzayo":2336,"shinja":2337,"ĠSingita":2338,"Ġigikombe":2339,"Ġmigari":2340,"ĠFo":2341,"Ġibyumba":2342,"vier":2343,"tangazwa":2344,"umugore":2345,"ĠBurundi":2346,"ĠBudage":2347,"korwaga":2348,"yobowe":2349,"imbere":2350,"ĠCon":2351,"rwana":2352,"ĠTwagiramungu":2353,"Ġ196":2354,"Ġryari":2355,"Kuva":2356,"ibin":2357,"shyiraho":2358,"Inka":2359,"ĠGashyan":2360,"ĠYou":2361,"Ġgusaba":2362,"ĠWa":2363,"yamara":2364,"byiri":2365,"manu":2366,"teganyi":2367,"bonetse":2368,"fashisha":2369,"Ġbeach":2370,"tegurwa":2371,"harti":2372,"hindura":2373,"Ġutaha":2374,"Ġmenshi":2375,"funzwe":2376,"mokarasi":2377,"gurisha":2378,"renganzira":2379,"hagaritswe":2380,"ĠGashyantare":2381,"AC":2382,"Aka":2383,"Abo":2384,"Epfo":2385,"IS":2386,"Imari":2387,"SS":2388,"agaciro":2389,"che":2390,"id":2391,"ok":2392,"phi":2393,"th":2394,"tre":2395,"umwami":2396,"umwihariko":2397,"vana":2398,"zana":2399,"Ġd":2400,"Ġra":2401,"Ġvu":2402,"riko":2403,"yamba":2404,"Ġnyungu":2405,"Ġnshuro":2406,"Ġngingo":2407,"Ġiy":2408,"Ġisi":2409,"Ġitandatu":2410,"Ġisigaye":2411,"rasa":2412,"gaga":2413,"gabanyi":2414,"Ġashaka":2415,"Ġmukuru":2416,"Ġuvu":2417,"Ġukomeye":2418,"Ġkumenye":2419,"Ġkuyobora":2420,"rengera":2421,"shye":2422,"mail":2423,"inuza":2424,"gushyin":2425,"weho":2426,"Ġbagi":2427,"Ġbakiri":2428,"Ġbatuye":2429,"gengo":2430,"ted":2431,"tavuga":2432,"tabera":2433,"Ġbimaze":2434,"Ġbibazo":2435,"Ġbifuza":2436,"Ġbishoboka":2437,"zera":2438,"kiriye":2439,"turanyi":2440,"rou":2441,"senal":2442,"Ġguta":2443,"Ġgusha":2444,"Ġguca":2445,"Ġgutwara":2446,"Ġyu":2447,"banki":2448,"Ġnako":2449,"Ġnazo":2450,"yuho":2451,"ndu":2452,"livier":2453,"Ġmpera":2454,"saha":2455,"jeje":2456,"Ġ29":2457,"ĠAbanya":2458,"Ġarimo":2459,"Ġumunani":2460,"ĠBe":2461,"ĠBibi":2462,"ĠBwanacyambwe":2463,"Ġibitabo":2464,"rangwa":2465,"Ġamaso":2466,"Ġniyo":2467,"ĠNdu":2468,"Ġcyabo":2469,"Ġkigega":2470,"ĠCity":2471,"ĠUgushyin":2472,"higwa":2473,"abadepite":2474,"Ġimpan":2475,"shingano":2476,"net":2477,"Ġmabwiriza":2478,"koresho":2479,"Ġngombwa":2480,"sugi":2481,"surwa":2482,"ĠMurenge":2483,"duka":2484,"sanzabera":2485,"tangaza":2486,"Ġbwari":2487,"leim":2488,"tsindi":2489,"Abami":2490,"ĠLu":2491,"Ġtugiye":2492,"Ġgace":2493,"Ġrwari":2494,"iminsi":2495,"ĠJa":2496,"ĠHou":2497,"tekerere":2498,"ĠInter":2499,"Ġyeme":2500,"ĠYo":2501,"zamakuru":2502,"jijwe":2503,"Ġthe":2504,"singa":2505,"Ġ40":2506,"gurura":2507,"ndege":2508,"fatanyije":2509,"fashishije":2510,"Ġbizaba":2511,"hinduka":2512,"sohoka":2513,"shimiye":2514,"shingiro":2515,"Igikombe":2516,"herezwa":2517,"Ġbinyuze":2518,"joro":2519,"ngwe":2520,"ĠDemokarasi":2521,"ĠSiporo":2522,"que":2523,"Ġof":2524,"Ingoro":2525,"Ġndirimbo":2526,"ĠRudahigwa":2527,"ĠArsenal":2528,"tunganya":2529,"Ġvuba":2530,"ĠBibiliya":2531,"ĠUgushyingo":2532,"leimani":2533,"Abi":2534,"Banki":2535,"DR":2536,"Dr":2537,"Guverinoma":2538,"Igenamigambi":2539,"TA":2540,"amezi":2541,"dri":2542,"iyo":2543,"iterabwoba":2544,"minisitiri":2545,"nini":2546,"stin":2547,"twi":2548,"ukwezi":2549,"Ġzuba":2550,"Ġbandi":2551,"âĢĶ":2552,"âĢĺ":2553,"Ġnda":2554,"Ġizo":2555,"Ġikomeje":2556,"Ġikoranabuhanga":2557,"rael":2558,"Ġabe":2559,"Ġmushya":2560,"Ġmugari":2561,"Ġudu":2562,"Ġundi":2563,"Ġuretse":2564,"Ġkumenya":2565,"rehe":2566,"mar":2567,"yereke":2568,"inama":2569,"Ġbahu":2570,"Ġbajya":2571,"Ġbashya":2572,"Ġyaku":2573,"Ġyacu":2574,"Ġyatangira":2575,"Ġyahoze":2576,"Ġyasabye":2577,"Ġyahise":2578,"tasi":2579,"Ġbice":2580,"Ġbigaragaza":2581,"Ġbisanzwe":2582,"ĠRw":2583,"Ġguku":2584,"Ġgutuma":2585,"Ġgukemu":2586,"siyete":2587,"kuba":2588,"vuzi":2589,"Ġwayo":2590,"Ġwahawe":2591,"yumva":2592,"ndwi":2593,"ĠMan":2594,"Ġhashize":2595,"sago":2596,"Ġbufatanye":2597,"Ġine":2598,"Ġingendo":2599,"Ġgikomeye":2600,"Ġumuyobozi":2601,"Ġumunsi":2602,"Ġumubare":2603,"Ġumuziki":2604,"ĠBanki":2605,"ĠBharti":2606,"Ġubufatanye":2607,"Ġubuziranenge":2608,"Ġuburenganzira":2609,"Ġibijyanye":2610,"ĠIkin":2611,"Ġabadepite":2612,"ĠNsengi":2613,"Ġruganda":2614,"Ġrugamba":2615,"Ġkiba":2616,"Ġkiganiro":2617,"Ġziba":2618,"Ġzifite":2619,"Ġzimaze":2620,"tonda":2621,"abami":2622,"dio":2623,"dis":2624,"Ġimpamvu":2625,"Ġmatora":2626,"ĠMuryango":2627,"ĠMusanze":2628,"shyizweho":2629,"Ġkwigaru":2630,"bwami":2631,"Ġabanya":2632,"Ġ2012":2633,"Ġimihango":2634,"Ġikigo":2635,"Ġtura":2636,"ĠKivu":2637,"ĠTu":2638,"Ġurugendo":2639,"zamura":2640,"imibereho":2641,"Ġkwagura":2642,"hagarika":2643,"Intebe":2644,"mburwa":2645,"Amajyepfo":2646,"Ġbyitezwe":2647,"taramo":2648,"Ġtwo":2649,"yamaswa":2650,"Ibirunga":2651,"shanu":2652,"yubaka":2653,"kenewe":2654,"ĠOlivier":2655,"Ġgutangaza":2656,"sobanura":2657,"sobanuye":2658,"Ġgutegura":2659,"tangije":2660,"Ġebyiri":2661,"ĠRDB":2662,"est":2663,"Ġgushyiraho":2664,"Ġmetero":2665,"kiniraga":2666,"fungwa":2667,"riweho":2668,"Raporo":2669,"shyigikira":2670,"zigaba":2671,"Ġruhande":2672,"ball":2673,"Ġwundi":2674,"ĠSoleimani":2675,"koresheje":2676,"kikije":2677,"genzura":2678,"Ikindi":2679,"Ġsosiyete":2680,"yambaro":2681,"ĠHouse":2682,"Aya":2683,"Bya":2684,"CA":2685,"Ki":2686,"NR":2687,"Ta":2688,"Uwo":2689,"aha":2690,"ier":2691,"ishyaka":2692,"mina":2693,"sse":2694,"ster":2695,"Ġ#":2696,"Ġp":2697,"Ġan":2698,"Ġandi":2699,"Ġbyeme":2700,"rice":2701,"Ġkane":2702,"muryango":2703,"Ġnzira":2704,"Ġnyubako":2705,"Ġnyamara":2706,"Ġitanu":2707,"Ġirushanwa":2708,"Ġigamije":2709,"Ġijana":2710,"ramu":2711,"Ġakomeye":2712,"Ġasaga":2713,"Ġambasaderi":2714,"Ġamezi":2715,"Ġmugaraga":2716,"Ġmuco":2717,"Ġuw":2718,"Ġurwo":2719,"reho":2720,"ingoma":2721,"intambara":2722,"guzi":2723,"Ġbaje":2724,"Ġbagira":2725,"Ġbatandukanye":2726,"Ġbageze":2727,"Ġbakomeje":2728,"Ġbahabwa":2729,"ruhu":2730,"Ġyavu":2731,"Ġyatanzwe":2732,"Ġyakorwaga":2733,"tere":2734,"bire":2735,"buka":2736,"Ġbiha":2737,"Ġbishobora":2738,"Ġbisaba":2739,"book":2740,"ron":2741,"seke":2742,"Ġgukina":2743,"Ġgutura":2744,"kuko":2745,"kunzi":2746,"vura":2747,"ĠMe":2748,"ĠMba":2749,"ĠMic":2750,"liza":2751,"Ġintera":2752,"Ġinshuti":2753,"Ġintwaro":2754,"shatu":2755,"Ġgito":2756,"Ġgifite":2757,"ĠAbe":2758,"ket":2759,"Ġumunya":2760,"ĠBing":2761,"Ġubuyobozi":2762,"shiman":2763,"ranyo":2764,"ĠIharanira":2765,"tseho":2766,"Ġamafoto":2767,"Ġamashusho":2768,"Ġababi":2769,"Ġabakerarugendo":2770,"ĠNsanzabera":2771,"kinwa":2772,"nama":2773,"Ġrukomeye":2774,"Ġrugero":2775,"Ġrurimi":2776,"Ġkirimo":2777,"Ġkibazo":2778,"Ġzimwe":2779,"ganje":2780,"amashanyarazi":2781,"hiro":2782,"hirwe":2783,"ubutegetsi":2784,"shinze":2785,"Ġigiciro":2786,"Ġmirimo":2787,"kanya":2788,"ĠPri":2789,"Ġmake":2790,"Ġmakipe":2791,"ĠKabiri":2792,"ĠMusi":2793,"dukikije":2794,"shyizwe":2795,"Ġkwiyongera":2796,"Ġibyi":2797,"Ġ2010":2798,"sangan":2799,"tangajwe":2800,"umuryango":2801,"umutima":2802,"Umurage":2803,"Umuvugizi":2804,"Ġkarere":2805,"ĠMadri":2806,"Ġtuza":2807,"Ġturimo":2808,"pala":2809,"Ġriza":2810,"cebook":2811,"ndiro":2812,"ĠThe":2813,"nyeri":2814,"Ġukomoka":2815,"ĠDie":2816,"Ġyerekana":2817,"ĠGatanu":2818,"Ġizaba":2819,"Ġtw":2820,"subiza":2821,"ĠGihanga":2822,"Ġazajya":2823,"Ġntiba":2824,"jugu":2825,"ĠBatwarwaga":2826,"ĠBamporiki":2827,"Ġahasaga":2828,"Ġumwu":2829,"byara":2830,"byaye":2831,"burayi":2832,"our":2833,"aniel":2834,"rizwamo":2835,"genzo":2836,"Ġeshanu":2837,"shyizeho":2838,"sohotse":2839,"hagarara":2840,"Ġibyaha":2841,"Ġikindi":2842,"Gusa":2843,"shingizi":2844,"ĠLife":2845,"Ntabwo":2846,"yandiko":2847,"ĠKwitonda":2848,"ĠKampala":2849,"ĠJose":2850,"ment":2851,"hungirehe":2852,"Ġyegukanye":2853,"Ġalbum":2854,"gombora":2855,"ĠNzeri":2856,"Ġkirekire":2857,"rengerazuba":2858,"ĠIkinyarwanda":2859,"Tariki":2860,"Ġmugaragaro":2861,"ĠMadrid":2862,"ĠDieu":2863,"50":2864,"Aho":2865,"CO":2866,"Iterambere":2867,"Icya":2868,"Ingabo":2869,"Re":2870,"Si":2871,"Uko":2872,"ase":2873,"canga":2874,"gne":2875,"gram":2876,"izo":2877,"ikin":2878,"jyana":2879,"ld":2880,"ph":2881,"rÃ©":2882,"spa":2883,"umw":2884,"uar":2885,"Ã´":2886,"Ġf":2887,"anzuro":2888,"rijwe":2889,"Ġkenshi":2890,"mura":2891,"Ġis":2892,"Ġitu":2893,"Ġiryo":2894,"Ġijya":2895,"Ġitsinda":2896,"Ġishoramari":2897,"Ġindwa":2898,"Ġishyamba":2899,"Ġimodoka":2900,"Ġikwirakwira":2901,"rali":2902,"raphi":2903,"waga":2904,"Ġavu":2905,"Ġagaragaza":2906,"Ġatanu":2907,"Ġambasade":2908,"Ġashinjwa":2909,"Ġmubano":2910,"Ġukaba":2911,"Ġkuta":2912,"Ġkuzamuka":2913,"Ġkurwanya":2914,"rebwa":2915,"rebye":2916,"giza":2917,"gije":2918,"gizweho":2919,"inganda":2920,"ingenzi":2921,"guma":2922,"guye":2923,"gutse":2924,"wemo":2925,"Ġbatu":2926,"Ġbabe":2927,"Ġbakomeye":2928,"Ġbagize":2929,"Ġbasaga":2930,"Ġbafata":2931,"Ġbarwo":2932,"yobwa":2933,"Ġyagombaga":2934,"ziyo":2935,"birwa":2936,"Ġbiku":2937,"Ġbituma":2938,"bon":2939,"kiza":2940,"tumi":2941,"sembuye":2942,"Ġgukorera":2943,"Ġgusoma":2944,"Ġyinji":2945,"kure":2946,"tiye":2947,"Ġnatwe":2948,"henda":2949,"ĠMbere":2950,"Ġhaka":2951,"Ġmbuga":2952,"ĠKane":2953,"rwaho":2954,"Ġinyubako":2955,"Ġ27":2956,"Ġgice":2957,"ĠAka":2958,"Ġariyo":2959,"Ġaribo":2960,"Ġumushinga":2961,"Ġumuco":2962,"Ġumudepite":2963,"ĠBen":2964,"ĠBer":2965,"shika":2966,"shimwe":2967,"shijwe":2968,"shiseke":2969,"shishika":2970,"Ġibiganiro":2971,"Ġibicuruzwa":2972,"ĠIra":2973,"ĠIbi":2974,"Ġamategeko":2975,"Ġamatora":2976,"Ġamashuri":2977,"Ġamabanki":2978,"Ġamahirwe":2979,"Ġabakozi":2980,"ĠNyan":2981,"ĠNdo":2982,"nara":2983,"Ġcyacu":2984,"Ġkigo":2985,"Ġbyabaye":2986,"Ġbyagabanu":2987,"Ġbyazamutseho":2988,"funze":2989,"ĠUkwa":2990,"ganyi":2991,"Ġkurinda":2992,"ngero":2993,"ububanyi":2994,"abari":2995,"diyo":2996,"Ġimp":2997,"shingira":2998,"ĠSC":2999,"ĠSu":3000,"Ġigitekerezo":3001,"kane":3002,"negihugu":3003,"ĠFE":3004,"ĠFÃ©":3005,"Ġmategeko":3006,"Ġmasezerano":3007,"Ġmarushanwa":3008,"Ġngoro":3009,"ĠMusa":3010,"cuku":3011,"viziyo":3012,"ibigo":3013,"ĠBubiligi":3014,"Ġimigabane":3015,"Ġkare":3016,"Ġntawe":3017,"Ġikigega":3018,"Ġyize":3019,"Ġrishya":3020,"shoboye":3021,"pimo":3022,"ĠTshiseke":3023,"Ġ198":3024,"Ġryabo":3025,"Kubera":3026,"peshyi":3027,"Ġurugamba":3028,"Ubumwe":3029,"ĠRuta":3030,"Ġ2021":3031,"Ġ\"\"\"\",":3032,"ĠDa":3033,"Ġkwamama":3034,"Ġicyemezo":3035,"icyi":3036,"shyiramo":3037,"Ġ36":3038,"Ġ300":3039,"Inteko":3040,"Amateka":3041,"subizo":3042,"banuka":3043,"Ġntibi":3044,"juje":3045,"Ġumwana":3046,"tinganyi":3047,"gamira":3048,"fungurwa":3049,"Ġeshatu":3050,"stagram":3051,"hampiyona":3052,"kundaga":3053,"Ġkuvugurura":3054,"ingaruka":3055,"ĠFau":3056,"subukura":3057,"Ġuwari":3058,"hungabanyi":3059,"ĠMutarama":3060,"Abantu":3061,"tabazi":3062,"goroba":3063,"abanyama":3064,"mamaye":3065,"Ġkinini":3066,"ĠNew":3067,"ĠMarc":3068,"gabanuka":3069,"sesengu":3070,"ographi":3071,"ibiribwa":3072,"Ġyagiranye":3073,"hangange":3074,"Ġkubohora":3075,"zihiza":3076,"ĠGeographi":3077,"ibinyobwa":3078,"ISR":3079,"Ġkumenyekanisha":3080,"Ġgukumira":3081,"disson":3082,"Ġkwigarurira":3083,"Ġindwara":3084,"ĠUkwakira":3085,"ĠFÃ©lix":3086,"ĠTshisekedi":3087,"ĠGeographic":3088,"18":3089,"Ariko":3090,"BPR":3091,"EFA":3092,"Le":3093,"Se":3094,"Twa":3095,"Umwe":3096,"ahan":3097,"bw":3098,"brice":3099,"ct":3100,"era":3101,"ff":3102,"gh":3103,"ise":3104,"nyu":3105,"nzwe":3106,"ois":3107,"ry":3108,"ste":3109,"uku":3110,"uwo":3111,"uran":3112,"zindu":3113,"Ġ0":3114,"Ġh":3115,"Ġen":3116,"Ġrika":3117,"Ġpe":3118,"Ġbinji":3119,"ria":3120,"rin":3121,"rimana":3122,"Ġnke":3123,"Ġnto":3124,"Ġnjye":3125,"Ġngenga":3126,"Ġndangamurage":3127,"Ġihe":3128,"Ġitandukanye":3129,"Ġishingiro":3130,"raso":3131,"gal":3132,"Ġayi":3133,"Ġajya":3134,"Ġabiri":3135,"Ġahandi":3136,"Ġmushinga":3137,"Ġmusaruro":3138,"Ġmugambi":3139,"Ġumwihariko":3140,"Ġubwenge":3141,"Ġkugi":3142,"Ġkugaragaza":3143,"Ġkugenda":3144,"Ġkuram":3145,"ren":3146,"rewe":3147,"renze":3148,"yeshuri":3149,"gina":3150,"kosa":3151,"kama":3152,"ingamba":3153,"inyungu":3154,"ingengo":3155,"gungira":3156,"zaza":3157,"Ġbate":3158,"Ġbabu":3159,"Ġbaki":3160,"Ġbasha":3161,"ruye":3162,"ruta":3163,"rump":3164,"Ġyate":3165,"Ġyaha":3166,"Ġyajya":3167,"Ġyatanze":3168,"Ġyasinyi":3169,"teza":3170,"teme":3171,"zimungu":3172,"bitabo":3173,"yimana":3174,"bunda":3175,"Ġbitu":3176,"Ġbihu":3177,"Ġbitwa":3178,"Ġbivuze":3179,"Ġbishya":3180,"bogami":3181,"tungu":3182,"tunzi":3183,"roko":3184,"roka":3185,"rote":3186,"hon":3187,"hombo":3188,"Ġcyu":3189,"mika":3190,"mije":3191,"Ġguhunga":3192,"Ġgufungura":3193,"Ġgushyigikira":3194,"Ġgusubukura":3195,"simbu":3196,"mes":3197,"meka":3198,"mezwa":3199,"Ġyana":3200,"huba":3201,"Ġwabanje":3202,"hel":3203,"Ġmyinshi":3204,"ĠKan":3205,"Ġbuke":3206,"Ġbusanzwe":3207,"Ġbucuruzi":3208,"Ġingana":3209,"Ġinter":3210,"Ġintego":3211,"Ġingufu":3212,"Ġinkomoko":3213,"shahara":3214,"ĠAban":3215,"kenshi":3216,"fashwa":3217,"Ġumuti":3218,"Ġumukinnyi":3219,"Ġumurame":3220,"ĠBanya":3221,"ĠBlu":3222,"Ġubusa":3223,"Ġubuhoro":3224,"Ġubucuruzi":3225,"Ġubushakashatsi":3226,"Ġibihe":3227,"Ġibihangano":3228,"rance":3229,"Ġamata":3230,"Ġamarushanwa":3231,"Ġabayobozi":3232,"anditsi":3233,"kingi":3234,"Ġcyaba":3235,"tanira":3236,"Ġrugendo":3237,"Ġrubuga":3238,"Ġkigaragaza":3239,"Ġzikomeye":3240,"Ġzigamije":3241,"Ġbyayo":3242,"fungi":3243,"ĠCen":3244,"ĠChar":3245,"ĠUni":3246,"soza":3247,"hima":3248,"ngeye":3249,"ubundi":3250,"ubucuruzi":3251,"abakerarugendo":3252,"abakinnyi":3253,"abaminisitiri":3254,"ĠGu":3255,"Ġigitero":3256,"Ġigisoro":3257,"Ġyombi":3258,"hani":3259,"twari":3260,"ĠPS":3261,"ĠPere":3262,"ĠPier":3263,"vugaga":3264,"neri":3265,"ĠFu":3266,"Ġmagambo":3267,"komere":3268,"komeze":3269,"ĠKataza":3270,"suye":3271,"surance":3272,"zuye":3273,"vien":3274,"umunya":3275,"umupira":3276,"ĠBush":3277,"Ġimishinga":3278,"tegereza":3279,"lex":3280,"Ġntambara":3281,"ĠMarie":3282,"Ġriri":3283,"Ġrikomeye":3284,"tsiko":3285,"tsibo":3286,"tsimburwa":3287,"pic":3288,"pima":3289,"Ġakamaro":3290,"ĠTa":3291,"ĠTrump":3292,"yangombwa":3293,"ĠRuba":3294,"manaho":3295,"Ġubwoba":3296,"inazi":3297,"Ġbwoko":3298,"bonaga":3299,"ĠEspa":3300,"ĠInsurance":3301,"cagu":3302,"Ġ31":3303,"Intego":3304,"ĠGatsibo":3305,"Amafoto":3306,"ĠYe":3307,"nziza":3308,"lomo":3309,"Ġiyitwa":3310,"subije":3311,"com":3312,"ĠUmunyamabanga":3313,"curuza":3314,"Ġdufite":3315,"ĠBar":3316,"Ġumwanzi":3317,"Ġumwanzuro":3318,"ikipe":3319,"ting":3320,"fashije":3321,"fashishijwe":3322,"Ġ2003":3323,"yubahiro":3324,"kinamo":3325,"kurambere":3326,"ĠAmazon":3327,"vention":3328,"Imikino":3329,"Imibare":3330,"injiza":3331,"stauran":3332,"Ġyabonye":3333,"Ġikintu":3334,"Ġkuvura":3335,"ĠFacebook":3336,"Ġkumurika":3337,"ĠVivien":3338,"RDB":3339,"genewe":3340,"rimbana":3341,"Ġimpunzi":3342,"Ġyashyizwe":3343,"ĠIII":3344,"ĠIsrael":3345,"Ġnoneho":3346,"ibirindiro":3347,"Ġwitwaga":3348,"Ġugasanga":3349,"bungabunga":3350,"yamamare":3351,"Ġcoronavirus":3352,"Ġyubatswe":3353,"Ġburundu":3354,"ĠStade":3355,"ĠFoÃ©":3356,"ĠConvention":3357,"teganyiriza":3358,"yerekezo":3359,"ĠNsengiyumva":3360,"ĠJoseph":3361,"Ġbyagabanutseho":3362,"ahantu":3363,"bogamizi":3364,"Ġinternet":3365,"ĠCentre":3366,"Abandi":3367,"DF":3368,"Du":3369,"Icyi":3370,"Ishami":3371,"Mbere":3372,"RA":3373,"RW":3374,"Umw":3375,"Uretse":3376,"Yi":3377,"Yo":3378,"au":3379,"aka":3380,"abi":3381,"bwu":3382,"cy":3383,"can":3384,"ganga":3385,"hwi":3386,"jwi":3387,"lla":3388,"myi":3389,"ot":3390,"one":3391,"rs":3392,"rwi":3393,"urugendo":3394,"umweru":3395,"vamahanga":3396,"yanga":3397,"¨ne":3398,"Ã§":3399,"Ã¨ne":3400,"Ġ@":3401,"ĠQ":3402,"ĠÂ":3403,"ĠâĢĻ":3404,"Ġli":3405,"Ġdi":3406,"Ġtwe":3407,"Ġ000":3408,"Ġbene":3409,"rindwa":3410,"Ġkera":3411,"âĢ¦":3412,"Ġnza":3413,"Ġnyamu":3414,"Ġnyabu":3415,"Ġnkuko":3416,"Ġnyandiko":3417,"Ġiso":3418,"Ġinda":3419,"Ġicu":3420,"Ġitegeko":3421,"Ġishinga":3422,"Ġihabwa":3423,"Ġindege":3424,"Ġijoro":3425,"rasaga":3426,"garuka":3427,"garutse":3428,"Ġako":3429,"Ġaku":3430,"Ġaci":3431,"Ġatandukanye":3432,"Ġakana":3433,"Ġasanzwe":3434,"Ġakenshi":3435,"Ġmubi":3436,"Ġmubiri":3437,"Ġmujyi":3438,"Ġmuhanzi":3439,"Ġmuziki":3440,"bazi":3441,"bambwe":3442,"Ġukwi":3443,"Ġuvuye":3444,"Ġuzwi":3445,"Ġkumwe":3446,"Ġkugaragara":3447,"Ġkuzamura":3448,"rema":3449,"remye":3450,"koro":3451,"kaza":3452,"inye":3453,"inzi":3454,"inzu":3455,"ineza":3456,"inkwa":3457,"inota":3458,"indwa":3459,"guze":3460,"guke":3461,"gudu":3462,"gurira":3463,"zaho":3464,"Ġbaya":3465,"Ġbaho":3466,"Ġbayobozi":3467,"Ġbaturage":3468,"Ġbasura":3469,"Ġbakoze":3470,"Ġbatanu":3471,"Ġbagenzi":3472,"Ġbakeneye":3473,"Ġbakoresheje":3474,"ruru":3475,"rubo":3476,"Ġyako":3477,"Ġyayi":3478,"Ġyaho":3479,"Ġyakomeje":3480,"Ġyakunze":3481,"Ġyahaye":3482,"Ġyagaragaje":3483,"Ġyatangije":3484,"Ġyakiniraga":3485,"gese":3486,"ando":3487,"teve":3488,"bitekerezo":3489,"buza":3490,"butso":3491,"tabi":3492,"Ġbiyi":3493,"Ġbitanga":3494,"Ġbibiri":3495,"Ġbiganiro":3496,"Ġbiteganyijwe":3497,"boko":3498,"gori":3499,"gogo":3500,"kiwe":3501,"kimbi":3502,"mite":3503,"mijwe":3504,"Ġgucu":3505,"Ġgukorwa":3506,"Ġguverinoma":3507,"Ġgutangi":3508,"situ":3509,"Ġkoko":3510,"Ġkomisiyo":3511,"banze":3512,"Ġwara":3513,"Ġwageze":3514,"bert":3515,"Ġrye":3516,"yungwe":3517,"Ġhaza":3518,"Ġhabaye":3519,"Ġhambere":3520,"Ġhakaba":3521,"Ġhagende":3522,"Ġmanda":3523,"Ġmyanya":3524,"Ġmvamahanga":3525,"ĠKinazi":3526,"Ġbuka":3527,"Ġbuza":3528,"Ġmurika":3529,"Ġinzobere":3530,"Ġinyamaswa":3531,"shaga":3532,"shaho":3533,"Ġgishobora":3534,"Ġgihari":3535,"ĠAnge":3536,"ĠAmbasaderi":3537,"Ġaribyo":3538,"Ġumupira":3539,"Ġumurongo":3540,"shimu":3541,"shisho":3542,"Ġibitero":3543,"Ġibikoresho":3544,"ranze":3545,"ĠIm":3546,"ĠIzina":3547,"Ġamagambo":3548,"Ġniho":3549,"ĠNtara":3550,"ĠNdangamurage":3551,"kinira":3552,"national":3553,"Ġruga":3554,"Ġruta":3555,"Ġrushinzwe":3556,"Ġkirere":3557,"Ġkimaze":3558,"Ġkikaba":3559,"Ġziza":3560,"Ġzigiye":3561,"daga":3562,"dasanzwe":3563,"sozwa":3564,"toranyi":3565,"ganye":3566,"ganzu":3567,"amahoro":3568,"amashuri":3569,"hiriza":3570,"ubuki":3571,"ubuzima":3572,"ubushakashatsi":3573,"ubukure":3574,"abakozi":3575,"diri":3576,"ĠGrou":3577,"Ġimyambaro":3578,"Ġzabaga":3579,"ĠSha":3580,"ĠShan":3581,"ĠShampiyona":3582,"Ġigizwe":3583,"Ġmibereho":3584,"ĠPe":3585,"ĠPla":3586,"ĠFre":3587,"Ġmasoko":3588,"sugire":3589,"dutse":3590,"dugudu":3591,"Ġkwiyubaka":3592,"Ġibin":3593,"kuruza":3594,"bwaho":3595,"ibibazo":3596,"ibihumbi":3597,"Ġbwu":3598,"ĠBurengerazuba":3599,"Ġimitwe":3600,"Ġimibereho":3601,"Umujyi":3602,"Ġkari":3603,"Ġkazi":3604,"ĠMajyaruguru":3605,"Abazigaba":3606,"Ġyise":3607,"Ġtuka":3608,"Ġtuzi":3609,"imyanya":3610,"Ġakajya":3611,"geraho":3612,"Ġ193":3613,"Ġ197":3614,"ibintu":3615,"ĠHu":3616,"Ġurubyiruko":3617,"Ubuyobozi":3618,"Ubusanzwe":3619,"ĠRuse":3620,"shakaga":3621,"Ġwose":3622,"Ġubworozi":3623,"Ġkwambara":3624,"Ġhagamijwe":3625,"ĠEi":3626,"ĠEto":3627,"Ġicyari":3628,"icya":3629,"ĠâĢĺâĢĺ":3630,"ĠInteko":3631,"ĠInkima":3632,"ĠInstagram":3633,"carubo":3634,"Ġ32":3635,"Ġ34":3636,"mbuzi":3637,"Ġbyiyongera":3638,"bwenegihugu":3639,"ganiriye":3640,"ĠNyaru":3641,"Ġizajya":3642,"ĠWe":3643,"subitswe":3644,"subireho":3645,"sinya":3646,"ĠGisaka":3647,"ĠUmunyarwanda":3648,"ĠAbagabo":3649,"Ġcyose":3650,"Ġahari":3651,"manzi":3652,"manota":3653,"Ġbaramu":3654,"ĠReal":3655,"Ġ70":3656,"ĠMili":3657,"ĠMibambwe":3658,"tsindwa":3659,"yemeje":3660,"Ġbihembo":3661,"cyaha":3662,"Ġreme":3663,"Ġ1999":3664,"hinduye":3665,"genza":3666,"Ġ189":3667,"merera":3668,"Ġmezi":3669,"shingiwe":3670,"ĠHotels":3671,"ĠFabrice":3672,"kiniye":3673,"Imyaka":3674,"herukaga":3675,"kubiti":3676,"Abanyankore":3677,"ĠUmwamikazi":3678,"Buri":3679,"ĠVisi":3680,"rty":3681,"ĠNational":3682,"induka":3683,"shyigikiye":3684,"Ingoma":3685,"rimbyi":3686,"Ġyanditse":3687,"torero":3688,"ĠJune":3689,"ĠKaminuza":3690,"Ġtoni":3691,"Ġyashyizeho":3692,"Ġyitabye":3693,"Ġmpangano":3694,"ibyatsi":3695,"ĠAfri":3696,"Ġbategeranye":3697,"Ġbirori":3698,"ĠNyirab":3699,"ĠFranÃ§":3700,"ĠTele":3701,"ĠZatwarwaga":3702,"risti":3703,"ĠKinyarwanda":3704,"ĠAmb":3705,"chester":3706,"Ġraporo":3707,"Ġuvuka":3708,"Ġimpano":3709,"tekerereza":3710,"ĠInternational":3711,"Ġyatangiraga":3712,"Ġgukemura":3713,"Kiyovu":3714,"ganjemo":3715,"ĠPrime":3716,"ĠMusic":3717,"aniella":3718,"ĠBerlin":3719,"ĠRutagungira":3720,"hungabanyijwe":3721,"zinduko":3722,"Ġenye":3723,"Ġkuramya":3724,"Ġyateranye":3725,"fungiwe":3726,"ĠPerefe":3727,"ĠPierre":3728,"ĠRubavu":3729,"ĠEspagne":3730,"staurant":3731,"Icyiciro":3732,"Ġnyaburanga":3733,"inkwavu":3734,"indwara":3735,"gesera":3736,"kimbirane":3737,"Ġhagendewe":3738,"ĠGroup":3739,"carubozo":3740,"10":3741,"Afurika":3742,"Air":3743,"Ambasaderi":3744,"AFA":3745,"ABA":3746,"ATA":3747,"DL":3748,"Izo":3749,"Ifite":3750,"Itanga":3751,"Ihuriro":3752,"Inama":3753,"Kelly":3754,"Minisiteri":3755,"Manzi":3756,"Nko":3757,"Nti":3758,"Nda":3759,"NISR":3760,"PDF":3761,"RC":3762,"Rwa":3763,"Rwanda":3764,"SA":3765,"Singita":3766,"Uwa":3767,"Werurwe":3768,"],":3769,"aga":3770,"abanyarwanda":3771,"cho":3772,"cted":3773,"cyuho":3774,"dd":3775,"ddi":3776,"email":3777,"gandu":3778,"hn":3779,"hÃ©":3780,"imba":3781,"ibwami":3782,"kandi":3783,"lan":3784,"nwa":3785,"nti":3786,"nana":3787,"nnyi":3788,"pfi":3789,"ugu":3790,"uni":3791,"vandi":3792,"zzi":3793,"zanya":3794,"Ġ+":3795,"Ġ_":3796,"Ġs":3797,"Ġpo":3798,"Ġmodoka":3799,"anjye":3800,"Ġbyu":3801,"Ġbyan":3802,"riri":3803,"Ġkintu":3804,"mure":3805,"Ġnya":3806,"Ġnguzanyo":3807,"Ġndanga":3808,"Ġiz":3809,"Ġida":3810,"Ġigira":3811,"Ġigera":3812,"Ġisaga":3813,"Ġizwi":3814,"Ġiheruka":3815,"Ġiciriritse":3816,"rama":3817,"gaba":3818,"gabe":3819,"gabwe":3820,"waba":3821,"wabo":3822,"Ġahi":3823,"Ġatege":3824,"Ġabona":3825,"Ġagomba":3826,"Ġasanga":3827,"Ġakiri":3828,"Ġajye":3829,"Ġazwi":3830,"Ġateganyijwe":3831,"Ġamanota":3832,"Ġmuto":3833,"Ġmutima":3834,"Ġmutekano":3835,"Ġmusozi":3836,"Ġmunara":3837,"bacyuho":3838,"Ġutu":3839,"Ġugiye":3840,"Ġubona":3841,"Ġuyobora":3842,"Ġurwan":3843,"Ġukwezi":3844,"Ġkubura":3845,"Ġkubana":3846,"Ġkuboneka":3847,"Ġkumvikana":3848,"Ġkubyara":3849,"Ġkubungabunga":3850,"rezi":3851,"rekanye":3852,"gitura":3853,"koma":3854,"kari":3855,"kamu":3856,"inshuti":3857,"weya":3858,"Ġbage":3859,"Ġbabaye":3860,"Ġbagabo":3861,"Ġbakuriki":3862,"Ġbasanzwe":3863,"Ġbasanga":3864,"Ġbagenda":3865,"Ġbakwiye":3866,"Ġbafashe":3867,"Ġbatanze":3868,"Ġbakoraga":3869,"ruwa":3870,"Ġyahu":3871,"Ġyaci":3872,"Ġyasin":3873,"Ġyafati":3874,"andAir":3875,"tegaru":3876,"bikorwa":3877,"buze":3878,"butsa":3879,"taha":3880,"tagan":3881,"Ġbize":3882,"Ġbigeze":3883,"Ġbitangwa":3884,"Ġbimeze":3885,"zeye":3886,"gobo":3887,"tube":3888,"tunga":3889,"tunze":3890,"tumanaho":3891,"rohe":3892,"ĠRU":3893,"ĠRweya":3894,"seru":3895,"Ġcou":3896,"Ġguhu":3897,"Ġgukuriki":3898,"Ġgusiga":3899,"Ġgusobanu":3900,"Ġguhuza":3901,"Ġgusubukurwa":3902,"Ġgukurikirana":3903,"Ġguhagarara":3904,"Ġgufungurwa":3905,"Ġgupima":3906,"mero":3907,"metero":3908,"Ġyindi":3909,"kundo":3910,"kubye":3911,"kuyeho":3912,"hunde":3913,"tira":3914,"vuko":3915,"Ġwamu":3916,"Ġwaba":3917,"Ġwagiye":3918,"Ġwatwaye":3919,"bemba":3920,"yutse":3921,"yumvi":3922,"hembwa":3923,"ĠMbo":3924,"Ġhara":3925,"Ġhashingiwe":3926,"Ġmba":3927,"Ġmbi":3928,"sali":3929,"sation":3930,"Ġbuvuga":3931,"Ġburimo":3932,"Ġbumaze":3933,"Ġbuyobozi":3934,"Ġbutumwa":3935,"Ġbushobozi":3936,"Ġingano":3937,"Ġingoro":3938,"Ġinshingano":3939,"shali":3940,"shake":3941,"shatse":3942,"Ġgikuru":3943,"Ġgitanga":3944,"Ġgisirikare":3945,"Ġgitaramo":3946,"ĠAS":3947,"ĠAdo":3948,"yanzuro":3949,"Ġumupaka":3950,"Ġumubyeyi":3951,"ĠBan":3952,"ĠBRD":3953,"ĠBNR":3954,"Ġuburwayi":3955,"shima":3956,"shidi":3957,"Ġibidukikije":3958,"ĠIgi":3959,"ĠIki":3960,"Ġamahanga":3961,"Ġamadolari":3962,"Ġamahoteli":3963,"Ġamabuye":3964,"Ġamasaha":3965,"Ġamasugi":3966,"Ġamaraso":3967,"Ġabayi":3968,"Ġabahanga":3969,"Ġabakobwa":3970,"Ġabasirikare":3971,"Ġniko":3972,"Ġnibo":3973,"ĠNkore":3974,"ĠNyungwe":3975,"Ġcyatangaje":3976,"tange":3977,"Ġruba":3978,"Ġrutonde":3979,"Ġrunini":3980,"Ġkita":3981,"Ġkivuga":3982,"Ġkigera":3983,"Ġziha":3984,"Ġzigera":3985,"Ġzikora":3986,"Ġzizajya":3987,"Ġzigezweho":3988,"Ġbyaha":3989,"Ġbyagenze":3990,"funga":3991,"firi":3992,"fitiye":3993,"ĠCh":3994,"ĠCla":3995,"ĠCyumweru":3996,"ganza":3997,"amada":3998,"amakuru":3999,"amatungo":4000,"amabuye":4001,"amavuko":4002,"hirwa":4003,"hile":4004,"hizamu":4005,"hirizwa":4006,"ngesho":4007,"ubuyobozi":4008,"ubutaka":4009,"ubugeni":4010,"abakuru":4011,"abakobwa":4012,"abatuye":4013,"Ġimyenda":4014,"Ġzazamutse":4015,"Ġzafashwe":4016,"enga":4017,"Ġigikorwa":4018,"Ġigihango":4019,"Ġmibare":4020,"Ġmihanda":4021,"shotoranyi":4022,"Ġbyana":4023,"hano":4024,"hanze":4025,"hangwa":4026,"hance":4027,"twarire":4028,"ĠPro":4029,"ĠPor":4030,"ĠFDL":4031,"komereza":4032,"ĠMuzi":4033,"ĠMuda":4034,"ĠMutabazi":4035,"dufasha":4036,"gwate":4037,"zure":4038,"Ġkwica":4039,"Ġkwifashishwa":4040,"nis":4041,"Ġ2011":4042,"Ġzindi":4043,"umugabo":4044,"umuhungu":4045,"Ġcyandi":4046,"Ġimipaka":4047,"Ġimibare":4048,"Umunya":4049,"Umuco":4050,"Umurundi":4051,"Ġntaho":4052,"Ġikiba":4053,"tsina":4054,"Abagore":4055,"Ġyihariye":4056,"Ġtuba":4057,"ĠKigo":4058,"ĠKimi":4059,"imyi":4060,"pion":4061,"celo":4062,"ĠCol":4063,"ĠCou":4064,"ĠTi":4065,"ĠThÃ©":4066,"Ġ190":4067,"Ġryatewe":4068,"per":4069,"Ġuruganda":4070,"Ubukerarugendo":4071,"Ububanyi":4072,"Ubukungu":4073,"Ubutumwa":4074,"Ubuhinzi":4075,"ĠRuganzu":4076,"hinga":4077,"shushanya":4078,"Ġ2024":4079,"tiriwe":4080,"Ġbwose":4081,"ĠEn":4082,"ĠEric":4083,"ĠEuni":4084,"Ġbombi":4085,"Ġicyenda":4086,"Ġbakajya":4087,"hagaritse":4088,"Ġ33":4089,"Ġyemerewe":4090,"Inkima":4091,"Intwari":4092,"ĠGatatu":4093,"gabowaga":4094,"sheje":4095,"Amahanga":4096,"Amakipe":4097,"for":4098,"ganisha":4099,"Ġbane":4100,"Ġbanyu":4101,"Ġ500":4102,"mber":4103,"Ġiyicarubozo":4104,"sine":4105,"ĠUmutima":4106,"Ġ42":4107,"Ġ48":4108,"gururwa":4109,"ĠAbagore":4110,"Ibihugu":4111,"ong":4112,"Ġdukesha":4113,"Ġntiya":4114,"Ġbagakora":4115,"menyekanye":4116,"abana":4117,"Ġigihembo":4118,"ikigo":4119,"igirimana":4120,"Ġ800":4121,"Ġhantu":4122,"Ġkwinjiza":4123,"Ġ2007":4124,"Ġ2008":4125,"Ġ60":4126,"Ġcyiza":4127,"osiyete":4128,"Ġbabarizwa":4129,"gereranya":4130,"Ġhifashishijwe":4131,"Ġhirindwa":4132,"Ġkwerekana":4133,"yine":4134,"ĠOmar":4135,"sabagina":4136,"Ġ1500":4137,"Ġ1998":4138,"hindutse":4139,"yongeye":4140,"Urubyiruko":4141,"Ġ188":4142,"Bivuze":4143,"mererwa":4144,"Ġmwana":4145,"hampion":4146,"Ġibyago":4147,"Ġheza":4148,"Guhera":4149,"ĠBirunga":4150,"ĠBizimungu":4151,"Ġsiporo":4152,"rambye":4153,"kanisation":4154,"ibyorezo":4155,"yirarebe":4156,"Ġbigatuma":4157,"kubiye":4158,"anone":4159,"Bush":4160,"uropa":4161,"wantare":4162,"Ġzemerewe":4163,"ĠIngoro":4164,"hisemo":4165,"nyamakuru":4166,"yamuryango":4167,"Ġubwigenge":4168,"genera":4169,"Ġbidasembuye":4170,"Ġkurushaho":4171,"Ġazize":4172,"misiyoneri":4173,"Ġbanyarwanda":4174,"ĠAlly":4175,"fatwaga":4176,"Ġruhando":4177,"rwanira":4178,"ĠJohn":4179,"Ġngagi":4180,"balkanisation":4181,"ĠKomisiyo":4182,"ĠKomite":4183,"ĠNkurunziza":4184,"koreshejwe":4185,"hererekane":4186,"hererekanya":4187,"Ġitangazamakuru":4188,"Ġkorohereza":4189,"Ġmpanuro":4190,"rangiza":4191,"Ġtubikesha":4192,"Ġimurika":4193,"Ġbasabwe":4194,"ĠFrank":4195,"sanzure":4196,"Rucagu":4197,"shinjacyaha":4198,"rwanashyaka":4199,"ĠYoutube":4200,"ACCO":4201,"Akagera":4202,"idane":4203,"Ġgushakisha":4204,"Ġabenshi":4205,"ĠRwinkwavu":4206,"Ġprote":4207,"ramubiri":4208,"ronko":4209,"ĠAbed":4210,"shimangira":4211,"Icyakora":4212,"shishikariza":4213,"Ġngororamubiri":4214,"ĠMusafiri":4215,"Ġkwamamaza":4216,"Leta":4217,"ght":4218,"Ġngengabitekerezo":4219,"Ġiherezo":4220,"tunguranye":4221,"Ġguhungabanya":4222,"ĠKanyirarebe":4223,"ĠAbanyankore":4224,"ĠBanyarwanda":4225,"ĠBarcelo":4226,"RWAFA":4227,"inzibacyuho":4228,"shishozi":4229,"Ġrutahizamu":4230,"dagadu":4231,"ĠShangi":4232,"ĠRusesabagina":4233,"ĠWemba":4234,"Ġremezo":4235,"ĠFranÃ§ois":4236,"ĠTeleviziyo":4237,"vandimwe":4238,"zziel":4239,"gabekazi":4240,"Ġurwango":4241,"tegarugori":4242,"taganzwa":4243,"ĠFDLR":4244,"ĠEunice":4245,"gabowagahunde":4246,"hampions":4247,"Ġprotected":4248,"17":4249,"Andi":4250,"ASS":4251,"Best":4252,"CCA":4253,"ET":4254,"Ib":4255,"Inga":4256,"Imbere":4257,"Ishyaka":4258,"Ishyirahamwe":4259,"Kwi":4260,"MI":4261,"Mar":4262,"Ndu":4263,"PA":4264,"Pre":4265,"Ruba":4266,"SO":4267,"Tura":4268,"Uganda":4269,"Ubwi":4270,"Umwaka":4271,"Vi":4272,"Yaba":4273,"].":4274,"ayo":4275,"abe":4276,"cÃ©":4277,"fana":4278,"gwe":4279,"hwa":4280,"iy":4281,"iza":4282,"itegeko":4283,"irushanwa":4284,"ishoramari":4285,"ibanze":4286,"lc":4287,"landi":4288,"lde":4289,"mini":4290,"mpi":4291,"mmanu":4292,"minuza":4293,"nta":4294,"nce":4295,"opo":4296,"phon":4297,"utu":4298,"une":4299,"urwego":4300,"ubwu":4301,"vÃ©":4302,"yina":4303,"ðŁ":4304,"Ġmo":4305,"Ġhuba":4306,"Ġpic":4307,"Ġfor":4308,"Ġsine":4309,"Ġbeza":4310,"rick":4311,"muel":4312,"Ġnzego":4313,"Ġnanone":4314,"Ġiru":4315,"Ġita":4316,"Ġikora":4317,"Ġisanzwe":4318,"Ġikina":4319,"Ġicumbi":4320,"Ġizamuka":4321,"Ġicuruzwa":4322,"Ġidini":4323,"Ġishusho":4324,"Ġiyobowe":4325,"Ġikubiti":4326,"gati":4327,"gamo":4328,"Ġat":4329,"Ġare":4330,"Ġaru":4331,"Ġamwe":4332,"Ġava":4333,"Ġagura":4334,"Ġashinzwe":4335,"Ġakina":4336,"Ġahita":4337,"Ġaheruka":4338,"Ġaturutse":4339,"Ġmukinnyi":4340,"Ġmusore":4341,"basi":4342,"Ġura":4343,"Ġubi":4344,"Ġuha":4345,"Ġuvuga":4346,"Ġugera":4347,"Ġukina":4348,"Ġuherutse":4349,"Ġugizwe":4350,"Ġuyoboye":4351,"Ġubwenegihugu":4352,"Ġkur":4353,"Ġkuya":4354,"Ġkuki":4355,"Ġkubyi":4356,"Ġkumva":4357,"Ġkugirwa":4358,"Ġkubanza":4359,"reka":4360,"rembo":4361,"rengwe":4362,"shyanga":4363,"yero":4364,"yebare":4365,"kobanya":4366,"kame":4367,"inguzanyo":4368,"ingufu":4369,"inzego":4370,"gugu":4371,"gurwa":4372,"gufi":4373,"Ġbakuru":4374,"Ġbavuze":4375,"Ġbava":4376,"Ġbabona":4377,"Ġbajyan":4378,"Ġbarenga":4379,"Ġbasabwa":4380,"Ġbagombaga":4381,"Ġbazanye":4382,"Ġbafatanyije":4383,"yotso":4384,"rukan":4385,"rumbu":4386,"Ġyama":4387,"Ġyazi":4388,"Ġyageze":4389,"Ġyabyo":4390,"Ġyarwo":4391,"Ġyabanje":4392,"Ġyagizwe":4393,"Ġyakozwe":4394,"Ġyatore":4395,"Ġyatsinze":4396,"Ġyaherukaga":4397,"ger":4398,"geri":4399,"gezi":4400,"gend":4401,"geje":4402,"ten":4403,"teran":4404,"teraga":4405,"tekanye":4406,"ziya":4407,"zigamira":4408,"bikora":4409,"bimana":4410,"yiri":4411,"yiro":4412,"yisi":4413,"bure":4414,"bukuru":4415,"bungo":4416,"tambwe":4417,"tabira":4418,"Ġbiki":4419,"Ġbise":4420,"Ġbito":4421,"Ġbikuru":4422,"Ġbikora":4423,"Ġbigize":4424,"Ġbitatu":4425,"Ġbibuga":4426,"Ġbikiri":4427,"Ġbigenda":4428,"Ġbitare":4429,"Ġbishingiye":4430,"Ġbikwiye":4431,"Ġbiyongera":4432,"Ġbirunga":4433,"Ġbimenyetso":4434,"Ġbifashishije":4435,"kimana":4436,"tutu":4437,"tugal":4438,"rohereza":4439,"horera":4440,"holandi":4441,"ĠRPA":4442,"senyi":4443,"senyeri":4444,"sengesho":4445,"mier":4446,"Ġguse":4447,"Ġguke":4448,"Ġguto":4449,"Ġgukura":4450,"Ġgutyo":4451,"Ġgukurikira":4452,"Ġgusubira":4453,"Ġguhitamo":4454,"Ġguhindura":4455,"size":4456,"sivi":4457,"sibye":4458,"meye":4459,"kuye":4460,"kuza":4461,"kuta":4462,"kundi":4463,"kunzwe":4464,"hurura":4465,"banye":4466,"vukiye":4467,"Ġwasa":4468,"Ġwahoze":4469,"Ġwazamutse":4470,"Ġnavuga":4471,"Ġryeme":4472,"mon":4473,"ĠMes":4474,"ĠMDR":4475,"Ġhata":4476,"Ġhato":4477,"Ġhateganyijwe":4478,"Ġmwu":4479,"ĠKini":4480,"ĠKanya":4481,"ĠKelly":4482,"sam":4483,"sasu":4484,"sabira":4485,"Ġbuba":4486,"Ġbumwe":4487,"Ġbufasha":4488,"Ġbukomeje":4489,"Ġbumva":4490,"Ġbushakashatsi":4491,"Ġbuhinzi":4492,"rwaya":4493,"Ġingo":4494,"Ġinzo":4495,"Ġinkuru":4496,"Ġinota":4497,"Ġingwate":4498,"Ġgikorwa":4499,"Ġgishya":4500,"ĠAmbasade":4501,"ĠAbanyiginya":4502,"ĠAlex":4503,"ĠAyebare":4504,"yangugu":4505,"Ġariwe":4506,"Ġumugabo":4507,"Ġumuhango":4508,"Ġumuriro":4509,"Ġumutungo":4510,"ĠBla":4511,"ĠBel":4512,"ĠBPR":4513,"ĠBigirimana":4514,"ĠBET":4515,"Ġubuhanga":4516,"Ġubuhinzi":4517,"Ġubumenyi":4518,"Ġubutasi":4519,"Ġubusugire":4520,"zoka":4521,"Ġibiza":4522,"Ġibiti":4523,"Ġibimenyetso":4524,"ĠInga":4525,"ĠIshyirahamwe":4526,"Ġamashanyarazi":4527,"Ġwana":4528,"Ġabashinzwe":4529,"Ġabakiri":4530,"Ġabahanzi":4531,"Ġabarwanya":4532,"Ġabasifuzi":4533,"Ġnibyo":4534,"ĠNgo":4535,"ĠNshinga":4536,"mbaye":4537,"kinnye":4538,"Ġcyagabwe":4539,"Ġruza":4540,"Ġrundi":4541,"Ġkiga":4542,"Ġkiva":4543,"Ġzika":4544,"Ġzita":4545,"Ġzivuye":4546,"Ġzisaga":4547,"Ġzirenga":4548,"Ġbyaro":4549,"Ġbyaje":4550,"Ġbyagiye":4551,"Ġbyahagaritswe":4552,"ĠChi":4553,"ĠChance":4554,"ĠChampions":4555,"ĠCyangugu":4556,"ĠUEFA":4557,"ĠUzziel":4558,"datsimburwa":4559,"tor":4560,"tongo":4561,"ganya":4562,"amafi":4563,"amado":4564,"amabwiriza":4565,"hitana":4566,"Ġkuririmbana":4567,"ngerwa":4568,"ngeyeho":4569,"abayobozi":4570,"abaturanyi":4571,"abategarugori":4572,"Ġzara":4573,"Ġzaba":4574,"shinwa":4575,"ennis":4576,"Ġigice":4577,"Ġigicumbi":4578,"Ġigihombo":4579,"ragaho":4580,"ragaraga":4581,"Ġmisa":4582,"Ġmiryango":4583,"Ġmijyi":4584,"tware":4585,"ĠPhile":4586,"ĠPlc":4587,"ney":4588,"Ġmakuru":4589,"korewe":4590,"ĠKavutse":4591,"ngukira":4592,"sumbuye":4593,"ĠMukobanya":4594,"shyiriweho":4595,"Ġkwizihiza":4596,"Ġkwitegereza":4597,"cia":4598,"cika":4599,"Ġibyangombwa":4600,"Ġabanza":4601,"Ġabanyama":4602,"Ġabanyamuryango":4603,"ibiti":4604,"ibicumbi":4605,"ibiganiro":4606,"sangwa":4607,"Ġzina":4608,"umukino":4609,"umusaruro":4610,"ĠButare":4611,"ĠBugesera":4612,"Ġimiti":4613,"Ġimitima":4614,"Ġimipira":4615,"Ġimikorere":4616,"Ġbwagize":4617,"Umushakashatsi":4618,"Umunyamabanga":4619,"Ġkubaha":4620,"Ġkara":4621,"tegekimana":4622,"ler":4623,"ĠMaj":4624,"ĠMari":4625,"ĠMajyepfo":4626,"zwaga":4627,"yoboke":4628,"yoborere":4629,"Abasha":4630,"Abadepite":4631,"Ababiligi":4632,"Abasinga":4633,"ĠLo":4634,"Ġyifuza":4635,"Ġyiteguye":4636,"Ġtukaba":4637,"Ġrigira":4638,"Ġrivuga":4639,"Ġgasozi":4640,"pozama":4641,"imp":4642,"impeshyi":4643,"Ġakamu":4644,"ĠTo":4645,"Ġ195":4646,"Ġndege":4647,"las":4648,"lade":4649,"Ġurugero":4650,"Ġurupfu":4651,"Ġurutonde":4652,"Uburyo":4653,"Uburasirazuba":4654,"Ubushakashatsi":4655,"riyeho":4656,"ĠRutsindi":4657,"hinda":4658,"hingwa":4659,"rangabo":4660,"ves":4661,"Yaje":4662,"douar":4663,"biriwe":4664,"ĠEmmanu":4665,"ĠEdouar":4666,"Ġicyuho":4667,"Ġbakaha":4668,"tekereje":4669,"sheho":4670,"mbuka":4671,"Amaguru":4672,"Amajyaruguru":4673,"Amazon":4674,"Ã©n":4675,"ganire":4676,"garagazaga":4677,"nzima":4678,"Ġbangana":4679,"ĠNyarwaya":4680,"loma":4681,"Ġizakini":4682,"ĠWor":4683,"ĠPapa":4684,"subiye":4685,"singwa":4686,"yamatsiko":4687,"ĠUmuyobozi":4688,"Ġ44":4689,"ĠAbasinga":4690,"Ġazaba":4691,"kwaga":4692,"Ġahabwa":4693,"Ġahagaragara":4694,"abanyeshuri":4695,"Ġwigeze":4696,"Ġkureshya":4697,"kiriwe":4698,"ĠReso":4699,"ikirenga":4700,"byazwa":4701,"igiciro":4702,"tinyiro":4703,"Ġ72":4704,"Ġatavuga":4705,"Ġ80":4706,"Ġ88":4707,"gamiye":4708,"Ġukuri":4709,"yuramo":4710,"Ġ2006":4711,"Ġ2009":4712,"ngirije":4713,"ĠZidane":4714,"Ġcyitwa":4715,"gereranyo":4716,"Ġkwemeza":4717,"kenera":4718,"ĠOly":4719,"uruzi":4720,"Ġbemerewe":4721,"Ġ150":4722,"Ġ154":4723,"cyamura":4724,"Ġrestaurant":4725,"Ġnkokora":4726,"teguwe":4727,"sobanuro":4728,"Ġ1995":4729,"Bamporiki":4730,"funguye":4731,"Urubuga":4732,"Bitewe":4733,"Biteganyijwe":4734,"Ġbatari":4735,"Ġ1000":4736,"Ġkuruta":4737,"sohoye":4738,"hagararira":4739,"kwirakwi":4740,"zagabanuka":4741,"ĠSalomo":4742,"orge":4743,"Ġkuvugana":4744,"Ġ250":4745,"ĠSebu":4746,"Ġbwiza":4747,"Ġbwite":4748,"ĠJeune":4749,"Ġ[âĢ¦":4750,"Ġ95":4751,"Ġguhama":4752,"Ġicyayi":4753,"Ġicyaha":4754,"Ġsiko":4755,"hungabana":4756,"Impamvu":4757,"Umwamikazi":4758,"itler":4759,"Ġbitari":4760,"ĠRobert":4761,"ĠRosali":4762,"Ġ137":4763,"fatika":4764,"ĠNiyo":4765,"Ġfilimi":4766,"Kabemba":4767,"Ġubwisanzure":4768,"Rayon":4769,"Radisson":4770,"Ġubwabo":4771,"dangamuco":4772,"Ġyandikiye":4773,"ĠMartin":4774,"sinyishije":4775,"Ġtelefone":4776,"Tube":4777,"Ġyashyizweho":4778,"ĠKwita":4779,"byini":4780,"cyiru":4781,"Ġngabe":4782,"Ġwungirije":4783,"ricket":4784,"kikijwe":4785,"hungiro":4786,"ĠBos":4787,"hanganye":4788,"yamamariza":4789,"bumbye":4790,"Ġbigoye":4791,"ĠLamuka":4792,"fatanyabikorwa":4793,"Ġitike":4794,"Ġguhimba":4795,"Ġryitwa":4796,"ĠNyirarebe":4797,"Abanyamerika":4798,"Gakondo":4799,"Rudatsimburwa":4800,"ĠAmanda":4801,"ĠYouTube":4802,"ĠWat":4803,"Ġgutaha":4804,"ĠNduhungirehe":4805,"ĠNduwantare":4806,"Ġimpanuro":4807,"tsindiye":4808,"Ġyemeje":4809,"Abikorera":4810,"Ġzubatse":4811,"Ġuduce":4812,"Ġyahisemo":4813,"ĠMbarara":4814,"ĠMichel":4815,"sanganyamatsiko":4816,"Ġumwuka":4817,"ĠNyanza":4818,"ĠFERWAFA":4819,"cukuzi":4820,"icyiciro":4821,"ĠFaustin":4822,"sesenguzi":4823,"ffel":4824,"ukuri":4825,"Ġbinjiye":4826,"ringanire":4827,"temewe":4828,"ĠUnited":4829,"hanitse":4830,"Yongeyeho":4831,"abikorera":4832,"Ġindasago":4833,"Ġicumi":4834,"inyenyeri":4835,"Ġgutangiza":4836,"ĠPlay":4837,"ĠEiffel":4838,"icyayi":4839,"ĠNyarugenge":4840,"ĠAfrica":4841,"ĠNyirabwana":4842,"ĠPerefegitura":4843,"RCD":4844,"ddy":4845,"kandida":4846,"wabari":4847,"Ġahitwa":4848,"Ġcouple":4849,"ĠPortugal":4850,"ĠMuzito":4851,"ĠCouple":4852,"ĠBarcelone":4853,"dagaduro":4854,"opold":4855,"yinawabari":4856,"Ġsinema":4857,"Ġikubitiro":4858,"ĠKinigi":4859,"amadorali":4860,"ĠPhilemon":4861,"pozamarira":4862,"ĠRutsindire":4863,"ĠEmmanuel":4864,"ĠEdouard":4865,"Ġ[âĢ¦]":4866,"15":4867,"AN":4868,"Avuga":4869,"BC":4870,"Be":4871,"DE":4872,"Hi":4873,"IN":4874,"Indi":4875,"IGIHE":4876,"Indege":4877,"IATA":4878,"Ko":4879,"MR":4880,"Man":4881,"Nka":4882,"Naho":4883,"Nyira":4884,"Nyamu":4885,"Sa":4886,"Steve":4887,"Sosiyete":4888,"TN":4889,"Twagiramungu":4890,"Ye":4891,"ah":4892,"am":4893,"at":4894,"cwa":4895,"cye":4896,"cen":4897,"dde":4898,"dine":4899,"flix":4900,"gn":4901,"gÃ©":4902,"hwe":4903,"hande":4904,"ik":4905,"ip":4906,"iye":4907,"ika":4908,"izi":4909,"iryo":4910,"itanga":4911,"ice":4912,"itsinda":4913,"ibanga":4914,"idini":4915,"isugi":4916,"itumanaho":4917,"jy":4918,"lp":4919,"land":4920,"lÃ©":4921,"lly":4922,"linga":4923,"mbye":4924,"mson":4925,"nzu":4926,"ngana":4927,"nyine":4928,"pp":4929,"pÃ´":4930,"rk":4931,"sket":4932,"tt":4933,"ty":4934,"two":4935,"the":4936,"tflix":4937,"undi":4938,"umva":4939,"ubwami":4940,"Ġane":4941,"ĠðŁ":4942,"anwa":4943,"anye":4944,"anuar":4945,"rize":4946,"rimba":4947,"rikwa":4948,"ribonye":4949,"Ġkina":4950,"mumu":4951,"murika":4952,"muco":4953,"muriwe":4954,"Ġnuko":4955,"Ġngabo":4956,"Ġnyarwanda":4957,"Ġntego":4958,"Ġntangi":4959,"Ġnkunda":4960,"Ġngufu":4961,"Ġnkingi":4962,"Ġndangamuco":4963,"Ġihu":4964,"Ġisa":4965,"Ġitandu":4966,"Ġishinzwe":4967,"Ġikorana":4968,"Ġirya":4969,"Ġifata":4970,"Ġishingiye":4971,"Ġiherutse":4972,"Ġisabwa":4973,"Ġikoreshwa":4974,"Ġishyirwa":4975,"Ġihagaze":4976,"Ġiteganya":4977,"Ġihagaritswe":4978,"raya":4979,"raba":4980,"rate":4981,"rabu":4982,"rambi":4983,"rambo":4984,"ragutse":4985,"âĢĻâĢĻ.":4986,"wami":4987,"ward":4988,"Ġab":4989,"Ġay":4990,"Ġagi":4991,"Ġatu":4992,"Ġase":4993,"Ġageze":4994,"Ġakuriki":4995,"Ġajyanye":4996,"Ġafata":4997,"Ġakunda":4998,"Ġakwiye":4999,"Ġatangwa":5000,"Ġahagarariye":5001,"Ġafitanye":5002,"Ġmurwa":5003,"Ġmupaka":5004,"Ġmubumbe":5005,"Ġmunini":5006,"Ġmucanga":5007,"Ġmugoroba":5008,"baje":5009,"batsi":5010,"bashije":5011,"Ġuyi":5012,"Ġuda":5013,"Ġushaka":5014,"Ġugenda":5015,"Ġuzaba":5016,"Ġuhuza":5017,"Ġuhagarariye":5018,"Ġubw":5019,"Ġurwi":5020,"Ġkura":5021,"Ġkuge":5022,"Ġkuban":5023,"Ġkuda":5024,"Ġkugana":5025,"Ġkurya":5026,"Ġkugaban":5027,"Ġkurara":5028,"Ġkurwana":5029,"Ġkugenzura":5030,"Ġkuguma":5031,"rego":5032,"remo":5033,"rerwa":5034,"regan":5035,"retwa":5036,"rerane":5037,"remera":5038,"rebure":5039,"shw":5040,"magana":5041,"makaza":5042,"yer":5043,"giwe":5044,"gijwe":5045,"kongera":5046,"kaye":5047,"kamana":5048,"ind":5049,"inya":5050,"inza":5051,"inda":5052,"inne":5053,"inyubako":5054,"intebe":5055,"inkima":5056,"inzobere":5057,"inzoka":5058,"gure":5059,"guka":5060,"guha":5061,"guruka":5062,"gukana":5063,"weri":5064,"Ġbami":5065,"Ġbahi":5066,"Ġbadu":5067,"Ġbatanga":5068,"Ġbashinzwe":5069,"Ġbamenye":5070,"Ġbahawe":5071,"Ġbakoresha":5072,"Ġbawu":5073,"Ġbakorera":5074,"Ġbasabye":5075,"Ġbakiliya":5076,"Ġbazwi":5077,"Ġbabana":5078,"Ġbagire":5079,"Ġbatandatu":5080,"Ġbabanje":5081,"Ġbahagarariye":5082,"Ġbasifuzi":5083,"Ġbatekereza":5084,"Ġbashimu":5085,"yomeka":5086,"Ġyaga":5087,"Ġyawe":5088,"Ġyato":5089,"Ġyasho":5090,"Ġyarimo":5091,"Ġyadu":5092,"Ġyacyo":5093,"Ġyakira":5094,"Ġyawu":5095,"Ġyasabwa":5096,"Ġyakiriye":5097,"Ġyabyaye":5098,"Ġyasohotse":5099,"Ġyavugaga":5100,"Ġyaguze":5101,"gereza":5102,"gereye":5103,"tes":5104,"teze":5105,"tesha":5106,"zimu":5107,"zigera":5108,"zimana":5109,"bihugu":5110,"bila":5111,"yigo":5112,"hat":5113,"habu":5114,"hadi":5115,"hael":5116,"buro":5117,"busa":5118,"buto":5119,"bumbi":5120,"bugeni":5121,"tali":5122,"tabiriwe":5123,"Ġbimu":5124,"Ġbizi":5125,"Ġbike":5126,"Ġbivuga":5127,"Ġbiciro":5128,"Ġbigera":5129,"Ġbibaye":5130,"Ġbifasha":5131,"Ġbica":5132,"Ġbitara":5133,"Ġbivuye":5134,"Ġbikomeje":5135,"Ġbigomba":5136,"Ġbitekerezo":5137,"Ġbihari":5138,"Ġbigwi":5139,"Ġbitandatu":5140,"Ġbikwiriye":5141,"Ġbishimira":5142,"zengu":5143,"zeyimana":5144,"bomana":5145,"goye":5146,"kiro":5147,"kigera":5148,"tuza":5149,"rondo":5150,"roroka":5151,"horyo":5152,"hoice":5153,"ĠRwi":5154,"sena":5155,"sekuruza":5156,"Ġcon":5157,"mihango":5158,"Ġguma":5159,"Ġguho":5160,"Ġgusu":5161,"Ġgusubi":5162,"Ġgushize":5163,"Ġgukorana":5164,"Ġgusoho":5165,"Ġgushora":5166,"Ġgukini":5167,"Ġguhana":5168,"Ġgushyirwa":5169,"Ġgusese":5170,"Ġgusurwa":5171,"Ġguhagarika":5172,"Ġguhererekanya":5173,"siba":5174,"Ġkohereza":5175,"merou":5176,"Ġyandika":5177,"Ġyinjira":5178,"witwa":5179,"kuwe":5180,"kuku":5181,"kurya":5182,"kugombora":5183,"huje":5184,"tic":5185,"banzi":5186,"banji":5187,"bangamiye":5188,"vuzwe":5189,"vubyi":5190,"vukire":5191,"Ġwaha":5192,"Ġwatwa":5193,"Ġwakoze":5194,"Ġwagombaga":5195,"Ġwayoboye":5196,"Ġwatsinze":5197,"Ġwamamaye":5198,"Ġnawo":5199,"Ġnaryo":5200,"wood":5201,"berwa":5202,"yuka":5203,"yunge":5204,"yujije":5205,"yuranyo":5206,"hemba":5207,"henge":5208,"hembe":5209,"ĠMana":5210,"ĠMpa":5211,"ĠMon":5212,"ĠMRCD":5213,"Ġhaje":5214,"Ġhagiye":5215,"Ġhatyo":5216,"Ġhazaba":5217,"Ġhasigaye":5218,"Ġhateye":5219,"Ġhategurwa":5220,"Ġhakenewe":5221,"Ġharebwa":5222,"Ġhakoreshejwe":5223,"Ġmyu":5224,"Ġmbona":5225,"ĠKandi":5226,"sabe":5227,"sabwe":5228,"sabimana":5229,"Ġbuse":5230,"Ġbundi":5231,"Ġbukomeye":5232,"Ġbutandukanye":5233,"Ġbukungu":5234,"Ġbukene":5235,"Ġburya":5236,"Ġburasirazuba":5237,"Ġbuziranenge":5238,"Ġbunyu":5239,"Ġburoko":5240,"Ġbugufi":5241,"Ġbungana":5242,"jeho":5243,"Ġintege":5244,"Ġinteko":5245,"Ġingingo":5246,"Ġinzego":5247,"Ġintambwe":5248,"Ġinsanganyamatsiko":5249,"Ġgipimo":5250,"ĠAli":5251,"ĠAPR":5252,"ĠAugu":5253,"ĠADE":5254,"ĠAward":5255,"yani":5256,"yanja":5257,"Ġariho":5258,"Ġaribwo":5259,"Ġaricyo":5260,"Ġumuvu":5261,"Ġumugambi":5262,"Ġumukiliya":5263,"Ġumutoza":5264,"Ġumunyarwanda":5265,"Ġumugisha":5266,"Ġumucanga":5267,"Ġumutinganyi":5268,"ĠBwi":5269,"Ġubuntu":5270,"Ġubukene":5271,"Ġuburame":5272,"Ġubutabera":5273,"Ġubuhangange":5274,"Ġubutunzi":5275,"Ġuburebure":5276,"shira":5277,"zongera":5278,"Ġibikombe":5279,"ranwa":5280,"rango":5281,"rangura":5282,"ranyijwe":5283,"ranire":5284,"ĠImi":5285,"ĠIterambere":5286,"ĠIhame":5287,"ĠIshimwe":5288,"ĠISO":5289,"Ġamazi":5290,"Ġamahitamo":5291,"Ġamakimbirane":5292,"Ġabagera":5293,"Ġabagenzi":5294,"Ġabashoramari":5295,"Ġabatavuga":5296,"Ġabakunzi":5297,"Ġniwe":5298,"Ġnitu":5299,"Ġnicyo":5300,"Ġnimero":5301,"ĠNo":5302,"ĠNta":5303,"ĠNic":5304,"ĠNtare":5305,"ĠNBA":5306,"ĠNyiri":5307,"ĠNsabimana":5308,"deyo":5309,"demoka":5310,"Ġcyayo":5311,"Ġcyavuye":5312,"tanzweho":5313,"Ġruka":5314,"Ġruha":5315,"Ġruda":5316,"Ġrumaze":5317,"Ġrukaba":5318,"Ġrukiko":5319,"Ġrukuta":5320,"Ġkigiye":5321,"Ġkijyanye":5322,"Ġzibe":5323,"Ġzigira":5324,"Ġzirya":5325,"Ġzigire":5326,"Ġzihariye":5327,"Ġbyatangiye":5328,"fura":5329,"ĠCle":5330,"ĠChoice":5331,"ĠUPDF":5332,"damu":5333,"giraho":5334,"giramo":5335,"sobe":5336,"tote":5337,"toni":5338,"ganwa":5339,"amazu":5340,"amashyaka":5341,"amasaha":5342,"amayero":5343,"his":5344,"hira":5345,"higo":5346,"hishu":5347,"hitanye":5348,"Ġkurimba":5349,"ubuhanga":5350,"ubushobozi":5351,"ubukoloni":5352,"ubutabera":5353,"ababa":5354,"abagabo":5355,"abahanzi":5356,"abasifuzi":5357,"abagabekazi":5358,"Ġimbuga":5359,"Ġimbunda":5360,"Ġimbogamizi":5361,"Ġimyotso":5362,"Ġzagize":5363,"Ġzadutse":5364,"Ġzasubitswe":5365,"ĠSho":5366,"ĠSere":5367,"ĠSer":5368,"ĠSeru":5369,"ĠSACCO":5370,"Ġigitinyiro":5371,"Ġmibi":5372,"Ġmike":5373,"Ġmikuru":5374,"Ġmitwe":5375,"Ġmihango":5376,"Ġmirenge":5377,"shonga":5378,"hanzwe":5379,"kangura":5380,"Museveni":5381,"Mutaganzwa":5382,"Mugabowagahunde":5383,"nes":5384,"ĠFit":5385,"Ġmagana":5386,"Ġmazina":5387,"Ġmafoto":5388,"Ġmatsinda":5389,"Ġmahoteli":5390,"Ġmadini":5391,"Ġmajyaruguru":5392,"Ġmaboko":5393,"korezi":5394,"koreraga":5395,"ĠKagali":5396,"ĠKagere":5397,"ĠKayon":5398,"ĠKajeje":5399,"ĠKakame":5400,"ĠKalinga":5401,"ĠKabila":5402,"suwe":5403,"suku":5404,"supu":5405,"sunzu":5406,"ĠMuhanga":5407,"ĠMukungu":5408,"ĠMuregan":5409,"rikiya":5410,"ndashonga":5411,"shyiki":5412,"shyitsi":5413,"Ġkwiru":5414,"Ġkwifatanya":5415,"Ġkwibaza":5416,"Ġkwiteganyiriza":5417,"cura":5418,"cukiro":5419,"kurura":5420,"nia":5421,"vid":5422,"ville":5423,"Ġabanyamakuru":5424,"Ġ2013":5425,"Ġ2014":5426,"ibiro":5427,"ibigwi":5428,"ibihangano":5429,"sanura":5430,"umutwe":5431,"umukinnyi":5432,"umushinga":5433,"umuco":5434,"umubano":5435,"umukobwa":5436,"umuhanzi":5437,"umusoro":5438,"ndoto":5439,"ĠBushinwa":5440,"Ġgihembo":5441,"Ġimizi":5442,"Ġimivugo":5443,"Ġbwaba":5444,"Ġbwayo":5445,"Ġbwarwo":5446,"Ġbwakozwe":5447,"Umubare":5448,"Umubano":5449,"Umupira":5450,"Umusizi":5451,"Ġkubahiriza":5452,"Ġkayo":5453,"Ġkamere":5454,"Ġkavukire":5455,"tegeka":5456,"tegereje":5457,"jyaga":5458,"leh":5459,"ley":5460,"Ġikiri":5461,"Ġikiguzi":5462,"mbika":5463,"mbitse":5464,"zwayo":5465,"Abari":5466,"Abaturage":5467,"Abakinnyi":5468,"Abadage":5469,"Abatekereza":5470,"Abarabu":5471,"ĠLt":5472,"ĠLyon":5473,"Ġyiya":5474,"Ġyica":5475,"Ġyigeze":5476,"Ġyiyongereye":5477,"Ġyiswe":5478,"Ġyiyemeje":5479,"Ġyimuriwe":5480,"Ġtuga":5481,"Ġtuyi":5482,"Ġtumaze":5483,"Ġtugomba":5484,"Ġtuzaba":5485,"ĠKimenyi":5486,"Ġriti":5487,"Ġririmo":5488,"Ġrishinzwe":5489,"Ġritavuga":5490,"Ġrizagabanuka":5491,"Ġrwaba":5492,"Ġrwabo":5493,"Ġrwabaga":5494,"tsibihugu":5495,"impamvu":5496,"imbanza":5497,"iminota":5498,"imbuto":5499,"cece":5500,"bwiwe":5501,"rwani":5502,"Ġakavuga":5503,"Ġakawu":5504,"ĠTennis":5505,"Ġ194":5506,"Ġryayo":5507,"Kurasaga":5508,"ĠJanuar":5509,"peta":5510,"lam":5511,"lar":5512,"lain":5513,"ĠHitler":5514,"Ġurundi":5515,"Ġurubuga":5516,"Ġhariya":5517,"Ubuzima":5518,"Ubutegetsi":5519,"Ġwenda":5520,"Ġbariho":5521,"nyezamu":5522,"ĠRutara":5523,"ĠRugenera":5524,"Yari":5525,"Yabi":5526,"Yabwiye":5527,"dor":5528,"zamuye":5529,"imihango":5530,"imigabane":5531,"imigenzo":5532,"ĠDaniella":5533,"tirirwa":5534,"bonamo":5535,"gezaho":5536,"ĠEU":5537,"ĠEsta":5538,"ĠEuropa":5539,"Ġbohereza":5540,"Ġicyerekezo":5541,"Ġbakabi":5542,"icyerekezo":5543,"tekere":5544,"Niyo":5545,"Niho":5546,"ĠIns":5547,"Ġzombi":5548,"Ġyereke":5549,"Ġyemeza":5550,"Inzu":5551,"Inzira":5552,"ĠGatandatu":5553,"ĠGasingwa":5554,"Ġagace":5555,"Ġagaruka":5556,"Ġagamije":5557,"shejwe":5558,"Amatora":5559,"Ġbyifashe":5560,"Ġbyihariye":5561,"Ġbyiyongereyeho":5562,"Ġbyibuze":5563,"ĠYor":5564,"twererane":5565,"Ġbanjye":5566,"Ġbanyuze":5567,"ĠNyamu":5568,"ĠNyama":5569,"tarama":5570,"Ġ55":5571,"Ġ59":5572,"Ġizabera":5573,"Ġizafasha":5574,"Ġizakinwa":5575,"ĠWest":5576,"riraho":5577,"ĠParis":5578,"Ikigega":5579,"Ikimina":5580,"sinywa":5581,"ĠGisirikare":5582,"ĠGisenyi":5583,"ĠGisanura":5584,"komorerwa":5585,"ĠUmuryango":5586,"curujwe":5587,"Ġ41":5588,"Ġ43":5589,"ĠAbami":5590,"ĠAbazigaba":5591,"menyesha":5592,"menyekana":5593,"ĠBasket":5594,"byifuza":5595,"Ġahawe":5596,"Ġahagana":5597,"Ġahahoze":5598,"piteni":5599,"Ġkurengera":5600,"Ġkurekurwa":5601,"Ġbaraya":5602,"ĠRemera":5603,"ikiyaga":5604,"igice":5605,"igicumbi":5606,"tinya":5607,"Ġ700":5608,"boneke":5609,"Ġ2002":5610,"Ġ2005":5611,"ĠMisago":5612,"tsinzwe":5613,"ĠVo":5614,"yemeza":5615,"Ġ61":5616,"Ġ67":5617,"Ġhiswe":5618,"Ġkwemezwa":5619,"Ġkwemerera":5620,"Ġkubiba":5621,"sigasi":5622,"uruda":5623,"urupfu":5624,"urukiko":5625,"urukundo":5626,"pfukamu":5627,"Ġbavugaga":5628,"sobanurira":5629,"Ġikamu":5630,"Ġikaza":5631,"yongere":5632,"Ġahuza":5633,"Ġahanganye":5634,"ĠHolly":5635,"Uruganda":5636,"Urugero":5637,"Urugaga":5638,"Ġejo":5639,"Bivugwa":5640,"Ġbataza":5641,"naldo":5642,"injije":5643,"panuro":5644,"Ġkurumika":5645,"yumbati":5646,"shimishije":5647,"Ġibyara":5648,"Ġikinwa":5649,"Ġikinyamakuru":5650,"Ġikinyuranyo":5651,"ĠRadisson":5652,"ĠSamson":5653,"ĠSaleh":5654,"Igice":5655,"Igitabo":5656,"mvikane":5657,"Ġbazakomeza":5658,"Ġcyenda":5659,"ĠSesanga":5660,"Ġibarizwa":5661,"Ġibaruwa":5662,"garura":5663,"Ġguhashya":5664,"Ġguharanira":5665,"Ġguhatanira":5666,"ĠLiga":5667,"ramyi":5668,"Ġyabayeho":5669,"Ġbigakorwa":5670,"ĠRonaldo":5671,"kurikiraho":5672,"kubita":5673,"kubiyemo":5674,"herejwe":5675,"fatirwa":5676,"Abanye":5677,"Ġbine":5678,"kemura":5679,"Ġicyiciro":5680,"abanyamerika":5681,"gendera":5682,"ĠDeene":5683,"ĠVirunga":5684,"RDC":5685,"yamuremye":5686,"Ġubwishingizi":5687,"geneye":5688,"ĠSimba":5689,"ques":5690,"Ġkingana":5691,"Ġbadashobora":5692,"torerwa":5693,"Ġimpushya":5694,"ĠJustin":5695,"yandikisha":5696,"Ġbanyamihango":5697,"rengane":5698,"byanga":5699,"ogle":5700,"ogÃ¨ne":5701,"urley":5702,"yabuzima":5703,"garama":5704,"ĠIsmail":5705,"ĠCamerou":5706,"hererekanyijwe":5707,"lley":5708,"rican":5709,"ĠPoli":5710,"National":5711,"Ġyubatse":5712,"Ġburuta":5713,"ĠAfrican":5714,"ĠGeorge":5715,"suzuma":5716,"Ġguhirika":5717,"Gahunda":5718,"Padiri":5719,"Ġihamye":5720,"Ġabarinzi":5721,"Ġ1961":5722,"manuka":5723,"teganyirize":5724,"Akarere":5725,"Abongera":5726,"Ġradiyo":5727,"rikoko":5728,"gabanyije":5729,"gabanyirizwa":5730,"ĠAbanyafurika":5731,"ĠAbanyaburayi":5732,"ĠLuanda":5733,"Ġyemeye":5734,"ĠYoweri":5735,"Ġzubatswe":5736,"Ġyakusan":5737,"ĠRwandAir":5738,"Ġgukemuka":5739,"kubahwa":5740,"ĠManchester":5741,"ĠTurikiya":5742,"Ġbagiraga":5743,"Ġyavukiye":5744,"ĠMeddi":5745,"ĠMbabazi":5746,"ĠMichael":5747,"Ġgitondo":5748,"shimangiye":5749,"jugun":5750,"asem":5751,"Ġituze":5752,"ĠAkarere":5753,"ĠIbiro":5754,"ĠNdoli":5755,"Ġimpande":5756,"ĠFEASS":5757,"ĠFaure":5758,"abanyamakuru":5759,"Ġyajyaga":5760,"ĠPSD":5761,"ĠFung":5762,"ĠTap":5763,"ĠYezu":5764,"akarere":5765,"ĠQasem":5766,"Ġnyamukuru":5767,"Ġisonga":5768,"Ġakumva":5769,"Ġacibwa":5770,"Ġmurikabitabo":5771,"ĠHuye":5772,"Ġicyarimwe":5773,"Ġbyiyongeraho":5774,"ĠMiliyari":5775,"ristiano":5776,"Itangazo":5777,"Rwabugili":5778,"ĠRURA":5779,"serukira":5780,"yumvire":5781,"ĠMbonyi":5782,"shidikanya":5783,"Ġabayikoresha":5784,"ĠMudakama":5785,"Ġcyanditswe":5786,"ĠKimironko":5787,"ĠThÃ©ogÃ¨ne":5788,"Nduhungirehe":5789,"Rubaduka":5790,"phonse":5791,"ubwubatsi":5792,"terankunga":5793,"Ġwasaritse":5794,"ĠMessi":5795,"Ġinzozi":5796,"ĠIngabire":5797,"Ã©nÃ©":5798,"Ġizakinirwa":5799,"ĠWorld":5800,"ĠSeburikoko":5801,"Ġguhamagara":5802,"Ġ1378":5803,"ĠNiyonzima":5804,"INMR":5805,"Nyamuhenda":5806,"jyanama":5807,"pÃ´tre":5808,"mumugizi":5809,"haditsi":5810,"rondoro":5811,"senateri":5812,"Ġgusohora":5813,"Ġgusesekara":5814,"banjirije":5815,"ĠMpatsibihugu":5816,"ĠKandiho":5817,"demokarate":5818,"Ġziryamye":5819,"ĠClever":5820,"ĠSerena":5821,"kangurambaga":5822,"ĠFitch":5823,"ĠKayonza":5824,"ĠKakamega":5825,"ĠMureganshuro":5826,"ĠJanuary":5827,"ĠRutaraka":5828,"ĠEstadio":5829,"ĠYork":5830,"ĠBasketball":5831,"pfukamunwa":5832,"ĠHollywood":5833,"ĠDeeney":5834,"ĠCameroun":5835,"ĠMeddie":5836,"%),":5837,"20":5838,"45":5839,"52":5840,"67":5841,"91":5842,"Af":5843,"Abe":5844,"Bira":5845,"Byari":5846,"Benshi":5847,"BRD":5848,"BNR":5849,"Byongeye":5850,"Cya":5851,"DP":5852,"De":5853,"Daniella":5854,"Ese":5855,"EAC":5856,"Fa":5857,"Frw":5858,"Gi":5859,"Gicanda":5860,"He":5861,"Is":5862,"Ira":5863,"Izina":5864,"Ishoramari":5865,"Ihame":5866,"Ivo":5867,"Ihinduka":5868,"Itorero":5869,"ICCA":5870,"Ja":5871,"Kanya":5872,"Mba":5873,"MTN":5874,"Ne":5875,"Nuko":5876,"Nyamara":5877,"Nkuko":5878,"None":5879,"Ngandu":5880,"Nyinawabari":5881,"PN":5882,"Po":5883,"RM":5884,"Rw":5885,"Sta":5886,"Sinza":5887,"Urebye":5888,"UEFA":5889,"Usibye":5890,"Village":5891,"Wa":5892,"We":5893,"Yana":5894,"Yama":5895,"Zimwe":5896,"ata":5897,"ble":5898,"byin":5899,"bwanacyambwe":5900,"cron":5901,"cyamamare":5902,"dineza":5903,"eman":5904,"fre":5905,"fere":5906,"fano":5907,"gno":5908,"gton":5909,"glade":5910,"io":5911,"iz":5912,"iri":5913,"iva":5914,"isoko":5915,"ijambo":5916,"igenamigambi":5917,"itabi":5918,"ign":5919,"ks":5920,"lf":5921,"llo":5922,"lande":5923,"lles":5924,"llin":5925,"myu":5926,"mpa":5927,"mbera":5928,"ny":5929,"nje":5930,"ngwa":5931,"nyuze":5932,"nura":5933,"ol":5934,"om":5935,"opi":5936,"oom":5937,"pt":5938,"rg":5939,"rch":5940,"stu":5941,"ssa":5942,"spor":5943,"sbon":5944,"thi":5945,"trick":5946,"uc":5947,"um":5948,"us":5949,"wn":5950,"xel":5951,"zandika":5952,"Ã¼":5953,"Ġana":5954,"Ġsho":5955,"Ġon":5956,"Ġshyaka":5957,"Ġhuriro":5958,"Ġshingiro":5959,"Ġour":5960,"anyu":5961,"ance":5962,"angiza":5963,"Ġbintu":5964,"Ġbyungu":5965,"Ġbyangombwa":5966,"rimu":5967,"riya":5968,"rise":5969,"rizo":5970,"rikana":5971,"rinzi":5972,"ries":5973,"rilla":5974,"riot":5975,"ririmbyi":5976,"Ġkanya":5977,"muga":5978,"mukira":5979,"murura":5980,"yato":5981,"Ġnganda":5982,"Ġngendo":5983,"Ġnkunga":5984,"Ġize":5985,"Ġisan":5986,"Ġikorwa":5987,"Ġishaka":5988,"Ġizamu":5989,"Ġibaye":5990,"Ġitariki":5991,"Ġishyira":5992,"Ġimari":5993,"Ġijyanye":5994,"Ġihari":5995,"Ġikorera":5996,"Ġikomoka":5997,"Ġirenga":5998,"Ġishuri":5999,"Ġibanza":6000,"Ġifitanye":6001,"Ġigenamigambi":6002,"Ġishami":6003,"Ġirangiye":6004,"Ġigenzu":6005,"Ġihuriro":6006,"Ġitegurwa":6007,"Ġifunzwe":6008,"Ġiry":6009,"Ġiwabo":6010,"Ġishyanga":6011,"rabi":6012,"ramo":6013,"rake":6014,"rack":6015,"rakari":6016,"gatare":6017,"gabira":6018,"Ġam":6019,"Ġahe":6020,"Ġashyira":6021,"Ġagaragara":6022,"Ġasaba":6023,"Ġarayi":6024,"Ġatuye":6025,"Ġagire":6026,"Ġayobora":6027,"Ġagena":6028,"Ġabonye":6029,"Ġagirwa":6030,"Ġaboneka":6031,"Ġakeneye":6032,"Ġaciriritse":6033,"Ġayoboye":6034,"Ġashimira":6035,"Ġasobanura":6036,"Ġaruhu":6037,"Ġmuba":6038,"Ġmuke":6039,"Ġmunya":6040,"Ġmugore":6041,"Ġmubyo":6042,"Ġmudepite":6043,"Ġmubare":6044,"Ġmugenzi":6045,"Ġmunani":6046,"Ġmuhanda":6047,"Ġmuganga":6048,"bar":6049,"bama":6050,"baka":6051,"baho":6052,"bali":6053,"basha":6054,"batse":6055,"barasa":6056,"Ġuti":6057,"Ġumwa":6058,"Ġurw":6059,"Ġumaze":6060,"Ġugana":6061,"Ġukuriki":6062,"Ġukwa":6063,"Ġukorera":6064,"Ġumwi":6065,"Ġutuye":6066,"Ġuheruka":6067,"Ġufatwa":6068,"Ġurangiye":6069,"Ġuhereye":6070,"Ġurebye":6071,"Ġunyuze":6072,"Ġkuyo":6073,"Ġkumi":6074,"Ġkuti":6075,"Ġkugwa":6076,"Ġkucyo":6077,"Ġkubya":6078,"Ġkubone":6079,"Ġkugurisha":6080,"Ġkuvana":6081,"Ġkuzana":6082,"Ġkugombora":6083,"Ġkungukira":6084,"Ġkurangura":6085,"Ġkugabira":6086,"ress":6087,"shywe":6088,"shwan":6089,"shene":6090,"mad":6091,"main":6092,"mateka":6093,"yerere":6094,"yejana":6095,"giro":6096,"girira":6097,"giranye":6098,"gitari":6099,"gishw":6100,"komwe":6101,"kongo":6102,"kono":6103,"koman":6104,"kopera":6105,"kabaye":6106,"karengane":6107,"ingo":6108,"ingana":6109,"ingoro":6110,"inkomoko":6111,"inshingano":6112,"guta":6113,"gurika":6114,"zamo":6115,"Ġbahe":6116,"Ġbahan":6117,"Ġbakan":6118,"Ġbakore":6119,"Ġbahanga":6120,"Ġbabye":6121,"Ġbazamu":6122,"Ġbagana":6123,"Ġbashyira":6124,"Ġbaca":6125,"Ġbakana":6126,"Ġbagaragaza":6127,"Ġbatara":6128,"Ġbafatan":6129,"Ġbajye":6130,"Ġbakorana":6131,"Ġbadepite":6132,"Ġbakina":6133,"Ġbakura":6134,"Ġbakunda":6135,"Ġbahita":6136,"Ġbasirikare":6137,"Ġbakorerwa":6138,"Ġbahaye":6139,"Ġbashoramari":6140,"Ġbakozi":6141,"Ġbapfa":6142,"Ġbaturutse":6143,"Ġbafashwe":6144,"Ġbafitanye":6145,"Ġbasanze":6146,"Ġbafatwa":6147,"Ġbafunzwe":6148,"Ġbatwi":6149,"Ġbakundaga":6150,"Ġbaganiriye":6151,"Ġbafungiwe":6152,"Ġbatanzweho":6153,"yoma":6154,"yoro":6155,"yomo":6156,"yobera":6157,"ruke":6158,"rumwe":6159,"rutin":6160,"ruhame":6161,"rumika":6162,"rusheho":6163,"ruretwa":6164,"ruxel":6165,"Ġyaza":6166,"Ġyage":6167,"Ġyabu":6168,"Ġyaki":6169,"Ġyazo":6170,"Ġyatanga":6171,"Ġyagaraga":6172,"Ġyakwi":6173,"Ġyakuriki":6174,"Ġyashinzwe":6175,"Ġyavuye":6176,"Ġyashize":6177,"Ġyatewe":6178,"Ġyambara":6179,"Ġyahabwa":6180,"Ġyatumye":6181,"Ġyafashe":6182,"Ġyarangiye":6183,"Ġyateguye":6184,"Ġyashimiye":6185,"Ġyatangajwe":6186,"Ġyaguye":6187,"Ġyakundaga":6188,"Ġyasimbu":6189,"Ġyasubije":6190,"Ġyamenyekanye":6191,"Ġyafunguye":6192,"Ġyasohoye":6193,"Ġyatsindiye":6194,"Ġyahishu":6195,"Ġyagabanyije":6196,"gema":6197,"geshwe":6198,"geria":6199,"anden":6200,"andball":6201,"tete":6202,"terere":6203,"tezweho":6204,"tefano":6205,"zig":6206,"zitwa":6207,"biru":6208,"bije":6209,"bikoze":6210,"bidde":6211,"yita":6212,"haza":6213,"hagira":6214,"hahi":6215,"hagera":6216,"hatana":6217,"hamber":6218,"buwa":6219,"butse":6220,"burana":6221,"butaka":6222,"buguzi":6223,"tag":6224,"tawe":6225,"tayu":6226,"tagira":6227,"tagenze":6228,"tabwaho":6229,"Ġbigiye":6230,"Ġbigaraga":6231,"Ġbishyira":6232,"Ġbikana":6233,"Ġbitero":6234,"Ġbitegan":6235,"Ġbisaga":6236,"Ġbizwi":6237,"Ġbishwe":6238,"Ġbiyongereye":6239,"Ġbigamije":6240,"Ġbihariye":6241,"Ġbisigaye":6242,"Ġbiturutse":6243,"Ġbifitanye":6244,"Ġbiyongereyeho":6245,"Ġbihangano":6246,"Ġbireme":6247,"Ġbirangira":6248,"Ġbifashisha":6249,"Ġbikoresho":6250,"Ġbisembuye":6251,"Ġbican":6252,"Ġbiganza":6253,"Ġbisobanuro":6254,"zengere":6255,"kigaragara":6256,"kishije":6257,"kirutin":6258,"tugu":6259,"tuwe":6260,"tujuje":6261,"rom":6262,"roy":6263,"robyi":6264,"roshye":6265,"hoza":6266,"ĠRi":6267,"ĠRamada":6268,"senga":6269,"Ġcho":6270,"Ġcyeme":6271,"Ġcyumba":6272,"Ġcyemezo":6273,"Ġcricket":6274,"mizi":6275,"mico":6276,"mikwa":6277,"mijana":6278,"Ġguka":6279,"Ġgusi":6280,"Ġgukan":6281,"Ġguhanga":6282,"Ġgushinga":6283,"Ġguhura":6284,"Ġgutora":6285,"Ġgutsinda":6286,"Ġgupfa":6287,"Ġgukoreshwa":6288,"Ġgucuruzwa":6289,"Ġgufatanya":6290,"Ġgufungwa":6291,"Ġgusubiza":6292,"Ġgushingira":6293,"Ġgufashwa":6294,"Ġgusozwa":6295,"Ġgusinya":6296,"Ġgufunga":6297,"Ġgushushanya":6298,"Ġgucece":6299,"Ġgutorerwa":6300,"sia":6301,"sima":6302,"sigo":6303,"siro":6304,"Ġkorana":6305,"Ġkonti":6306,"Ġkongerwa":6307,"mejwe":6308,"meranya":6309,"Ġyuko":6310,"wiye":6311,"kuri":6312,"kuze":6313,"kuriza":6314,"huka":6315,"huta":6316,"huti":6317,"husha":6318,"huzaga":6319,"hurch":6320,"tishoboye":6321,"banire":6322,"banywa":6323,"vugira":6324,"vururu":6325,"Ġwaga":6326,"Ġwazi":6327,"Ġwayi":6328,"Ġwaho":6329,"Ġwaku":6330,"Ġwagira":6331,"Ġwavuze":6332,"Ġwavuye":6333,"Ġwatangiye":6334,"Ġwaseze":6335,"Ġwahari":6336,"Ġwagizwe":6337,"Ġwasoma":6338,"Ġwafashwe":6339,"Ġwakiniraga":6340,"Ġwakiniye":6341,"Ġwavukiye":6342,"Ġwakoreraga":6343,"Ġwahuzaga":6344,"Ġnari":6345,"Ġnaba":6346,"bese":6347,"beraga":6348,"beth":6349,"beria":6350,"her":6351,"hesha":6352,"heto":6353,"hennyi":6354,"ĠMwi":6355,"ĠMwan":6356,"ĠMinne":6357,"ĠMbidde":6358,"lish":6359,"lime":6360,"lica":6361,"liziya":6362,"liance":6363,"Ġhazi":6364,"Ġhati":6365,"Ġhakuriki":6366,"Ġharuguru":6367,"Ġhashyizwe":6368,"Ġhasinywa":6369,"Ġmp":6370,"Ġminisitiri":6371,"Ġmpaka":6372,"Ġmvugo":6373,"Ġmpeshyi":6374,"ĠKu":6375,"ĠKaba":6376,"sabaga":6377,"Ġbuga":6378,"Ġbubi":6379,"Ġbushya":6380,"Ġbushobora":6381,"Ġbutara":6382,"Ġbujyanye":6383,"Ġbutuma":6384,"Ġbuvuzi":6385,"Ġbutunzi":6386,"Ġmurimo":6387,"rwaye":6388,"Ġinko":6389,"Ġinyu":6390,"Ġintare":6391,"Ġingengo":6392,"Ġintasi":6393,"shara":6394,"shambo":6395,"shakisha":6396,"Ġgifasha":6397,"Ġgikwiye":6398,"Ġgikemu":6399,"Ġgituwe":6400,"ĠAt":6401,"ĠAgaciro":6402,"yane":6403,"Ġariwo":6404,"kes":6405,"kenga":6406,"faire":6407,"Ġumugore":6408,"Ġumucuruzi":6409,"Ġumuhanzi":6410,"Ġumuhungu":6411,"Ġumuvugizi":6412,"Ġumurwayi":6413,"Ġumusanzu":6414,"Ġumunyamakuru":6415,"Ġumurambo":6416,"Ġumusenateri":6417,"ĠBil":6418,"ĠBruxel":6419,"Ġubuso":6420,"Ġubufasha":6421,"Ġubukiri":6422,"Ġuburasirazuba":6423,"Ġubusizi":6424,"Ġubushishozi":6425,"shimye":6426,"shimyu":6427,"Ġibiryo":6428,"Ġibigaragaza":6429,"Ġibigwi":6430,"Ġibikorerwa":6431,"Ġibiyaga":6432,"Ġibitaramo":6433,"Ġibisubizo":6434,"Ġibihingwa":6435,"Ġibitagenze":6436,"ranywe":6437,"ĠIkipe":6438,"ĠIsaa":6439,"ĠInama":6440,"ĠIjwi":6441,"ĠIsubireho":6442,"ĠIcyamamare":6443,"Ġamahugu":6444,"Ġamafu":6445,"Ġamafi":6446,"Ġamashyamba":6447,"Ġamadini":6448,"Ġamakosa":6449,"Ġamatsiko":6450,"Ġamajwi":6451,"Ġamakenga":6452,"Ġwinji":6453,"Ġwanjye":6454,"Ġabaru":6455,"Ġabazi":6456,"Ġabajya":6457,"Ġabamaze":6458,"Ġabashaka":6459,"Ġabagabo":6460,"Ġabasaga":6461,"Ġabasura":6462,"Ġabahungu":6463,"Ġababyeyi":6464,"Ġabakurambere":6465,"Ġabayoboke":6466,"Ġabatishoboye":6467,"andikira":6468,"Ġnibwira":6469,"Ġnikigera":6470,"ĠNyobozi":6471,"ĠNgenda":6472,"ĠNISR":6473,"ĠNgishw":6474,"deo":6475,"kindo":6476,"kinwu":6477,"Ġcyabaye":6478,"Ġcyagize":6479,"Ġcyarano":6480,"Ġcyashyizeho":6481,"Ġruri":6482,"Ġruki":6483,"Ġrutara":6484,"Ġrugari":6485,"Ġrushanwa":6486,"Ġruherereye":6487,"Ġruteganya":6488,"Ġrubanda":6489,"Ġruvana":6490,"Ġruzinduko":6491,"Ġkimu":6492,"Ġkira":6493,"Ġkika":6494,"Ġkida":6495,"Ġkigomba":6496,"Ġkizaba":6497,"Ġkiswe":6498,"Ġkigereranyo":6499,"Ġzimu":6500,"Ġzizi":6501,"Ġziki":6502,"Ġzitwa":6503,"Ġzivuga":6504,"Ġzibera":6505,"Ġzishobora":6506,"Ġzikaba":6507,"Ġzikomeje":6508,"Ġzikomeza":6509,"Ġzikomoka":6510,"Ġzishingiye":6511,"Ġziherereye":6512,"Ġziteye":6513,"Ġzisurwa":6514,"Ġzitunganya":6515,"Ġbyakomeje":6516,"Ġbyaturutse":6517,"Ġbyarangiye":6518,"Ġbyakiriye":6519,"Ġbyahinduye":6520,"Ġbyahungabanyijwe":6521,"fuzo":6522,"fungo":6523,"ĠCya":6524,"ĠCÃ©":6525,"ĠCMI":6526,"ĠCristiano":6527,"ĠChamber":6528,"ĠUp":6529,"ĠUbwo":6530,"ĠUbwi":6531,"ĠUshinzwe":6532,"ĠUrwego":6533,"dam":6534,"sota":6535,"somo":6536,"soje":6537,"sozera":6538,"tohe":6539,"tolika":6540,"tongero":6541,"ganzo":6542,"gannye":6543,"amazi":6544,"amasezerano":6545,"amakipe":6546,"amashyamba":6547,"amasasu":6548,"higa":6549,"himana":6550,"ngenge":6551,"ngereye":6552,"ubumwe":6553,"ubuhinzi":6554,"ubuziranenge":6555,"uburwayi":6556,"ubushinjacyaha":6557,"abaru":6558,"abafite":6559,"abahoze":6560,"abasirikare":6561,"abahagarariye":6562,"abahungu":6563,"abazungu":6564,"abatavuga":6565,"abakurambere":6566,"abatunze":6567,"abasivi":6568,"Ġimbi":6569,"Ġimpa":6570,"Ġimvugo":6571,"Ġiminota":6572,"Ġimpozamarira":6573,"Ġimfura":6574,"Ġimpeta":6575,"Ġzacu":6576,"Ġzashyizweho":6577,"Ġzashyizwe":6578,"Ġzahabu":6579,"shinganisha":6580,"shington":6581,"enze":6582,"ĠSy":6583,"ĠSteve":6584,"Ġigiye":6585,"Ġigitego":6586,"Ġigisirikare":6587,"Ġigisubizo":6588,"Ġigifungo":6589,"Ġmizi":6590,"Ġmishya":6591,"Ġmisozi":6592,"Ġyongere":6593,"Ġyour":6594,"Ġyongeye":6595,"kansubije":6596,"ĠPL":6597,"ĠPDR":6598,"vugaho":6599,"Mura":6600,"Mutabazi":6601,"Musenyeri":6602,"ĠFe":6603,"Ġmazi":6604,"Ġmashuri":6605,"Ġmashyamba":6606,"Ġmatwi":6607,"ĠKayi":6608,"ĠKayumba":6609,"ĠKareke":6610,"ĠKaliza":6611,"ĠKageri":6612,"ĠKacyiru":6613,"ĠKaruretwa":6614,"suf":6615,"suganya":6616,"sumizi":6617,"ĠMuha":6618,"ĠMuni":6619,"ĠMudugudu":6620,"ĠMukuku":6621,"duko":6622,"duce":6623,"zura":6624,"zuza":6625,"shyikiri":6626,"shyiremo":6627,"Ġkwitwa":6628,"Ġkwigaragaza":6629,"Ġkwihuza":6630,"Ġkwigisha":6631,"Ġkwifashisha":6632,"Ġkwibuka":6633,"Ġkwisubiza":6634,"Ġkwigobo":6635,"Ġkwizigamira":6636,"Ġkwihorera":6637,"Ġkwicwa":6638,"Ġkwimakaza":6639,"Ġkwiyandikisha":6640,"ciye":6641,"cuza":6642,"cunga":6643,"cungi":6644,"cukura":6645,"ibihe":6646,"ibitabo":6647,"ibijyanye":6648,"ibiciriritse":6649,"ibidukikije":6650,"Ġbwinshi":6651,"sangiza":6652,"umurimo":6653,"umukuru":6654,"umudepite":6655,"umujyi":6656,"umutoza":6657,"umubiligi":6658,"umukara":6659,"umuzungu":6660,"ĠBunya":6661,"ĠBuju":6662,"ĠBushali":6663,"ĠBuholandi":6664,"Ġimico":6665,"Ġimijyi":6666,"Ġimirongo":6667,"Ġimiterere":6668,"Ġbwazamutse":6669,"Ġbwagizweho":6670,"Umurwa":6671,"Umutima":6672,"Umudepite":6673,"Umuhango":6674,"Umutekano":6675,"Umutoza":6676,"Ġkubaho":6677,"Ġkubarura":6678,"Ġkubahirizwa":6679,"Ġkaru":6680,"Ġkabo":6681,"Ġkaminuza":6682,"Ġntaren":6683,"mbia":6684,"ĠMaya":6685,"ĠMade":6686,"ĠMaid":6687,"ĠMadamu":6688,"ĠMacron":6689,"ĠMasozera":6690,"yoboraga":6691,"Abayobozi":6692,"Abakozi":6693,"Abakoloni":6694,"Abasifuzi":6695,"Ababanda":6696,"ĠLou":6697,"Ġyiga":6698,"Ġyigenga":6699,"Ġyitezwe":6700,"Ġyishyu":6701,"Ġyifashishije":6702,"Ġyitiriwe":6703,"Ġyisumbuye":6704,"Ġtumwe":6705,"Ġtuva":6706,"Ġtubona":6707,"Ġtuzajya":6708,"ĠKibuga":6709,"ĠKiliziya":6710,"Ġriga":6711,"Ġriha":6712,"Ġrifasha":6713,"Ġrigaragaza":6714,"Ġrirambye":6715,"Ġgazi":6716,"Ġgahanga":6717,"Ġgabanuka":6718,"garagariza":6719,"Ġrwashyize":6720,"poloma":6721,"tsirika":6722,"rereye":6723,"rereza":6724,"impi":6725,"imbuga":6726,"ĠColo":6727,"ĠCovid":6728,"bwiraga":6729,"vamo":6730,"Ġnkwiye":6731,"rwano":6732,"Ġakaya":6733,"Ġakabi":6734,"Ġakarere":6735,"Ġakagenda":6736,"Ġbyongere":6737,"ĠTwa":6738,"ĠTour":6739,"Ġryamaze":6740,"Kujya":6741,"Kurumika":6742,"nyambo":6743,"ĠJio":6744,"ibyumba":6745,"mbogo":6746,"mbona":6747,"ĠHe":6748,"ĠHen":6749,"ĠHindu":6750,"ĠHurley":6751,"ĠHandball":6752,"Ġurugo":6753,"Ġururimi":6754,"Ġhariho":6755,"Ubucuruzi":6756,"Uburayi":6757,"Ubutabera":6758,"Ubuvuzi":6759,"Uburezi":6760,"Ġwenyine":6761,"ragezwa":6762,"ĠRugaga":6763,"shakamo":6764,"rangaga":6765,"velo":6766,"verty":6767,"Ġwowe":6768,"anduye":6769,"shushan":6770,"Yasobanuye":6771,"Ġmwami":6772,"Ġmwamba":6773,"Ġ2022":6774,"zamurikwa":6775,"imirimo":6776,"imikindo":6777,"ĠDis":6778,"tandukanya":6779,"ĠEthi":6780,"Ġicy":6781,"Ġicyumba":6782,"Ġicyubahiro":6783,"Ġbakamu":6784,"Ġbakaya":6785,"Ġbakaza":6786,"Ġbakavuga":6787,"icyumweru":6788,"icyubahiro":6789,"icyamamare":6790,"ĠIntebe":6791,"cakara":6792,"Ġ35":6793,"Ġ3000":6794,"ngeraho":6795,"Ġyear":6796,"Ġyerekanye":6797,"Inganda":6798,"Inkomoko":6799,"ĠGatete":6800,"ĠGatolika":6801,"Ġagatanga":6802,"Ġagakunda":6803,"shema":6804,"shegeshwe":6805,"mburiye":6806,"mburira":6807,"Amasezerano":6808,"ĠLeopold":6809,"ford":6810,"ĠYves":6811,"ganiye":6812,"ganiwe":6813,"gezeho":6814,"Ġbani":6815,"kurikiranya":6816,"ĠNyaba":6817,"ĠNyamp":6818,"ĠNyakubahwa":6819,"ĠNyagatare":6820,"lometero":6821,"banyirizwa":6822,"Ġ56":6823,"Ġgusahura":6824,"ĠWil":6825,"Ġiyiha":6826,"zamara":6827,"ĠPar":6828,"ĠParty":6829,"ĠPatrick":6830,"Ġingabe":6831,"Ġtra":6832,"Ġtwu":6833,"Ġthat":6834,"Ġthis":6835,"vuyeho":6836,"sing":6837,"ĠGihugu":6838,"ĠGicumbi":6839,"ĠGihana":6840,"ĠGitarama":6841,"ĠUmukuru":6842,"ĠUmunya":6843,"ĠUmunsi":6844,"ĠUmudepite":6845,"ĠUmutekano":6846,"Ġ49":6847,"Ibigo":6848,"Ibiro":6849,"Ibiciro":6850,"Ibigwi":6851,"Ibisumizi":6852,"Ġiriho":6853,"Ġirindi":6854,"Ġazakina":6855,"Ġduce":6856,"Ġdusaba":6857,"Ġntiwa":6858,"Ġntibya":6859,"Hagiye":6860,"Hashize":6861,"Ġbagaban":6862,"Ġbagamije":6863,"kwambara":6864,"menyereye":6865,"menyekanisha":6866,"ĠBahama":6867,"ĠBabuwa":6868,"teroli":6869,"erta":6870,"manura":6871,"Ġwita":6872,"Ġwifuza":6873,"Ġumwanditsi":6874,"Ġkuren":6875,"Ġkurema":6876,"Ġbaraka":6877,"ikimenyetso":6878,"byare":6879,"byaro":6880,"igiro":6881,"tinze":6882,"Ġ75":6883,"Ġ79":6884,"sezeranye":6885,"Ġ87":6886,"Ġ818":6887,"Ġhanyuma":6888,"Ġkwandu":6889,"Ġukugira":6890,"Ġukunda":6891,"Ġukuntu":6892,"Ġukureba":6893,"Ġ2001":6894,"Ġ2004":6895,"out":6896,"Ġtwari":6897,"Ġtwavuga":6898,"Ġtwasinyishije":6899,"ĠMil":6900,"ĠMirenge":6901,"komezaga":6902,"ĠZoom":6903,"yemerere":6904,"Ġ62":6905,"Ġ63":6906,"Ġ600":6907,"Ġkuzajya":6908,"Ġcyiswe":6909,"Ġbabashe":6910,"Ġhizihi":6911,"Ġkwegukana":6912,"Ġkubibona":6913,"Ġkubikuriza":6914,"sigara":6915,"kenerwa":6916,"yinya":6917,"yinzira":6918,"ĠObama":6919,"tarenga":6920,"urugamba":6921,"uruhererekane":6922,"Ġbemera":6923,"teguro":6924,"Ġ1990":6925,"Ġ1997":6926,"hindurwa":6927,"Bara":6928,"Bamwe":6929,"Ġikaku":6930,"Ġikagira":6931,"gariro":6932,"Ġguterwa":6933,"tangire":6934,"tangizwa":6935,"tangijwe":6936,"tangiriye":6937,"tangirira":6938,"ĠHam":6939,"ĠHategekimana":6940,"ĠRDI":6941,"fataga":6942,"pamyabu":6943,"Bimwe":6944,"Bitandukanye":6945,"Imitwe":6946,"Imikorere":6947,"Imigogo":6948,"buhangaho":6949,"komokaho":6950,"ĠYunze":6951,"nganira":6952,"pano":6953,"pangu":6954,"Ġbiribwa":6955,"Ġbirindwi":6956,"Ġ120":6957,"sohoza":6958,"ĠCyimumugizi":6959,"Ġibyatsi":6960,"Ġibyabaye":6961,"Ġibyakozwe":6962,"Ġhegitari":6963,"Ġikinyoma":6964,"Ġutari":6965,"Ġutavuze":6966,"zagaruka":6967,"ĠRadiyo":6968,"ĠRating":6969,"ĠSahara":6970,"tsobe":6971,"yongeraho":6972,"Igicumbi":6973,"Ġkuvugururwa":6974,"Ġbazajya":6975,"Ġbazahabwa":6976,"ĠRwamagana":6977,"Ġcyereke":6978,"Ġ255":6979,"ĠSendashonga":6980,"ubatswe":6981,"Ġbwihariye":6982,"Ġibara":6983,"Ġibarirwa":6984,"Ġibarizwamo":6985,"yoncÃ©":6986,"Ġibiribwa":6987,"Ġkujyaho":6988,"Ġ93":6989,"Ġ910":6990,"garuke":6991,"zabasha":6992,"ĠLisbon":6993,"ĠLiberia":6994,"Ġabimukira":6995,"Ġuwahoze":6996,"art":6997,"Ġyagiyeho":6998,"kaniro":6999,"ĠRock":7000,"kubito":7001,"fatiye":7002,"fatiro":7003,"lestin":7004,"lesch":7005,"Ġbinyu":7006,"Ġuzajya":7007,"horaho":7008,"Ġmyitozo":7009,"Ġtwita":7010,"Ġtwigeze":7011,"Ġtwizeye":7012,"ĠNishimwe":7013,"ĠNigeria":7014,"Ġimyidagaduro":7015,"Bushali":7016,"Kabu":7017,"Kagame":7018,"Kapiteni":7019,"wanyi":7020,"gendeye":7021,"genderwaho":7022,"ngerera":7023,"koreshwaga":7024,"ĠDevelo":7025,"kolonije":7026,"kolonijwe":7027,"geneke":7028,"Ġinzuri":7029,"ĠSibomana":7030,"Ġteleviziyo":7031,"Ġone":7032,"Ġkinyamakuru":7033,"shyingura":7034,"Ġrwibutso":7035,"Ġndimi":7036,"Ġiherereyemo":7037,"Ġaziyamamariza":7038,"Ġumwamikazi":7039,"Ġbadafite":7040,"ĠNebuka":7041,"Ġimpungenge":7042,"ĠMarriot":7043,"Ġyitwaye":7044,"Ġyitwaje":7045,"Tumaze":7046,"ubwishingizi":7047,"ubwikorezi":7048,"Ġuriho":7049,"Ġkuharara":7050,"Ġbaketse":7051,"Ġyabajijwe":7052,"sesekaye":7053,"ĠGoogle":7054,"ĠGorilla":7055,"rwanyi":7056,"hagarikwa":7057,"NCTA":7058,"byina":7059,"Ġngaruka":7060,"Ġyabagamo":7061,"ĠIslam":7062,"Ġyitabira":7063,"ĠHabineza":7064,"Ġigare":7065,"Ġitangaza":7066,"Ġitangazo":7067,"Ġugushyigikira":7068,"inedine":7069,"Ġyagiriye":7070,"Ġkoroshya":7071,"Ġkororoka":7072,"ĠBoni":7073,"rangirira":7074,"ĠPolitiki":7075,"ĠPoverty":7076,"ĠRudatsimburwa":7077,"uwahoze":7078,"voma":7079,"Ġirashize":7080,"Ġadakunda":7081,"Ġadatura":7082,"Ġbarushaho":7083,"ĠStar":7084,"suzugu":7085,"Ikinyarwanda":7086,"vanganzo":7087,"Ġryita":7088,"sanzuye":7089,"Abanyaburayi":7090,"Mata":7091,"Ġkunyo":7092,"Ġkunyura":7093,"hamagara":7094,"Ġyanyuze":7095,"ĠNzeyimana":7096,"Ġ1960":7097,"ibinyabuzima":7098,"ĠWashington":7099,"Abongereza":7100,"Ġbatuyemo":7101,"Ġgucamo":7102,"ĠJames":7103,"ĠYolande":7104,"Abibumbye":7105,"Ġbahunze":7106,"ĠNsengimana":7107,"ĠTurere":7108,"CAM":7109,"ahazaza":7110,"Ġangana":7111,"Ġbyemewe":7112,"Ġbyemeranyije":7113,"Ġbagezeho":7114,"Ġbahabwaga":7115,"ruhuko":7116,"Ġbihagije":7117,"lizabeth":7118,"Ġumunyapolitiki":7119,"Ġibyiza":7120,"Ġntibabi":7121,"Ġumwuzure":7122,"COM":7123,"Reba":7124,"Simba":7125,"ikinyamakuru":7126,"umwana":7127,"umwanditsi":7128,"Ã´te":7129,"Ġfrom":7130,"Ġkutaruta":7131,"Ġbikubye":7132,"ĠAkamanzi":7133,"shishikajwe":7134,"ĠIrakoze":7135,"ĠIrambona":7136,"ĠNdoba":7137,"nararibonye":7138,"Ġimpinduka":7139,"Ġkwamamara":7140,"Ġntibigeze":7141,"abanyamahanga":7142,"sesenguye":7143,"steur":7144,"Ġpere":7145,"Ġpeteroli":7146,"Ġnkengero":7147,"Ġntoki":7148,"Ġkugirira":7149,"renza":7150,"Ġbashakisha":7151,"Ġyasinyishije":7152,"rokoka":7153,"Ġubusabe":7154,"ĠCharles":7155,"ĠChargÃ©":7156,"ĠGuma":7157,"ĠPSF":7158,"ĠFund":7159,"ĠTadeyo":7160,"Yita":7161,"canyi":7162,"llah":7163,"ĠQata":7164,"ĠÂ¼":7165,"ĠÂ½":7166,"tabiriye":7167,"Ġrugahamya":7168,"ĠSharangabo":7169,"Ġ1938":7170,"Ġ1975":7171,"Ġbaramutse":7172,"ĠMiliyoni":7173,"ristian":7174,"imbaraga":7175,"Ġbyumvikana":7176,"Ġbyanze":7177,"muremyi":7178,"Ġndangagaciro":7179,"Ġndangamateka":7180,"Ġyaciye":7181,"Ġyasinye":7182,"Ġyasinywe":7183,"goboka":7184,"roheje":7185,"Ġguhungira":7186,"Ġgukurikiza":7187,"Ġgukurikizwa":7188,"Ġgusobanukirwa":7189,"ĠAdonia":7190,"ĠBanglade":7191,"imyitwarire":7192,"Ġ1884":7193,"Ġ1885":7194,"Ingagi":7195,"Kwita":7196,"Marc":7197,"Premier":7198,"Visi":7199,"mpique":7200,"vÃ©nal":7201,"Ġikinamico":7202,"Ġatya":7203,"Ġbajyanwa":7204,"rukanywe":7205,"rumbuke":7206,"gendanwa":7207,"Ġbitarenze":7208,"Ġgusenya":7209,"Ġgukuraho":7210,"kundiye":7211,"sambanyi":7212,"ĠBlaise":7213,"ĠBellomo":7214,"ĠNgomijana":7215,"Ġkigahitana":7216,"cikamo":7217,"sangwabutaka":7218,"ĠLoni":7219,"ĠResort":7220,"ĠOlympique":7221,"ĠRosalie":7222,"Ġguhimbaza":7223,"ĠWatford":7224,"Manchester":7225,"Samuel":7226,"Yesu":7227,"itangazamakuru":7228,"Ġntangiriro":7229,"Ġurwibutso":7230,"Ġkubangamira":7231,"Ġkugabana":7232,"gurukaga":7233,"yomekaho":7234,"Ġyawuvuyeho":7235,"Ġyasabwaga":7236,"taliyani":7237,"Ġgusubizwa":7238,"Ġgukinisha":7239,"hengeri":7240,"ĠMont":7241,"Ġmyugariro":7242,"Ġbusembere":7243,"ĠADEPR":7244,"ĠAwards":7245,"ĠBwiru":7246,"ĠNico":7247,"Ġruhabo":7248,"totezwa":7249,"shyikirano":7250,"Ġyiyahuye":7251,"tekereze":7252,"Ġyerekeje":7253,"ĠNyamuhenda":7254,"ĠVolley":7255,"urudaca":7256,"ĠFEASSSA":7257,"serukiramuco":7258,"Affaire":7259,"Depite":7260,"Israel":7261,"Ivoire":7262,"James":7263,"Kanyarengwe":7264,"Sinzatesha":7265,"dinezali":7266,"ference":7267,"mpaye":7268,"opia":7269,"Ġisano":7270,"Ġurwu":7271,"Ġkuyohera":7272,"Ġkucyohera":7273,"Ġyahishuye":7274,"Ġbiteganywa":7275,"Ġbifashishaga":7276,"Ġbicanwa":7277,"zengereje":7278,"kirutinka":7279,"Ġguceceka":7280,"Ġkoranabuhanga":7281,"Ġwasezeye":7282,"Ġwahariwe":7283,"ĠMwanza":7284,"ĠMinnesota":7285,"Ġhasinywaga":7286,"ĠBruxelles":7287,"shimyumuremyi":7288,"ĠIsaac":7289,"Ġamahugurwa":7290,"ĠNgendahimana":7291,"ĠNgishwanama":7292,"kinwumi":7293,"ĠCÃ©lestin":7294,"ĠChamberlain":7295,"abasivili":7296,"ĠKarekezi":7297,"ĠMunich":7298,"Ġkwigobotora":7299,"cungire":7300,"ĠBunyabungo":7301,"ĠBujumbura":7302,"Ġntarengwa":7303,"ĠDisney":7304,"ĠEthiopia":7305,"ĠNyampinga":7306,"ĠBahamas":7307,"Ġ8189":7308,"pamyabumenyi":7309,"ĠRatings":7310,"Ġcyerekezo":7311,"Ġ9105":7312,"ĠNebukadinezali":7313,"NCTAD":7314,"ĠQatar":7315,"ĠVolleyball":7316,"Affaires":7317,"%)":7318,"'t":7319,"08":7320,"11":7321,"12":7322,"13":7323,"23":7324,"35":7325,"40":7326,"44":7327,"46":7328,"55":7329,"61":7330,"75":7331,"76":7332,"99":7333,"AE":7334,"AL":7335,"AP":7336,"AS":7337,"Am":7338,"Ar":7339,"Aga":7340,"Ayo":7341,"Ahu":7342,"Amaze":7343,"Akana":7344,"Aganira":7345,"Agaciro":7346,"Agaruka":7347,"ApÃ´tre":7348,"Akinwumi":7349,"Byo":7350,"Bharti":7351,"CG":7352,"Char":7353,"COVID":7354,"City":7355,"Do":7356,"EG":7357,"Est":7358,"Europa":7359,"FD":7360,"FE":7361,"FP":7362,"Fi":7363,"GA":7364,"GM":7365,"GO":7366,"Go":7367,"Gen":7368,"Ghana":7369,"Ho":7370,"Hikin":7371,"IZ":7372,"Ic":7373,"Iya":7374,"Iba":7375,"Ibya":7376,"Isezerano":7377,"Isoko":7378,"Ishora":7379,"Ibanga":7380,"IFA":7381,"Icy":7382,"Isubireho":7383,"Itumanaho":7384,"Imurika":7385,"Indoto":7386,"Iyamuremye":7387,"Inyambo":7388,"Inararibonye":7389,"JP":7390,"KA":7391,"Kimi":7392,"Kimwe":7393,"Kinya":7394,"LK":7395,"LN":7396,"Long":7397,"MA":7398,"MS":7399,"Mi":7400,"MAN":7401,"Ng":7402,"No":7403,"Ngo":7404,"Ndi":7405,"Nkuru":7406,"Nzaba":7407,"Ntekereza":7408,"Nsanzabera":7409,"OL":7410,"Or":7411,"Pe":7412,"Pri":7413,"Phi":7414,"Pla":7415,"Pier":7416,"Ro":7417,"RSS":7418,"Ramada":7419,"ST":7420,"So":7421,"San":7422,"Sour":7423,"Shampiyona":7424,"SACCO":7425,"SPN":7426,"To":7427,"Tour":7428,"Troy":7429,"Urugendo":7430,"Ushobora":7431,"Usanga":7432,"Urwo":7433,"UPDF":7434,"Vuba":7435,"WI":7436,"Wi":7437,"Whi":7438,"Yu":7439,"Yubatswe":7440,"ay":7441,"aya":7442,"ayi":7443,"ati":7444,"amo":7445,"ace":7446,"asaga":7447,"akazi":7448,"ast":7449,"bga":7450,"bin":7451,"bdu":7452,"byari":7453,"bande":7454,"cre":7455,"cha":7456,"chi":7457,"cyari":7458,"cyura":7459,"ctor":7460,"dan":7461,"dye":7462,"danda":7463,"dindi":7464,"dji":7465,"ebwe":7466,"ejo":7467,"ebyiri":7468,"fs":7469,"fy":7470,"gro":7471,"ghe":7472,"gda":7473,"gwan":7474,"hran":7475,"hdi":7476,"hmad":7477,"isi":7478,"ide":7479,"isura":7480,"iles":7481,"icuruzwa":7482,"ijoro":7483,"iwabo":7484,"ihinga":7485,"imurika":7486,"isuku":7487,"kh":7488,"kw":7489,"ls":7490,"len":7491,"lina":7492,"lingi":7493,"ldor":7494,"my":7495,"mve":7496,"mbyo":7497,"mbya":7498,"mbwiye":7499,"mbana":7500,"mpic":7501,"nk":7502,"nan":7503,"nen":7504,"nne":7505,"nnye":7506,"njo":7507,"ntoni":7508,"nrise":7509,"ose":7510,"ople":7511,"ps":7512,"pti":7513,"phe":7514,"ppe":7515,"pani":7516,"pment":7517,"pper":7518,"ryi":7519,"rda":7520,"rts":7521,"rpo":7522,"sana":7523,"stan":7524,"ssan":7525,"sini":7526,"slo":7527,"sÃ¨ne":7528,"sper":7529,"ssing":7530,"tto":7531,"tni":7532,"tÃ©":7533,"tsura":7534,"twu":7535,"up":7536,"uga":7537,"uma":7538,"uka":7539,"uta":7540,"usa":7541,"urwa":7542,"umwa":7543,"uter":7544,"ust":7545,"urice":7546,"ubwenegihugu":7547,"utaha":7548,"ught":7549,"uwitwa":7550,"uhatana":7551,"uduce":7552,"uerta":7553,"vano":7554,"xit":7555,"yne":7556,"yche":7557,"ysia":7558,"zÃ©":7559,"zingo":7560,"zanden":7561,"¡dio":7562,"Ã£":7563,"Ã¯":7564,"Ã¡dio":7565,"Ġ*":7566,"Ġl":7567,"Ġgo":7568,"Ġanga":7569,"Ġsa":7570,"Ġda":7571,"Ġriki":7572,"Ġzu":7573,"Ġvi":7574,"ĠYa":7575,"Ġhandi":7576,"Ġfati":7577,"Ġtsinda":7578,"Ġjambo":7579,"Ġhana":7580,"Ġqu":7581,"ĠâĢĻâĢĻ":7582,"Ġgereranya":7583,"Ġshene":7584,"ang":7585,"ans":7586,"ant":7587,"anu":7588,"angi":7589,"anka":7590,"angu":7591,"angana":7592,"anja":7593,"antekerezo":7594,"anney":7595,"anny":7596,"Ġbandika":7597,"rig":7598,"ringa":7599,"rirana":7600,"rishami":7601,"rikingi":7602,"risitu":7603,"Ġkaba":7604,"Ġkindi":7605,"Ġkere":7606,"muri":7607,"muha":7608,"munsi":7609,"mushyiraho":7610,"mugoye":7611,"yatekerere":7612,"yapani":7613,"Ġne":7614,"Ġngu":7615,"Ġnini":7616,"Ġnsanga":7617,"Ġntumwa":7618,"Ġnyira":7619,"Ġntebe":7620,"Ġnshingano":7621,"Ġnyine":7622,"Ġngeri":7623,"Ġnumva":7624,"Ġnyigo":7625,"Ġnkenerwa":7626,"Ġir":7627,"Ġire":7628,"Ġiye":7629,"Ġite":7630,"Ġibe":7631,"Ġikore":7632,"Ġidu":7633,"Ġipe":7634,"Ġibera":7635,"Ġifasha":7636,"Ġiteka":7637,"Ġigeze":7638,"Ġikuriki":7639,"Ġitara":7640,"Ġigomba":7641,"Ġitangiye":7642,"Ġitangira":7643,"Ġibone":7644,"Ġihura":7645,"Ġitangaje":7646,"Ġiyin":7647,"Ġigaragara":7648,"Ġituma":7649,"Ġigen":7650,"Ġivugwa":7651,"Ġihita":7652,"Ġikwiye":7653,"Ġikurikira":7654,"Ġihuza":7655,"Ġikorerwa":7656,"Ġikeneye":7657,"Ġitangwa":7658,"Ġikwiriye":7659,"Ġitsinze":7660,"Ġisubukurwa":7661,"Ġisubira":7662,"Ġireba":7663,"Ġiterabwoba":7664,"Ġivan":7665,"Ġireme":7666,"Ġitwaye":7667,"Ġiterwa":7668,"Ġisurwa":7669,"Ġiduka":7670,"Ġisohoka":7671,"Ġisobanura":7672,"Ġikosa":7673,"Ġikinamo":7674,"Ġisubireho":7675,"Ġihangwa":7676,"Ġitekanye":7677,"Ġitongo":7678,"Ġihungabana":7679,"Ġifatika":7680,"Ġisuku":7681,"Ġigendanwa":7682,"Ġiserukiramuco":7683,"ral":7684,"raro":7685,"rajwe":7686,"rabura":7687,"ramuka":7688,"rateganya":7689,"radiyo":7690,"gain":7691,"gaza":7692,"gaje":7693,"gala":7694,"gabirwa":7695,"wakansubije":7696,"Ġah":7697,"Ġabu":7698,"Ġasi":7699,"Ġaje":7700,"Ġasha":7701,"Ġakan":7702,"Ġadu":7703,"Ġavuze":7704,"Ġakora":7705,"Ġafasha":7706,"Ġaca":7707,"Ġatara":7708,"Ġasubi":7709,"Ġakomeza":7710,"Ġagenda":7711,"Ġakura":7712,"Ġakorera":7713,"Ġakomoka":7714,"Ġarenga":7715,"Ġashingiye":7716,"Ġamwi":7717,"Ġakurikira":7718,"Ġatandatu":7719,"Ġasabwa":7720,"Ġapfa":7721,"Ġateye":7722,"Ġatanze":7723,"Ġakoreshwa":7724,"Ġagenga":7725,"Ġaturuka":7726,"Ġavan":7727,"Ġashyiraho":7728,"Ġarangwa":7729,"Ġatunganya":7730,"Ġahagarika":7731,"Ġakoresheje":7732,"Ġaguye":7733,"Ġatumi":7734,"Ġateme":7735,"Ġasoza":7736,"Ġakinamo":7737,"Ġakinira":7738,"Ġafungiwe":7739,"Ġakenera":7740,"Ġapp":7741,"Ġmura":7742,"Ġmure":7743,"Ġmuru":7744,"Ġmuhe":7745,"Ġmunye":7746,"Ġmushaka":7747,"Ġmuhango":7748,"Ġmukiliya":7749,"Ġmucuruzi":7750,"Ġmukobwa":7751,"Ġmugambo":7752,"Ġmutungo":7753,"Ġmurongo":7754,"Ġmurwayi":7755,"Ġmuzungu":7756,"Ġmugezi":7757,"Ġmuburo":7758,"Ġmubonamo":7759,"Ġmumpaye":7760,"bara":7761,"bamo":7762,"bashi":7763,"barizwa":7764,"bagirwa":7765,"bajije":7766,"Ġuzi":7767,"Ġuki":7768,"Ġuhu":7769,"Ġuje":7770,"Ġushin":7771,"Ġukan":7772,"Ġujya":7773,"Ġuva":7774,"Ġufasha":7775,"Ġukana":7776,"Ġugeze":7777,"Ġutara":7778,"Ġugomba":7779,"Ġutangiye":7780,"Ġukiri":7781,"Ġufungu":7782,"Ġukwiye":7783,"Ġuzamuka":7784,"Ġutoza":7785,"Ġukeneye":7786,"Ġukwiriye":7787,"Ġuvan":7788,"Ġurangira":7789,"Ġusohotse":7790,"Ġunyu":7791,"Ġucuruza":7792,"Ġubwu":7793,"Ġuganiriye":7794,"Ġusibye":7795,"Ġuwitwa":7796,"Ġuzongera":7797,"Ġkuhi":7798,"Ġkudu":7799,"Ġkuzamu":7800,"Ġkugani":7801,"Ġkuwu":7802,"Ġkuvugwa":7803,"Ġkumwi":7804,"Ġkuvan":7805,"Ġkurasa":7806,"Ġkugabanuka":7807,"Ġkugaruka":7808,"Ġkugurira":7809,"Ġkubuza":7810,"Ġkurangiza":7811,"Ġkubyina":7812,"Ġkurokoka":7813,"ree":7814,"rend":7815,"reen":7816,"rejwe":7817,"rebera":7818,"renzi":7819,"reer":7820,"rerwaga":7821,"rekurwa":7822,"rerire":7823,"rerimana":7824,"remier":7825,"recye":7826,"reign":7827,"rexit":7828,"shanga":7829,"shwana":7830,"shywa":7831,"maye":7832,"maka":7833,"mamo":7834,"macu":7835,"maid":7836,"yerecye":7837,"gifite":7838,"gikora":7839,"gingi":7840,"girire":7841,"gisaka":7842,"kole":7843,"kokera":7844,"koranire":7845,"konjo":7846,"kati":7847,"kasa":7848,"kaje":7849,"karongo":7850,"kamaro":7851,"ins":7852,"int":7853,"inyi":7854,"ingira":7855,"ingan":7856,"intego":7857,"ines":7858,"inziza":7859,"intwaro":7860,"gume":7861,"gusha":7862,"guriye":7863,"gukira":7864,"gufasha":7865,"gumye":7866,"guriro":7867,"zam":7868,"zara":7869,"zabi":7870,"zayi":7871,"zaha":7872,"zasanga":7873,"zation":7874,"wer":7875,"Ġbago":7876,"Ġbaci":7877,"Ġbambi":7878,"Ġbafasha":7879,"Ġbatatu":7880,"Ġbasin":7881,"Ġbagore":7882,"Ġbazira":7883,"Ġbabone":7884,"Ġbakomeza":7885,"Ġbagere":7886,"Ġbahura":7887,"Ġbagaragara":7888,"Ġbahoze":7889,"Ġbacumbi":7890,"Ġbavugwa":7891,"Ġbatumye":7892,"Ġbareke":7893,"Ġbatura":7894,"Ġbakurikira":7895,"Ġbabonye":7896,"Ġbahora":7897,"Ġbashoboka":7898,"Ġbabanza":7899,"Ġbapfuye":7900,"Ġbahamya":7901,"Ġbaturuka":7902,"Ġbahuye":7903,"Ġbamara":7904,"Ġbasore":7905,"Ġbashinjwa":7906,"Ġbatwaye":7907,"Ġbayobowe":7908,"Ġbarangwa":7909,"Ġbagenzura":7910,"Ġbafunze":7911,"Ġbashyiramo":7912,"Ġbasuye":7913,"Ġbateganyiriza":7914,"Ġbarema":7915,"Ġbaremye":7916,"Ġbakomereza":7917,"Ġbahisemo":7918,"Ġbarwanira":7919,"Ġbashyiriweho":7920,"Ġbambuka":7921,"Ġbafatanyabikorwa":7922,"Ġbakongera":7923,"Ġbabwiwe":7924,"Ġbacurujwe":7925,"Ġbakwambara":7926,"Ġbabuhangaho":7927,"yogo":7928,"yobya":7929,"ruwe":7930,"rurwa":7931,"rungi":7932,"ruger":7933,"rubatse":7934,"ruzuza":7935,"rurishami":7936,"Ġyaya":7937,"Ġyawo":7938,"Ġyasha":7939,"Ġyaso":7940,"Ġyaraga":7941,"Ġyagura":7942,"Ġyambu":7943,"Ġyatwe":7944,"Ġyasubi":7945,"Ġyagaban":7946,"Ġyazamutse":7947,"Ġyazaga":7948,"Ġyahita":7949,"Ġyasanze":7950,"Ġyazamutseho":7951,"Ġyavutse":7952,"Ġyahuye":7953,"Ġyazanye":7954,"Ġyahereye":7955,"Ġyamanu":7956,"Ġyashinze":7957,"Ġyatumi":7958,"Ġyarenze":7959,"Ġyagarutse":7960,"Ġyaranze":7961,"Ġyashakaga":7962,"Ġyaganiriye":7963,"Ġyakiniye":7964,"Ġyahindutse":7965,"Ġyafatwaga":7966,"Ġyatekereje":7967,"Ġyagaragazaga":7968,"Ġyakwirakwi":7969,"Ġyasuwe":7970,"Ġyakurura":7971,"Ġyatsinzwe":7972,"Ġyashimangiye":7973,"Ġyaberaga":7974,"Ġyasabaga":7975,"Ġyakomezaga":7976,"Ġyatangiriye":7977,"Ġyambwiye":7978,"Ġyarubatse":7979,"geyo":7980,"gerwa":7981,"gezo":7982,"gezwa":7983,"gejwe":7984,"gerwaho":7985,"andine":7986,"teha":7987,"teje":7988,"tengu":7989,"tembere":7990,"temera":7991,"terura":7992,"teruye":7993,"zigo":7994,"ziho":7995,"zigame":7996,"zidor":7997,"bizi":7998,"biriye":7999}